<pad>	0
<unk>	0
<MASK>	0
er	-0
en	-1
in	-2
▁a	-3
▁t	-4
▁d	-5
▁s	-6
ch	-7
es	-8
▁,	-9
on	-10
un	-11
▁w	-12
▁th	-13
it	-14
▁b	-15
is	-16
▁m	-17
▁f	-18
an	-19
or	-20
at	-21
re	-22
▁p	-23
ie	-24
▁the	-25
▁in	-26
▁c	-27
ar	-28
▁e	-29
al	-30
▁o	-31
▁h	-32
▁g	-33
le	-34
▁an	-35
te	-36
▁v	-37
▁.	-38
ro	-39
as	-40
▁un	-41
▁n	-42
ion	-43
us	-44
ur	-45
ich	-46
▁k	-47
el	-48
ing	-49
▁of	-50
▁l	-51
▁and	-52
il	-53
ent	-54
ig	-55
ed	-56
ic	-57
▁und	-58
ung	-59
▁z	-60
▁to	-61
et	-62
st	-63
om	-64
▁die	-65
▁der	-66
▁i	-67
ot	-68
▁ein	-69
ut	-70
ol	-71
ra	-72
ter	-73
▁&	-74
▁be	-75
▁is	-76
em	-77
▁re	-78
▁:	-79
am	-80
qu	-81
um	-82
ir	-83
ation	-84
▁1	-85
▁st	-86
ers	-87
ten	-88
ge	-89
os	-90
▁al	-91
ct	-92
▁2	-93
eit	-94
den	-95
hr	-96
iv	-97
▁r	-98
der	-99
de	-100
▁y	-101
uf	-102
▁for	-103
▁pro	-104
im	-105
▁j	-106
ier	-107
ul	-108
ber	-109
ess	-110
and	-111
ab	-112
▁se	-113
ies	-114
▁on	-115
▁ver	-116
ow	-117
▁(	-118
sch	-119
est	-120
ap	-121
▁)	-122
▁yo	-123
ck	-124
▁von	-125
ach	-126
quot	-127
▁er	-128
▁sie	-129
▁mit	-130
ür	-131
ce	-132
▁zu	-133
▁das	-134
lich	-135
ith	-136
isch	-137
gen	-138
ad	-139
▁sp	-140
ay	-141
kt	-142
uch	-143
ly	-144
▁with	-145
▁im	-146
▁sch	-147
▁de	-148
▁auf	-149
ere	-150
▁den	-151
▁ne	-152
ort	-153
▁con	-154
▁ch	-155
ist	-156
icht	-157
▁ge	-158
▁we	-159
▁für	-160
▁wh	-161
id	-162
ag	-163
▁20	-164
tel	-165
▁le	-166
ind	-167
if	-168
▁des	-169
ien	-170
ver	-171
▁it	-172
up	-173
art	-174
▁aus	-175
▁ist	-176
ik	-177
op	-178
ill	-179
ine	-180
▁ex	-181
▁as	-182
▁so	-183
▁or	-184
th	-185
▁com	-186
ate	-187
ib	-188
▁-	-189
▁you	-190
rom	-191
av	-192
▁me	-193
▁wir	-194
end	-195
▁ab	-196
▁am	-197
▁are	-198
la	-199
▁sh	-200
nen	-201
ant	-202
od	-203
for	-204
▁pr	-205
▁ar	-206
ip	-207
ass	-208
ell	-209
ft	-210
ht	-211
og	-212
▁co	-213
ungen	-214
du	-215
ann	-216
apos	-217
▁3	-218
men	-219
und	-220
▁that	-221
▁dies	-222
ity	-223
▁at	-224
ug	-225
ub	-226
▁from	-227
▁us	-228
ne	-229
▁als	-230
▁eine	-231
hl	-232
all	-233
▁he	-234
▁this	-235
▁all	-236
ak	-237
▁te	-238
ment	-239
ial	-240
▁ho	-241
▁en	-242
we	-243
ive	-244
00	-245
fer	-246
▁dem	-247
▁es	-248
▁ü	-249
iel	-250
ust	-251
ze	-252
ran	-253
▁wer	-254
ff	-255
▁ent	-256
▁;	-257
▁by	-258
▁sich	-259
ben	-260
▁ro	-261
ok	-262
▁201	-263
amp	-264
ain	-265
▁um	-266
ure	-267
ia	-268
sp	-269
ste	-270
igen	-271
▁was	-272
än	-273
▁über	-274
age	-275
ard	-276
ast	-277
ahr	-278
ang	-279
ick	-280
▁inter	-281
se	-282
▁ad	-283
▁your	-284
ud	-285
mer	-286
▁ih	-287
pl	-288
form	-289
▁nicht	-290
▁uns	-291
▁produ	-292
her	-293
▁nach	-294
▁man	-295
▁pl	-296
▁4	-297
ert	-298
ight	-299
▁mo	-300
ischen	-301
▁ap	-302
▁ges	-303
iz	-304
aus	-305
ail	-306
▁not	-307
ted	-308
▁vor	-309
are	-310
▁wor	-311
▁comp	-312
ice	-313
oll	-314
▁can	-315
▁fl	-316
▁bes	-317
ions	-318
▁unter	-319
ark	-320
erv	-321
tell	-322
ore	-323
▁no	-324
ät	-325
pe	-326
ite	-327
ave	-328
▁will	-329
▁op	-330
▁oder	-331
▁5	-332
▁werden	-333
ru	-334
be	-335
cc	-336
▁lo	-337
▁wie	-338
ön	-339
▁sind	-340
▁res	-341
urch	-342
ire	-343
able	-344
hen	-345
▁cont	-346
ern	-347
▁qu	-348
io	-349
ile	-350
▁new	-351
▁gr	-352
ein	-353
ungs	-354
▁bo	-355
▁19	-356
ac	-357
ts	-358
▁do	-359
▁0	-360
erm	-361
▁auch	-362
ated	-363
he	-364
ign	-365
▁war	-366
▁cl	-367
sen	-368
hal	-369
ction	-370
▁kon	-371
▁fre	-372
ide	-373
au	-374
▁tra	-375
▁ihr	-376
ise	-377
ische	-378
ition	-379
ige	-380
ish	-381
▁have	-382
gr	-383
▁fe	-384
port	-385
out	-386
ical	-387
▁reg	-388
enn	-389
▁vers	-390
▁her	-391
iert	-392
▁our	-393
ieren	-394
chen	-395
ome	-396
sten	-397
hn	-398
ations	-399
ün	-400
▁gro	-401
▁wo	-402
ue	-403
zen	-404
▁part	-405
ian	-406
▁zur	-407
ult	-408
ack	-409
▁per	-410
▁spe	-411
▁eu	-412
fü	-413
▁wird	-414
▁ra	-415
af	-416
lo	-417
che	-418
▁kön	-419
▁pre	-420
me	-421
ild	-422
pr	-423
ong	-424
▁bei	-425
▁dat	-426
▁ber	-427
▁sy	-428
▁durch	-429
▁?	-430
▁fr	-431
ater	-432
chn	-433
ear	-434
▁6	-435
▁go	-436
▁inform	-437
▁ich	-438
▁hat	-439
▁up	-440
▁br	-441
je	-442
act	-443
▁more	-444
▁sein	-445
▁ma	-446
▁einer	-447
▁which	-448
per	-449
▁200	-450
▁hab	-451
ens	-452
keit	-453
▁hotel	-454
ges	-455
ry	-456
ord	-457
▁ihre	-458
▁gen	-459
▁kom	-460
elt	-461
▁dass	-462
▁!	-463
▁has	-464
▁einen	-465
▁10	-466
ame	-467
tet	-468
▁acc	-469
beit	-470
▁art	-471
ase	-472
pro	-473
▁also	-474
▁bet	-475
land	-476
▁einem	-477
▁zum	-478
▁mon	-479
ph	-480
bs	-481
etz	-482
aft	-483
auf	-484
ary	-485
▁ind	-486
ents	-487
▁euro	-488
▁amp	-489
▁em	-490
▁ph	-491
ah	-492
▁serv	-493
ks	-494
ör	-495
▁ev	-496
ose	-497
ner	-498
▁tim	-499
fe	-500
to	-501
▁mus	-502
ational	-503
▁pers	-504
lichen	-505
▁ste	-506
ther	-507
ance	-508
▁tr	-509
är	-510
▁wur	-511
▁7	-512
ück	-513
vel	-514
cl	-515
▁8	-516
▁but	-517
wer	-518
▁off	-519
▁intern	-520
unt	-521
ied	-522
▁mehr	-523
ve	-524
▁information	-525
▁aut	-526
liche	-527
geb	-528
▁können	-529
▁ag	-530
▁one	-531
▁dis	-532
▁dr	-533
ram	-534
our	-535
ll	-536
uld	-537
stem	-538
olog	-539
▁inst	-540
▁there	-541
▁fin	-542
▁bl	-543
▁alle	-544
ld	-545
▁po	-546
▁haben	-547
▁..	-548
▁da	-549
gt	-550
iew	-551
own	-552
ahl	-553
dern	-554
ings	-555
▁min	-556
ual	-557
schaft	-558
one	-559
atur	-560
▁tran	-561
cial	-562
▁sc	-563
heit	-564
▁sup	-565
eren	-566
ugh	-567
▁pol	-568
▁mar	-569
▁bis	-570
▁wenn	-571
▁...	-572
gl	-573
pt	-574
ute	-575
▁about	-576
▁out	-577
▁9	-578
utsch	-579
com	-580
▁str	-581
▁diese	-582
▁lie	-583
sel	-584
▁nur	-585
▁product	-586
utz	-587
wo	-588
fl	-589
tz	-590
ger	-591
ank	-592
▁if	-593
▁car	-594
▁weit	-595
ake	-596
▁year	-597
ors	-598
▁such	-599
iss	-600
▁techn	-601
▁sol	-602
▁they	-603
unden	-604
rie	-605
ond	-606
▁kann	-607
▁ke	-608
▁men	-609
▁jahr	-610
▁fo	-611
▁bed	-612
▁their	-613
ho	-614
lin	-615
ale	-616
▁ele	-617
▁his	-618
▁person	-619
▁add	-620
hmen	-621
line	-622
▁deutsch	-623
atz	-624
▁other	-625
tra	-626
co	-627
ces	-628
ays	-629
▁col	-630
▁best	-631
uss	-632
▁gesch	-633
▁med	-634
ität	-635
ath	-636
bo	-637
#9	-638
▁&#9	-639
▁av	-640
igh	-641
gan	-642
▁time	-643
▁hand	-644
▁la	-645
▁my	-646
▁%	-647
ese	-648
▁its	-649
▁pe	-650
▁system	-651
any	-652
cht	-653
▁met	-654
reich	-655
▁aber	-656
akt	-657
bar	-658
▁fir	-659
▁cent	-660
mo	-661
▁af	-662
▁pos	-663
▁wurde	-664
▁only	-665
▁_	-666
20	-667
ke	-668
▁seit	-669
tern	-670
ory	-671
▁hin	-672
les	-673
glich	-674
ace	-675
▁gu	-676
igkeit	-677
kte	-678
rit	-679
ähr	-680
ss	-681
fen	-682
ement	-683
gram	-684
ities	-685
▁zeit	-686
▁work	-687
▁lin	-688
▁who	-689
led	-690
▁dire	-691
▁jed	-692
▁ob	-693
▁gre	-694
▁jo	-695
▁18	-696
ics	-697
ates	-698
▁fra	-699
▁par	-700
▁ko	-701
alt	-702
▁kl	-703
▁mö	-704
ßen	-705
▁verb	-706
▁vis	-707
▁son	-708
kl	-709
▁neu	-710
▁ha	-711
▁comm	-712
ike	-713
▁sa	-714
▁form	-715
xt	-716
ices	-717
imm	-718
▁mark	-719
▁zw	-720
ient	-721
ktion	-722
▁bas	-723
▁air	-724
▁mach	-725
▁hel	-726
ans	-727
nis	-728
cr	-729
▁gew	-730
▁dieser	-731
ange	-732
▁unser	-733
▁prof	-734
▁them	-735
ivers	-736
▁kn	-737
▁world	-738
▁over	-739
ible	-740
immer	-741
int	-742
iet	-743
anz	-744
ubl	-745
ons	-746
▁prov	-747
▁15	-748
▁loc	-749
▁det	-750
▁stud	-751
att	-752
▁well	-753
ium	-754
ware	-755
▁fran	-756
▁online	-757
ffe	-758
fahr	-759
▁dar	-760
als	-761
▁use	-762
use	-763
äl	-764
ject	-765
ely	-766
ments	-767
▁zus	-768
▁land	-769
▁x	-770
▁bro	-771
▁germ	-772
▁bu	-773
▁cre	-774
▁international	-775
▁when	-776
ierung	-777
▁sk	-778
▁ben	-779
ets	-780
▁12	-781
tr	-782
▁fil	-783
enden	-784
ower	-785
▁hol	-786
▁any	-787
▁rel	-788
▁design	-789
▁geb	-790
ys	-791
▁how	-792
ov	-793
iele	-794
ious	-795
▁act	-796
let	-797
▁stand	-798
▁trans	-799
ler	-800
▁bel	-801
▁ins	-802
▁sec	-803
▁service	-804
▁sm	-805
▁down	-806
▁opt	-807
▁webs	-808
▁verw	-809
▁high	-810
▁hier	-811
▁+	-812
▁fam	-813
cess	-814
leich	-815
▁home	-816
ken	-817
ility	-818
▁gem	-819
zu	-820
ating	-821
▁mod	-822
▁play	-823
wn	-824
▁et	-825
▁ger	-826
teil	-827
ron	-828
▁been	-829
▁viel	-830
iger	-831
▁bre	-832
▁rev	-833
arbeit	-834
ced	-835
ster	-836
▁arbeit	-837
gel	-838
elle	-839
▁noch	-840
aten	-841
▁pla	-842
ibt	-843
▁pass	-844
▁room	-845
▁first	-846
▁rest	-847
▁vom	-848
▁cons	-849
▁u	-850
▁free	-851
igt	-852
▁sow	-853
▁bar	-854
zeit	-855
▁fun	-856
▁get	-857
erg	-858
mit	-859
▁program	-860
▁ass	-861
ific	-862
▁qual	-863
▁spiel	-864
ution	-865
▁su	-866
urn	-867
▁char	-868
▁what	-869
▁gl	-870
▁were	-871
▁welt	-872
▁ö	-873
000	-874
wert	-875
▁ever	-876
ular	-877
ble	-878
wick	-879
10	-880
ative	-881
▁30	-882
▁pra	-883
ows	-884
day	-885
▁ers	-886
.0	-887
urs	-888
▁akt	-889
▁sel	-890
ße	-891
▁schw	-892
▁ihnen	-893
velop	-894
▁zwe	-895
▁incl	-896
▁ze	-897
▁find	-898
ous	-899
hlen	-900
▁daten	-901
▁avail	-902
▁real	-903
fol	-904
▁sub	-905
▁most	-906
▁than	-907
▁val	-908
con	-909
ages	-910
▁tre	-911
ina	-912
▁soll	-913
ember	-914
▁develop	-915
▁du	-916
entr	-917
führ	-918
lie	-919
▁gra	-920
▁ant	-921
▁data	-922
essen	-923
▁after	-924
nehmen	-925
▁far	-926
▁famil	-927
▁into	-928
kom	-929
wor	-930
arch	-931
▁inv	-932
▁kont	-933
aterial	-934
els	-935
tem	-936
▁del	-937
▁sw	-938
▁these	-939
▁priv	-940
stell	-941
dit	-942
ict	-943
▁set	-944
▁verfü	-945
▁teil	-946
▁wind	-947
etzt	-948
ital	-949
▁see	-950
▁che	-951
▁very	-952
halten	-953
▁may	-954
ateg	-955
▁bie	-956
▁km	-957
▁peop	-958
▁eing	-959
▁gar	-960
▁bus	-961
üs	-962
▁requ	-963
▁pres	-964
▁sehr	-965
▁sin	-966
▁exp	-967
iver	-968
rist	-969
▁dif	-970
adt	-971
urg	-972
net	-973
az	-974
▁16	-975
ren	-976
isten	-977
ix	-978
schen	-979
▁now	-980
▁bec	-981
▁back	-982
▁au	-983
itt	-984
aut	-985
▁fü	-986
assen	-987
▁11	-988
▁gener	-989
▁versch	-990
los	-991
▁people	-992
itz	-993
▁news	-994
▁rec	-995
▁besch	-996
ism	-997
▁like	-998
istr	-999
ful	-1000
▁fol	-1001
ps	-1002
ister	-1003
▁organ	-1004
▁ac	-1005
ott	-1006
▁wel	-1007
ws	-1008
ats	-1009
ds	-1010
▁publ	-1011
▁two	-1012
▁here	-1013
ipt	-1014
▁gegen	-1015
▁log	-1016
bers	-1017
▁ty	-1018
enz	-1019
ife	-1020
▁had	-1021
ator	-1022
▁num	-1023
oc	-1024
▁kle	-1025
ails	-1026
▁je	-1027
fre	-1028
▁leben	-1029
▁every	-1030
▁beg	-1031
▁some	-1032
▁ser	-1033
ruck	-1034
fore	-1035
get	-1036
▁count	-1037
▁contact	-1038
lung	-1039
▁lang	-1040
▁14	-1041
uring	-1042
dition	-1043
▁sho	-1044
▁europe	-1045
ause	-1046
ammen	-1047
▁dieses	-1048
ence	-1049
▁univers	-1050
▁date	-1051
eld	-1052
pf	-1053
issen	-1054
▁dec	-1055
lex	-1056
▁start	-1057
round	-1058
cted	-1059
▁appl	-1060
ade	-1061
bl	-1062
eln	-1063
fin	-1064
▁el	-1065
oth	-1066
ustom	-1067
▁entwick	-1068
▁cor	-1069
halt	-1070
▁material	-1071
▁unsere	-1072
ants	-1073
▁park	-1074
▁engl	-1075
uchen	-1076
▁europ	-1077
br	-1078
▁dam	-1079
▁years	-1080
ider	-1081
press	-1082
▁top	-1083
▁website	-1084
-1	-1085
load	-1086
ize	-1087
▁open	-1088
ards	-1089
▁technolog	-1090
▁book	-1091
▁var	-1092
▁custom	-1093
änd	-1094
ös	-1095
▁thro	-1096
▁indust	-1097
▁sim	-1098
▁adv	-1099
▁eines	-1100
unter	-1101
ationen	-1102
richt	-1103
abe	-1104
▁cur	-1105
▁inc	-1106
▁ide	-1107
▁port	-1108
▁visit	-1109
inn	-1110
▁sowie	-1111
äch	-1112
▁sur	-1113
inen	-1114
ierte	-1115
▁exper	-1116
air	-1117
▁city	-1118
▁products	-1119
aur	-1120
▁just	-1121
esse	-1122
▁gibt	-1123
ipp	-1124
agen	-1125
.1	-1126
cript	-1127
fach	-1128
▁under	-1129
▁17	-1130
1;	-1131
▁&#91;	-1132
▁25	-1133
▁many	-1134
▁zusammen	-1135
laub	-1136
sh	-1137
▁process	-1138
▁13	-1139
▁view	-1140
sche	-1141
▁soft	-1142
▁energ	-1143
▁even	-1144
oy	-1145
▁end	-1146
mal	-1147
▁dre	-1148
▁keine	-1149
▁produkt	-1150
fern	-1151
▁pat	-1152
rol	-1153
▁weiter	-1154
▁day	-1155
▁available	-1156
ont	-1157
ures	-1158
▁kar	-1159
▁need	-1160
▁einz	-1161
▁ihren	-1162
▁search	-1163
▁through	-1164
▁wieder	-1165
hol	-1166
▁neue	-1167
reib	-1168
▁autom	-1169
▁right	-1170
▁mot	-1171
▁then	-1172
ional	-1173
ieden	-1174
iden	-1175
▁differ	-1176
▁area	-1177
▁sign	-1178
▁ihrer	-1179
▁shop	-1180
stand	-1181
iven	-1182
▁cal	-1183
▁group	-1184
mb	-1185
pos	-1186
vers	-1187
▁di	-1188
orn	-1189
kun	-1190
▁foll	-1191
ather	-1192
▁cook	-1193
bst	-1194
▁sl	-1195
▁dann	-1196
ins	-1197
iness	-1198
cy	-1199
▁where	-1200
▁app	-1201
▁manag	-1202
▁proble	-1203
hne	-1204
itte	-1205
3;	-1206
▁&#93;	-1207
tens	-1208
▁100	-1209
ience	-1210
▁mal	-1211
ionen	-1212
▁kosten	-1213
ält	-1214
▁anderen	-1215
▁ital	-1216
▁24	-1217
▁good	-1218
▁erw	-1219
▁seine	-1220
pen	-1221
▁eng	-1222
▁bra	-1223
▁special	-1224
▁long	-1225
fort	-1226
eter	-1227
▁ple	-1228
▁zwischen	-1229
▁cap	-1230
▁order	-1231
▁main	-1232
▁eigen	-1233
▁hist	-1234
▁again	-1235
201	-1236
▁mill	-1237
▁direct	-1238
min	-1239
ature	-1240
▁apart	-1241
▁gut	-1242
▁christ	-1243
ms	-1244
▁vol	-1245
ucht	-1246
▁ur	-1247
▁oper	-1248
▁möglich	-1249
eite	-1250
▁support	-1251
gung	-1252
▁net	-1253
▁file	-1254
ma	-1255
▁fest	-1256
▁mag	-1257
▁tag	-1258
▁would	-1259
ift	-1260
▁hotels	-1261
ierten	-1262
▁anal	-1263
▁waren	-1264
ines	-1265
▁diesem	-1266
▁offer	-1267
▁restaur	-1268
▁zwei	-1269
▁rep	-1270
ness	-1271
▁tem	-1272
▁read	-1273
▁sit	-1274
▁download	-1275
hör	-1276
ink	-1277
▁komp	-1278
▁kunden	-1279
▁poss	-1280
▁informationen	-1281
ween	-1282
way	-1283
▁vide	-1284
ives	-1285
burg	-1286
sto	-1287
▁inn	-1288
▁sal	-1289
▁camp	-1290
asch	-1291
ited	-1292
sy	-1293
▁project	-1294
▁between	-1295
▁follow	-1296
ellen	-1297
▁immer	-1298
ischer	-1299
▁access	-1300
▁lu	-1301
rä	-1302
▁him	-1303
▁offers	-1304
▁gel	-1305
its	-1306
isen	-1307
▁show	-1308
▁mich	-1309
tellt	-1310
ßer	-1311
▁she	-1312
50	-1313
▁stadt	-1314
ames	-1315
tellen	-1316
amm	-1317
▁ter	-1318
ichte	-1319
▁tour	-1320
▁natur	-1321
ree	-1322
▁finden	-1323
▁includ	-1324
▁kontakt	-1325
▁power	-1326
▁know	-1327
▁phot	-1328
änder	-1329
▁details	-1330
▁cle	-1331
ingen	-1332
▁ful	-1333
ally	-1334
▁arch	-1335
ests	-1336
gang	-1337
ument	-1338
▁inf	-1339
zeich	-1340
▁unternehmen	-1341
▁artik	-1342
▁mein	-1343
ffen	-1344
▁used	-1345
dem	-1346
▁lar	-1347
▁eas	-1348
▁andere	-1349
▁name	-1350
▁look	-1351
ogra	-1352
tre	-1353
▁found	-1354
▁make	-1355
▁max	-1356
gesch	-1357
res	-1358
▁made	-1359
mod	-1360
ication	-1361
▁berlin	-1362
äs	-1363
▁software	-1364
inder	-1365
▁business	-1366
alk	-1367
zimmer	-1368
igung	-1369
▁schn	-1370
▁währ	-1371
asse	-1372
▁hoch	-1373
▁life	-1374
▁gol	-1375
▁should	-1376
lect	-1377
▁einfach	-1378
asser	-1379
acht	-1380
▁company	-1381
▁00	-1382
▁grö	-1383
wend	-1384
▁hö	-1385
room	-1386
▁mil	-1387
jekt	-1388
▁stat	-1389
▁199	-1390
gem	-1391
▁child	-1392
ax	-1393
ica	-1394
kunft	-1395
äd	-1396
alls	-1397
▁import	-1398
▁hal	-1399
▁services	-1400
▁nor	-1401
gest	-1402
▁place	-1403
▁internet	-1404
arn	-1405
schl	-1406
mail	-1407
ote	-1408
earch	-1409
hren	-1410
▁partic	-1411
esen	-1412
▁som	-1413
▁term	-1414
▁during	-1415
geben	-1416
inal	-1417
▁menschen	-1418
▁bietet	-1419
▁bereit	-1420
▁house	-1421
uth	-1422
zahl	-1423
▁equ	-1424
▁ret	-1425
▁sicher	-1426
ude	-1427
▁different	-1428
▁sep	-1429
bil	-1430
▁dep	-1431
ütz	-1432
ba	-1433
über	-1434
▁vill	-1435
▁german	-1436
wort	-1437
▁selbst	-1438
▁english	-1439
▁gleich	-1440
▁star	-1441
▁great	-1442
▁22	-1443
oren	-1444
ahre	-1445
▁bild	-1446
uer	-1447
▁review	-1448
▁since	-1449
ists	-1450
▁zurück	-1451
ivid	-1452
▁national	-1453
▁mer	-1454
▁way	-1455
▁last	-1456
po	-1457
▁prote	-1458
ple	-1459
▁sport	-1460
▁ohne	-1461
ha	-1462
iqu	-1463
▁research	-1464
iter	-1465
äft	-1466
▁transp	-1467
ters	-1468
mö	-1469
▁50	-1470
cken	-1471
fra	-1472
nah	-1473
▁beste	-1474
▁kun	-1475
ett	-1476
▁water	-1477
▁ä	-1478
▁verk	-1479
▁verschieden	-1480
▁2015	-1481
üh	-1482
▁number	-1483
man	-1484
▁help	-1485
▁commun	-1486
▁price	-1487
▁cas	-1488
por	-1489
ues	-1490
▁fahr	-1491
▁wurden	-1492
▁plan	-1493
▁bere	-1494
ability	-1495
ep	-1496
▁etw	-1497
▁sta	-1498
bes	-1499
▁spra	-1500
▁tele	-1501
▁stre	-1502
cept	-1503
▁pa	-1504
▁hum	-1505
▁21	-1506
▁germany	-1507
ünst	-1508
▁wissen	-1509
▁light	-1510
ination	-1511
alen	-1512
kommen	-1513
▁ange	-1514
piel	-1515
rent	-1516
▁instit	-1517
weise	-1518
read	-1519
▁cookies	-1520
▁ihrem	-1521
▁verg	-1522
uten	-1523
▁own	-1524
▁polit	-1525
▁2018	-1526
▁wicht	-1527
▁check	-1528
lage	-1529
chten	-1530
gend	-1531
▁est	-1532
▁ba	-1533
.2	-1534
▁id	-1535
▁während	-1536
▁because	-1537
aufen	-1538
onder	-1539
chte	-1540
▁wä	-1541
ved	-1542
▁elect	-1543
ene	-1544
sk	-1545
▁orig	-1546
▁dig	-1547
▁kü	-1548
▁before	-1549
▁take	-1550
▁market	-1551
red	-1552
▁voll	-1553
hand	-1554
▁kur	-1555
upt	-1556
▁profess	-1557
üt	-1558
▁komm	-1559
ental	-1560
irt	-1561
▁rem	-1562
▁wen	-1563
amen	-1564
ultur	-1565
cher	-1566
▁bla	-1567
ule	-1568
under	-1569
▁preis	-1570
the	-1571
eng	-1572
iving	-1573
ries	-1574
ffent	-1575
▁fac	-1576
▁gef	-1577
▁install	-1578
▁rad	-1579
ven	-1580
▁tro	-1581
▁prop	-1582
▁conne	-1583
▁stra	-1584
▁don	-1585
▁grund	-1586
▁accom	-1587
▁unserer	-1588
▁artikel	-1589
▁har	-1590
▁small	-1591
▁activ	-1592
▁jahre	-1593
▁effe	-1594
▁bef	-1595
ek	-1596
▁region	-1597
▁please	-1598
ress	-1599
zial	-1600
▁muse	-1601
tegr	-1602
aften	-1603
▁zahl	-1604
ock	-1605
halb	-1606
▁pop	-1607
▁press	-1608
▁web	-1609
▁brows	-1610
▁schl	-1611
umen	-1612
▁team	-1613
atch	-1614
▁gemein	-1615
ruct	-1616
▁perform	-1617
met	-1618
▁2016	-1619
▁win	-1620
▁zimmer	-1621
ienst	-1622
▁cour	-1623
▁ref	-1624
ides	-1625
▁deutschland	-1626
▁sehen	-1627
▁without	-1628
▁viele	-1629
▁entfern	-1630
▁jetzt	-1631
vor	-1632
bed	-1633
▁seite	-1634
▁damit	-1635
▁herr	-1636
ior	-1637
▁fot	-1638
▁quality	-1639
▁same	-1640
▁individ	-1641
▁san	-1642
▁rom	-1643
▁angeb	-1644
▁current	-1645
amer	-1646
uen	-1647
ko	-1648
▁contin	-1649
üssen	-1650
▁fal	-1651
hing	-1652
▁1.	-1653
afen	-1654
▁build	-1655
▁quest	-1656
ining	-1657
▁kunst	-1658
▁bitte	-1659
ized	-1660
aster	-1661
▁glo	-1662
▁pal	-1663
▁addition	-1664
pre	-1665
▁each	-1666
▁ausge	-1667
ission	-1668
▁kein	-1669
▁cost	-1670
▁god	-1671
▁2019	-1672
▁saf	-1673
▁tv	-1674
▁weitere	-1675
▁verwend	-1676
ves	-1677
▁page	-1678
▁verl	-1679
▁perfe	-1680
▁integr	-1681
▁comple	-1682
ander	-1683
str	-1684
▁folgen	-1685
▁post	-1686
▁bewert	-1687
uter	-1688
▁spec	-1689
▁23	-1690
▁bil	-1691
▁mir	-1692
▁feb	-1693
▁kre	-1694
ident	-1695
▁gott	-1696
so	-1697
bal	-1698
mittel	-1699
▁sil	-1700
▁personal	-1701
▁beach	-1702
▁want	-1703
na	-1704
▁seiner	-1705
▁verfüg	-1706
icher	-1707
hält	-1708
ights	-1709
ric	-1710
▁mem	-1711
ished	-1712
ically	-1713
▁haus	-1714
▁days	-1715
▁bal	-1716
iff	-1717
self	-1718
fahren	-1719
▁unterst	-1720
▁development	-1721
ward	-1722
atures	-1723
kten	-1724
▁letz	-1725
▁airport	-1726
▁jun	-1727
▁jahren	-1728
▁conc	-1729
▁innov	-1730
▁hy	-1731
▁cro	-1732
▁cho	-1733
▁produkte	-1734
▁neuen	-1735
iste	-1736
iere	-1737
legen	-1738
▁important	-1739
sc	-1740
▁fer	-1741
▁mess	-1742
▁appro	-1743
▁upd	-1744
▁sat	-1745
bere	-1746
▁automat	-1747
kann	-1748
ichten	-1749
▁mult	-1750
▁site	-1751
forder	-1752
vent	-1753
iß	-1754
▁possible	-1755
▁sing	-1756
▁ort	-1757
.201	-1758
ody	-1759
▁langu	-1760
book	-1761
gar	-1762
▁mak	-1763
▁amer	-1764
▁erfol	-1765
ende	-1766
▁class	-1767
▁entsp	-1768
▁games	-1769
▁social	-1770
▁const	-1771
äng	-1772
▁ve	-1773
▁invest	-1774
▁leg	-1775
äuf	-1776
▁wasser	-1777
▁does	-1778
work	-1779
▁jan	-1780
pect	-1781
▁daß	-1782
▁fur	-1783
▁febru	-1784
▁within	-1785
ips	-1786
▁optim	-1787
bild	-1788
▁must	-1789
zeug	-1790
▁typ	-1791
ots	-1792
▁40	-1793
raft	-1794
▁eur	-1795
ount	-1796
ime	-1797
ever	-1798
▁require	-1799
▁deliver	-1800
▁children	-1801
▁tool	-1802
▁list	-1803
▁tak	-1804
▁kinder	-1805
▁fact	-1806
ditions	-1807
▁nov	-1808
▁denn	-1809
ob	-1810
▁wohn	-1811
▁nie	-1812
▁richt	-1813
▁still	-1814
▁rele	-1815
▁three	-1816
berg	-1817
▁lab	-1818
▁times	-1819
ief	-1820
werk	-1821
licher	-1822
▁test	-1823
ash	-1824
▁müssen	-1825
ino	-1826
lagen	-1827
▁2017	-1828
innen	-1829
ober	-1830
schutz	-1831
ums	-1832
ting	-1833
▁public	-1834
oor	-1835
▁erst	-1836
▁austr	-1837
uß	-1838
schaften	-1839
▁around	-1840
▁groß	-1841
app	-1842
▁both	-1843
▁28	-1844
▁standard	-1845
▁rooms	-1846
haus	-1847
▁following	-1848
ught	-1849
produ	-1850
▁text	-1851
▁video	-1852
▁rece	-1853
sicht	-1854
ision	-1855
▁old	-1856
med	-1857
▁beis	-1858
spe	-1859
▁management	-1860
▁bath	-1861
▁propert	-1862
▁being	-1863
letter	-1864
▁tick	-1865
▁european	-1866
▁prin	-1867
lan	-1868
▁browser	-1869
ünd	-1870
▁level	-1871
▁could	-1872
öl	-1873
▁ir	-1874
ktur	-1875
▁cm	-1876
▁family	-1877
iten	-1878
oss	-1879
▁bede	-1880
▁exc	-1881
▁nutz	-1882
ilities	-1883
▁bez	-1884
äten	-1885
ogle	-1886
ume	-1887
▁bau	-1888
▁diesen	-1889
view	-1890
platz	-1891
atter	-1892
▁windows	-1893
utes	-1894
▁ersten	-1895
och	-1896
▁remo	-1897
▁zentr	-1898
ilt	-1899
▁2014	-1900
of	-1901
▁auth	-1902
▁att	-1903
ival	-1904
iday	-1905
ury	-1906
▁said	-1907
▁located	-1908
ches	-1909
▁break	-1910
▁organis	-1911
satz	-1912
▁face	-1913
amt	-1914
▁technology	-1915
▁tw	-1916
▁control	-1917
▁second	-1918
▁nä	-1919
rad	-1920
▁funktion	-1921
nisse	-1922
▁ca	-1923
▁reserv	-1924
▁bi	-1925
ograph	-1926
▁google	-1927
▁26	-1928
▁sü	-1929
▁mm	-1930
bt	-1931
▁beaut	-1932
nung	-1933
eder	-1934
iner	-1935
▁pay	-1936
bau	-1937
ante	-1938
ains	-1939
▁next	-1940
▁eff	-1941
▁gt	-1942
▁experience	-1943
▁2013	-1944
▁those	-1945
▁share	-1946
kon	-1947
▁2012	-1948
▁cert	-1949
ring	-1950
ähl	-1951
▁sag	-1952
▁using	-1953
▁incre	-1954
▁accord	-1955
▁übers	-1956
▁erhalten	-1957
▁digital	-1958
mel	-1959
other	-1960
▁care	-1961
▁liefer	-1962
esser	-1963
▁proz	-1964
▁dest	-1965
len	-1966
▁lead	-1967
aben	-1968
▁tradition	-1969
iges	-1970
▁frank	-1971
.5	-1972
ways	-1973
▁eben	-1974
▁machen	-1975
▁fall	-1976
▁map	-1977
▁works	-1978
▁ak	-1979
anden	-1980
▁version	-1981
fte	-1982
▁bereich	-1983
▁fa	-1984
conom	-1985
▁restaurant	-1986
▁verein	-1987
trag	-1988
▁pan	-1989
▁hatte	-1990
ample	-1991
▁nat	-1992
tag	-1993
lichkeit	-1994
▁jul	-1995
▁partner	-1996
▁country	-1997
ätz	-1998
▁histor	-1999
▁beim	-2000
▁dev	-2001
alth	-2002
ließ	-2003
▁aktiv	-2004
▁schon	-2005
ults	-2006
▁case	-2007
llen	-2008
▁ganz	-2009
▁fiel	-2010
▁accommod	-2011
▁disc	-2012
ategor	-2013
▁systems	-2014
▁mic	-2015
utions	-2016
ral	-2017
▁dra	-2018
ites	-2019
ling	-2020
▁meet	-2021
▁conf	-2022
tember	-2023
▁full	-2024
▁führ	-2025
▁transport	-2026
▁music	-2027
▁ed	-2028
▁pap	-2029
▁stor	-2030
ec	-2031
ziel	-2032
ually	-2033
▁drei	-2034
▁direkt	-2035
unkt	-2036
▁wür	-2037
ersch	-2038
▁private	-2039
icy	-2040
▁conditions	-2041
▁sondern	-2042
▁pack	-2043
▁while	-2044
erstell	-2045
▁did	-2046
▁wien	-2047
▁modern	-2048
klär	-2049
▁besuch	-2050
▁sun	-2051
▁head	-2052
äß	-2053
stellung	-2054
▁unseren	-2055
▁effect	-2056
▁econom	-2057
iron	-2058
30	-2059
-2	-2060
▁int	-2061
less	-2062
▁general	-2063
▁ru	-2064
cription	-2065
play	-2066
▁gest	-2067
▁center	-2068
▁manuf	-2069
▁anze	-2070
▁flugh	-2071
spr	-2072
ased	-2073
▁ann	-2074
▁forsch	-2075
▁resp	-2076
▁situ	-2077
▁hil	-2078
anst	-2079
▁mount	-2080
▁aug	-2081
▁geschäft	-2082
iat	-2083
▁link	-2084
▁env	-2085
▁beispiel	-2086
▁lebens	-2087
▁russ	-2088
▁film	-2089
▁pract	-2090
▁60	-2091
mon	-2092
▁near	-2093
▁liegt	-2094
▁span	-2095
▁bereits	-2096
▁night	-2097
▁energy	-2098
eign	-2099
▁heute	-2100
ccess	-2101
▁kit	-2102
▁black	-2103
▁ausw	-2104
▁frien	-2105
▁game	-2106
▁red	-2107
.00	-2108
▁buch	-2109
ready	-2110
▁abs	-2111
▁manufact	-2112
▁customer	-2113
▁tot	-2114
enten	-2115
▁mor	-2116
▁wirk	-2117
▁dom	-2118
▁aud	-2119
▁production	-2120
ird	-2121
yn	-2122
▁temper	-2123
lection	-2124
indet	-2125
▁large	-2126
acy	-2127
▁inner	-2128
icken	-2129
ogen	-2130
ube	-2131
▁außer	-2132
reibung	-2133
▁alles	-2134
▁interest	-2135
▁2011	-2136
▁newsletter	-2137
mend	-2138
reichen	-2139
▁kind	-2140
▁already	-2141
ough	-2142
olution	-2143
▁bank	-2144
öt	-2145
▁jav	-2146
▁einige	-2147
▁ren	-2148
▁ble	-2149
▁cr	-2150
▁jes	-2151
äh	-2152
nte	-2153
▁dav	-2154
▁maxim	-2155
utzen	-2156
eller	-2157
▁wes	-2158
▁travel	-2159
ummer	-2160
▁live	-2161
ars	-2162
rop	-2163
▁original	-2164
ima	-2165
▁cop	-2166
▁woll	-2167
▁nun	-2168
by	-2169
ool	-2170
▁allen	-2171
▁able	-2172
▁let	-2173
ided	-2174
leist	-2175
cover	-2176
▁2010	-2177
▁blo	-2178
60	-2179
rechen	-2180
▁sea	-2181
bereich	-2182
ique	-2183
▁complete	-2184
▁aller	-2185
▁stay	-2186
▁ka	-2187
▁27	-2188
▁month	-2189
▁micro	-2190
▁present	-2191
ason	-2192
hib	-2193
▁habe	-2194
▁flug	-2195
mbh	-2196
ulation	-2197
▁2007	-2198
ged	-2199
ika	-2200
▁centre	-2201
▁much	-2202
ex	-2203
▁problem	-2204
auer	-2205
-0	-2206
▁apartment	-2207
fang	-2208
oper	-2209
anzen	-2210
ker	-2211
▁personen	-2212
unde	-2213
eten	-2214
▁links	-2215
ands	-2216
▁human	-2217
▁nort	-2218
▁redu	-2219
kor	-2220
ified	-2221
▁bew	-2222
▁rund	-2223
▁elekt	-2224
▁auto	-2225
ised	-2226
cing	-2227
▁suche	-2228
▁spiele	-2229
▁wahr	-2230
▁sn	-2231
▁gmbh	-2232
▁events	-2233
▁entfernt	-2234
▁29	-2235
dr	-2236
▁pict	-2237
hip	-2238
▁media	-2239
▁item	-2240
▁seinen	-2241
ager	-2242
▁belie	-2243
mp	-2244
▁bü	-2245
▁meine	-2246
▁bestimm	-2247
▁click	-2248
yr	-2249
▁weg	-2250
▁success	-2251
▁tun	-2252
ständ	-2253
adr	-2254
▁hard	-2255
▁language	-2256
▁via	-2257
▁dist	-2258
▁position	-2259
▁features	-2260
▁big	-2261
▁close	-2262
ändern	-2263
ctor	-2264
▁ce	-2265
▁sens	-2266
▁further	-2267
▁fast	-2268
▁send	-2269
▁unterstütz	-2270
▁tit	-2271
▁sor	-2272
▁come	-2273
kar	-2274
▁learn	-2275
▁turn	-2276
▁computer	-2277
▁university	-2278
angen	-2279
▁flughafen	-2280
▁print	-2281
▁environ	-2282
▁china	-2283
itter	-2284
gew	-2285
bark	-2286
▁schwe	-2287
▁september	-2288
▁usa	-2289
▁dienst	-2290
ril	-2291
leit	-2292
ints	-2293
hod	-2294
▁against	-2295
▁artic	-2296
▁museum	-2297
▁ans	-2298
▁example	-2299
▁europä	-2300
▁enter	-2301
▁interess	-2302
uz	-2303
▁always	-2304
▁ris	-2305
▁based	-2306
▁content	-2307
▁buy	-2308
▁ihn	-2309
atal	-2310
▁today	-2311
weit	-2312
▁mittel	-2313
ape	-2314
▁health	-2315
▁rück	-2316
ton	-2317
hof	-2318
▁however	-2319
▁benutz	-2320
▁2009	-2321
▁bad	-2322
▁reviews	-2323
▁programm	-2324
▁dan	-2325
▁projekt	-2326
schn	-2327
▁change	-2328
ily	-2329
ismus	-2330
stra	-2331
▁easy	-2332
▁jeder	-2333
opp	-2334
cke	-2335
zentr	-2336
▁fut	-2337
▁lux	-2338
ison	-2339
▁entwicklung	-2340
▁ihm	-2341
▁qualität	-2342
möglich	-2343
▁event	-2344
vern	-2345
▁beginn	-2346
▁pf	-2347
ellschaft	-2348
▁musik	-2349
reg	-2350
▁partn	-2351
fast	-2352
iber	-2353
▁aktu	-2354
barkeit	-2355
▁email	-2356
▁31	-2357
80	-2358
▁etwas	-2359
▁meas	-2360
▁haupt	-2361
▁kir	-2362
▁registr	-2363
ploy	-2364
,5	-2365
▁pool	-2366
ada	-2367
▁key	-2368
▁muss	-2369
abei	-2370
ulture	-2371
▁mob	-2372
▁wom	-2373
90	-2374
uppe	-2375
▁holiday	-2376
▁august	-2377
▁refer	-2378
itäten	-2379
iation	-2380
▁comb	-2381
▁description	-2382
grund	-2383
▁alt	-2384
allen	-2385
zept	-2386
▁hos	-2387
▁heraus	-2388
leg	-2389
tend	-2390
▁address	-2391
▁spir	-2392
▁leist	-2393
▁report	-2394
▁distr	-2395
uft	-2396
▁repr	-2397
▁application	-2398
cle	-2399
▁expl	-2400
▁including	-2401
▁size	-2402
ascript	-2403
techn	-2404
▁erfolg	-2405
ization	-2406
mar	-2407
▁king	-2408
40	-2409
▁janu	-2410
ength	-2411
▁another	-2412
▁phil	-2413
igation	-2414
▁nav	-2415
isches	-2416
▁lat	-2417
▁näch	-2418
▁dabei	-2419
igkeiten	-2420
▁according	-2421
▁school	-2422
ai	-2423
ones	-2424
▁wirt	-2425
stück	-2426
▁countries	-2427
▁mitgl	-2428
▁food	-2429
▁kommen	-2430
rieb	-2431
▁ersch	-2432
licht	-2433
▁extens	-2434
esten	-2435
ined	-2436
rank	-2437
▁doc	-2438
gether	-2439
▁bekann	-2440
▁beh	-2441
▁impro	-2442
wohn	-2443
▁recom	-2444
▁related	-2445
▁ident	-2446
wagen	-2447
▁environment	-2448
▁together	-2449
▁body	-2450
▁exhib	-2451
▁natür	-2452
▁november	-2453
welt	-2454
▁ham	-2455
ca	-2456
▁assoc	-2457
iful	-2458
▁archite	-2459
iod	-2460
ost	-2461
▁april	-2462
▁defin	-2463
▁course	-2464
▁location	-2465
äss	-2466
anstalt	-2467
▁results	-2468
▁united	-2469
nahme	-2470
▁welche	-2471
▁bin	-2472
ients	-2473
ived	-2474
urt	-2475
cel	-2476
▁enj	-2477
fon	-2478
▁mass	-2479
▁login	-2480
▁pur	-2481
ctions	-2482
▁isra	-2483
uff	-2484
▁javascript	-2485
▁local	-2486
▁tas	-2487
gabe	-2488
▁run	-2489
▁große	-2490
oph	-2491
▁south	-2492
▁recommend	-2493
▁non	-2494
ätze	-2495
ana	-2496
▁ergeb	-2497
.3	-2498
▁extra	-2499
▁pot	-2500
▁policy	-2501
▁state	-2502
ping	-2503
cent	-2504
ingungen	-2505
abl	-2506
▁größ	-2507
▁four	-2508
▁total	-2509
ications	-2510
▁lassen	-2511
▁short	-2512
▁bieten	-2513
▁lim	-2514
▁hinter	-2515
indung	-2516
▁accommodation	-2517
▁account	-2518
▁range	-2519
yle	-2520
anze	-2521
▁ziel	-2522
▁ferien	-2523
▁particular	-2524
bel	-2525
date	-2526
li	-2527
vert	-2528
▁shall	-2529
ently	-2530
▁church	-2531
▁wirtschaft	-2532
spro	-2533
bank	-2534
▁type	-2535
lands	-2536
▁q	-2537
ured	-2538
yl	-2539
▁einzel	-2540
▁stock	-2541
phone	-2542
▁table	-2543
▁kaufen	-2544
▁kap	-2545
führt	-2546
▁working	-2547
▁reise	-2548
▁emp	-2549
▁anwend	-2550
weg	-2551
▁fort	-2552
,00	-2553
aler	-2554
▁beautiful	-2555
▁jesus	-2556
bie	-2557
▁sozial	-2558
▁global	-2559
▁strateg	-2560
▁garden	-2561
▁town	-2562
ret	-2563
▁ober	-2564
ential	-2565
▁pain	-2566
▁untersch	-2567
▁mov	-2568
▁prices	-2569
▁industry	-2570
▁mind	-2571
▁doub	-2572
▁line	-2573
▁dazu	-2574
stoff	-2575
▁bewertungen	-2576
▁erste	-2577
▁anzeigen	-2578
▁ende	-2579
▁datei	-2580
▁shipp	-2581
mann	-2582
▁secur	-2583
▁weil	-2584
pa	-2585
▁inde	-2586
▁vier	-2587
ette	-2588
▁großen	-2589
.000	-2590
rauch	-2591
▁million	-2592
▁befindet	-2593
▁sour	-2594
▁hig	-2595
▁gold	-2596
▁return	-2597
▁01	-2598
uge	-2599
▁reach	-2600
▁sever	-2601
▁week	-2602
ove	-2603
▁west	-2604
▁card	-2605
▁ged	-2606
▁user	-2607
▁verwendet	-2608
mos	-2609
▁board	-2610
▁motor	-2611
▁phys	-2612
▁möglichkeit	-2613
▁unt	-2614
ommen	-2615
▁euch	-2616
zw	-2617
▁pc	-2618
▁impress	-2619
▁enjoy	-2620
▁engine	-2621
cks	-2622
▁result	-2623
▁präs	-2624
▁network	-2625
▁druck	-2626
▁sen	-2627
druck	-2628
▁building	-2629
▁cart	-2630
neh	-2631
▁individual	-2632
ervice	-2633
▁geben	-2634
▁basis	-2635
▁natural	-2636
▁mom	-2637
▁history	-2638
▁ju	-2639
▁verschiedenen	-2640
▁schnell	-2641
hin	-2642
▁wichtig	-2643
▁less	-2644
heim	-2645
▁instr	-2646
▁clear	-2647
▁früh	-2648
▁heart	-2649
▁werk	-2650
▁fragen	-2651
orf	-2652
inst	-2653
ply	-2654
ritt	-2655
bet	-2656
ikan	-2657
▁chang	-2658
iety	-2659
▁breakfast	-2660
▁low	-2661
ils	-2662
▁lös	-2663
▁schön	-2664
▁mid	-2665
kehr	-2666
hö	-2667
ding	-2668
rieben	-2669
▁therefore	-2670
ona	-2671
ruktur	-2672
ibility	-2673
▁super	-2674
▁sound	-2675
▁future	-2676
▁dank	-2677
▁period	-2678
ka	-2679
▁customers	-2680
▁song	-2681
▁analy	-2682
▁sicherheit	-2683
▁bud	-2684
▁give	-2685
▁wet	-2686
chts	-2687
▁wählen	-2688
▁dort	-2689
word	-2690
▁charac	-2691
▁ideal	-2692
▁neben	-2693
▁chem	-2694
die	-2695
▁few	-2696
▁terms	-2697
▁israel	-2698
raum	-2699
▁kör	-2700
▁italien	-2701
▁suchen	-2702
▁love	-2703
▁space	-2704
▁means	-2705
▁appe	-2706
ibr	-2707
▁color	-2708
▁gehör	-2709
▁station	-2710
▁macht	-2711
blick	-2712
▁compan	-2713
▁living	-2714
▁süd	-2715
▁litt	-2716
▁prü	-2717
▁edu	-2718
▁somet	-2719
▁tur	-2720
▁herstell	-2721
▁delivery	-2722
▁doch	-2723
▁sollten	-2724
zer	-2725
▁denen	-2726
▁allow	-2727
olle	-2728
▁empf	-2729
fr	-2730
voll	-2731
▁strong	-2732
ativ	-2733
▁moder	-2734
▁iss	-2735
ification	-2736
▁function	-2737
▁occ	-2738
.4	-2739
▁rental	-2740
▁choose	-2741
▁among	-2742
▁stellen	-2743
ifiz	-2744
ention	-2745
▁white	-2746
▁angebot	-2747
system	-2748
▁bathroom	-2749
mm	-2750
go	-2751
üssel	-2752
▁facebook	-2753
hop	-2754
▁led	-2755
▁industr	-2756
▁winter	-2757
▁init	-2758
▁govern	-2759
par	-2760
▁green	-2761
fa	-2762
▁say	-2763
▁versand	-2764
▁nord	-2765
▁performance	-2766
▁spirit	-2767
ises	-2768
▁transl	-2769
itive	-2770
▁various	-2771
ald	-2772
▁analys	-2773
▁away	-2774
▁quick	-2775
▁schla	-2776
▁fav	-2777
▁until	-2778
▁several	-2779
abel	-2780
telle	-2781
▁smart	-2782
▁besten	-2783
▁little	-2784
▁wert	-2785
▁198	-2786
roll	-2787
melden	-2788
▁mann	-2789
▁hor	-2790
▁law	-2791
gress	-2792
▁perfect	-2793
▁security	-2794
▁jobs	-2795
▁employ	-2796
gestellt	-2797
▁point	-2798
▁europa	-2799
▁erfahr	-2800
▁vergleich	-2801
▁sam	-2802
▁side	-2803
▁geschäfts	-2804
▁80	-2805
▁young	-2806
▁ähn	-2807
▁kostenlos	-2808
▁ear	-2809
▁lot	-2810
▁allgem	-2811
äus	-2812
▁recht	-2813
▁points	-2814
aren	-2815
usive	-2816
▁terr	-2817
▁na	-2818
▁ask	-2819
äre	-2820
ruction	-2821
▁netz	-2822
▁select	-2823
▁facilities	-2824
▁files	-2825
▁künst	-2826
▁ii	-2827
▁put	-2828
wards	-2829
▁lage	-2830
▁nähe	-2831
▁guests	-2832
▁cy	-2833
▁35	-2834
▁wissenschaft	-2835
▁grow	-2836
▁front	-2837
frage	-2838
lle	-2839
▁ach	-2840
ände	-2841
▁provide	-2842
ano	-2843
isierung	-2844
ufen	-2845
▁clean	-2846
etzung	-2847
▁anzahl	-2848
▁technical	-2849
reen	-2850
seite	-2851
▁städ	-2852
▁ep	-2853
ery	-2854
▁ang	-2855
ef	-2856
mt	-2857
vious	-2858
▁ens	-2859
▁ja	-2860
▁mobile	-2861
▁jedoch	-2862
▁sollte	-2863
atic	-2864
▁nacht	-2865
▁kr	-2866
▁datenschutz	-2867
▁komment	-2868
▁heil	-2869
äche	-2870
▁shipping	-2871
▁wa	-2872
▁left	-2873
mark	-2874
▁frage	-2875
▁protection	-2876
▁sant	-2877
fil	-2878
cus	-2879
▁ander	-2880
reiben	-2881
▁beschreibung	-2882
▁wr	-2883
▁walk	-2884
▁bill	-2885
sa	-2886
▁office	-2887
▁spielen	-2888
▁tar	-2889
▁value	-2890
▁author	-2891
▁gä	-2892
▁states	-2893
▁display	-2894
▁2008	-2895
▁privacy	-2896
heiten	-2897
face	-2898
▁too	-2899
▁unserem	-2900
▁prom	-2901
▁ol	-2902
thing	-2903
org	-2904
▁schö	-2905
▁letzten	-2906
▁etc	-2907
teile	-2908
▁las	-2909
▁öffent	-2910
▁weather	-2911
▁brand	-2912
ane	-2913
mobil	-2914
öffent	-2915
▁kil	-2916
▁transfer	-2917
▁fehl	-2918
▁syn	-2919
▁flex	-2920
▁fit	-2921
ri	-2922
ament	-2923
70	-2924
änge	-2925
▁plat	-2926
igent	-2927
▁energie	-2928
ennt	-2929
▁extre	-2930
▁bilder	-2931
des	-2932
▁educ	-2933
▁fund	-2934
chan	-2935
dom	-2936
▁question	-2937
ley	-2938
▁paris	-2939
▁object	-2940
▁record	-2941
▁companies	-2942
▁sem	-2943
▁single	-2944
ikation	-2945
aving	-2946
crib	-2947
iben	-2948
df	-2949
▁lord	-2950
▁blue	-2951
▁machine	-2952
ey	-2953
▁code	-2954
▁markt	-2955
▁consider	-2956
▁attra	-2957
ester	-2958
▁training	-2959
ius	-2960
rich	-2961
▁vielen	-2962
▁platz	-2963
▁seinem	-2964
old	-2965
,000	-2966
▁request	-2967
▁solutions	-2968
▁nutzen	-2969
▁comfort	-2970
stag	-2971
▁respons	-2972
weis	-2973
▁added	-2974
ologie	-2975
▁licht	-2976
▁partners	-2977
▁dich	-2978
▁method	-2979
▁lö	-2980
bert	-2981
▁meer	-2982
▁writ	-2983
▁above	-2984
sw	-2985
imate	-2986
igur	-2987
mus	-2988
▁box	-2989
▁32	-2990
▁schwar	-2991
▁ip	-2992
inge	-2993
▁pet	-2994
onders	-2995
▁verwenden	-2996
▁wid	-2997
▁anmelden	-2998
▁geschichte	-2999
▁zusätz	-3000
ache	-3001
▁einge	-3002
▁schweiz	-3003
▁rein	-3004
▁try	-3005
▁arr	-3006
▁seiten	-3007
▁unterkunft	-3008
▁gas	-3009
▁contr	-3010
lossen	-3011
ids	-3012
bre	-3013
itions	-3014
▁entsche	-3015
▁minutes	-3016
▁glaub	-3017
▁regel	-3018
zuf	-3019
▁condition	-3020
▁veranstalt	-3021
ragen	-3022
▁maj	-3023
erst	-3024
▁kitchen	-3025
▁öff	-3026
back	-3027
▁49	-3028
▁express	-3029
ser	-3030
▁become	-3031
glichen	-3032
▁better	-3033
▁why	-3034
zus	-3035
eiten	-3036
wh	-3037
apan	-3038
▁updates	-3039
falls	-3040
ellent	-3041
▁cann	-3042
uppen	-3043
une	-3044
masch	-3045
▁struct	-3046
▁note	-3047
▁könig	-3048
.9	-3049
achen	-3050
▁gemeins	-3051
▁innerhalb	-3052
▁fach	-3053
iken	-3054
ließlich	-3055
ony	-3056
▁apartments	-3057
istic	-3058
▁tax	-3059
zug	-3060
ipment	-3061
▁things	-3062
▁persön	-3063
ately	-3064
ising	-3065
row	-3066
ify	-3067
▁depart	-3068
▁kam	-3069
▁info	-3070
▁register	-3071
▁create	-3072
▁particip	-3073
▁central	-3074
ared	-3075
▁uhr	-3076
12	-3077
▁vo	-3078
uments	-3079
cker	-3080
▁field	-3081
▁dir	-3082
▁mat	-3083
▁vi	-3084
▁members	-3085
▁veröffent	-3086
▁kultur	-3087
▁kop	-3088
km	-3089
▁stehen	-3090
▁bring	-3091
jekte	-3092
itor	-3093
▁cover	-3094
ckt	-3095
ians	-3096
▁camping	-3097
▁erweit	-3098
▁kategor	-3099
aden	-3100
▁cd	-3101
ichen	-3102
stadt	-3103
▁mär	-3104
punkt	-3105
asst	-3106
▁geist	-3107
▁restaurants	-3108
▁falun	-3109
▁party	-3110
▁verfügbar	-3111
iate	-3112
▁ord	-3113
▁nature	-3114
▁statt	-3115
anten	-3116
▁tage	-3117
▁telefon	-3118
▁property	-3119
▁gehen	-3120
▁arbeiten	-3121
▁mensch	-3122
▁eg	-3123
▁activities	-3124
achsen	-3125
▁geht	-3126
▁clos	-3127
▁north	-3128
führung	-3129
▁plus	-3130
▁road	-3131
▁suit	-3132
▁japan	-3133
▁bund	-3134
▁trade	-3135
▁erklär	-3136
▁karte	-3137
▁mos	-3138
änger	-3139
▁feel	-3140
▁additional	-3141
car	-3142
▁rot	-3143
▁image	-3144
▁cir	-3145
ille	-3146
▁grün	-3147
▁sand	-3148
▁wetter	-3149
▁rahmen	-3150
▁never	-3151
▁möchten	-3152
▁model	-3153
ements	-3154
▁06	-3155
▁series	-3156
▁relig	-3157
▁fire	-3158
▁preise	-3159
▁thus	-3160
ering	-3161
▁finan	-3162
▁miet	-3163
▁character	-3164
▁steht	-3165
▁shopping	-3166
▁past	-3167
▁fair	-3168
ieh	-3169
thers	-3170
itzer	-3171
ends	-3172
▁blog	-3173
▁call	-3174
▁etwa	-3175
▁double	-3176
▁allem	-3177
▁70	-3178
▁mitarbeit	-3179
korb	-3180
▁looking	-3181
▁flow	-3182
.6	-3183
val	-3184
▁miss	-3185
igten	-3186
come	-3187
▁soc	-3188
▁france	-3189
rif	-3190
▁availability	-3191
▁prem	-3192
▁besonders	-3193
lauf	-3194
▁unterschied	-3195
▁programme	-3196
bung	-3197
-3	-3198
▁imp	-3199
▁kor	-3200
▁begr	-3201
▁think	-3202
side	-3203
örder	-3204
▁frü	-3205
arth	-3206
üge	-3207
▁mut	-3208
▁expert	-3209
ality	-3210
▁hom	-3211
▁bir	-3212
▁atmos	-3213
ican	-3214
▁drive	-3215
▁vert	-3216
▁necess	-3217
▁areas	-3218
rat	-3219
fert	-3220
etzen	-3221
bare	-3222
▁master	-3223
▁weight	-3224
▁minuten	-3225
▁gesam	-3226
page	-3227
ios	-3228
▁poly	-3229
▁wollen	-3230
▁blick	-3231
▁körper	-3232
▁repres	-3233
▁option	-3234
cially	-3235
▁ven	-3236
za	-3237
ux	-3238
▁lond	-3239
▁ster	-3240
▁prakt	-3241
▁safe	-3242
adem	-3243
ether	-3244
ehen	-3245
▁february	-3246
▁bade	-3247
▁professional	-3248
prü	-3249
ology	-3250
ension	-3251
▁lesen	-3252
▁places	-3253
schnitt	-3254
▁daf	-3255
▁stark	-3256
▁certain	-3257
▁februar	-3258
schluss	-3259
▁once	-3260
arm	-3261
▁trip	-3262
▁exist	-3263
ope	-3264
zeichnet	-3265
tain	-3266
▁hinzu	-3267
▁really	-3268
ennen	-3269
▁altern	-3270
▁rob	-3271
▁often	-3272
▁leicht	-3273
▁third	-3274
rag	-3275
▁villa	-3276
▁mel	-3277
11	-3278
ultural	-3279
▁compet	-3280
▁perm	-3281
finden	-3282
ables	-3283
verb	-3284
▁franz	-3285
▁wort	-3286
▁colour	-3287
▁wall	-3288
▁oct	-3289
jahr	-3290
▁ess	-3291
▁gesellschaft	-3292
▁hall	-3293
▁installation	-3294
▁90	-3295
esh	-3296
▁uk	-3297
ga	-3298
▁45	-3299
▁anim	-3300
▁ill	-3301
ondere	-3302
▁disk	-3303
▁offic	-3304
▁terra	-3305
▁div	-3306
▁eigenen	-3307
▁frei	-3308
▁questions	-3309
kauf	-3310
▁mun	-3311
▁source	-3312
ories	-3313
▁cla	-3314
▁band	-3315
▁genau	-3316
▁london	-3317
statt	-3318
chsel	-3319
▁sex	-3320
ances	-3321
ning	-3322
▁tickets	-3323
▁finanz	-3324
ested	-3325
▁due	-3326
▁normal	-3327
▁umf	-3328
▁equipment	-3329
cip	-3330
anlage	-3331
▁universität	-3332
▁materials	-3333
cts	-3334
▁einmal	-3335
▁flor	-3336
ases	-3337
▁yet	-3338
▁schlaf	-3339
oun	-3340
▁might	-3341
▁cast	-3342
▁separ	-3343
gangen	-3344
▁gall	-3345
ou	-3346
gebung	-3347
▁mac	-3348
▁bran	-3349
▁ta	-3350
▁rich	-3351
▁contain	-3352
antwort	-3353
öff	-3354
anced	-3355
ja	-3356
hunder	-3357
▁namen	-3358
▁previous	-3359
▁espe	-3360
▁bekannt	-3361
teilung	-3362
▁2006	-3363
igte	-3364
liches	-3365
▁projects	-3366
▁menu	-3367
▁ey	-3368
▁kan	-3369
trä	-3370
▁klima	-3371
▁server	-3372
▁watch	-3373
ico	-3374
legt	-3375
ty	-3376
▁verkauf	-3377
▁along	-3378
▁geh	-3379
angeb	-3380
ox	-3381
▁kommt	-3382
▁focus	-3383
▁sprache	-3384
▁treat	-3385
ush	-3386
▁article	-3387
ety	-3388
▁photos	-3389
▁especially	-3390
▁günst	-3391
▁verfügung	-3392
leistungen	-3393
▁hours	-3394
▁specific	-3395
ieder	-3396
▁1010	-3397
▁offen	-3398
▁teilen	-3399
▁warenkorb	-3400
▁floor	-3401
▁kommun	-3402
daten	-3403
astic	-3404
lös	-3405
▁gute	-3406
ügen	-3407
▁club	-3408
iano	-3409
▁#	-3410
▁empfe	-3411
▁jour	-3412
▁booking	-3413
▁arm	-3414
▁agr	-3415
▁gesund	-3416
lected	-3417
iers	-3418
▁exch	-3419
affen	-3420
▁bab	-3421
▁würde	-3422
häng	-3423
▁raum	-3424
▁whole	-3425
▁immobil	-3426
äter	-3427
operation	-3428
▁manufactur	-3429
ably	-3430
wind	-3431
▁developed	-3432
▁rechts	-3433
▁provided	-3434
▁password	-3435
▁mün	-3436
▁erlaub	-3437
▁currently	-3438
▁dopp	-3439
utt	-3440
ießen	-3441
▁continu	-3442
▁luft	-3443
kün	-3444
inger	-3445
▁excl	-3446
▁deutschen	-3447
zogen	-3448
▁moment	-3449
▁costs	-3450
▁republ	-3451
▁mart	-3452
▁ec	-3453
ork	-3454
▁weltweit	-3455
▁197	-3456
ls	-3457
▁gäste	-3458
▁afr	-3459
▁innen	-3460
plan	-3461
text	-3462
alled	-3463
▁collection	-3464
▁weniger	-3465
▁parts	-3466
osmet	-3467
▁speed	-3468
laden	-3469
part	-3470
▁beit	-3471
▁friend	-3472
▁erg	-3473
▁umwelt	-3474
▁economic	-3475
▁bay	-3476
▁member	-3477
ählen	-3478
ipped	-3479
▁below	-3480
▁cut	-3481
▁deren	-3482
wand	-3483
istry	-3484
▁toile	-3485
▁mietwagen	-3486
▁job	-3487
▁bedeut	-3488
▁solution	-3489
▁navigation	-3490
alten	-3491
nten	-3492
▁arbeits	-3493
▁spa	-3494
▁verfügbarkeit	-3495
▁einges	-3496
▁liebe	-3497
iding	-3498
▁clo	-3499
▁liter	-3500
rech	-3501
irk	-3502
▁vorh	-3503
▁dyn	-3504
▁teach	-3505
▁cross	-3506
isiert	-3507
▁cheap	-3508
rän	-3509
▁seem	-3510
▁34	-3511
▁jeden	-3512
▁freund	-3513
▁major	-3514
▁months	-3515
altung	-3516
isation	-3517
▁mi	-3518
▁rent	-3519
▁required	-3520
▁legal	-3521
▁nied	-3522
ffee	-3523
▁prim	-3524
istics	-3525
▁called	-3526
▁berg	-3527
▁wood	-3528
▁gab	-3529
▁europäischen	-3530
▁cell	-3531
ül	-3532
▁kurz	-3533
▁künstler	-3534
▁parking	-3535
▁holz	-3536
▁deutsche	-3537
▁zeigt	-3538
alter	-3539
nahmen	-3540
▁tor	-3541
mäß	-3542
▁meisten	-3543
15	-3544
▁community	-3545
▁popular	-3546
▁speziel	-3547
▁austral	-3548
▁women	-3549
▁created	-3550
▁küche	-3551
fall	-3552
▁dok	-3553
ader	-3554
itten	-3555
ired	-3556
▁applications	-3557
▁schul	-3558
▁ausgest	-3559
▁masch	-3560
rift	-3561
▁suppl	-3562
atalog	-3563
▁beiden	-3564
▁insel	-3565
arten	-3566
▁hilfe	-3567
▁discover	-3568
▁relev	-3569
▁33	-3570
▁surround	-3571
▁regard	-3572
▁paul	-3573
▁sort	-3574
▁jahrhunder	-3575
▁zug	-3576
ifen	-3577
riebs	-3578
▁absol	-3579
▁squ	-3580
ators	-3581
bedingungen	-3582
▁helfen	-3583
▁award	-3584
▁08	-3585
▁sports	-3586
,9	-3587
▁gong	-3588
▁bewe	-3589
▁kleine	-3590
.7	-3591
ernen	-3592
ending	-3593
▁zukunft	-3594
cia	-3595
bahn	-3596
▁subject	-3597
▁situation	-3598
▁came	-3599
▁later	-3600
▁study	-3601
▁establ	-3602
grif	-3603
kre	-3604
▁samm	-3605
gramm	-3606
▁gast	-3607
▁dial	-3608
▁wol	-3609
▁anbie	-3610
▁bor	-3611
▁entde	-3612
ara	-3613
alu	-3614
▁ihres	-3615
onn	-3616
ierungs	-3617
▁weise	-3618
▁revolution	-3619
inform	-3620
▁rat	-3621
leben	-3622
▁sym	-3623
▁einsatz	-3624
▁march	-3625
▁earth	-3626
▁latest	-3627
▁nieder	-3628
▁homepage	-3629
▁farm	-3630
65	-3631
ützen	-3632
▁inkl	-3633
▁island	-3634
▁compon	-3635
▁erk	-3636
▁keep	-3637
▁wirklich	-3638
lege	-3639
▁rate	-3640
tes	-3641
▁erreichen	-3642
▁fün	-3643
ively	-3644
ump	-3645
▁2005	-3646
▁fotos	-3647
omet	-3648
▁rights	-3649
nehmer	-3650
pack	-3651
▁darüber	-3652
steme	-3653
▁radio	-3654
va	-3655
▁subs	-3656
▁pie	-3657
selves	-3658
▁dim	-3659
bit	-3660
▁zust	-3661
▁step	-3662
▁alb	-3663
▁sagte	-3664
▁known	-3665
ategory	-3666
hy	-3667
kosten	-3668
▁chin	-3669
▁benef	-3670
▁minim	-3671
▁familie	-3672
.8	-3673
richtungen	-3674
lose	-3675
▁gran	-3676
▁prä	-3677
▁twitter	-3678
▁buchen	-3679
▁pdf	-3680
▁guar	-3681
▁höch	-3682
▁sales	-3683
▁edit	-3684
▁07	-3685
ishing	-3686
hm	-3687
einen	-3688
▁distrib	-3689
opt	-3690
▁directly	-3691
ohl	-3692
▁electric	-3693
▁union	-3694
arbeitung	-3695
ama	-3696
▁folgenden	-3697
▁dein	-3698
▁fle	-3699
▁500	-3700
irm	-3701
▁präsent	-3702
▁opport	-3703
▁sprach	-3704
▁ut	-3705
itch	-3706
▁confer	-3707
ias	-3708
▁users	-3709
▁safety	-3710
▁bul	-3711
▁verschiedene	-3712
▁rock	-3713
off	-3714
▁wei	-3715
ving	-3716
▁italy	-3717
▁verbindung	-3718
leb	-3719
sterreich	-3720
verage	-3721
▁familien	-3722
most	-3723
ktionen	-3724
▁opportun	-3725
▁uses	-3726
▁necessary	-3727
enzen	-3728
stein	-3729
▁june	-3730
▁meter	-3731
mbol	-3732
ließen	-3733
unge	-3734
idung	-3735
llt	-3736
▁mean	-3737
▁tür	-3738
▁imple	-3739
▁herz	-3740
sehen	-3741
▁verantwort	-3742
▁entwickelt	-3743
▁fu	-3744
▁photo	-3745
ench	-3746
▁mountain	-3747
▁properties	-3748
▁makes	-3749
▁los	-3750
▁kg	-3751
ros	-3752
▁sale	-3753
45	-3754
▁sent	-3755
▁ago	-3756
▁whether	-3757
▁mechan	-3758
▁effic	-3759
▁sowohl	-3760
▁profile	-3761
cer	-3762
▁ten	-3763
▁given	-3764
▁dus	-3765
▁fern	-3766
amera	-3767
fi	-3768
▁construction	-3769
▁err	-3770
▁suitable	-3771
▁konnte	-3772
▁weiß	-3773
buch	-3774
eint	-3775
▁admin	-3776
▁rela	-3777
▁stim	-3778
▁internationalen	-3779
▁lt	-3780
▁capital	-3781
▁feder	-3782
iker	-3783
-201	-3784
▁bedroom	-3785
25	-3786
▁ticket	-3787
▁zentrum	-3788
▁sofort	-3789
reiche	-3790
▁cloud	-3791
▁coll	-3792
▁schwer	-3793
▁something	-3794
▁eth	-3795
umin	-3796
▁wochen	-3797
▁others	-3798
▁kirche	-3799
▁summer	-3800
▁videos	-3801
▁medien	-3802
▁okt	-3803
sm	-3804
da	-3805
▁09	-3806
äte	-3807
▁reich	-3808
chter	-3809
ball	-3810
▁nehmen	-3811
▁frau	-3812
spiel	-3813
öhn	-3814
▁klicken	-3815
▁mont	-3816
▁achie	-3817
--	-3818
gra	-3819
amic	-3820
gefü	-3821
▁feed	-3822
▁ski	-3823
▁speak	-3824
soft	-3825
▁receive	-3826
▁bio	-3827
▁thanks	-3828
▁consum	-3829
▁train	-3830
▁vari	-3831
▁ausgestat	-3832
▁fas	-3833
ham	-3834
▁besteht	-3835
ledge	-3836
iar	-3837
▁doppel	-3838
▁category	-3839
▁jedes	-3840
▁mitt	-3841
▁atmosph	-3842
▁institute	-3843
forderungen	-3844
▁festival	-3845
▁industrial	-3846
▁problems	-3847
hem	-3848
▁juni	-3849
21	-3850
▁wlan	-3851
chs	-3852
▁style	-3853
halts	-3854
▁bleiben	-3855
▁1,	-3856
ini	-3857
▁angel	-3858
▁sonnen	-3859
▁message	-3860
▁gottes	-3861
over	-3862
▁entire	-3863
fäh	-3864
▁represent	-3865
▁wohl	-3866
▁hot	-3867
▁führen	-3868
▁purch	-3869
▁guest	-3870
▁mas	-3871
▁fünf	-3872
▁herv	-3873
▁essen	-3874
▁jede	-3875
ürd	-3876
uses	-3877
▁300	-3878
▁successful	-3879
▁welcome	-3880
▁behand	-3881
▁scient	-3882
▁van	-3883
que	-3884
▁neues	-3885
izin	-3886
ugen	-3887
▁pen	-3888
▁virt	-3889
▁excellent	-3890
bour	-3891
▁guarante	-3892
▁oben	-3893
▁provides	-3894
kn	-3895
▁discuss	-3896
▁2000	-3897
▁age	-3898
lungen	-3899
ney	-3900
gas	-3901
tellung	-3902
▁sogar	-3903
▁voraus	-3904
▁lok	-3905
▁diff	-3906
▁spring	-3907
▁exchange	-3908
▁insp	-3909
▁lange	-3910
ais	-3911
ules	-3912
genommen	-3913
feld	-3914
▁stop	-3915
▁corpor	-3916
▁least	-3917
▁everything	-3918
▁instrument	-3919
▁strand	-3920
▁understand	-3921
▁oil	-3922
▁auswahl	-3923
bildung	-3924
iesen	-3925
▁chf	-3926
apt	-3927
▁lernen	-3928
▁bevor	-3929
▁kraft	-3930
▁phone	-3931
▁erz	-3932
▁kleinen	-3933
idence	-3934
stellungen	-3935
▁sei	-3936
▁swiss	-3937
▁unique	-3938
▁built	-3939
▁active	-3940
▁vir	-3941
atis	-3942
baren	-3943
service	-3944
▁century	-3945
▁peter	-3946
aktiv	-3947
idge	-3948
▁agre	-3949
▁deb	-3950
▁darauf	-3951
pers	-3952
unk	-3953
▁herunter	-3954
▁themen	-3955
▁common	-3956
▁glass	-3957
▁sagen	-3958
ustain	-3959
iehen	-3960
▁relations	-3961
▁took	-3962
bereit	-3963
▁hamburg	-3964
▁infl	-3965
▁joh	-3966
▁october	-3967
inner	-3968
▁liste	-3969
assung	-3970
▁collect	-3971
▁gesundheit	-3972
▁ern	-3973
ences	-3974
▁evalu	-3975
▁favor	-3976
▁extension	-3977
▁john	-3978
▁plant	-3979
▁village	-3980
▁financial	-3981
board	-3982
▁ton	-3983
▁gal	-3984
▁word	-3985
▁verd	-3986
ären	-3987
freie	-3988
▁jewe	-3989
agn	-3990
▁mik	-3991
▁ground	-3992
▁österreich	-3993
▁nam	-3994
▁designed	-3995
▁gebä	-3996
▁government	-3997
▁eigent	-3998
itation	-3999
leicht	-4000
▁verste	-4001
▁hervor	-4002
▁frequ	-4003
▁electron	-4004
othe	-4005
▁upon	-4006
▁komb	-4007
▁happ	-4008
▁self	-4009
▁liegen	-4010
uren	-4011
▁action	-4012
▁french	-4013
▁später	-4014
▁mr	-4015
▁dateien	-4016
▁furn	-4017
▁arg	-4018
▁money	-4019
▁benutzer	-4020
fel	-4021
▁shower	-4022
▁pictures	-4023
hern	-4024
lei	-4025
put	-4026
▁street	-4027
▁bewertung	-4028
tete	-4029
▁respect	-4030
▁meeting	-4031
▁garten	-4032
▁entsprechen	-4033
▁compos	-4034
anne	-4035
▁bundes	-4036
▁38	-4037
▁os	-4038
isse	-4039
rodu	-4040
abil	-4041
bei	-4042
▁tru	-4043
▁verm	-4044
▁include	-4045
▁immobilien	-4046
▁barcel	-4047
immt	-4048
▁ic	-4049
▁golf	-4050
▁größe	-4051
▁equipped	-4052
▁oktober	-4053
tv	-4054
arbeiten	-4055
hic	-4056
▁included	-4057
▁filter	-4058
▁verfügt	-4059
▁mai	-4060
▁aufent	-4061
▁forschung	-4062
unch	-4063
▁geld	-4064
▁2004	-4065
▁urlaub	-4066
▁ult	-4067
▁miles	-4068
▁sustain	-4069
▁maß	-4070
▁les	-4071
▁fully	-4072
▁comments	-4073
ctive	-4074
▁store	-4075
▁jud	-4076
▁dez	-4077
▁mitarbeiter	-4078
▁millionen	-4079
▁maximum	-4080
▁reason	-4081
▁analysis	-4082
▁erfahren	-4083
▁document	-4084
▁mehrere	-4085
▁signific	-4086
13	-4087
racht	-4088
asing	-4089
▁cities	-4090
▁fig	-4091
zip	-4092
besch	-4093
olit	-4094
▁skip	-4095
iled	-4096
▁contra	-4097
▁estate	-4098
▁itself	-4099
ams	-4100
▁resour	-4101
▁tal	-4102
▁images	-4103
▁klein	-4104
▁einsch	-4105
▁startseite	-4106
▁fert	-4107
▁nichts	-4108
▁advant	-4109
▁ermöglich	-4110
anc	-4111
▁gruppe	-4112
fläche	-4113
▁plann	-4114
bon	-4115
▁natürlich	-4116
▁stunden	-4117
▁frankreich	-4118
▁half	-4119
richtung	-4120
utet	-4121
▁education	-4122
▁bzw	-4123
▁exhibition	-4124
▁york	-4125
▁daher	-4126
▁besser	-4127
▁farbe	-4128
▁relax	-4129
▁benöt	-4130
▁friends	-4131
▁36	-4132
verl	-4133
▁passwort	-4134
▁zeigen	-4135
ki	-4136
▁ähnliche	-4137
aring	-4138
▁batter	-4139
fo	-4140
▁science	-4141
zt	-4142
▁schutz	-4143
▁tex	-4144
ims	-4145
park	-4146
▁oft	-4147
fahrt	-4148
zy	-4149
▁einger	-4150
▁gefunden	-4151
richten	-4152
agement	-4153
▁society	-4154
preis	-4155
ological	-4156
dam	-4157
▁wahl	-4158
▁hör	-4159
▁sum	-4160
▁pul	-4161
mas	-4162
elling	-4163
▁gesetz	-4164
shop	-4165
▁davon	-4166
sequ	-4167
24	-4168
house	-4169
▁prec	-4170
itzen	-4171
aves	-4172
▁lay	-4173
▁lauf	-4174
▁schreiben	-4175
akter	-4176
▁austria	-4177
▁worden	-4178
▁garant	-4179
aging	-4180
▁format	-4181
▁augen	-4182
hotel	-4183
▁approx	-4184
▁frauen	-4185
▁män	-4186
▁almost	-4187
▁dafür	-4188
▁comes	-4189
▁vehic	-4190
▁culture	-4191
ilar	-4192
▁items	-4193
▁toilet	-4194
▁ganze	-4195
▁played	-4196
▁symbol	-4197
▁needs	-4198
▁steel	-4199
▁mitglied	-4200
▁gesamt	-4201
▁heav	-4202
▁knowledge	-4203
▁milit	-4204
▁peace	-4205
best	-4206
▁tools	-4207
▁political	-4208
▁erweiter	-4209
jähr	-4210
▁sett	-4211
▁märz	-4212
▁umgebung	-4213
▁neg	-4214
▁connection	-4215
▁december	-4216
▁death	-4217
▁vat	-4218
▁extrem	-4219
▁196	-4220
▁january	-4221
▁gelegen	-4222
▁rei	-4223
▁tags	-4224
▁wider	-4225
uche	-4226
▁therm	-4227
▁besuchen	-4228
▁simple	-4229
rieg	-4230
ienen	-4231
▁mobil	-4232
▁tats	-4233
▁tät	-4234
▁dv	-4235
▁grand	-4236
uzz	-4237
ogn	-4238
▁immed	-4239
▁deine	-4240
▁gerade	-4241
▁webseite	-4242
▁got	-4243
▁paper	-4244
▁father	-4245
▁sommer	-4246
▁boat	-4247
▁satell	-4248
hold	-4249
una	-4250
▁outd	-4251
▁fix	-4252
▁erhält	-4253
▁fuß	-4254
spra	-4255
▁bib	-4256
ieg	-4257
dle	-4258
,0	-4259
▁prozess	-4260
oration	-4261
geführt	-4262
▁foot	-4263
▁phase	-4264
▁hinaus	-4265
zeigt	-4266
▁bur	-4267
▁spezial	-4268
▁brit	-4269
▁dur	-4270
▁notwend	-4271
iences	-4272
▁falls	-4273
▁concern	-4274
unkte	-4275
▁wide	-4276
▁sug	-4277
▁innovative	-4278
▁tagen	-4279
▁43	-4280
▁guide	-4281
▁imm	-4282
▁hostel	-4283
ban	-4284
▁ermöglicht	-4285
icated	-4286
▁gewicht	-4287
▁picture	-4288
▁marketing	-4289
▁fab	-4290
▁five	-4291
▁christian	-4292
abled	-4293
box	-4294
▁erforder	-4295
▁schle	-4296
▁gir	-4297
▁klass	-4298
bewert	-4299
▁adr	-4300
▁regul	-4301
▁hatten	-4302
eth	-4303
▁overview	-4304
▁says	-4305
-4	-4306
zif	-4307
▁director	-4308
▁basic	-4309
▁flat	-4310
stre	-4311
▁coun	-4312
▁zo	-4313
aint	-4314
alle	-4315
▁ergebnisse	-4316
wide	-4317
▁requirements	-4318
▁frühstück	-4319
▁detail	-4320
ola	-4321
▁englisch	-4322
iting	-4323
▁barcelona	-4324
▁wan	-4325
itzerland	-4326
▁average	-4327
▁intens	-4328
roid	-4329
▁li	-4330
ires	-4331
ross	-4332
ktor	-4333
istischen	-4334
▁standards	-4335
ählt	-4336
oten	-4337
atory	-4338
▁erhö	-4339
▁save	-4340
▁cannot	-4341
▁zeiten	-4342
gesamt	-4343
annt	-4344
▁early	-4345
▁payment	-4346
▁schm	-4347
▁nächsten	-4348
ari	-4349
▁switzerland	-4350
▁komplet	-4351
▁president	-4352
▁july	-4353
▁industrie	-4354
▁east	-4355
▁shows	-4356
ented	-4357
recht	-4358
ta	-4359
▁diam	-4360
einander	-4361
gehen	-4362
▁host	-4363
karte	-4364
erous	-4365
▁internationale	-4366
▁hire	-4367
▁04	-4368
▁ing	-4369
works	-4370
▁sitz	-4371
▁taken	-4372
▁gemacht	-4373
▁cultural	-4374
▁temperature	-4375
▁ara	-4376
wirt	-4377
igr	-4378
▁increase	-4379
ried	-4380
▁stär	-4381
▁spain	-4382
▁operation	-4383
▁mond	-4384
▁processing	-4385
▁warm	-4386
urance	-4387
gaben	-4388
▁paar	-4389
▁könnte	-4390
▁glas	-4391
aly	-4392
▁soon	-4393
▁pil	-4394
▁2.	-4395
▁forum	-4396
▁contrib	-4397
stoffe	-4398
▁wed	-4399
▁solche	-4400
▁thema	-4401
▁magaz	-4402
14	-4403
appen	-4404
sl	-4405
▁answer	-4406
▁alter	-4407
▁wein	-4408
▁obs	-4409
▁wi	-4410
▁warum	-4411
auen	-4412
▁introdu	-4413
▁dry	-4414
fs	-4415
▁prozent	-4416
▁groups	-4417
ierende	-4418
▁stad	-4419
atten	-4420
▁unterstützt	-4421
▁schlafzimmer	-4422
▁außerdem	-4423
ierenden	-4424
iegel	-4425
ichtet	-4426
▁administr	-4427
19	-4428
ierungen	-4429
▁probleme	-4430
▁kategorie	-4431
▁crit	-4432
▁similar	-4433
▁schwarz	-4434
▁erne	-4435
▁150	-4436
▁write	-4437
▁employe	-4438
iated	-4439
▁chrom	-4440
▁unit	-4441
▁jahres	-4442
▁making	-4443
▁solar	-4444
▁kauf	-4445
▁ther	-4446
▁januar	-4447
▁unters	-4448
▁provin	-4449
▁unterstützung	-4450
▁hersteller	-4451
▁ganzen	-4452
▁tell	-4453
▁includes	-4454
cm	-4455
hle	-4456
▁nachhalt	-4457
▁processes	-4458
▁länder	-4459
▁amaz	-4460
▁compar	-4461
ieten	-4462
eldung	-4463
uell	-4464
▁load	-4465
▁storage	-4466
▁dezember	-4467
stellen	-4468
bro	-4469
cont	-4470
▁terrace	-4471
▁ast	-4472
▁advanced	-4473
▁students	-4474
▁arran	-4475
▁foto	-4476
▁remove	-4477
▁connect	-4478
▁interessant	-4479
▁lake	-4480
▁bag	-4481
▁going	-4482
▁conference	-4483
▁juli	-4484
▁insgesamt	-4485
reicht	-4486
▁lager	-4487
▁einzig	-4488
▁determ	-4489
▁vorhanden	-4490
▁johann	-4491
uelle	-4492
▁intell	-4493
▁betre	-4494
▁param	-4495
▁kol	-4496
furt	-4497
▁american	-4498
▁wish	-4499
entwick	-4500
▁takes	-4501
▁regional	-4502
ente	-4503
▁invol	-4504
▁medical	-4505
ky	-4506
▁origin	-4507
inter	-4508
▁profession	-4509
▁anw	-4510
antly	-4511
▁track	-4512
▁bewer	-4513
▁produktion	-4514
▁continue	-4515
▁blumen	-4516
▁true	-4517
▁innovation	-4518
▁angebote	-4519
▁wine	-4520
▁chinese	-4521
▁programs	-4522
ging	-4523
ills	-4524
ometer	-4525
lang	-4526
▁prot	-4527
▁wild	-4528
32	-4529
▁roll	-4530
▁unbe	-4531
▁48	-4532
▁sagt	-4533
nete	-4534
▁erfü	-4535
▁kal	-4536
▁infr	-4537
haft	-4538
▁vielleicht	-4539
maschine	-4540
▁having	-4541
▁seen	-4542
▁credit	-4543
▁195	-4544
achten	-4545
▁remain	-4546
ampf	-4547
▁häuf	-4548
▁frame	-4549
▁anfang	-4550
ograf	-4551
▁inhalt	-4552
▁herrn	-4553
▁hohe	-4554
▁55	-4555
oking	-4556
▁lehr	-4557
bus	-4558
icult	-4559
pend	-4560
▁05	-4561
▁psy	-4562
nes	-4563
▁02	-4564
▁length	-4565
ilen	-4566
▁wäre	-4567
mat	-4568
▁schne	-4569
▁update	-4570
▁wegen	-4571
ago	-4572
▁erfahrung	-4573
▁vergessen	-4574
ikationen	-4575
kle	-4576
▁ball	-4577
▁implement	-4578
▁sure	-4579
ael	-4580
▁screen	-4581
ua	-4582
▁gegenüber	-4583
▁französ	-4584
▁komfort	-4585
▁forschungs	-4586
▁37	-4587
ordin	-4588
▁labor	-4589
▁194	-4590
ächen	-4591
▁cer	-4592
▁workshop	-4593
itar	-4594
ifi	-4595
▁official	-4596
-10	-4597
16	-4598
18	-4599
▁wand	-4600
▁tip	-4601
▁resort	-4602
▁highl	-4603
gefügt	-4604
▁übern	-4605
▁prüfen	-4606
▁architect	-4607
▁published	-4608
▁tä	-4609
▁badezimmer	-4610
eine	-4611
ata	-4612
▁anges	-4613
▁entfer	-4614
▁concept	-4615
▁strength	-4616
ceed	-4617
▁complex	-4618
▁änder	-4619
▁regular	-4620
uis	-4621
forsch	-4622
▁mail	-4623
▁erlaubt	-4624
▁belg	-4625
▁exec	-4626
usion	-4627
stattung	-4628
▁quant	-4629
▁promot	-4630
aily	-4631
iment	-4632
▁genießen	-4633
aps	-4634
▁vac	-4635
▁longer	-4636
gliche	-4637
▁adj	-4638
▁impressum	-4639
▁platform	-4640
▁minister	-4641
▁potential	-4642
imming	-4643
▁six	-4644
▁chann	-4645
alität	-4646
▁2003	-4647
▁components	-4648
▁beginning	-4649
▁verbunden	-4650
▁städte	-4651
▁höhe	-4652
▁role	-4653
reise	-4654
vention	-4655
ored	-4656
▁difficult	-4657
technik	-4658
sta	-4659
bü	-4660
col	-4661
▁reisen	-4662
▁staff	-4663
▁path	-4664
▁medizin	-4665
cep	-4666
▁bedeutet	-4667
▁cru	-4668
▁patient	-4669
▁kingdom	-4670
▁empfehlen	-4671
flug	-4672
ativen	-4673
frei	-4674
▁entfernen	-4675
▁measure	-4676
▁39	-4677
▁struktur	-4678
▁jer	-4679
▁anfrage	-4680
behör	-4681
▁bon	-4682
▁outdoor	-4683
ml	-4684
▁deta	-4685
▁alten	-4686
aces	-4687
▁il	-4688
inden	-4689
▁privat	-4690
▁supply	-4691
▁bege	-4692
▁leading	-4693
-11	-4694
ivil	-4695
▁mini	-4696
▁folgende	-4697
▁ban	-4698
▁ruh	-4699
▁subst	-4700
▁indem	-4701
▁gewähr	-4702
▁schre	-4703
▁weiteren	-4704
▁princip	-4705
▁amb	-4706
▁round	-4707
▁graph	-4708
gleich	-4709
▁gb	-4710
▁zuf	-4711
▁wechsel	-4712
▁manager	-4713
▁organisation	-4714
▁hinzugefügt	-4715
▁ergebnis	-4716
▁went	-4717
▁daily	-4718
▁farben	-4719
▁verwendung	-4720
lungs	-4721
▁flights	-4722
-5	-4723
besondere	-4724
▁alex	-4725
▁persons	-4726
▁loss	-4727
▁visitors	-4728
▁circ	-4729
▁final	-4730
▁hyd	-4731
amin	-4732
pla	-4733
▁kin	-4734
▁aufgrund	-4735
▁multip	-4736
▁words	-4737
wirtschaft	-4738
ystem	-4739
▁stellt	-4740
▁prior	-4741
▁foundation	-4742
▁psych	-4743
▁allows	-4744
▁stück	-4745
rect	-4746
wa	-4747
▁held	-4748
▁ländern	-4749
▁views	-4750
▁leit	-4751
ought	-4752
letz	-4753
▁mix	-4754
log	-4755
▁spr	-4756
▁himm	-4757
▁einzigart	-4758
▁geeign	-4759
▁climate	-4760
▁sä	-4761
▁ansch	-4762
▁pages	-4763
▁vien	-4764
▁ebenfalls	-4765
▁besonder	-4766
teilt	-4767
arte	-4768
▁kompon	-4769
ässt	-4770
▁kons	-4771
▁received	-4772
▁sav	-4773
imes	-4774
▁überw	-4775
osen	-4776
▁rating	-4777
uchs	-4778
▁models	-4779
▁senden	-4780
band	-4781
▁ausgew	-4782
▁tat	-4783
hnen	-4784
▁anwendung	-4785
▁engineering	-4786
▁consult	-4787
see	-4788
▁portug	-4789
fun	-4790
▁jedem	-4791
▁lis	-4792
▁growth	-4793
▁mode	-4794
ij	-4795
▁insbesondere	-4796
28	-4797
35	-4798
▁enthält	-4799
▁foreign	-4800
sein	-4801
▁zusammenarbeit	-4802
▁block	-4803
bewer	-4804
▁wach	-4805
▁unternehmens	-4806
▁snow	-4807
▁divers	-4808
▁season	-4809
▁rub	-4810
▁verbess	-4811
▁patent	-4812
▁higher	-4813
izes	-4814
▁changes	-4815
cil	-4816
▁salz	-4817
▁hon	-4818
markt	-4819
ferenz	-4820
▁dress	-4821
▁75	-4822
▁coup	-4823
▁mur	-4824
angel	-4825
▁boden	-4826
▁player	-4827
▁thom	-4828
abhäng	-4829
▁vollständ	-4830
▁nah	-4831
▁association	-4832
▁audio	-4833
▁domin	-4834
▁herzen	-4835
▁thought	-4836
▁ads	-4837
altet	-4838
▁dialog	-4839
yp	-4840
▁options	-4841
▁route	-4842
▁vict	-4843
erei	-4844
zeitig	-4845
▁ausgestattet	-4846
▁03	-4847
▁bahn	-4848
freund	-4849
▁monitor	-4850
▁wenig	-4851
▁device	-4852
▁dokument	-4853
▁bedeutung	-4854
ground	-4855
▁generation	-4856
▁distance	-4857
▁grad	-4858
17	-4859
▁vertre	-4860
▁wonder	-4861
▁advert	-4862
▁communication	-4863
▁bern	-4864
▁tab	-4865
tended	-4866
▁woche	-4867
▁por	-4868
pp	-4869
▁swimming	-4870
▁operating	-4871
▁late	-4872
▁elektron	-4873
▁base	-4874
▁destination	-4875
▁technologie	-4876
▁david	-4877
▁metal	-4878
▁....	-4879
▁befinden	-4880
ula	-4881
gef	-4882
▁profit	-4883
swürd	-4884
▁dusche	-4885
▁demand	-4886
▁bit	-4887
▁cam	-4888
▁edition	-4889
▁sle	-4890
ühren	-4891
ania	-4892
▁institut	-4893
▁android	-4894
▁gehört	-4895
▁comment	-4896
▁vergangen	-4897
▁traditional	-4898
▁accept	-4899
▁technische	-4900
▁konst	-4901
▁vit	-4902
▁öffnen	-4903
hang	-4904
▁easily	-4905
ielle	-4906
ira	-4907
▁capac	-4908
▁alternative	-4909
was	-4910
▁pick	-4911
▁born	-4912
▁river	-4913
asons	-4914
ena	-4915
▁pressure	-4916
time	-4917
halte	-4918
▁unten	-4919
▁deut	-4920
zentrum	-4921
▁185	-4922
▁iron	-4923
▁studio	-4924
▁themselves	-4925
▁demon	-4926
wel	-4927
▁sicht	-4928
eral	-4929
▁infrast	-4930
▁expla	-4931
▁square	-4932
▁hair	-4933
hre	-4934
▁profil	-4935
gruppe	-4936
▁completely	-4937
▁dessen	-4938
▁hung	-4939
hung	-4940
▁verbesser	-4941
zess	-4942
▁except	-4943
airs	-4944
▁surface	-4945
zeuge	-4946
▁mutter	-4947
▁führt	-4948
▁touch	-4949
▁flowers	-4950
▁allowed	-4951
▁lösung	-4952
▁famous	-4953
▁section	-4954
ym	-4955
iend	-4956
artet	-4957
▁aqu	-4958
▁unver	-4959
bas	-4960
▁staaten	-4961
▁western	-4962
▁seg	-4963
▁charge	-4964
▁schritt	-4965
▁cooperation	-4966
▁bestät	-4967
mals	-4968
▁commer	-4969
▁bot	-4970
▁jack	-4971
▁sonn	-4972
▁outside	-4973
▁rang	-4974
ühr	-4975
iegen	-4976
▁modell	-4977
▁fehler	-4978
▁frankfurt	-4979
▁transform	-4980
▁nice	-4981
▁messe	-4982
orm	-4983
▁pfl	-4984
▁lic	-4985
ternal	-4986
▁gefü	-4987
▁lif	-4988
▁vertra	-4989
▁kühl	-4990
▁thous	-4991
ölker	-4992
▁verst	-4993
ietung	-4994
emb	-4995
▁manufacturer	-4996
▁done	-4997
ption	-4998
-7	-4999
äuser	-5000
▁america	-5001
▁strom	-5002
▁presse	-5003
▁cool	-5004
künfte	-5005
▁enthalten	-5006
zeiten	-5007
umn	-5008
▁match	-5009
▁2002	-5010
▁kennen	-5011
▁slow	-5012
chem	-5013
▁aussch	-5014
▁direction	-5015
sd	-5016
▁sohn	-5017
ieht	-5018
▁forg	-5019
ography	-5020
▁treatment	-5021
▁feature	-5022
▁dark	-5023
▁middle	-5024
▁klar	-5025
este	-5026
istance	-5027
▁förder	-5028
▁talk	-5029
▁gemeinsam	-5030
▁saint	-5031
▁pries	-5032
▁42	-5033
▁flight	-5034
▁veränder	-5035
iately	-5036
nal	-5037
▁studies	-5038
ender	-5039
bad	-5040
▁sky	-5041
▁nutzung	-5042
▁bott	-5043
▁selected	-5044
icherung	-5045
iser	-5046
▁kommentare	-5047
▁leave	-5048
▁fant	-5049
hend	-5050
oke	-5051
exe	-5052
▁installed	-5053
▁aktivitäten	-5054
ither	-5055
▁halten	-5056
▁eins	-5057
▁aff	-5058
atives	-5059
▁classic	-5060
▁cit	-5061
ras	-5062
▁opening	-5063
▁cable	-5064
▁boats	-5065
site	-5066
▁secure	-5067
▁mission	-5068
▁objekt	-5069
▁approach	-5070
▁sollen	-5071
▁überprü	-5072
grö	-5073
▁wal	-5074
bu	-5075
ausch	-5076
▁types	-5077
▁hohen	-5078
▁bos	-5079
wasser	-5080
▁gallery	-5081
▁selection	-5082
▁towards	-5083
▁besucher	-5084
▁responsible	-5085
▁wohnung	-5086
▁puzz	-5087
▁prob	-5088
▁fel	-5089
▁flü	-5090
ängen	-5091
zeugen	-5092
▁trotz	-5093
▁gerne	-5094
datei	-5095
▁particularly	-5096
▁lower	-5097
▁positive	-5098
▁terrasse	-5099
▁highly	-5100
▁durchschnitt	-5101
▁anspr	-5102
▁flo	-5103
leitung	-5104
pap	-5105
griff	-5106
position	-5107
lines	-5108
pose	-5109
▁yes	-5110
▁coffee	-5111
▁gebäude	-5112
▁ingred	-5113
▁challen	-5114
▁cab	-5115
▁mother	-5116
▁presented	-5117
indust	-5118
▁santa	-5119
ford	-5120
▁lad	-5121
99	-5122
uted	-5123
▁spanien	-5124
änden	-5125
▁skin	-5126
▁stil	-5127
▁deal	-5128
▁largest	-5129
▁cases	-5130
▁academ	-5131
▁across	-5132
wohl	-5133
▁quickly	-5134
▁simply	-5135
dings	-5136
arter	-5137
▁status	-5138
▁nr	-5139
▁andre	-5140
▁scheint	-5141
xis	-5142
adresse	-5143
lim	-5144
▁vorher	-5145
▁suite	-5146
▁eigene	-5147
gn	-5148
straße	-5149
ural	-5150
illa	-5151
▁italian	-5152
far	-5153
▁trä	-5154
▁erd	-5155
▁klimaanlage	-5156
▁mex	-5157
agt	-5158
▁michael	-5159
isieren	-5160
rock	-5161
▁marken	-5162
▁erreicht	-5163
ura	-5164
quem	-5165
▁kostenlose	-5166
uert	-5167
schein	-5168
▁medium	-5169
▁ensure	-5170
▁registrieren	-5171
▁insurance	-5172
▁agen	-5173
geber	-5174
sweise	-5175
▁alumin	-5176
▁richtung	-5177
▁leistungs	-5178
▁möchte	-5179
yer	-5180
▁gilt	-5181
▁gegeben	-5182
mission	-5183
▁anti	-5184
▁44	-5185
▁accessories	-5186
▁percent	-5187
atte	-5188
▁fru	-5189
▁started	-5190
▁calc	-5191
haltung	-5192
▁lösungen	-5193
▁ded	-5194
▁zugang	-5195
▁matter	-5196
▁siehe	-5197
▁heating	-5198
▁amount	-5199
▁institution	-5200
usst	-5201
▁vorteile	-5202
▁schwier	-5203
▁chance	-5204
▁release	-5205
▁acqu	-5206
▁wifi	-5207
▁immediately	-5208
yright	-5209
führer	-5210
zufügen	-5211
▁vienna	-5212
▁rä	-5213
hab	-5214
▁forward	-5215
▁abend	-5216
▁nahe	-5217
aged	-5218
▁silver	-5219
▁ker	-5220
▁birth	-5221
▁maschinen	-5222
▁viol	-5223
▁morn	-5224
▁akzept	-5225
▁erf	-5226
uck	-5227
▁resources	-5228
▁employees	-5229
▁reli	-5230
ole	-5231
▁drill	-5232
install	-5233
▁wil	-5234
iko	-5235
▁außen	-5236
▁commission	-5237
▁maria	-5238
▁meiner	-5239
kont	-5240
auber	-5241
▁rolle	-5242
▁worldwide	-5243
▁verfol	-5244
▁element	-5245
▁bür	-5246
▁wett	-5247
▁describ	-5248
▁dele	-5249
▁mitglieder	-5250
▁umfang	-5251
▁integration	-5252
ares	-5253
▁arab	-5254
istik	-5255
▁gene	-5256
istische	-5257
uh	-5258
ades	-5259
klärung	-5260
▁betriebs	-5261
▁prep	-5262
▁menge	-5263
▁fem	-5264
igungs	-5265
▁recogn	-5266
▁kat	-5267
▁ung	-5268
▁draw	-5269
▁hochwert	-5270
▁fä	-5271
▁tie	-5272
▁eleg	-5273
▁wc	-5274
▁emot	-5275
▁deep	-5276
fung	-5277
▁methods	-5278
▁integrated	-5279
▁wun	-5280
▁193	-5281
▁compare	-5282
▁vater	-5283
ertain	-5284
▁tages	-5285
▁bekommen	-5286
▁verkehr	-5287
▁hü	-5288
▁avis	-5289
▁deshalb	-5290
arian	-5291
ätte	-5292
▁bequem	-5293
▁vent	-5294
▁ib	-5295
▁gere	-5296
▁either	-5297
▁aktuelle	-5298
▁risk	-5299
sport	-5300
▁chines	-5301
▁vision	-5302
▁hosp	-5303
▁ändern	-5304
▁eigenschaften	-5305
▁fields	-5306
▁bä	-5307
lebr	-5308
▁fried	-5309
▁geeignet	-5310
▁münchen	-5311
▁quelle	-5312
▁urspr	-5313
öffnet	-5314
stud	-5315
▁veröffentlicht	-5316
▁structure	-5317
▁deg	-5318
endes	-5319
▁tel	-5320
▁madr	-5321
▁findet	-5322
agram	-5323
▁federal	-5324
▁nachdem	-5325
▁baby	-5326
▁seems	-5327
▁morning	-5328
▁produz	-5329
▁funktionen	-5330
▁aufge	-5331
▁technologies	-5332
programm	-5333
▁statement	-5334
▁guten	-5335
▁def	-5336
▁bestehen	-5337
▁became	-5338
iellen	-5339
▁zweiten	-5340
ickt	-5341
▁thomas	-5342
▁wunder	-5343
das	-5344
▁situated	-5345
▁balk	-5346
▁demonstr	-5347
arf	-5348
pel	-5349
▁corporate	-5350
organ	-5351
▁veranstaltungen	-5352
▁entw	-5353
▁dub	-5354
▁comfortable	-5355
möglichkeit	-5356
▁sonst	-5357
,3	-5358
▁england	-5359
▁rather	-5360
abet	-5361
▁usd	-5362
▁schöne	-5363
▁attention	-5364
▁gift	-5365
▁beruf	-5366
▁gleichen	-5367
▁behind	-5368
setzung	-5369
▁dvd	-5370
,7	-5371
▁erde	-5372
version	-5373
▁versuchen	-5374
▁heim	-5375
ida	-5376
▁steuer	-5377
▁interview	-5378
▁former	-5379
windigkeit	-5380
immung	-5381
▁400	-5382
▁enterpr	-5383
kan	-5384
▁panor	-5385
▁que	-5386
▁automatically	-5387
▁munich	-5388
▁entfernung	-5389
ächlich	-5390
▁ferienwohn	-5391
▁lässt	-5392
22	-5393
werke	-5394
▁caus	-5395
gene	-5396
▁fly	-5397
uel	-5398
▁aufenthalt	-5399
▁unabhäng	-5400
how	-5401
▁professor	-5402
estens	-5403
▁philos	-5404
▁rail	-5405
▁aktual	-5406
pon	-5407
▁inside	-5408
▁titel	-5409
ny	-5410
fest	-5411
▁leb	-5412
ierter	-5413
,8	-5414
informationen	-5415
▁coast	-5416
▁entste	-5417
▁werde	-5418
▁artist	-5419
ops	-5420
griffe	-5421
▁africa	-5422
▁dish	-5423
▁kontaktieren	-5424
▁washing	-5425
▁glück	-5426
▁65	-5427
swürdigkeiten	-5428
wissen	-5429
ilien	-5430
▁gleichzeitig	-5431
bezogen	-5432
▁choice	-5433
▁bringen	-5434
▁lack	-5435
▁downloads	-5436
atible	-5437
vere	-5438
▁anz	-5439
▁quite	-5440
son	-5441
▁metall	-5442
▁europcar	-5443
▁champ	-5444
umente	-5445
▁appear	-5446
ruf	-5447
▁tief	-5448
▁inspir	-5449
▁abge	-5450
▁bisher	-5451
uk	-5452
▁spl	-5453
▁yourself	-5454
igsten	-5455
▁roy	-5456
vin	-5457
▁premium	-5458
▁krit	-5459
▁solid	-5460
▁herunterladen	-5461
angebote	-5462
▁ost	-5463
orial	-5464
eks	-5465
▁visual	-5466
▁hast	-5467
▁grie	-5468
schule	-5469
▁madrid	-5470
▁verpf	-5471
▁stell	-5472
▁department	-5473
▁becom	-5474
bra	-5475
▁rise	-5476
produkte	-5477
onen	-5478
▁libr	-5479
▁wesent	-5480
fragen	-5481
▁magnet	-5482
▁bezieh	-5483
dienst	-5484
weet	-5485
▁dog	-5486
▁konto	-5487
lag	-5488
64	-5489
print	-5490
▁alth	-5491
etic	-5492
▁republic	-5493
▁interesting	-5494
▁advent	-5495
▁automatisch	-5496
rel	-5497
vo	-5498
▁letzte	-5499
▁whe	-5500
▁meters	-5501
▁story	-5502
▁nachrichten	-5503
▁remember	-5504
wär	-5505
▁contains	-5506
pan	-5507
spl	-5508
▁früher	-5509
▁himself	-5510
▁3.	-5511
pekt	-5512
liegen	-5513
▁pleas	-5514
,4	-5515
▁--	-5516
▁conditioning	-5517
annten	-5518
sb	-5519
▁jugend	-5520
anken	-5521
▁devices	-5522
▁nothing	-5523
▁starting	-5524
▁microsoft	-5525
linien	-5526
▁spielte	-5527
▁articles	-5528
▁taking	-5529
▁hause	-5530
kr	-5531
▁telephone	-5532
▁condu	-5533
▁fresh	-5534
▁highest	-5535
etten	-5536
▁dynam	-5537
▁effiz	-5538
▁celebr	-5539
▁reasons	-5540
▁bett	-5541
bor	-5542
▁practice	-5543
möglichen	-5544
▁martin	-5545
▁copyright	-5546
erc	-5547
ustr	-5548
▁expect	-5549
▁thing	-5550
▁pattern	-5551
▁haut	-5552
dorf	-5553
▁keinen	-5554
▁sus	-5555
▁reihe	-5556
▁regen	-5557
▁journal	-5558
pool	-5559
inar	-5560
poses	-5561
ellow	-5562
träge	-5563
ücken	-5564
mente	-5565
isions	-5566
▁landsc	-5567
kur	-5568
stead	-5569
▁contract	-5570
▁zudem	-5571
ften	-5572
pal	-5573
ksam	-5574
ichts	-5575
▁rand	-5576
▁durchgeführt	-5577
▁kopf	-5578
▁kä	-5579
▁rank	-5580
▁leute	-5581
▁apply	-5582
zz	-5583
iro	-5584
ült	-5585
▁stage	-5586
▁erfolgreich	-5587
▁jose	-5588
code	-5589
▁öl	-5590
▁disabled	-5591
dis	-5592
▁faith	-5593
▁schließen	-5594
▁improve	-5595
▁interessantes	-5596
▁sess	-5597
▁ros	-5598
rolle	-5599
▁ready	-5600
▁gruppen	-5601
▁charakter	-5602
instit	-5603
▁rechte	-5604
▁golden	-5605
räge	-5606
▁dro	-5607
aff	-5608
ätzen	-5609
▁repla	-5610
inations	-5611
▁cra	-5612
▁caf	-5613
23	-5614
▁autor	-5615
▁dür	-5616
alerie	-5617
▁button	-5618
pass	-5619
▁niedr	-5620
▁wellness	-5621
▁120	-5622
▁fat	-5623
▁obwohl	-5624
▁although	-5625
▁authent	-5626
▁requests	-5627
▁historical	-5628
▁sek	-5629
▁math	-5630
iance	-5631
▁neuer	-5632
▁antwort	-5633
▁laden	-5634
▁orient	-5635
▁announ	-5636
▁exact	-5637
pected	-5638
▁truth	-5639
▁baum	-5640
▁nu	-5641
▁capacity	-5642
▁plug	-5643
▁happy	-5644
▁sell	-5645
▁parties	-5646
ashion	-5647
▁landes	-5648
icons	-5649
figur	-5650
ichert	-5651
▁anders	-5652
▁ath	-5653
▁thre	-5654
▁enough	-5655
▁doll	-5656
▁unterkünfte	-5657
▁plants	-5658
ffic	-5659
athol	-5660
ously	-5661
▁artists	-5662
▁betra	-5663
▁chrome	-5664
▁volk	-5665
▁puzzle	-5666
▁bike	-5667
wir	-5668
eu	-5669
bach	-5670
▁stein	-5671
sie	-5672
▁heiz	-5673
▁numerous	-5674
▁glauben	-5675
verm	-5676
key	-5677
▁fitness	-5678
▁mand	-5679
▁attack	-5680
▁tree	-5681
▁beds	-5682
▁elektr	-5683
▁initi	-5684
det	-5685
porary	-5686
▁holy	-5687
▁arten	-5688
▁independ	-5689
werte	-5690
rü	-5691
27	-5692
▁elements	-5693
unternehmen	-5694
▁happen	-5695
▁fen	-5696
▁offiz	-5697
meldung	-5698
han	-5699
▁projekte	-5700
▁ul	-5701
arbeitet	-5702
cen	-5703
▁entdecken	-5704
▁hund	-5705
hil	-5706
▁berüh	-5707
▁wün	-5708
ßt	-5709
▁enc	-5710
▁morgen	-5711
▁rh	-5712
idet	-5713
▁heiß	-5714
fully	-5715
mäßig	-5716
▁activity	-5717
gesellschaft	-5718
▁forest	-5719
mlich	-5720
▁force	-5721
▁tu	-5722
▁zer	-5723
▁studien	-5724
ingt	-5725
▁opportunity	-5726
▁compl	-5727
roffen	-5728
▁materialien	-5729
▁hd	-5730
▁trees	-5731
▁sonder	-5732
▁taus	-5733
lösung	-5734
▁written	-5735
erweise	-5736
nach	-5737
itude	-5738
▁gives	-5739
▁beachten	-5740
industrie	-5741
▁bauern	-5742
imed	-5743
▁decision	-5744
▁concert	-5745
▁scr	-5746
▁leistung	-5747
▁diagn	-5748
▁dimens	-5749
▁ms	-5750
orte	-5751
aking	-5752
ria	-5753
▁switch	-5754
▁beide	-5755
▁quiet	-5756
▁observ	-5757
▁throughout	-5758
▁mp	-5759
▁values	-5760
▁acht	-5761
▁exam	-5762
▁anc	-5763
hnt	-5764
▁won	-5765
,6	-5766
eden	-5767
▁boot	-5768
▁möglichkeiten	-5769
▁lines	-5770
▁temperatur	-5771
▁klim	-5772
▁einigen	-5773
▁multi	-5774
▁firma	-5775
▁beteil	-5776
▁visited	-5777
▁essential	-5778
▁zeich	-5779
▁46	-5780
▁farb	-5781
▁issues	-5782
▁gi	-5783
lam	-5784
bett	-5785
▁offered	-5786
▁wichtige	-5787
▁beschäft	-5788
gu	-5789
▁meinen	-5790
▁metho	-5791
▁sold	-5792
ächst	-5793
ronom	-5794
▁konz	-5795
ändig	-5796
▁prefer	-5797
▁satur	-5798
▁irgend	-5799
▁wolf	-5800
▁electronic	-5801
▁usb	-5802
▁connected	-5803
▁apps	-5804
▁kos	-5805
▁64	-5806
▁fashion	-5807
▁mü	-5808
▁ging	-5809
▁idea	-5810
▁datum	-5811
▁environmental	-5812
▁categor	-5813
▁hans	-5814
▁commit	-5815
▁export	-5816
▁limited	-5817
▁instead	-5818
▁harmon	-5819
plätze	-5820
▁parte	-5821
imately	-5822
▁increasing	-5823
▁emer	-5824
▁investment	-5825
▁jem	-5826
▁2001	-5827
tt	-5828
onds	-5829
rance	-5830
▁monat	-5831
▁frag	-5832
▁friendly	-5833
uffer	-5834
▁error	-5835
▁dete	-5836
volle	-5837
riften	-5838
geschlossen	-5839
erse	-5840
▁flash	-5841
▁kne	-5842
raucher	-5843
▁freed	-5844
gewöhn	-5845
▁progress	-5846
▁tod	-5847
ande	-5848
▁secret	-5849
▁vin	-5850
fluss	-5851
▁si	-5852
▁valen	-5853
itting	-5854
emat	-5855
▁recover	-5856
ängt	-5857
weisen	-5858
▁advance	-5859
▁philosoph	-5860
▁interpre	-5861
peratur	-5862
▁agreement	-5863
▁ingredients	-5864
ündet	-5865
▁forgot	-5866
▁marke	-5867
▁existing	-5868
▁dorf	-5869
▁reduz	-5870
▁belieb	-5871
▁dise	-5872
▁dinge	-5873
▁zert	-5874
▁council	-5875
▁produced	-5876
▁erstellen	-5877
▁purchase	-5878
king	-5879
kü	-5880
▁laser	-5881
▁tourist	-5882
teilen	-5883
▁blood	-5884
▁cloth	-5885
▁wire	-5886
▁mio	-5887
ield	-5888
▁hit	-5889
▁großer	-5890
▁depos	-5891
▁russian	-5892
▁250	-5893
tenance	-5894
▁began	-5895
▁shops	-5896
2.201	-5897
bi	-5898
▁1000	-5899
▁anforderungen	-5900
▁cry	-5901
▁sprachen	-5902
äufer	-5903
▁treffen	-5904
oid	-5905
▁dauer	-5906
▁zeichen	-5907
▁strip	-5908
▁hell	-5909
based	-5910
nummer	-5911
iction	-5912
▁41	-5913
▁beauty	-5914
▁album	-5915
▁flower	-5916
atung	-5917
-13	-5918
▁gehören	-5919
▁variety	-5920
▁ring	-5921
▁topics	-5922
▁geschen	-5923
▁faq	-5924
▁guarantee	-5925
▁shown	-5926
ibe	-5927
▁lag	-5928
▁stars	-5929
▁entscheiden	-5930
▁affe	-5931
▁dad	-5932
▁ukra	-5933
▁krieg	-5934
▁kran	-5935
west	-5936
▁regierung	-5937
alem	-5938
tex	-5939
▁ml	-5940
▁vö	-5941
riere	-5942
▁sites	-5943
▁conver	-5944
oker	-5945
▁menü	-5946
▁movement	-5947
▁urban	-5948
▁mitte	-5949
ugg	-5950
▁betrieb	-5951
▁3-	-5952
▁aust	-5953
nungen	-5954
▁cards	-5955
▁ebenso	-5956
▁catalog	-5957
▁exerc	-5958
▁dj	-5959
▁antwor	-5960
cement	-5961
tick	-5962
har	-5963
▁deutlich	-5964
hel	-5965
loss	-5966
ported	-5967
▁47	-5968
hens	-5969
▁cars	-5970
▁infe	-5971
▁lyr	-5972
▁himmel	-5973
▁alp	-5974
▁lives	-5975
▁effects	-5976
aming	-5977
▁cat	-5978
ya	-5979
iency	-5980
▁expos	-5981
set	-5982
▁opin	-5983
▁setzen	-5984
ador	-5985
▁aktuell	-5986
▁camera	-5987
ita	-5988
uellen	-5989
▁moderne	-5990
wise	-5991
▁heat	-5992
▁nar	-5993
▁jahrhundert	-5994
vey	-5995
nel	-5996
zeichen	-5997
▁purpose	-5998
▁balcon	-5999
▁roman	-6000
isp	-6001
▁verz	-6002
▁cup	-6003
▁burn	-6004
▁documents	-6005
erklärung	-6006
uls	-6007
▁cosmet	-6008
▁established	-6009
▁mountains	-6010
▁fäh	-6011
▁casino	-6012
kennen	-6013
vis	-6014
▁wachst	-6015
▁erhältlich	-6016
▁islands	-6017
▁auftrag	-6018
▁fine	-6019
▁weeks	-6020
▁allerdings	-6021
▁ox	-6022
▁amster	-6023
ulen	-6024
▁move	-6025
▁district	-6026
zig	-6027
▁clients	-6028
▁saw	-6029
ichern	-6030
▁prepar	-6031
▁zwar	-6032
▁hinzufügen	-6033
karten	-6034
netz	-6035
▁verkaufen	-6036
▁optimal	-6037
design	-6038
card	-6039
▁though	-6040
▁staat	-6041
▁technischen	-6042
apest	-6043
ordnung	-6044
▁effekt	-6045
▁purposes	-6046
folio	-6047
▁languages	-6048
no	-6049
▁valid	-6050
▁unterstützen	-6051
head	-6052
▁feedback	-6053
▁ga	-6054
äm	-6055
▁ausstellung	-6056
liothe	-6057
▁cand	-6058
▁190	-6059
▁spanish	-6060
▁zoom	-6061
ücke	-6062
iture	-6063
▁sinn	-6064
▁houses	-6065
▁sund	-6066
▁übersicht	-6067
rane	-6068
elte	-6069
▁chair	-6070
▁linked	-6071
▁asked	-6072
▁issue	-6073
▁court	-6074
▁aluminium	-6075
▁broad	-6076
oft	-6077
▁contem	-6078
▁practition	-6079
▁alte	-6080
▁sense	-6081
▁lamp	-6082
▁scientific	-6083
will	-6084
▁jung	-6085
onom	-6086
▁commercial	-6087
enk	-6088
▁einkauf	-6089
.10	-6090
▁sector	-6091
▁angezeigt	-6092
▁maintenance	-6093
mitteln	-6094
▁meinem	-6095
▁straße	-6096
attform	-6097
▁panel	-6098
▁settings	-6099
▁disco	-6100
▁levels	-6101
itur	-6102
cal	-6103
▁medic	-6104
▁distribution	-6105
▁effective	-6106
▁comput	-6107
▁spezif	-6108
aum	-6109
icks	-6110
▁spect	-6111
▁stabil	-6112
hard	-6113
ächt	-6114
▁anbieter	-6115
▁goods	-6116
▁locations	-6117
▁zubehör	-6118
▁rap	-6119
▁alph	-6120
▁woman	-6121
▁valencia	-6122
▁wettbewer	-6123
▁ok	-6124
aktion	-6125
▁actually	-6126
▁absolute	-6127
▁height	-6128
▁motiv	-6129
icip	-6130
resp	-6131
▁machines	-6132
vermietung	-6133
▁netzwerk	-6134
▁einrichtungen	-6135
uchten	-6136
llig	-6137
▁desk	-6138
ores	-6139
azz	-6140
▁opened	-6141
▁fahren	-6142
▁budd	-6143
▁unseres	-6144
▁fish	-6145
haf	-6146
▁window	-6147
▁bleibt	-6148
eits	-6149
▁minute	-6150
cling	-6151
▁pin	-6152
▁amsterdam	-6153
▁größte	-6154
▁somit	-6155
umb	-6156
▁seines	-6157
▁trend	-6158
▁beispielsweise	-6159
▁ped	-6160
▁calend	-6161
▁lik	-6162
▁romant	-6163
▁orch	-6164
▁mindestens	-6165
▁coming	-6166
▁bedingungen	-6167
▁books	-6168
▁protect	-6169
▁feld	-6170
▁parad	-6171
▁decor	-6172
.200	-6173
▁castle	-6174
▁valley	-6175
▁categories	-6176
▁evening	-6177
▁title	-6178
▁gesamte	-6179
öst	-6180
▁franc	-6181
▁listen	-6182
▁erstellt	-6183
▁gesamten	-6184
▁daran	-6185
▁sustainable	-6186
▁relevant	-6187
▁hope	-6188
anda	-6189
▁hands	-6190
▁firmen	-6191
▁performed	-6192
▁yout	-6193
,2	-6194
▁arrival	-6195
▁brought	-6196
▁bol	-6197
▁planning	-6198
endet	-6199
▁thank	-6200
▁satis	-6201
▁geboren	-6202
▁functions	-6203
▁meaning	-6204
▁eye	-6205
▁tier	-6206
▁scre	-6207
▁pure	-6208
▁separate	-6209
ktions	-6210
here	-6211
▁mis	-6212
minister	-6213
▁joint	-6214
▁hardware	-6215
▁elegant	-6216
▁ps	-6217
▁plastic	-6218
ädchen	-6219
▁economy	-6220
orge	-6221
▁tragen	-6222
▁gemeinschaft	-6223
▁haup	-6224
▁höher	-6225
ci	-6226
▁einzelnen	-6227
▁networks	-6228
akte	-6229
▁öffentlichen	-6230
eless	-6231
▁glob	-6232
entwicklung	-6233
▁surpr	-6234
▁finally	-6235
▁perman	-6236
▁rechn	-6237
▁konnten	-6238
▁monate	-6239
▁external	-6240
▁index	-6241
▁sechs	-6242
▁cott	-6243
▁usually	-6244
▁hu	-6245
dete	-6246
▁tut	-6247
hältnis	-6248
achtung	-6249
▁anwendungen	-6250
▁dach	-6251
75	-6252
▁flach	-6253
▁amazing	-6254
▁believe	-6255
lock	-6256
▁freedom	-6257
leitet	-6258
haupt	-6259
▁gemeinde	-6260
izing	-6261
fehl	-6262
▁combination	-6263
▁proph	-6264
▁ow	-6265
▁entsch	-6266
▁goal	-6267
verläss	-6268
▁theor	-6269
▁notice	-6270
ivity	-6271
▁collab	-6272
ieb	-6273
▁allein	-6274
▁lit	-6275
▁europäische	-6276
▁dien	-6277
▁youtube	-6278
▁subscrib	-6279
▁deaktiv	-6280
▁vertrag	-6281
itts	-6282
▁ways	-6283
▁informations	-6284
▁increased	-6285
▁effort	-6286
▁wichtigsten	-6287
▁whose	-6288
▁ideas	-6289
▁steps	-6290
▁kindern	-6291
▁gemäß	-6292
cd	-6293
▁spieler	-6294
▁iso	-6295
▁canada	-6296
apter	-6297
▁könnten	-6298
jo	-6299
▁blut	-6300
▁angaben	-6301
las	-6302
▁heiligen	-6303
uit	-6304
where	-6305
uchte	-6306
▁trav	-6307
material	-6308
▁volks	-6309
▁jen	-6310
▁vielf	-6311
▁angeboten	-6312
▁recent	-6313
▁krä	-6314
85	-6315
▁pak	-6316
▁museums	-6317
wst	-6318
lant	-6319
▁iv	-6320
zustellen	-6321
eg	-6322
wan	-6323
üsse	-6324
▁fan	-6325
▁dining	-6326
ypt	-6327
▁größten	-6328
▁liz	-6329
▁impact	-6330
▁kabel	-6331
▁sto	-6332
idel	-6333
iking	-6334
zeichnung	-6335
▁leiden	-6336
▁student	-6337
▁reports	-6338
▁forms	-6339
▁offering	-6340
▁wasch	-6341
▁pow	-6342
di	-6343
▁amerikan	-6344
▁proced	-6345
▁hour	-6346
▁konzentr	-6347
▁analyt	-6348
▁graf	-6349
▁drink	-6350
▁ergän	-6351
▁angem	-6352
cies	-6353
▁satellite	-6354
▁derzeit	-6355
▁measures	-6356
▁tom	-6357
▁module	-6358
▁belong	-6359
▁markets	-6360
ritte	-6361
rum	-6362
völker	-6363
▁slight	-6364
▁typical	-6365
▁aw	-6366
ellschaften	-6367
▁verbessern	-6368
▁kosmet	-6369
immen	-6370
ense	-6371
▁interested	-6372
▁rain	-6373
▁library	-6374
▁staats	-6375
▁wander	-6376
▁controll	-6377
▁signal	-6378
▁wis	-6379
ösen	-6380
▁einschließlich	-6381
▁stone	-6382
schlag	-6383
▁liber	-6384
▁komplex	-6385
▁brauchen	-6386
▁regarding	-6387
▁veget	-6388
▁aktuellen	-6389
▁länge	-6390
down	-6391
▁setting	-6392
nr	-6393
▁lost	-6394
▁entertain	-6395
▁wald	-6396
▁bedrooms	-6397
▁verf	-6398
▁zehn	-6399
▁cause	-6400
▁exz	-6401
▁mad	-6402
▁correct	-6403
▁halb	-6404
free	-6405
bald	-6406
▁verfahren	-6407
▁übertra	-6408
▁technik	-6409
▁rene	-6410
▁physical	-6411
point	-6412
▁hospital	-6413
omb	-6414
älter	-6415
ull	-6416
▁metres	-6417
itel	-6418
▁welches	-6419
▁erwachsen	-6420
atum	-6421
▁gegr	-6422
▁donner	-6423
▁schlüssel	-6424
▁datab	-6425
cell	-6426
arily	-6427
▁schrift	-6428
▁zugriffe	-6429
▁allgemeinen	-6430
▁weak	-6431
dll	-6432
chl	-6433
möglichkeiten	-6434
▁jew	-6435
ae	-6436
nam	-6437
▁haust	-6438
▁drucken	-6439
▁zahlreiche	-6440
forschung	-6441
▁upper	-6442
▁hafen	-6443
▁instruct	-6444
▁mineral	-6445
name	-6446
▁dol	-6447
▁präsident	-6448
▁rö	-6449
wood	-6450
▁zusätzliche	-6451
▁sozialen	-6452
▁grü	-6453
▁kommentar	-6454
ulpt	-6455
▁brief	-6456
station	-6457
▁teilnehmer	-6458
ürz	-6459
▁tues	-6460
ört	-6461
▁gratis	-6462
▁dut	-6463
▁einfache	-6464
▁civil	-6465
▁players	-6466
jen	-6467
known	-6468
▁door	-6469
▁independent	-6470
oon	-6471
▁volume	-6472
▁efficient	-6473
▁exter	-6474
gart	-6475
▁teile	-6476
▁obl	-6477
tellten	-6478
▁tipps	-6479
seit	-6480
▁landschaft	-6481
▁veröffentlich	-6482
▁zuverläss	-6483
▁prag	-6484
unehmen	-6485
▁autovermietung	-6486
für	-6487
▁imper	-6488
▁verstehen	-6489
bur	-6490
kenn	-6491
▁zun	-6492
▁seven	-6493
action	-6494
▁unto	-6495
▁eyes	-6496
ming	-6497
▁theater	-6498
26	-6499
▁learning	-6500
kraft	-6501
▁ly	-6502
▁85	-6503
temperatur	-6504
▁luxury	-6505
▁4-	-6506
▁gebiet	-6507
▁stahl	-6508
▁produktions	-6509
▁flexib	-6510
▁sauna	-6511
▁designer	-6512
▁nutzer	-6513
▁units	-6514
▁thurs	-6515
▁20.	-6516
merk	-6517
▁beob	-6518
95	-6519
reit	-6520
▁desp	-6521
▁sprechen	-6522
orden	-6523
mented	-6524
▁flexible	-6525
oz	-6526
schrank	-6527
atoren	-6528
▁54	-6529
▁registration	-6530
▁tuesday	-6531
▁magazine	-6532
cast	-6533
onnen	-6534
▁websites	-6535
▁schweizer	-6536
▁ehem	-6537
▁stutt	-6538
kop	-6539
idays	-6540
rik	-6541
▁registry	-6542
▁bm	-6543
▁gerät	-6544
▁everyone	-6545
▁therap	-6546
▁göt	-6547
dies	-6548
▁spons	-6549
aria	-6550
▁legen	-6551
▁komplett	-6552
▁rates	-6553
uern	-6554
▁beginnen	-6555
▁büro	-6556
▁zusätzlich	-6557
▁command	-6558
rechend	-6559
▁renov	-6560
▁1999	-6561
leistung	-6562
▁vehicle	-6563
▁nachricht	-6564
▁exkl	-6565
▁balcony	-6566
▁eure	-6567
▁extremely	-6568
usalem	-6569
▁kontin	-6570
▁ones	-6571
akes	-6572
▁entwickeln	-6573
▁recommended	-6574
-2019	-6575
▁bezug	-6576
okrat	-6577
▁neigh	-6578
oo	-6579
▁monaten	-6580
▁sout	-6581
▁arts	-6582
scht	-6583
▁annual	-6584
▁analyse	-6585
▁ausgewähl	-6586
▁running	-6587
▁bezahl	-6588
▁intel	-6589
▁dienstag	-6590
▁wär	-6591
▁thursday	-6592
▁laut	-6593
▁evaluation	-6594
▁jeweil	-6595
▁finn	-6596
▁frieden	-6597
▁zustand	-6598
▁wenige	-6599
▁zahlen	-6600
sf	-6601
▁häufig	-6602
▁ausgezeichnet	-6603
ützt	-6604
ala	-6605
▁wund	-6606
▁apple	-6607
▁flu	-6608
tec	-6609
▁internal	-6610
▁dead	-6611
▁career	-6612
iftung	-6613
▁000	-6614
▁ress	-6615
annen	-6616
rupt	-6617
▁kern	-6618
▁aer	-6619
▁entsprechenden	-6620
▁nut	-6621
▁formen	-6622
▁erfahrungen	-6623
▁chemical	-6624
tech	-6625
▁balkon	-6626
▁mention	-6627
urses	-6628
anlagen	-6629
▁race	-6630
▁varian	-6631
▁gross	-6632
bew	-6633
ema	-6634
▁fill	-6635
pol	-6636
itag	-6637
▁donnerstag	-6638
▁slo	-6639
kel	-6640
▁leaves	-6641
▁rab	-6642
▁australia	-6643
▁mt	-6644
ctors	-6645
▁jerusalem	-6646
▁auss	-6647
▁background	-6648
▁dates	-6649
▁entry	-6650
▁reprodu	-6651
▁appropr	-6652
▁mädchen	-6653
▁flugtick	-6654
▁ice	-6655
▁dip	-6656
▁kampf	-6657
orted	-6658
▁cleaning	-6659
▁advantage	-6660
amples	-6661
▁abonn	-6662
▁families	-6663
▁täglich	-6664
▁spot	-6665
iens	-6666
management	-6667
▁dadurch	-6668
▁compre	-6669
nd	-6670
▁ursprün	-6671
▁population	-6672
klass	-6673
minute	-6674
▁punkt	-6675
mun	-6676
pher	-6677
▁würden	-6678
▁charter	-6679
issions	-6680
▁regions	-6681
▁johannes	-6682
▁objects	-6683
▁sometimes	-6684
cedes	-6685
▁geschm	-6686
▁execut	-6687
▁moon	-6688
▁memory	-6689
▁transpar	-6690
78	-6691
▁straßen	-6692
▁adjust	-6693
▁expand	-6694
▁georg	-6695
▁politik	-6696
▁taste	-6697
▁interesse	-6698
gebiet	-6699
▁üb	-6700
▁kreuz	-6701
flächen	-6702
▁stelle	-6703
elten	-6704
▁sac	-6705
▁bey	-6706
▁demo	-6707
▁illustr	-6708
▁verwand	-6709
▁600	-6710
▁19.	-6711
▁ausl	-6712
mehr	-6713
▁denken	-6714
▁automatic	-6715
hes	-6716
▁efficiency	-6717
▁russia	-6718
▁erreich	-6719
▁fahrzeug	-6720
▁gain	-6721
▁stress	-6722
odes	-6723
cles	-6724
▁migr	-6725
▁launch	-6726
ora	-6727
▁flüge	-6728
▁städten	-6729
▁northern	-6730
▁infos	-6731
atib	-6732
▁spiritual	-6733
▁christmas	-6734
▁carry	-6735
▁mikro	-6736
▁chr	-6737
▁serie	-6738
▁hold	-6739
▁dedicated	-6740
linie	-6741
▁benefits	-6742
▁needed	-6743
iders	-6744
▁indic	-6745
▁kulture	-6746
ismo	-6747
▁fein	-6748
▁compatible	-6749
▁behandlung	-6750
▁submit	-6751
▁driver	-6752
▁scen	-6753
▁tips	-6754
▁vibr	-6755
▁painting	-6756
▁erhe	-6757
▁zone	-6758
▁zweite	-6759
▁reference	-6760
herstell	-6761
▁espa	-6762
wä	-6763
▁doing	-6764
nungs	-6765
▁aspect	-6766
▁tum	-6767
▁asia	-6768
▁bist	-6769
kam	-6770
▁besitz	-6771
▁kla	-6772
äum	-6773
▁arbeitet	-6774
▁experts	-6775
▁magn	-6776
▁allgemein	-6777
lesen	-6778
▁kredit	-6779
ded	-6780
▁interface	-6781
▁synth	-6782
▁fing	-6783
▁kilometer	-6784
▁police	-6785
▁autos	-6786
▁verpack	-6787
▁leistungen	-6788
▁weiterhin	-6789
▁core	-6790
▁architecture	-6791
▁stuttgart	-6792
▁montag	-6793
▁sah	-6794
screen	-6795
▁maintain	-6796
ifik	-6797
▁renew	-6798
▁pflege	-6799
▁corresp	-6800
▁founded	-6801
▁possib	-6802
▁56	-6803
▁agric	-6804
▁gewesen	-6805
▁cold	-6806
▁od	-6807
▁gesehen	-6808
▁shape	-6809
▁horiz	-6810
▁kra	-6811
▁fight	-6812
▁campsite	-6813
▁client	-6814
▁verarbeitung	-6815
▁tube	-6816
▁royal	-6817
▁vergleichen	-6818
▁karten	-6819
▁sobald	-6820
vi	-6821
▁setzt	-6822
▁gave	-6823
▁confirm	-6824
▁associated	-6825
▁mb	-6826
analy	-6827
▁jeweils	-6828
reifen	-6829
legung	-6830
▁sieht	-6831
▁pension	-6832
▁translation	-6833
▁ot	-6834
ielt	-6835
▁allgemeine	-6836
▁schönen	-6837
▁pad	-6838
lichkeiten	-6839
▁verfügen	-6840
▁sicherheits	-6841
▁temperatures	-6842
▁geräte	-6843
▁initiative	-6844
olo	-6845
▁erinn	-6846
▁bright	-6847
team	-6848
.11	-6849
▁oce	-6850
hood	-6851
maschinen	-6852
▁bein	-6853
▁59	-6854
▁cos	-6855
▁mall	-6856
▁sets	-6857
▁trends	-6858
▁wahrschein	-6859
▁edel	-6860
▁nether	-6861
cs	-6862
▁kombin	-6863
▁mercedes	-6864
frist	-6865
.01	-6866
▁kommunikation	-6867
▁label	-6868
▁surf	-6869
erschaft	-6870
▁praktiz	-6871
▁minimum	-6872
can	-6873
▁clim	-6874
place	-6875
▁yacht	-6876
aries	-6877
ourcen	-6878
▁favour	-6879
▁ereign	-6880
▁spread	-6881
▁conven	-6882
attle	-6883
gs	-6884
gruppen	-6885
grad	-6886
▁buildings	-6887
▁pflanzen	-6888
▁concentr	-6889
▁willkommen	-6890
▁doesn	-6891
▁besuche	-6892
▁recy	-6893
onia	-6894
▁suffer	-6895
▁traffic	-6896
▁jün	-6897
▁speichern	-6898
▁holidays	-6899
▁recently	-6900
▁wonderful	-6901
▁residence	-6902
▁lift	-6903
▁virtual	-6904
▁gespr	-6905
▁anderem	-6906
▁sunday	-6907
▁4.	-6908
▁competition	-6909
plant	-6910
▁za	-6911
▁package	-6912
▁freiz	-6913
▁erkennen	-6914
▁parkplatz	-6915
▁copy	-6916
▁gn	-6917
systeme	-6918
▁boote	-6919
iche	-6920
▁sensor	-6921
▁sonntag	-6922
▁theat	-6923
▁wahrheit	-6924
▁firm	-6925
▁girl	-6926
▁vorbereit	-6927
gegen	-6928
▁ras	-6929
▁tisch	-6930
▁rome	-6931
ato	-6932
▁significant	-6933
istan	-6934
▁53	-6935
▁erh	-6936
▁auswählen	-6937
ichter	-6938
▁adresse	-6939
▁perfekt	-6940
gesetzt	-6941
posed	-6942
üler	-6943
▁nom	-6944
▁manch	-6945
▁pip	-6946
▁strategy	-6947
▁comparison	-6948
icious	-6949
kap	-6950
ception	-6951
▁kenn	-6952
▁bringt	-6953
lad	-6954
▁tours	-6955
▁comprehens	-6956
▁experim	-6957
▁obtain	-6958
▁lieferung	-6959
▁flag	-6960
▁experiences	-6961
▁posit	-6962
ione	-6963
▁supported	-6964
▁enterprise	-6965
▁occur	-6966
▁erklärt	-6967
▁jähr	-6968
▁einheit	-6969
▁concl	-6970
▁ll	-6971
▁cult	-6972
▁lyrics	-6973
▁personenbezogen	-6974
▁orte	-6975
▁agritur	-6976
▁prevent	-6977
▁landscape	-6978
▁considered	-6979
zech	-6980
▁kro	-6981
bewertungen	-6982
do	-6983
zeugt	-6984
▁wednes	-6985
▁netherlands	-6986
▁packaging	-6987
-8	-6988
▁freitag	-6989
▁approximately	-6990
▁52	-6991
lem	-6992
ket	-6993
▁portfolio	-6994
indungen	-6995
▁tenn	-6996
▁voice	-6997
▁fruit	-6998
▁hintergrund	-6999
orgung	-7000
▁jac	-7001
▁hann	-7002
▁male	-7003
▁konferenz	-7004
isierte	-7005
▁reality	-7006
▁kilomet	-7007
▁deskt	-7008
▁compared	-7009
sens	-7010
▁lies	-7011
▁sieben	-7012
▁zerst	-7013
▁told	-7014
▁costa	-7015
▁thousands	-7016
▁schaffen	-7017
ürf	-7018
▁wundersch	-7019
wegen	-7020
▁luxem	-7021
▁assemb	-7022
▁completed	-7023
spiele	-7024
▁veranstaltung	-7025
▁kannst	-7026
▁bereichen	-7027
ulated	-7028
▁löschen	-7029
▁kennt	-7030
oter	-7031
▁trail	-7032
▁friday	-7033
ardin	-7034
▁furniture	-7035
ued	-7036
▁holl	-7037
uffet	-7038
▁richtige	-7039
▁sofa	-7040
▁anyway	-7041
▁schließlich	-7042
▁robert	-7043
ienz	-7044
cre	-7045
▁ermöglichen	-7046
▁campingplatz	-7047
iana	-7048
▁tö	-7049
▁erfolgt	-7050
▁target	-7051
▁absch	-7052
▁beitrag	-7053
uhl	-7054
▁detailed	-7055
▁krank	-7056
info	-7057
▁papier	-7058
▁visits	-7059
alender	-7060
häuser	-7061
upp	-7062
▁carried	-7063
igungen	-7064
eler	-7065
▁deposit	-7066
▁exclusive	-7067
älle	-7068
▁initial	-7069
▁wednesday	-7070
izer	-7071
institut	-7072
▁99	-7073
▁occup	-7074
▁subscribe	-7075
▁wanted	-7076
prä	-7077
▁atmosphere	-7078
▁piece	-7079
▁deaktiviert	-7080
▁praxis	-7081
▁erforderlich	-7082
▁mittwo	-7083
▁capt	-7084
road	-7085
enses	-7086
cious	-7087
▁inser	-7088
▁numbers	-7089
▁freuen	-7090
▁photograph	-7091
▁bildung	-7092
▁ceo	-7093
eters	-7094
▁consist	-7095
▁wunsch	-7096
zin	-7097
iang	-7098
comp	-7099
▁inhalts	-7100
▁ye	-7101
▁manufacturing	-7102
▁sche	-7103
▁powered	-7104
▁wro	-7105
▁beyond	-7106
inary	-7107
▁multiple	-7108
teten	-7109
▁assist	-7110
ales	-7111
▁ew	-7112
▁eingesetzt	-7113
▁bericht	-7114
▁rose	-7115
▁benötigen	-7116
▁inhalte	-7117
▁anf	-7118
mess	-7119
mut	-7120
▁männer	-7121
▁weihn	-7122
▁responsibility	-7123
▁ancient	-7124
umm	-7125
imal	-7126
stemen	-7127
▁mathemat	-7128
▁lebensmittel	-7129
▁proper	-7130
▁pas	-7131
imin	-7132
▁zusammenhang	-7133
ele	-7134
▁gefühl	-7135
34	-7136
stechn	-7137
▁involved	-7138
▁din	-7139
sprache	-7140
üd	-7141
gb	-7142
▁worked	-7143
ätten	-7144
this	-7145
▁bee	-7146
▁heizung	-7147
▁pets	-7148
▁cham	-7149
.-	-7150
iles	-7151
ller	-7152
▁bestellung	-7153
▁advantages	-7154
▁58	-7155
▁bestand	-7156
▁powerful	-7157
▁tow	-7158
▁heißt	-7159
standing	-7160
▁gespe	-7161
▁modernen	-7162
olitik	-7163
▁meist	-7164
▁czech	-7165
▁pun	-7166
▁verbesserung	-7167
▁gradu	-7168
▁leaders	-7169
▁liqu	-7170
▁patienten	-7171
partner	-7172
▁vern	-7173
▁organic	-7174
mand	-7175
▁stamm	-7176
▁curren	-7177
▁relationship	-7178
beschreibung	-7179
▁probably	-7180
ound	-7181
annung	-7182
▁displayed	-7183
▁bewegung	-7184
▁workers	-7185
emap	-7186
▁5-	-7187
▁mittwoch	-7188
▁intelligen	-7189
▁contemporary	-7190
▁herstellung	-7191
▁enable	-7192
apes	-7193
▁calendar	-7194
ohlen	-7195
▁participants	-7196
▁ext	-7197
▁india	-7198
▁bahnhof	-7199
▁italiano	-7200
▁budapest	-7201
▁aim	-7202
▁kapital	-7203
▁ire	-7204
▁suggest	-7205
▁agree	-7206
▁kranken	-7207
▁bars	-7208
▁poker	-7209
▁speziell	-7210
▁establish	-7211
29	-7212
irr	-7213
▁digit	-7214
▁carbon	-7215
▁ship	-7216
urb	-7217
▁universal	-7218
▁saturday	-7219
68	-7220
▁balance	-7221
esch	-7222
schriften	-7223
▁benutzen	-7224
▁output	-7225
ischem	-7226
▁wass	-7227
▁2-	-7228
▁reservation	-7229
▁samstag	-7230
qualität	-7231
▁berühm	-7232
▁committe	-7233
▁ht	-7234
gement	-7235
▁clock	-7236
▁quantity	-7237
▁monday	-7238
rieden	-7239
▁bilden	-7240
griffen	-7241
▁historischen	-7242
▁presentation	-7243
▁agency	-7244
▁bod	-7245
▁richtig	-7246
▁influ	-7247
▁esc	-7248
▁delete	-7249
▁paint	-7250
▁architektur	-7251
▁consists	-7252
▁kategorien	-7253
▁accep	-7254
verfahren	-7255
▁relativ	-7256
roy	-7257
▁battery	-7258
ritten	-7259
▁entscheidung	-7260
▁appropriate	-7261
▁join	-7262
▁hear	-7263
▁practical	-7264
▁einzige	-7265
▁decl	-7266
ville	-7267
▁freunde	-7268
▁names	-7269
mern	-7270
▁remains	-7271
▁playing	-7272
▁produkten	-7273
▁oly	-7274
▁trust	-7275
▁deals	-7276
fähigkeit	-7277
▁180	-7278
▁bestell	-7279
▁listed	-7280
▁applied	-7281
▁bald	-7282
steuer	-7283
▁animals	-7284
punkte	-7285
▁ech	-7286
▁ts	-7287
▁muß	-7288
▁angegeben	-7289
▁erwartet	-7290
▁drop	-7291
völkerung	-7292
▁eat	-7293
▁feuer	-7294
▁88	-7295
▁konzept	-7296
▁idee	-7297
gasse	-7298
▁tests	-7299
▁reading	-7300
▁ram	-7301
▁besucht	-7302
▁95	-7303
▁courses	-7304
amb	-7305
äge	-7306
▁erl	-7307
▁reform	-7308
iums	-7309
▁aufmer	-7310
▁christus	-7311
▁kühlschrank	-7312
▁besondere	-7313
▁agriturismo	-7314
▁infrastruct	-7315
geräte	-7316
▁wohnzimmer	-7317
dra	-7318
▁depending	-7319
▁posted	-7320
▁zür	-7321
▁chron	-7322
ani	-7323
▁sleep	-7324
▁eis	-7325
▁untersche	-7326
▁anzeige	-7327
▁spielfreie	-7328
▁assess	-7329
star	-7330
▁om	-7331
▁kombination	-7332
▁57	-7333
▁expected	-7334
▁suff	-7335
▁termin	-7336
rüst	-7337
chester	-7338
▁ltd	-7339
▁junge	-7340
krä	-7341
▁fro	-7342
▁anlagen	-7343
▁darin	-7344
iga	-7345
▁hill	-7346
▁manual	-7347
▁religion	-7348
▁else	-7349
▁fenster	-7350
▁context	-7351
▁bedien	-7352
ece	-7353
▁lose	-7354
▁fisch	-7355
used	-7356
mitt	-7357
▁songs	-7358
flüge	-7359
gerät	-7360
ensive	-7361
rical	-7362
▁dos	-7363
▁provider	-7364
▁angene	-7365
▁smartphone	-7366
▁sights	-7367
▁military	-7368
▁interpret	-7369
▁olymp	-7370
▁bridge	-7371
ikel	-7372
▁geschrieben	-7373
ikt	-7374
▁creative	-7375
▁manchmal	-7376
▁manufacturers	-7377
▁silber	-7378
kw	-7379
▁produce	-7380
▁meister	-7381
▁evangel	-7382
▁egypt	-7383
▁datens	-7384
▁accessible	-7385
▁fans	-7386
▁brands	-7387
▁durchs	-7388
blatt	-7389
▁institutions	-7390
standen	-7391
▁stick	-7392
wahl	-7393
▁benefit	-7394
▁sar	-7395
▁pieces	-7396
▁ireland	-7397
▁voc	-7398
irkungen	-7399
▁quarter	-7400
▁bess	-7401
ih	-7402
▁danach	-7403
prof	-7404
▁incor	-7405
▁maximal	-7406
▁practitioners	-7407
▁schule	-7408
wäsche	-7409
▁notwendig	-7410
▁interior	-7411
liothek	-7412
▁instruments	-7413
▁persönlichen	-7414
▁leider	-7415
▁database	-7416
ergeb	-7417
▁beträ	-7418
bewertung	-7419
iete	-7420
▁entertainment	-7421
isierten	-7422
▁seller	-7423
made	-7424
▁translate	-7425
iations	-7426
▁existen	-7427
look	-7428
body	-7429
otive	-7430
▁geworden	-7431
▁standort	-7432
lebnis	-7433
▁messen	-7434
ilation	-7435
▁2007-11	-7436
▁advice	-7437
▁ausz	-7438
jekten	-7439
▁colours	-7440
▁800	-7441
phones	-7442
▁dream	-7443
▁freizeit	-7444
orten	-7445
gende	-7446
▁darum	-7447
pm	-7448
▁francis	-7449
▁sonne	-7450
▁limit	-7451
▁begann	-7452
▁portra	-7453
66	-7454
▁republik	-7455
▁hergestellt	-7456
▁hätte	-7457
▁urs	-7458
▁spac	-7459
▁bought	-7460
▁diet	-7461
ringen	-7462
▁bürger	-7463
▁portugal	-7464
▁possibility	-7465
▁gewährle	-7466
list	-7467
▁walking	-7468
▁nic	-7469
▁2007-11-13	-7470
angs	-7471
▁journey	-7472
▁zuerst	-7473
vas	-7474
▁whom	-7475
▁doctor	-7476
wechsel	-7477
▁quart	-7478
year	-7479
▁bass	-7480
ikal	-7481
▁anything	-7482
▁cookie	-7483
▁ausstattung	-7484
▁goes	-7485
itze	-7486
friend	-7487
▁inklusive	-7488
▁günstige	-7489
rier	-7490
▁schreibt	-7491
▁haustiere	-7492
▁kompatib	-7493
▁croat	-7494
▁sorgen	-7495
▁task	-7496
enty	-7497
▁informieren	-7498
usted	-7499
▁brun	-7500
▁cad	-7501
ünsch	-7502
▁experien	-7503
▁organization	-7504
▁attach	-7505
▁visiting	-7506
▁karriere	-7507
▁deiner	-7508
▁british	-7509
▁tatsächlich	-7510
▁beein	-7511
▁nächste	-7512
▁departure	-7513
▁felt	-7514
▁konstru	-7515
▁soul	-7516
uc	-7517
▁remote	-7518
▁welcher	-7519
▁vehicles	-7520
▁instructions	-7521
▁lect	-7522
▁covered	-7523
▁erstklass	-7524
▁versandkosten	-7525
▁jungen	-7526
▁channels	-7527
▁wip	-7528
▁burg	-7529
▁jeweiligen	-7530
▁schloss	-7531
▁folge	-7532
after	-7533
▁manage	-7534
estra	-7535
formen	-7536
▁geheim	-7537
▁mediter	-7538
▁planet	-7539
▁fotograf	-7540
▁division	-7541
▁blät	-7542
▁bewusst	-7543
▁opportunities	-7544
▁consequ	-7545
icient	-7546
▁jederzeit	-7547
▁constit	-7548
▁linux	-7549
▁ausdruck	-7550
übers	-7551
anger	-7552
▁entsprechend	-7553
▁ankunft	-7554
ammlung	-7555
mitgl	-7556
▁certific	-7557
▁desktop	-7558
icherheit	-7559
▁anderer	-7560
schw	-7561
▁presence	-7562
quality	-7563
.2018	-7564
▁registered	-7565
▁occas	-7566
▁speicher	-7567
▁aufmerksam	-7568
▁gewalt	-7569
▁islam	-7570
▁promo	-7571
▁iii	-7572
▁traum	-7573
cond	-7574
▁inspe	-7575
▁bestimmten	-7576
letzt	-7577
gor	-7578
▁yellow	-7579
geln	-7580
▁pred	-7581
▁kids	-7582
gro	-7583
▁dll	-7584
▁ausgang	-7585
▁linie	-7586
▁enth	-7587
▁liefern	-7588
▁earl	-7589
-19	-7590
▁overall	-7591
eto	-7592
▁administration	-7593
▁aner	-7594
▁sud	-7595
▁reliable	-7596
▁salzburg	-7597
gesellschaften	-7598
▁zentral	-7599
fers	-7600
▁tochter	-7601
▁advertising	-7602
▁comprehensive	-7603
▁logo	-7604
▁geschenk	-7605
▁grundlage	-7606
▁wollte	-7607
▁tower	-7608
si	-7609
▁satisf	-7610
▁posts	-7611
ikum	-7612
▁eigenes	-7613
▁rules	-7614
▁gram	-7615
uum	-7616
geschichte	-7617
▁orgas	-7618
nt	-7619
▁chart	-7620
▁gebrauch	-7621
▁bestimmte	-7622
▁minib	-7623
▁han	-7624
▁sammlung	-7625
▁supports	-7626
▁breite	-7627
öse	-7628
▁artikeln	-7629
▁municip	-7630
▁fax	-7631
treten	-7632
hilfe	-7633
----	-7634
▁elektro	-7635
33	-7636
▁deck	-7637
▁achieve	-7638
lah	-7639
ava	-7640
▁geburt	-7641
▁despite	-7642
▁agent	-7643
▁ehemal	-7644
▁hr	-7645
leiter	-7646
▁accordance	-7647
▁bow	-7648
▁becomes	-7649
▁inseln	-7650
athed	-7651
▁gründ	-7652
▁zahlreichen	-7653
▁24-	-7654
▁bonus	-7655
▁tourism	-7656
▁euros	-7657
.09	-7658
ifiziert	-7659
gin	-7660
therm	-7661
▁darunter	-7662
▁rol	-7663
▁isol	-7664
▁gesagt	-7665
ront	-7666
▁tennis	-7667
het	-7668
▁wachstum	-7669
stieg	-7670
▁changed	-7671
▁oh	-7672
lösungen	-7673
inted	-7674
zehn	-7675
▁leiter	-7676
▁hart	-7677
▁closed	-7678
ologische	-7679
pfung	-7680
light	-7681
vision	-7682
▁beginnt	-7683
▁kontroll	-7684
▁bach	-7685
hlt	-7686
jenigen	-7687
▁eltern	-7688
▁printing	-7689
eds	-7690
▁vel	-7691
anyday	-7692
▁healthy	-7693
▁grill	-7694
▁änderungen	-7695
dateien	-7696
ilität	-7697
ierend	-7698
▁argent	-7699
▁gestellt	-7700
2-	-7701
▁nutzungs	-7702
▁historic	-7703
▁sap	-7704
▁pm	-7705
▁handelt	-7706
▁verme	-7707
▁entrance	-7708
▁paralle	-7709
▁hinweis	-7710
▁lock	-7711
ücksicht	-7712
eldet	-7713
▁nan	-7714
onial	-7715
▁zul	-7716
▁zuge	-7717
▁factory	-7718
▁executive	-7719
▁billion	-7720
▁dimensions	-7721
▁beliebt	-7722
▁figure	-7723
▁umfasst	-7724
annte	-7725
ila	-7726
▁nearby	-7727
vollen	-7728
▁audi	-7729
▁zunächst	-7730
▁roh	-7731
nehm	-7732
▁wichtigen	-7733
▁rum	-7734
wohner	-7735
▁entlang	-7736
▁gesicht	-7737
ete	-7738
▁cells	-7739
zü	-7740
örter	-7741
▁trips	-7742
▁untersuch	-7743
▁verlassen	-7744
▁ausführ	-7745
idden	-7746
▁ebene	-7747
▁heut	-7748
fordern	-7749
auern	-7750
▁decided	-7751
▁arom	-7752
▁tsche	-7753
▁reflect	-7754
anner	-7755
drück	-7756
▁erleben	-7757
▁mwst	-7758
▁reached	-7759
▁geschmack	-7760
▁palace	-7761
uben	-7762
▁anmeldung	-7763
▁territ	-7764
▁getting	-7765
pra	-7766
ungsort	-7767
▁consumption	-7768
▁äg	-7769
term	-7770
▁äu	-7771
▁degree	-7772
▁tap	-7773
▁combined	-7774
rans	-7775
▁geöffnet	-7776
▁merc	-7777
▁dance	-7778
technologie	-7779
▁gegründet	-7780
▁providing	-7781
▁verantwortlich	-7782
trib	-7783
▁anlage	-7784
48	-7785
▁terror	-7786
itionen	-7787
▁resolution	-7788
▁iphone	-7789
▁trin	-7790
▁creation	-7791
▁spricht	-7792
▁erkennt	-7793
▁pair	-7794
▁brü	-7795
urop	-7796
▁ukraine	-7797
barer	-7798
▁leader	-7799
rechte	-7800
▁alone	-7801
▁chain	-7802
▁berücksicht	-7803
hips	-7804
ologischen	-7805
,1	-7806
▁wrote	-7807
ändler	-7808
▁mainly	-7809
▁sf	-7810
untergang	-7811
▁bele	-7812
▁greater	-7813
etzungen	-7814
▁dipl	-7815
▁hoff	-7816
messer	-7817
▁operations	-7818
sam	-7819
gewicht	-7820
▁dram	-7821
▁alexander	-7822
▁compact	-7823
▁serious	-7824
gien	-7825
▁bat	-7826
.02.201	-7827
▁tätigkeit	-7828
▁bell	-7829
irts	-7830
▁ferienhaus	-7831
▁citiz	-7832
▁dual	-7833
rei	-7834
projekt	-7835
stands	-7836
▁otherwise	-7837
▁explor	-7838
43	-7839
▁nimmt	-7840
▁marina	-7841
center	-7842
boden	-7843
▁überblick	-7844
▁kolle	-7845
utzt	-7846
▁är	-7847
▁tea	-7848
▁cash	-7849
fan	-7850
▁growing	-7851
▁py	-7852
▁5.	-7853
emit	-7854
▁gate	-7855
▁species	-7856
zep	-7857
▁männ	-7858
▁cin	-7859
▁bras	-7860
▁placed	-7861
ucher	-7862
▁fak	-7863
▁recip	-7864
▁tail	-7865
▁amate	-7866
▁primary	-7867
▁hof	-7868
▁niederlan	-7869
stal	-7870
▁patients	-7871
▁mehreren	-7872
schrift	-7873
▁eastern	-7874
lass	-7875
▁sab	-7876
▁trocken	-7877
▁erster	-7878
▁demokrat	-7879
▁monitoring	-7880
auten	-7881
▁hydro	-7882
▁designs	-7883
ikes	-7884
sprogramm	-7885
▁enh	-7886
▁bru	-7887
▁beweg	-7888
▁committee	-7889
▁fahrrad	-7890
▁archiv	-7891
rück	-7892
▁damage	-7893
▁teaching	-7894
amo	-7895
▁mole	-7896
▁owner	-7897
▁sail	-7898
▁statistics	-7899
haps	-7900
grade	-7901
▁apost	-7902
▁widers	-7903
▁buchung	-7904
ror	-7905
aling	-7906
igem	-7907
▁topic	-7908
▁sched	-7909
▁stunde	-7910
fertigt	-7911
▁präsentiert	-7912
schirm	-7913
hoben	-7914
▁läng	-7915
67	-7916
▁freien	-7917
▁ausstell	-7918
▁51	-7919
▁frem	-7920
▁ernst	-7921
▁portal	-7922
uster	-7923
▁improv	-7924
▁optional	-7925
iforn	-7926
onse	-7927
▁kill	-7928
ivals	-7929
▁1990	-7930
▁archive	-7931
▁resistance	-7932
spre	-7933
▁specifications	-7934
▁ressourcen	-7935
▁vic	-7936
▁confl	-7937
ifizierung	-7938
▁verurs	-7939
▁retail	-7940
▁aufbau	-7941
ns	-7942
▁hen	-7943
versand	-7944
▁correspond	-7945
▁basket	-7946
tage	-7947
▁vereinigten	-7948
▁concerning	-7949
gate	-7950
kas	-7951
▁galerie	-7952
▁stored	-7953
▁gewinn	-7954
▁imag	-7955
▁lizenz	-7956
▁langen	-7957
ado	-7958
▁wrong	-7959
▁wat	-7960
▁warr	-7961
▁defined	-7962
▁gep	-7963
rate	-7964
▁maps	-7965
nü	-7966
▁clin	-7967
▁gros	-7968
▁konfigur	-7969
▁supplier	-7970
rec	-7971
▁genug	-7972
ameras	-7973
▁letter	-7974
▁fahrt	-7975
▁wobei	-7976
▁appo	-7977
▁wireless	-7978
spap	-7979
oden	-7980
▁orange	-7981
▁duration	-7982
verkehr	-7983
▁dritten	-7984
▁accur	-7985
▁pharm	-7986
▁zahlungs	-7987
hler	-7988
▁perhaps	-7989
▁besides	-7990
omen	-7991
▁understanding	-7992
funktion	-7993
▁clearly	-7994
▁expertise	-7995
▁wife	-7996
lern	-7997
zil	-7998
▁perfekte	-7999
ups	-8000
▁sv	-8001
rob	-8002
▁wachsen	-8003
▁elegan	-8004
achts	-8005
intern	-8006
▁bear	-8007
▁königreich	-8008
gere	-8009
▁anton	-8010
▁1998	-8011
▁infrastructure	-8012
▁vollständig	-8013
bul	-8014
▁implementation	-8015
38	-8016
▁ideen	-8017
kannt	-8018
▁schlag	-8019
▁heavy	-8020
lar	-8021
▁leather	-8022
▁spaß	-8023
ulate	-8024
▁lib	-8025
▁tschech	-8026
▁slightly	-8027
iry	-8028
▁ausgabe	-8029
▁hostels	-8030
dy	-8031
▁smo	-8032
▁didn	-8033
wave	-8034
kmale	-8035
entrum	-8036
▁hein	-8037
▁configur	-8038
▁gemüt	-8039
▁zürich	-8040
bern	-8041
▁len	-8042
liste	-8043
▁prize	-8044
▁kunststoff	-8045
▁drag	-8046
cket	-8047
▁fand	-8048
asen	-8049
▁abonnieren	-8050
▁neut	-8051
▁virus	-8052
itors	-8053
▁academy	-8054
-12	-8055
▁kas	-8056
▁finish	-8057
▁musical	-8058
▁usw	-8059
▁ign	-8060
▁destinations	-8061
▁vorbe	-8062
univers	-8063
▁sardin	-8064
▁instant	-8065
▁dritte	-8066
▁ferienwohnung	-8067
▁writing	-8068
▁genannt	-8069
▁behav	-8070
▁kaffee	-8071
idity	-8072
▁currency	-8073
▁betten	-8074
▁wahrscheinlich	-8075
ship	-8076
▁möglicherweise	-8077
▁haupts	-8078
▁ausbildung	-8079
▁überprüfen	-8080
▁übr	-8081
▁selten	-8082
▁luxus	-8083
▁ispo	-8084
▁ax	-8085
▁lounge	-8086
▁ocean	-8087
spart	-8088
▁superm	-8089
▁sympt	-8090
▁landwirtschaft	-8091
▁owners	-8092
aker	-8093
▁aufgabe	-8094
▁iran	-8095
▁publications	-8096
▁gps	-8097
ii	-8098
▁diskut	-8099
▁emb	-8100
▁wit	-8101
▁stoff	-8102
▁till	-8103
▁heaven	-8104
▁werkzeug	-8105
▁adventure	-8106
▁komponenten	-8107
▁channel	-8108
coming	-8109
forderung	-8110
▁fett	-8111
▁punkte	-8112
news	-8113
▁aufgenommen	-8114
ikon	-8115
▁experten	-8116
wart	-8117
▁monte	-8118
▁religious	-8119
▁reduce	-8120
▁youth	-8121
ossen	-8122
asts	-8123
▁joy	-8124
▁systeme	-8125
▁kore	-8126
▁cris	-8127
▁empfohlen	-8128
zone	-8129
▁bulgar	-8130
▁influence	-8131
durch	-8132
maß	-8133
▁earn	-8134
▁worth	-8135
gf	-8136
▁colors	-8137
▁feucht	-8138
portal	-8139
▁horse	-8140
▁schiff	-8141
▁ziele	-8142
▁beant	-8143
▁saying	-8144
▁surrounded	-8145
▁völlig	-8146
olid	-8147
▁schools	-8148
▁og	-8149
▁pix	-8150
▁contents	-8151
▁versions	-8152
ois	-8153
▁fram	-8154
▁female	-8155
▁atlant	-8156
▁attrib	-8157
▁bedürf	-8158
istet	-8159
▁permanent	-8160
▁response	-8161
▁protected	-8162
riger	-8163
▁russland	-8164
▁zie	-8165
▁teams	-8166
▁fok	-8167
orca	-8168
▁politischen	-8169
▁budget	-8170
werken	-8171
▁joseph	-8172
▁ök	-8173
oe	-8174
▁exactly	-8175
▁soziale	-8176
▁geschlossen	-8177
▁kün	-8178
▁useful	-8179
kung	-8180
▁vort	-8181
▁französisch	-8182
▁niedersch	-8183
▁polize	-8184
iveau	-8185
prochen	-8186
▁diesel	-8187
▁zwecke	-8188
▁fluss	-8189
▁interact	-8190
▁stain	-8191
▁counter	-8192
ova	-8193
▁preisen	-8194
▁fell	-8195
▁orders	-8196
▁pum	-8197
▁sheet	-8198
▁daugh	-8199
▁southern	-8200
ingu	-8201
rockner	-8202
▁delivered	-8203
▁katalog	-8204
vest	-8205
▁anderes	-8206
mot	-8207
▁tourismus	-8208
olf	-8209
▁sterne	-8210
rohr	-8211
▁labour	-8212
▁heard	-8213
aub	-8214
▁coach	-8215
▁entweder	-8216
▁jahrhunderts	-8217
▁az	-8218
▁präz	-8219
▁kroat	-8220
▁kleiner	-8221
▁australien	-8222
imer	-8223
▁trop	-8224
▁verständ	-8225
▁challenge	-8226
▁kanada	-8227
▁magic	-8228
▁mary	-8229
▁chosen	-8230
▁educational	-8231
▁zweit	-8232
aign	-8233
bourg	-8234
▁werte	-8235
▁andreas	-8236
▁animal	-8237
▁fishing	-8238
gern	-8239
▁darf	-8240
platte	-8241
well	-8242
▁fortsch	-8243
▁preserv	-8244
▁applic	-8245
▁10.	-8246
hz	-8247
oting	-8248
▁einfluss	-8249
▁feier	-8250
▁proceed	-8251
estyle	-8252
gemein	-8253
aven	-8254
▁eher	-8255
uba	-8256
▁weib	-8257
▁wart	-8258
▁waste	-8259
cue	-8260
▁domain	-8261
▁gründen	-8262
▁stadtz	-8263
elf	-8264
63	-8265
▁reve	-8266
▁köl	-8267
grenz	-8268
▁betroffen	-8269
▁haar	-8270
▁umsatz	-8271
▁lösen	-8272
ders	-8273
▁hunder	-8274
▁ausschließlich	-8275
▁assembly	-8276
▁aussicht	-8277
▁schicken	-8278
▁stret	-8279
urm	-8280
unately	-8281
using	-8282
▁anywayanyday	-8283
▁sole	-8284
kir	-8285
▁privaten	-8286
▁kamen	-8287
▁objekte	-8288
▁nation	-8289
program	-8290
ussion	-8291
▁adults	-8292
▁stimmen	-8293
ario	-8294
stat	-8295
▁border	-8296
▁literatur	-8297
▁huge	-8298
▁syr	-8299
▁außerhalb	-8300
▁zuvor	-8301
▁erwarten	-8302
▁funktioniert	-8303
▁erhol	-8304
▁beiträge	-8305
▁erziel	-8306
▁engel	-8307
optics	-8308
▁verschw	-8309
▁chief	-8310
▁legend	-8311
▁workshops	-8312
▁eisen	-8313
▁gespeichert	-8314
▁tanz	-8315
▁pier	-8316
▁edge	-8317
▁unmittel	-8318
äck	-8319
fir	-8320
▁prepared	-8321
asche	-8322
▁defe	-8323
▁übersch	-8324
69	-8325
otic	-8326
dauer	-8327
▁verstär	-8328
▁hören	-8329
▁input	-8330
▁nations	-8331
▁maßnahmen	-8332
▁films	-8333
▁container	-8334
▁atmosphäre	-8335
aw	-8336
▁spacious	-8337
▁theme	-8338
▁handels	-8339
▁schnelle	-8340
▁forces	-8341
▁lokalen	-8342
▁stories	-8343
▁greece	-8344
▁straight	-8345
▁segment	-8346
▁erwä	-8347
▁thin	-8348
▁riding	-8349
▁schützen	-8350
▁salv	-8351
▁developing	-8352
oli	-8353
▁sixt	-8354
▁basel	-8355
▁bosch	-8356
▁significantly	-8357
▁followed	-8358
▁kundenservice	-8359
▁schönheit	-8360
▁dor	-8361
▁werke	-8362
▁medicine	-8363
▁solchen	-8364
▁steuern	-8365
▁studie	-8366
▁verlieren	-8367
▁ability	-8368
▁statist	-8369
▁organiz	-8370
▁importance	-8371
▁guter	-8372
▁extensive	-8373
▁plast	-8374
▁deinen	-8375
▁ersatz	-8376
aktionen	-8377
fä	-8378
▁campaign	-8379
▁sauber	-8380
▁gleiche	-8381
▁uv	-8382
itage	-8383
ode	-8384
▁planen	-8385
▁4.0	-8386
hor	-8387
▁rule	-8388
▁wirkung	-8389
lassen	-8390
wie	-8391
▁dürfen	-8392
stahl	-8393
▁released	-8394
▁dunk	-8395
geschwindigkeit	-8396
icate	-8397
urf	-8398
▁klin	-8399
▁superv	-8400
iling	-8401
▁natürliche	-8402
äuse	-8403
aufgang	-8404
▁fail	-8405
▁diss	-8406
esis	-8407
▁verloren	-8408
commer	-8409
ubs	-8410
▁helps	-8411
▁verhalten	-8412
▁dal	-8413
▁crisis	-8414
▁hong	-8415
▁extensions	-8416
hi	-8417
fas	-8418
mens	-8419
▁brus	-8420
▁newspap	-8421
▁bord	-8422
▁haird	-8423
▁villas	-8424
▁lod	-8425
▁daniel	-8426
▁persec	-8427
▁massage	-8428
▁minibar	-8429
▁parents	-8430
iente	-8431
jet	-8432
▁bücher	-8433
▁vielzahl	-8434
▁akadem	-8435
▁stimme	-8436
▁hop	-8437
▁bevölkerung	-8438
bby	-8439
▁thermal	-8440
liefer	-8441
▁expans	-8442
▁alphabet	-8443
▁blueoptics	-8444
▁mieten	-8445
▁gelten	-8446
▁reduced	-8447
▁destroy	-8448
▁kost	-8449
▁soph	-8450
▁verte	-8451
▁kb	-8452
▁turned	-8453
▁marked	-8454
▁parameter	-8455
vol	-8456
äst	-8457
ying	-8458
▁fällen	-8459
brit	-8460
▁driving	-8461
▁kurs	-8462
▁antworten	-8463
eland	-8464
▁gött	-8465
▁aktion	-8466
▁seminar	-8467
▁nap	-8468
▁ernähr	-8469
▁surroundings	-8470
▁wechseln	-8471
▁gerecht	-8472
31	-8473
▁wann	-8474
▁11.	-8475
▁anschluss	-8476
useum	-8477
▁characteristics	-8478
▁paid	-8479
▁nationalen	-8480
wei	-8481
▁gewinnen	-8482
geschäft	-8483
▁automation	-8484
▁freie	-8485
▁tank	-8486
tritt	-8487
▁imprint	-8488
▁eröff	-8489
▁forder	-8490
▁poll	-8491
▁removal	-8492
▁benutzt	-8493
▁eigentlich	-8494
▁refriger	-8495
▁szen	-8496
▁industries	-8497
▁fakt	-8498
▁erweiterte	-8499
▁automotive	-8500
▁2.0	-8501
▁nein	-8502
iziert	-8503
▁weltbank	-8504
▁requires	-8505
▁bestimmt	-8506
▁spekt	-8507
▁ware	-8508
acher	-8509
▁quadr	-8510
bericht	-8511
▁brazil	-8512
uhr	-8513
▁eight	-8514
▁japanese	-8515
▁postal	-8516
▁leads	-8517
care	-8518
▁15.	-8519
▁empt	-8520
▁ww	-8521
oms	-8522
▁split	-8523
▁saison	-8524
▁convenient	-8525
49	-8526
iki	-8527
▁modul	-8528
▁testing	-8529
▁austrian	-8530
cin	-8531
gi	-8532
▁repar	-8533
▁18.	-8534
jan	-8535
▁beratung	-8536
▁session	-8537
▁jemand	-8538
▁avoid	-8539
water	-8540
▁lebend	-8541
▁schauen	-8542
▁koch	-8543
▁adapt	-8544
hou	-8545
▁explore	-8546
achung	-8547
germ	-8548
▁random	-8549
hu	-8550
▁wirtschafts	-8551
▁ministry	-8552
üste	-8553
▁license	-8554
▁spielt	-8555
▁militär	-8556
▁begrü	-8557
tü	-8558
▁applikation	-8559
▁schwimm	-8560
▁eb	-8561
▁spezielle	-8562
▁catal	-8563
▁entries	-8564
fam	-8565
▁malt	-8566
burger	-8567
▁900	-8568
▁pill	-8569
▁nichtraucher	-8570
▁16.	-8571
irn	-8572
öss	-8573
▁hem	-8574
▁serve	-8575
▁raw	-8576
▁karl	-8577
cam	-8578
ermann	-8579
cp	-8580
äuft	-8581
iant	-8582
▁obst	-8583
▁extended	-8584
▁accommodations	-8585
▁constant	-8586
▁mater	-8587
anks	-8588
▁brown	-8589
▁130	-8590
uly	-8591
▁dun	-8592
▁bang	-8593
▁poor	-8594
▁outstanding	-8595
▁abwe	-8596
▁anzu	-8597
▁plans	-8598
uhe	-8599
▁functional	-8600
▁fuel	-8601
▁fare	-8602
▁corner	-8603
▁gefähr	-8604
▁kaum	-8605
ista	-8606
aled	-8607
▁rapid	-8608
▁technologien	-8609
▁highlights	-8610
▁girls	-8611
▁vacation	-8612
▁hoher	-8613
▁repe	-8614
▁parli	-8615
▁formular	-8616
▁trib	-8617
▁sight	-8618
ray	-8619
▁sufficient	-8620
▁ries	-8621
▁erneut	-8622
▁entwicklungs	-8623
▁haft	-8624
more	-8625
ffer	-8626
sels	-8627
▁conserv	-8628
▁persönliche	-8629
▁laufen	-8630
▁6.	-8631
▁disease	-8632
amerika	-8633
rix	-8634
losen	-8635
▁hus	-8636
▁160	-8637
▁casa	-8638
▁kürz	-8639
bran	-8640
▁110	-8641
▁vary	-8642
enze	-8643
▁beträgt	-8644
▁voller	-8645
▁advis	-8646
▁wear	-8647
▁mol	-8648
▁dekor	-8649
▁lan	-8650
zeichnis	-8651
▁imperial	-8652
▁provinz	-8653
▁bearbeiten	-8654
▁1997	-8655
▁genutzt	-8656
▁rollen	-8657
aken	-8658
▁accepted	-8659
▁experienced	-8660
▁feeling	-8661
wig	-8662
▁behinder	-8663
61	-8664
reif	-8665
ahnen	-8666
▁brother	-8667
▁racing	-8668
▁dynamic	-8669
▁69	-8670
▁vors	-8671
▁stands	-8672
ami	-8673
▁vul	-8674
▁informed	-8675
reten	-8676
▁plate	-8677
verständ	-8678
▁uner	-8679
erin	-8680
kurs	-8681
▁ward	-8682
▁dienen	-8683
▁desc	-8684
▁teilweise	-8685
▁uf	-8686
anwend	-8687
▁hält	-8688
▁literature	-8689
▁transparent	-8690
▁cord	-8691
▁winn	-8692
▁frequently	-8693
▁zufrieden	-8694
▁offices	-8695
▁spend	-8696
gesetz	-8697
▁preview	-8698
▁evolution	-8699
▁marine	-8700
▁ständig	-8701
.05	-8702
▁patterns	-8703
kontakt	-8704
ettel	-8705
class	-8706
▁measurement	-8707
▁fee	-8708
▁leip	-8709
▁stadtzentrum	-8710
▁dres	-8711
rest	-8712
▁großes	-8713
▁68	-8714
▁nahm	-8715
▁nerv	-8716
last	-8717
▁attem	-8718
▁difference	-8719
▁laws	-8720
änglich	-8721
era	-8722
▁passion	-8723
▁purs	-8724
▁gent	-8725
räume	-8726
▁gather	-8727
▁krebs	-8728
▁zweck	-8729
▁sciences	-8730
jährigen	-8731
▁kab	-8732
▁louis	-8733
▁figures	-8734
▁versicher	-8735
▁flachbild	-8736
▁discip	-8737
äsent	-8738
▁railway	-8739
▁misch	-8740
▁blu	-8741
pfe	-8742
▁hinsicht	-8743
▁kamera	-8744
▁griechen	-8745
isses	-8746
▁verbreit	-8747
▁looks	-8748
▁zweif	-8749
▁spaces	-8750
▁vergangenen	-8751
aschen	-8752
▁benötigt	-8753
▁beschwer	-8754
▁politische	-8755
rein	-8756
▁aufgaben	-8757
rufen	-8758
▁handling	-8759
ließend	-8760
▁sd	-8761
▁stol	-8762
▁sweet	-8763
mag	-8764
▁schmer	-8765
▁spiegel	-8766
▁sources	-8767
74	-8768
sr	-8769
▁ultra	-8770
▁cuis	-8771
kunden	-8772
▁werbung	-8773
▁360	-8774
ichtete	-8775
▁nahr	-8776
▁äußer	-8777
▁pod	-8778
▁successfully	-8779
stände	-8780
publ	-8781
▁zurzeit	-8782
▁verantwortung	-8783
▁province	-8784
▁kontrolle	-8785
▁shared	-8786
enue	-8787
afr	-8788
▁empfehl	-8789
▁springe	-8790
komp	-8791
▁pv	-8792
▁älter	-8793
herr	-8794
▁mediterrane	-8795
gener	-8796
ziehen	-8797
▁modelle	-8798
▁caused	-8799
▁partei	-8800
▁inclusive	-8801
garten	-8802
▁zeitpunkt	-8803
▁17.	-8804
▁umfassen	-8805
▁publication	-8806
▁someone	-8807
▁starten	-8808
▁jur	-8809
▁thail	-8810
barung	-8811
▁vergangenheit	-8812
100	-8813
▁recovery	-8814
▁freiheit	-8815
▁larger	-8816
▁terminal	-8817
▁arrangement	-8818
▁anbieten	-8819
▁dollar	-8820
▁parliament	-8821
▁fixed	-8822
▁140	-8823
▁agb	-8824
▁cream	-8825
oria	-8826
▁wheel	-8827
▁functionality	-8828
▁12.	-8829
▁unfort	-8830
rüstung	-8831
▁gült	-8832
iertes	-8833
▁juden	-8834
smoking	-8835
iques	-8836
▁ziehen	-8837
▁ruhe	-8838
▁merk	-8839
rete	-8840
▁actual	-8841
▁diplom	-8842
▁negative	-8843
▁opinion	-8844
▁zahn	-8845
▁bless	-8846
▁earlier	-8847
▁enables	-8848
▁zugriff	-8849
▁luxur	-8850
▁digitalen	-8851
obil	-8852
▁übertragen	-8853
▁öffentliche	-8854
▁wants	-8855
▁tast	-8856
▁managing	-8857
estic	-8858
▁framework	-8859
▁brow	-8860
▁besonderen	-8861
teilungen	-8862
▁wunderschö	-8863
▁mittels	-8864
condition	-8865
▁verkehrs	-8866
ktiv	-8867
▁challenges	-8868
▁verknü	-8869
▁verlei	-8870
▁berechn	-8871
▁calls	-8872
thermore	-8873
▁dün	-8874
iessen	-8875
hist	-8876
weite	-8877
▁seele	-8878
▁lapt	-8879
▁extreme	-8880
appe	-8881
▁weiterlesen	-8882
▁puert	-8883
▁definition	-8884
hafte	-8885
▁prozesse	-8886
▁fleisch	-8887
▁parameters	-8888
▁described	-8889
▁logistics	-8890
▁kommenden	-8891
ela	-8892
▁manner	-8893
▁supple	-8894
boards	-8895
wanne	-8896
▁friedrich	-8897
▁myster	-8898
▁rare	-8899
▁dreh	-8900
format	-8901
▁1.5	-8902
▁airlines	-8903
folge	-8904
▁7.	-8905
▁abschluss	-8906
▁braun	-8907
▁entstehen	-8908
▁fallen	-8909
ftig	-8910
▁poland	-8911
▁cf	-8912
ski	-8913
film	-8914
▁schüler	-8915
▁gebracht	-8916
▁sty	-8917
britann	-8918
▁jewish	-8919
▁engagement	-8920
▁push	-8921
▁defa	-8922
▁detaill	-8923
▁wait	-8924
▁beaches	-8925
▁manif	-8926
▁eco	-8927
▁truck	-8928
klasse	-8929
greg	-8930
▁eingang	-8931
▁vital	-8932
systems	-8933
▁zentrale	-8934
▁malware	-8935
▁1995	-8936
▁falsch	-8937
▁handel	-8938
▁collaboration	-8939
▁assign	-8940
▁column	-8941
▁investig	-8942
äden	-8943
deutsch	-8944
▁cuisine	-8945
mous	-8946
▁21.	-8947
stunden	-8948
▁authority	-8949
deck	-8950
minuten	-8951
▁regelmäßig	-8952
▁korre	-8953
▁anth	-8954
▁defen	-8955
▁geomet	-8956
▁notes	-8957
▁erwachsene	-8958
▁conscious	-8959
▁lieben	-8960
▁heritage	-8961
▁achieved	-8962
▁ansp	-8963
▁erfüllen	-8964
▁attractive	-8965
▁porto	-8966
▁pleasant	-8967
▁structures	-8968
▁certified	-8969
▁impos	-8970
▁freude	-8971
angebot	-8972
▁überall	-8973
führten	-8974
▁prison	-8975
▁grenzen	-8976
ague	-8977
200	-8978
▁gebaut	-8979
erseits	-8980
▁tee	-8981
▁pic	-8982
▁brain	-8983
▁bem	-8984
▁dän	-8985
ünden	-8986
holz	-8987
▁zukün	-8988
gte	-8989
▁küchen	-8990
▁certainly	-8991
gefähr	-8992
mittelt	-8993
▁electrical	-8994
yware	-8995
zgl	-8996
▁erinner	-8997
▁cycle	-8998
▁winds	-8999
▁lieferzeit	-9000
gestellten	-9001
▁awards	-9002
▁gedanken	-9003
▁galax	-9004
▁entspricht	-9005
▁thr	-9006
▁smooth	-9007
▁served	-9008
.03	-9009
▁convert	-9010
▁gelegenheit	-9011
▁rid	-9012
▁zut	-9013
▁kosmetik	-9014
zwe	-9015
▁methoden	-9016
▁thick	-9017
▁mallorca	-9018
vide	-9019
▁prest	-9020
98	-9021
▁embed	-9022
haber	-9023
▁sensors	-9024
▁transmit	-9025
77	-9026
▁dennoch	-9027
phas	-9028
▁mentioned	-9029
▁richtigen	-9030
▁drug	-9031
▁gestalten	-9032
chron	-9033
commerce	-9034
ordnet	-9035
▁nutzt	-9036
uttle	-9037
▁10-	-9038
▁repair	-9039
▁28.	-9040
▁wave	-9041
▁improved	-9042
▁haart	-9043
osis	-9044
▁beschäd	-9045
▁skills	-9046
schau	-9047
▁datenbank	-9048
▁meinung	-9049
▁bauernhof	-9050
muster	-9051
▁feuchtigkeit	-9052
▁repl	-9053
you	-9054
▁couple	-9055
▁elev	-9056
▁cancel	-9057
gele	-9058
▁homes	-9059
ounts	-9060
isk	-9061
modell	-9062
usch	-9063
▁anyone	-9064
▁presents	-9065
▁abhäng	-9066
▁gewünsch	-9067
▁jazz	-9068
▁ausland	-9069
▁aware	-9070
.06	-9071
▁boots	-9072
▁invent	-9073
▁14.	-9074
▁brut	-9075
▁cosmetic	-9076
ünde	-9077
▁plattform	-9078
▁interests	-9079
▁scale	-9080
iell	-9081
▁natürlichen	-9082
▁warrant	-9083
▁begin	-9084
▁claim	-9085
anzeigen	-9086
▁walls	-9087
▁abente	-9088
▁fernse	-9089
▁maybe	-9090
▁principle	-9091
▁jos	-9092
analyse	-9093
▁arc	-9094
▁creating	-9095
▁styl	-9096
▁individuell	-9097
▁exercise	-9098
▁string	-9099
▁seat	-9100
▁consumer	-9101
▁kämp	-9102
udes	-9103
▁ride	-9104
▁frequen	-9105
iffe	-9106
▁parallel	-9107
▁electricity	-9108
platten	-9109
proof	-9110
kol	-9111
▁fear	-9112
ryer	-9113
▁diejenigen	-9114
▁analytics	-9115
▁recon	-9116
▁diverse	-9117
leistungs	-9118
▁tub	-9119
stens	-9120
▁gets	-9121
▁kart	-9122
ausstattung	-9123
▁63	-9124
esco	-9125
▁editor	-9126
▁serb	-9127
▁polic	-9128
ulations	-9129
lers	-9130
▁garantiert	-9131
▁sequ	-9132
▁abst	-9133
kunst	-9134
oto	-9135
called	-9136
▁stainless	-9137
▁tiere	-9138
▁mikrow	-9139
ella	-9140
lement	-9141
▁indones	-9142
▁hybr	-9143
dens	-9144
▁perspect	-9145
▁worldbank	-9146
▁fla	-9147
indruck	-9148
▁regionen	-9149
ello	-9150
▁giving	-9151
struktur	-9152
▁98	-9153
▁aufz	-9154
▁doppelzimmer	-9155
tein	-9156
▁artistic	-9157
betrieb	-9158
▁verteid	-9159
▁handle	-9160
▁fib	-9161
▁oblig	-9162
▁hilft	-9163
▁furthermore	-9164
▁abges	-9165
▁transmission	-9166
▁sogen	-9167
▁erb	-9168
▁aspects	-9169
▁reverse	-9170
▁ie	-9171
▁dinner	-9172
▁för	-9173
▁fertig	-9174
▁rede	-9175
hotels	-9176
▁worte	-9177
wald	-9178
▁kontinu	-9179
▁battle	-9180
▁prüf	-9181
ikations	-9182
▁bmw	-9183
▁stets	-9184
▁liquid	-9185
▁inhab	-9186
▁gbp	-9187
▁garantie	-9188
craft	-9189
iest	-9190
▁gla	-9191
▁hp	-9192
▁facility	-9193
▁wenigen	-9194
▁zuletzt	-9195
▁hyp	-9196
▁machte	-9197
▁stefan	-9198
▁horizont	-9199
▁feet	-9200
▁sinne	-9201
▁elemente	-9202
▁continued	-9203
▁deinem	-9204
▁specif	-9205
▁optionen	-9206
isa	-9207
rang	-9208
▁tausende	-9209
▁abstra	-9210
▁neck	-9211
▁anp	-9212
▁abhol	-9213
▁sad	-9214
quis	-9215
▁piano	-9216
▁lifestyle	-9217
ippen	-9218
▁ken	-9219
▁holding	-9220
▁höchste	-9221
,95	-9222
▁hang	-9223
▁lern	-9224
azität	-9225
▁epo	-9226
▁appar	-9227
▁authorities	-9228
▁erscheinen	-9229
▁unfortunately	-9230
onic	-9231
▁1996	-9232
▁umsetzung	-9233
▁congress	-9234
▁schritte	-9235
▁arbeiter	-9236
▁generally	-9237
▁tablet	-9238
▁installierten	-9239
▁protest	-9240
▁denk	-9241
▁700	-9242
cut	-9243
▁digitale	-9244
cco	-9245
▁directory	-9246
▁solo	-9247
▁gib	-9248
inde	-9249
76	-9250
▁bayer	-9251
▁rechten	-9252
▁moving	-9253
▁84	-9254
▁taxi	-9255
▁djshop	-9256
▁depends	-9257
▁favoriten	-9258
▁milliar	-9259
▁exhibitions	-9260
▁chic	-9261
▁alarm	-9262
▁oberfläche	-9263
wal	-9264
71	-9265
ufe	-9266
aga	-9267
britannien	-9268
▁reserve	-9269
kommt	-9270
▁default	-9271
▁gezeigt	-9272
▁county	-9273
konom	-9274
▁emissions	-9275
▁weder	-9276
▁zit	-9277
▁college	-9278
▁stiftung	-9279
tele	-9280
▁mexico	-9281
▁expansion	-9282
stoffen	-9283
▁evil	-9284
▁belgium	-9285
haften	-9286
agne	-9287
hodox	-9288
▁hervorragen	-9289
▁dl	-9290
▁2020	-9291
▁wash	-9292
▁hochwertige	-9293
▁bettwäsche	-9294
eria	-9295
▁pump	-9296
▁stretch	-9297
▁haartrockner	-9298
isl	-9299
▁demands	-9300
▁convent	-9301
staaten	-9302
▁records	-9303
äne	-9304
▁herren	-9305
iva	-9306
ikanische	-9307
▁ideale	-9308
▁innovations	-9309
wing	-9310
▁theatre	-9311
▁waschmaschine	-9312
contact	-9313
orien	-9314
aux	-9315
▁gering	-9316
▁sau	-9317
nav	-9318
▁zurich	-9319
jährige	-9320
fassung	-9321
▁potenz	-9322
▁surv	-9323
iza	-9324
älfte	-9325
▁72	-9326
uv	-9327
▁lighting	-9328
▁wooden	-9329
world	-9330
urlaub	-9331
▁braucht	-9332
▁hidden	-9333
▁entspannen	-9334
▁computers	-9335
▁shar	-9336
▁updated	-9337
▁towels	-9338
▁researchers	-9339
▁croatia	-9340
▁refuge	-9341
▁wärme	-9342
▁ansehen	-9343
▁hairdryer	-9344
onal	-9345
wissenschaft	-9346
▁jüd	-9347
läss	-9348
iam	-9349
▁tin	-9350
like	-9351
iefert	-9352
▁visible	-9353
▁düssel	-9354
▁starts	-9355
▁kirchen	-9356
▁intelligent	-9357
▁geschwindigkeit	-9358
krieg	-9359
▁erklären	-9360
▁empty	-9361
▁bottom	-9362
▁effizient	-9363
▁retro	-9364
▁promotion	-9365
▁wiederhol	-9366
ads	-9367
▁swe	-9368
▁floors	-9369
▁diagnost	-9370
▁norm	-9371
▁transformation	-9372
riebe	-9373
▁dick	-9374
▁contrast	-9375
▁sache	-9376
▁umgeben	-9377
▁surrounding	-9378
ech	-9379
kunde	-9380
▁sculpt	-9381
▁museen	-9382
▁benach	-9383
▁lith	-9384
emble	-9385
▁sitemap	-9386
▁pav	-9387
▁einführung	-9388
▁europas	-9389
▁browse	-9390
▁determine	-9391
äufe	-9392
▁respective	-9393
mes	-9394
leun	-9395
▁gespräch	-9396
afft	-9397
▁halle	-9398
▁wissenschaftler	-9399
.04	-9400
größe	-9401
▁breit	-9402
uan	-9403
▁easier	-9404
handel	-9405
▁exzellent	-9406
profil	-9407
▁representatives	-9408
▁bron	-9409
▁puerto	-9410
▁13.	-9411
▁damals	-9412
▁gefahr	-9413
hyth	-9414
▁helm	-9415
▁zzgl	-9416
▁cathol	-9417
▁spann	-9418
▁missing	-9419
▁amen	-9420
hour	-9421
limited	-9422
▁erwer	-9423
verein	-9424
-18	-9425
▁likely	-9426
hai	-9427
▁lud	-9428
▁bco	-9429
▁hängt	-9430
▁discount	-9431
▁dient	-9432
▁tracks	-9433
▁maschine	-9434
▁prinzip	-9435
ersoft	-9436
▁mc	-9437
▁wohnungen	-9438
iconsicons	-9439
alty	-9440
rt	-9441
▁beat	-9442
uro	-9443
▁phar	-9444
▁greek	-9445
ifying	-9446
zähl	-9447
▁died	-9448
▁scientists	-9449
▁myself	-9450
▁citizens	-9451
▁perfectly	-9452
▁matt	-9453
tool	-9454
▁wellen	-9455
▁craft	-9456
gebaut	-9457
▁indeed	-9458
▁diameter	-9459
▁campus	-9460
▁mögen	-9461
▁absor	-9462
iti	-9463
▁8.	-9464
▁sister	-9465
▁wallpap	-9466
▁schönsten	-9467
▁introduction	-9468
friendly	-9469
▁fläche	-9470
▁erfüllt	-9471
ffiz	-9472
▁thy	-9473
▁possibilities	-9474
▁leipzig	-9475
uded	-9476
▁procedure	-9477
▁rosen	-9478
▁linken	-9479
▁nöt	-9480
▁temple	-9481
▁kunde	-9482
iced	-9483
▁interessen	-9484
zettel	-9485
▁ehr	-9486
▁dup	-9487
shot	-9488
▁publikationen	-9489
▁apparte	-9490
▁trial	-9491
▁horn	-9492
▁definit	-9493
▁contacts	-9494
▁sizes	-9495
▁verpflich	-9496
▁afrika	-9497
▁strengthen	-9498
software	-9499
▁studenten	-9500
felder	-9501
▁wichtiger	-9502
▁78	-9503
▁spanisch	-9504
clos	-9505
▁peters	-9506
▁neun	-9507
▁cabin	-9508
▁lady	-9509
▁lust	-9510
ev	-9511
▁leder	-9512
▁förderung	-9513
▁acceler	-9514
▁mechanical	-9515
79	-9516
▁einzigartige	-9517
▁entgegen	-9518
kauft	-9519
▁finished	-9520
museum	-9521
▁inhaltsstoffe	-9522
▁alpen	-9523
▁width	-9524
▁dc	-9525
▁modules	-9526
▁durchsuchen	-9527
▁appearance	-9528
▁tasks	-9529
▁compilation	-9530
▁kooperation	-9531
▁army	-9532
▁disp	-9533
mögen	-9534
▁warten	-9535
▁infrastruktur	-9536
gegeben	-9537
▁schrieb	-9538
▁marg	-9539
,90	-9540
▁oven	-9541
▁chat	-9542
stär	-9543
▁controller	-9544
ethe	-9545
▁orchestra	-9546
▁dresden	-9547
▁sorgt	-9548
▁sod	-9549
vergleich	-9550
isher	-9551
counter	-9552
▁folgt	-9553
▁mobility	-9554
zeption	-9555
▁roof	-9556
▁biggest	-9557
▁kup	-9558
▁smaller	-9559
▁truly	-9560
▁score	-9561
▁abroad	-9562
▁moz	-9563
▁jean	-9564
▁überhaupt	-9565
▁discussion	-9566
altungs	-9567
artikel	-9568
▁planned	-9569
▁opera	-9570
ighted	-9571
kör	-9572
▁ehe	-9573
bilder	-9574
oured	-9575
▁ig	-9576
icon	-9577
char	-9578
demark	-9579
▁loading	-9580
▁turkey	-9581
▁rust	-9582
▁89	-9583
sprozess	-9584
▁guard	-9585
itches	-9586
▁hub	-9587
▁kommission	-9588
▁examples	-9589
▁näher	-9590
▁lev	-9591
lager	-9592
▁pfer	-9593
▁react	-9594
▁communications	-9595
▁mittler	-9596
▁guitar	-9597
▁sustainability	-9598
▁fühlen	-9599
▁pt	-9600
▁keram	-9601
▁jak	-9602
▁favorite	-9603
äger	-9604
▁stern	-9605
iot	-9606
test	-9607
▁philipp	-9608
▁scene	-9609
▁geträn	-9610
▁instagram	-9611
▁fundam	-9612
inity	-9613
▁niemand	-9614
▁hygien	-9615
acc	-9616
▁factor	-9617
▁außergewöhn	-9618
▁instance	-9619
▁brussels	-9620
berger	-9621
▁klasse	-9622
▁gastronom	-9623
▁microwave	-9624
obe	-9625
▁trig	-9626
stehen	-9627
▁austausch	-9628
▁satelliten	-9629
▁awarded	-9630
▁sed	-9631
▁trademark	-9632
▁kurzen	-9633
▁sämt	-9634
▁wünschen	-9635
▁egal	-9636
auert	-9637
▁thou	-9638
▁bicy	-9639
▁liebl	-9640
▁metro	-9641
▁auswirkungen	-9642
▁patch	-9643
▁neuesten	-9644
▁unlimited	-9645
▁jene	-9646
mor	-9647
ovo	-9648
ati	-9649
▁gear	-9650
▁specialist	-9651
▁passed	-9652
▁66	-9653
▁nad	-9654
iary	-9655
▁statements	-9656
cop	-9657
ieß	-9658
▁named	-9659
stru	-9660
rd	-9661
▁branchen	-9662
▁dienste	-9663
▁nütz	-9664
▁passen	-9665
▁colog	-9666
▁anne	-9667
▁dafa	-9668
▁thinking	-9669
iefer	-9670
datum	-9671
▁sexual	-9672
▁wege	-9673
holm	-9674
▁script	-9675
▁bac	-9676
bringen	-9677
▁emphas	-9678
▁sq	-9679
rechn	-9680
▁actions	-9681
▁krist	-9682
▁niederschlag	-9683
▁extent	-9684
scher	-9685
▁beeinfl	-9686
▁höchst	-9687
▁berliner	-9688
uste	-9689
▁bedro	-9690
39	-9691
▁filled	-9692
▁badewanne	-9693
▁determined	-9694
▁decide	-9695
▁halt	-9696
▁regulations	-9697
▁mediterranean	-9698
▁naz	-9699
▁geschä	-9700
▁singap	-9701
▁übersetzung	-9702
▁niederlande	-9703
pat	-9704
▁movie	-9705
metho	-9706
▁lieb	-9707
▁ku	-9708
▁brenn	-9709
▁underg	-9710
aust	-9711
▁bread	-9712
▁corresponding	-9713
▁trägt	-9714
▁fabric	-9715
▁sicheren	-9716
▁heimat	-9717
▁verkäufer	-9718
▁gig	-9719
▁withdra	-9720
▁herbst	-9721
▁schwach	-9722
▁sweden	-9723
▁zeitraum	-9724
lor	-9725
▁democr	-9726
▁enor	-9727
▁historische	-9728
▁leis	-9729
▁bound	-9730
▁hiking	-9731
▁beziehung	-9732
▁luck	-9733
44	-9734
wärt	-9735
▁transportation	-9736
iede	-9737
ämp	-9738
aya	-9739
▁reicht	-9740
▁schneller	-9741
▁connections	-9742
posal	-9743
▁sparen	-9744
höhe	-9745
▁anony	-9746
▁buffet	-9747
▁beeindruck	-9748
▁bereiche	-9749
▁consulting	-9750
bing	-9751
▁wipersoft	-9752
ris	-9753
▁grey	-9754
▁kostenfreie	-9755
▁ägyp	-9756
▁suppliers	-9757
oles	-9758
▁strategic	-9759
▁einstellungen	-9760
▁ethn	-9761
▁cutting	-9762
▁genommen	-9763
▁colle	-9764
▁kostenloser	-9765
▁tested	-9766
▁emails	-9767
▁preparation	-9768
▁rolled	-9769
▁kurze	-9770
▁zy	-9771
gten	-9772
▁rss	-9773
▁snack	-9774
▁bout	-9775
▁kreis	-9776
▁highlight	-9777
▁nearly	-9778
▁superior	-9779
iler	-9780
▁nachfol	-9781
▁zusatz	-9782
gänge	-9783
▁meetings	-9784
▁vertrauen	-9785
▁travelling	-9786
iess	-9787
▁reag	-9788
▁indien	-9789
▁moved	-9790
▁bav	-9791
▁templ	-9792
▁reservieren	-9793
pie	-9794
▁announced	-9795
▁bekannten	-9796
▁parks	-9797
kö	-9798
▁slot	-9799
▁fundamental	-9800
▁geräum	-9801
▁geschle	-9802
▁öffentlichkeit	-9803
ollt	-9804
▁entered	-9805
üche	-9806
▁analog	-9807
▁pink	-9808
▁bestimmungsort	-9809
ancy	-9810
▁polar	-9811
▁figur	-9812
▁nas	-9813
▁führte	-9814
▁kompet	-9815
▁opens	-9816
▁convin	-9817
▁überras	-9818
▁orthodox	-9819
▁mostly	-9820
▁factors	-9821
▁produziert	-9822
▁düsseldorf	-9823
words	-9824
▁reinigung	-9825
▁länger	-9826
▁edelstahl	-9827
▁configuration	-9828
chtet	-9829
▁clar	-9830
▁großbritannien	-9831
▁freunden	-9832
igend	-9833
▁nine	-9834
▁auszu	-9835
▁kalender	-9836
benz	-9837
▁nik	-9838
erstellen	-9839
umes	-9840
ikanischen	-9841
▁bestellen	-9842
▁accompan	-9843
▁ähnlich	-9844
▁anna	-9845
▁einkaufs	-9846
führen	-9847
▁osten	-9848
▁lebt	-9849
jun	-9850
▁ny	-9851
▁authentic	-9852
▁exklus	-9853
▁versucht	-9854
▁flüss	-9855
-9	-9856
▁consent	-9857
▁hydra	-9858
▁jeho	-9859
erung	-9860
plays	-9861
alp	-9862
▁simpl	-9863
▁experiment	-9864
erste	-9865
▁kamp	-9866
▁mile	-9867
irl	-9868
▁neit	-9869
▁sounds	-9870
▁ziemlich	-9871
orient	-9872
▁vielfält	-9873
▁gd	-9874
▁mitten	-9875
▁turk	-9876
▁tweet	-9877
▁eingerichtet	-9878
▁asien	-9879
aste	-9880
rolog	-9881
▁rout	-9882
▁anschließend	-9883
▁offene	-9884
▁genannten	-9885
▁exciting	-9886
quet	-9887
rot	-9888
▁suites	-9889
▁baden	-9890
▁concrete	-9891
igste	-9892
olis	-9893
▁developments	-9894
▁cologne	-9895
▁beschrieben	-9896
▁kept	-9897
▁eingesch	-9898
▁component	-9899
▁navig	-9900
izz	-9901
▁gekommen	-9902
mont	-9903
▁variante	-9904
▁1,5	-9905
▁secondary	-9906
▁circum	-9907
▁toler	-9908
▁banks	-9909
▁drin	-9910
loc	-9911
▁erhöhen	-9912
haltet	-9913
▁abgeschlossen	-9914
▁relaxing	-9915
▁inspiration	-9916
▁expression	-9917
▁einfachen	-9918
▁weekend	-9919
▁outlook	-9920
▁dimension	-9921
▁removed	-9922
edia	-9923
spartner	-9924
wegs	-9925
▁risks	-9926
▁james	-9927
▁finance	-9928
▁unknown	-9929
▁köln	-9930
▁geste	-9931
▁onto	-9932
hrt	-9933
▁afford	-9934
▁appeal	-9935
▁indoor	-9936
▁keiner	-9937
▁pens	-9938
▁graz	-9939
boot	-9940
▁snap	-9941
▁menschlichen	-9942
▁plätze	-9943
örse	-9944
▁bisch	-9945
jection	-9946
war	-9947
▁erhöht	-9948
tease	-9949
▁ferienwohnungen	-9950
▁größen	-9951
.08	-9952
▁signs	-9953
uchtung	-9954
▁bug	-9955
äub	-9956
▁theory	-9957
üm	-9958
halle	-9959
inkel	-9960
bib	-9961
▁jews	-9962
▁pac	-9963
▁spaz	-9964
▁vene	-9965
▁blau	-9966
▁muster	-9967
▁vorteil	-9968
▁verwe	-9969
▁mund	-9970
▁arme	-9971
▁reservierung	-9972
▁antisp	-9973
▁konzern	-9974
.2016	-9975
▁desired	-9976
▁forec	-9977
▁finger	-9978
▁striptease	-9979
cas	-9980
▁qualitäts	-9981
▁daughter	-9982
▁measuring	-9983
▁forget	-9984
▁vint	-9985
▁milliarden	-9986
reisen	-9987
▁1994	-9988
▁glaube	-9989
▁thailand	-9990
washer	-9991
▁montage	-9992
afe	-9993
cers	-9994
▁kathol	-9995
nissen	-9996
▁vertreter	-9997
cepts	-9998
▁verwaltung	-9999
▁theoret	-10000
▁hannover	-10001
alte	-10002
▁claims	-10003
▁pfe	-10004
ero	-10005
▁continuous	-10006
zul	-10007
▁resident	-10008
▁champions	-10009
72	-10010
▁cn	-10011
▁introduced	-10012
imeter	-10013
▁125	-10014
▁audience	-10015
▁vermeiden	-10016
racy	-10017
▁fiber	-10018
▁facts	-10019
▁vereinigte	-10020
▁partnership	-10021
▁polyester	-10022
▁eindruck	-10023
▁seien	-10024
▁abenteuer	-10025
▁robot	-10026
▁fahrer	-10027
▁ingen	-10028
▁mikrowelle	-10029
verw	-10030
▁principles	-10031
eries	-10032
▁indian	-10033
lekt	-10034
▁tatsache	-10035
▁ira	-10036
▁ungefähr	-10037
▁größer	-10038
tzeit	-10039
▁höchsten	-10040
▁lehrer	-10041
▁gutes	-10042
▁printed	-10043
▁characters	-10044
iveness	-10045
ota	-10046
▁salt	-10047
▁documentation	-10048
▁bewöl	-10049
▁besitzt	-10050
▁reception	-10051
▁verfolgung	-10052
field	-10053
▁gam	-10054
▁leisure	-10055
▁aussehen	-10056
.02.2019	-10057
ichtung	-10058
▁divine	-10059
endung	-10060
▁abb	-10061
tücher	-10062
▁übernachtung	-10063
▁9.	-10064
▁enthus	-10065
▁wesen	-10066
▁sams	-10067
pension	-10068
▁nights	-10069
▁festivals	-10070
▁bek	-10071
▁fehlen	-10072
▁neither	-10073
▁bathrooms	-10074
▁bäume	-10075
produkt	-10076
▁thousand	-10077
▁polen	-10078
ibet	-10079
▁bish	-10080
▁konfl	-10081
▁participation	-10082
▁heutigen	-10083
▁methode	-10084
veranstalt	-10085
unning	-10086
▁einrichtung	-10087
▁62	-10088
▁smartphones	-10089
▁managed	-10090
▁birthday	-10091
▁antispyware	-10092
▁funktions	-10093
ession	-10094
▁sö	-10095
▁priester	-10096
▁krie	-10097
-14	-10098
▁faszin	-10099
▁188	-10100
▁ceramic	-10101
▁ausger	-10102
musik	-10103
▁gos	-10104
abilities	-10105
▁24.	-10106
▁bour	-10107
kreis	-10108
▁albert	-10109
73	-10110
▁texts	-10111
▁singles	-10112
arium	-10113
▁bedarf	-10114
farben	-10115
▁musste	-10116
▁kontinuier	-10117
▁afric	-10118
▁translated	-10119
wers	-10120
cor	-10121
theit	-10122
icing	-10123
▁exceptional	-10124
▁encour	-10125
bruch	-10126
▁uninstall	-10127
▁depth	-10128
pfen	-10129
▁changing	-10130
▁wolfgang	-10131
▁storn	-10132
▁venice	-10133
▁returned	-10134
▁valu	-10135
▁aktivieren	-10136
▁hilf	-10137
▁stations	-10138
acker	-10139
▁gegend	-10140
information	-10141
▁ah	-10142
55	-10143
orter	-10144
▁furnished	-10145
▁qualit	-10146
sph	-10147
62	-10148
rechts	-10149
▁unglaub	-10150
▁impl	-10151
▁unabhängig	-10152
▁specified	-10153
meister	-10154
iform	-10155
otes	-10156
▁illeg	-10157
äfen	-10158
▁blü	-10159
▁umfass	-10160
▁forced	-10161
▁nämlich	-10162
betten	-10163
▁george	-10164
▁sr	-10165
▁grös	-10166
ifts	-10167
▁79	-10168
▁lived	-10169
▁angst	-10170
▁util	-10171
▁critical	-10172
▁catalogue	-10173
ftigen	-10174
▁großart	-10175
▁refrigerator	-10176
▁gesetzt	-10177
▁ss	-10178
▁finde	-10179
▁humidity	-10180
▁older	-10181
gets	-10182
▁politics	-10183
▁panorama	-10184
ped	-10185
▁leer	-10186
▁latin	-10187
▁beschleun	-10188
▁installiert	-10189
▁trying	-10190
▁vorder	-10191
▁cannab	-10192
▁autonom	-10193
▁lor	-10194
▁pilot	-10195
core	-10196
▁1992	-10197
▁frucht	-10198
▁fantastic	-10199
with	-10200
▁flugtickets	-10201
▁fees	-10202
▁erzählen	-10203
▁vertreten	-10204
life	-10205
gehend	-10206
▁twin	-10207
▁dang	-10208
▁viewed	-10209
▁chapter	-10210
▁dokumente	-10211
▁cp	-10212
ergie	-10213
▁sample	-10214
▁eröffnet	-10215
▁74	-10216
▁sul	-10217
▁carefully	-10218
town	-10219
tellte	-10220
▁layout	-10221
▁reported	-10222
zieh	-10223
▁vice	-10224
▁anspruch	-10225
▁logistik	-10226
kul	-10227
▁nick	-10228
▁transfers	-10229
▁sammeln	-10230
▁television	-10231
▁linen	-10232
▁vine	-10233
front	-10234
▁rufen	-10235
▁prague	-10236
▁cancer	-10237
▁washington	-10238
handlung	-10239
▁cotton	-10240
▁frequency	-10241
▁brill	-10242
win	-10243
▁individually	-10244
▁führung	-10245
▁warranty	-10246
▁scope	-10247
dire	-10248
▁impressive	-10249
▁ov	-10250
geschoss	-10251
verhältnis	-10252
▁alic	-10253
.07	-10254
clear	-10255
spunkt	-10256
▁protein	-10257
▁aufnahme	-10258
▁opfer	-10259
▁angemeldet	-10260
▁employment	-10261
▁bezeichnet	-10262
▁dishwasher	-10263
▁sichere	-10264
▁rud	-10265
▁peak	-10266
▁leib	-10267
▁subt	-10268
▁solve	-10269
▁rig	-10270
▁begeg	-10271
.20	-10272
▁begriff	-10273
▁anteil	-10274
▁hinge	-10275
▁unless	-10276
▁beschrän	-10277
inos	-10278
▁milk	-10279
▁gemeinsame	-10280
▁commitment	-10281
▁miteinander	-10282
iglich	-10283
▁gewährleisten	-10284
▁everyday	-10285
ziplin	-10286
▁schreib	-10287
▁armen	-10288
sup	-10289
▁explains	-10290
▁sov	-10291
isted	-10292
▁coordin	-10293
▁konzert	-10294
▁350	-10295
hnung	-10296
schuss	-10297
▁kw	-10298
▁follows	-10299
▁nachhaltigkeit	-10300
▁trading	-10301
entlich	-10302
▁continues	-10303
mi	-10304
▁cock	-10305
ours	-10306
▁boy	-10307
▁creates	-10308
▁kul	-10309
▁bewölkt	-10310
▁shang	-10311
▁kaiser	-10312
▁depend	-10313
▁gele	-10314
▁jump	-10315
▁rena	-10316
quiry	-10317
▁blind	-10318
▁studium	-10319
▁hälfte	-10320
▁pray	-10321
▁reduction	-10322
▁fif	-10323
▁queen	-10324
▁beinhaltet	-10325
▁planung	-10326
▁cha	-10327
itis	-10328
▁behör	-10329
▁unge	-10330
▁robust	-10331
▁vorjahr	-10332
anfrage	-10333
▁beur	-10334
▁sofern	-10335
▁garage	-10336
▁wik	-10337
▁gewe	-10338
▁wenden	-10339
etzte	-10340
▁starke	-10341
▁efforts	-10342
▁optical	-10343
▁lokale	-10344
▁seconds	-10345
▁exclus	-10346
apel	-10347
▁kinds	-10348
▁fischer	-10349
▁entscheid	-10350
nisses	-10351
▁fliegen	-10352
▁immun	-10353
utzung	-10354
erien	-10355
▁amateur	-10356
▁previously	-10357
▁remark	-10358
▁migration	-10359
▁zivil	-10360
▁eign	-10361
▁lip	-10362
▁automobil	-10363
alus	-10364
▁liv	-10365
inf	-10366
▁rio	-10367
▁wedding	-10368
▁entstanden	-10369
pression	-10370
▁beziehungen	-10371
▁führenden	-10372
▁witness	-10373
▁religi	-10374
▁1993	-10375
▁regime	-10376
▁continuously	-10377
▁brings	-10378
▁hir	-10379
▁belgien	-10380
kov	-10381
▁deleg	-10382
▁ungewöhn	-10383
▁electronics	-10384
werks	-10385
▁flav	-10386
ido	-10387
▁moral	-10388
▁dot	-10389
▁mental	-10390
▁cooking	-10391
▁moreover	-10392
▁erscheint	-10393
▁steigen	-10394
prechen	-10395
▁verbinden	-10396
iale	-10397
▁encounter	-10398
night	-10399
▁controlled	-10400
▁aufmerksamkeit	-10401
owned	-10402
▁1.1	-10403
▁subsid	-10404
selben	-10405
▁begrenz	-10406
zeichnete	-10407
▁seid	-10408
▁positions	-10409
▁vote	-10410
▁ds	-10411
▁nutr	-10412
▁compress	-10413
▁laboratory	-10414
▁convers	-10415
▁anwendungs	-10416
,50	-10417
zusch	-10418
▁festen	-10419
▁incred	-10420
▁paket	-10421
▁benutzern	-10422
▁www	-10423
stationen	-10424
zube	-10425
▁chile	-10426
▁tort	-10427
abol	-10428
ütte	-10429
▁danke	-10430
▁rhyth	-10431
cow	-10432
▁bö	-10433
aug	-10434
▁renn	-10435
dateiend	-10436
▁desto	-10437
▁getan	-10438
freien	-10439
▁teacher	-10440
▁monster	-10441
▁gepäck	-10442
▁justice	-10443
▁tai	-10444
▁aktien	-10445
splatz	-10446
uden	-10447
▁debian	-10448
▁cheaper	-10449
▁vintage	-10450
▁hauptstadt	-10451
loggen	-10452
▁titan	-10453
▁grenz	-10454
asy	-10455
▁survey	-10456
▁verh	-10457
▁visa	-10458
▁hero	-10459
äle	-10460
leitungen	-10461
▁improving	-10462
kabel	-10463
tour	-10464
▁bb	-10465
▁catholic	-10466
▁blätter	-10467
▁db	-10468
▁220	-10469
stuhl	-10470
ändert	-10471
atik	-10472
▁werkt	-10473
▁dutch	-10474
▁mang	-10475
▁anspruchs	-10476
▁asc	-10477
▁estim	-10478
▁zerstör	-10479
insel	-10480
▁mine	-10481
messe	-10482
▁organized	-10483
▁romantic	-10484
▁ft	-10485
▁gardens	-10486
▁erlebnis	-10487
▁schäd	-10488
inding	-10489
-20	-10490
▁barbe	-10491
▁tiefe	-10492
ylon	-10493
▁testim	-10494
▁ment	-10495
▁erhielt	-10496
.99	-10497
gy	-10498
▁identity	-10499
▁schweden	-10500
▁tried	-10501
▁obvious	-10502
zert	-10503
▁confir	-10504
▁repräsent	-10505
▁specifically	-10506
▁funding	-10507
▁quadrat	-10508
▁geg	-10509
▁erschein	-10510
▁mögliche	-10511
stern	-10512
▁tradegate	-10513
ito	-10514
▁trag	-10515
aun	-10516
enter	-10517
▁reserved	-10518
▁appears	-10519
zeichnungen	-10520
▁weiteres	-10521
▁gefallen	-10522
▁bewegen	-10523
ragend	-10524
▁stable	-10525
▁zugleich	-10526
von	-10527
indest	-10528
▁concepts	-10529
▁lots	-10530
piele	-10531
▁erheb	-10532
▁nummer	-10533
▁permit	-10534
▁goals	-10535
itate	-10536
▁profitieren	-10537
▁einzelne	-10538
▁insert	-10539
▁shad	-10540
▁langfrist	-10541
ansicht	-10542
▁cooper	-10543
▁touristen	-10544
▁jüng	-10545
▁residen	-10546
▁1980	-10547
▁spät	-10548
▁grunds	-10549
▁elektronik	-10550
rise	-10551
▁fokus	-10552
▁jord	-10553
▁popul	-10554
▁graphics	-10555
▁ausgewählten	-10556
▁griech	-10557
hlte	-10558
▁francisco	-10559
cat	-10560
▁geschaffen	-10561
▁html	-10562
▁verhältnis	-10563
aped	-10564
▁generator	-10565
▁tätig	-10566
▁mast	-10567
▁leon	-10568
▁schalt	-10569
▁synchron	-10570
▁reader	-10571
▁dishes	-10572
heiz	-10573
36	-10574
▁shuttle	-10575
▁eingerah	-10576
▁kapitel	-10577
bb	-10578
▁myth	-10579
kei	-10580
iox	-10581
▁oberflächen	-10582
▁beantwor	-10583
ftige	-10584
▁emotion	-10585
vak	-10586
hagen	-10587
▁milch	-10588
heber	-10589
▁konvert	-10590
▁professionelle	-10591
▁resist	-10592
▁desire	-10593
▁routes	-10594
▁glad	-10595
kultur	-10596
▁gemeinsamen	-10597
▁wies	-10598
zepte	-10599
▁doors	-10600
▁bewerten	-10601
▁zip	-10602
▁hydraul	-10603
▁prüfung	-10604
▁photography	-10605
▁pp	-10606
▁richard	-10607
▁ratings	-10608
uver	-10609
region	-10610
▁corporation	-10611
▁senior	-10612
▁erstmals	-10613
▁risiko	-10614
▁conduct	-10615
▁policies	-10616
▁sieg	-10617
▁handtücher	-10618
▁interessante	-10619
ti	-10620
zuführen	-10621
▁organisations	-10622
▁usage	-10623
▁neighbour	-10624
▁converter	-10625
▁rubber	-10626
▁organisationen	-10627
▁extr	-10628
▁allah	-10629
▁gun	-10630
utter	-10631
▁bügele	-10632
▁crystal	-10633
▁versuch	-10634
▁football	-10635
▁geführt	-10636
▁lü	-10637
▁mouth	-10638
spezif	-10639
▁gehminuten	-10640
▁ausreich	-10641
▁massen	-10642
eing	-10643
▁meat	-10644
stock	-10645
bewahr	-10646
flü	-10647
▁californ	-10648
▁collected	-10649
▁sach	-10650
▁screens	-10651
▁browsers	-10652
▁vog	-10653
▁enem	-10654
▁cancell	-10655
▁1989	-10656
▁ausflug	-10657
▁kroatien	-10658
harmon	-10659
▁berühmten	-10660
▁regeln	-10661
▁conflict	-10662
linder	-10663
▁phen	-10664
▁lehre	-10665
▁verring	-10666
sprach	-10667
now	-10668
▁minor	-10669
▁dating	-10670
▁subsequ	-10671
▁oppos	-10672
▁hybrid	-10673
flow	-10674
uries	-10675
▁eingel	-10676
llung	-10677
▁wohnen	-10678
▁verkauft	-10679
▁adap	-10680
seeing	-10681
▁exceed	-10682
baum	-10683
▁layer	-10684
▁wishl	-10685
▁attractions	-10686
▁irgende	-10687
▁katal	-10688
▁apprec	-10689
▁participate	-10690
▁gaz	-10691
ärt	-10692
▁norden	-10693
▁mig	-10694
▁traditionellen	-10695
sterne	-10696
▁stam	-10697
▁regulation	-10698
▁spots	-10699
▁klang	-10700
▁inserate	-10701
▁akzeptiert	-10702
▁hundred	-10703
▁mood	-10704
▁divid	-10705
▁170	-10706
▁plaza	-10707
▁associations	-10708
iah	-10709
▁annivers	-10710
▁majority	-10711
▁erweitert	-10712
ston	-10713
▁rf	-10714
▁nör	-10715
.12	-10716
▁chamber	-10717
▁namens	-10718
▁lei	-10719
▁newly	-10720
▁zeitgen	-10721
.2017	-10722
▁icon	-10723
fälle	-10724
▁waiting	-10725
▁equal	-10726
linge	-10727
▁erstklassigen	-10728
▁preferred	-10729
▁african	-10730
▁vieles	-10731
▁virgin	-10732
▁mosk	-10733
üren	-10734
▁handeln	-10735
ji	-10736
ographie	-10737
lieben	-10738
schläge	-10739
▁änderung	-10740
strateg	-10741
ardo	-10742
▁erle	-10743
▁samsung	-10744
unds	-10745
ulator	-10746
weight	-10747
gers	-10748
▁referenz	-10749
kompon	-10750
▁strategie	-10751
länd	-10752
▁prayer	-10753
lot	-10754
▁siemens	-10755
▁schwimmbad	-10756
▁gehalten	-10757
priv	-10758
▁prospe	-10759
inery	-10760
▁konzer	-10761
▁aufenthalts	-10762
▁spare	-10763
öch	-10764
▁faster	-10765
▁resource	-10766
link	-10767
▁beer	-10768
▁distin	-10769
▁rücken	-10770
▁fördern	-10771
▁weiterer	-10772
▁anreise	-10773
▁stör	-10774
formular	-10775
▁befest	-10776
▁25.	-10777
▁persecution	-10778
ittel	-10779
▁recycling	-10780
raucht	-10781
▁chinesische	-10782
▁botschaft	-10783
▁holland	-10784
▁branches	-10785
anw	-10786
▁ourselves	-10787
lay	-10788
rasch	-10789
▁intended	-10790
▁aspe	-10791
politik	-10792
▁dear	-10793
▁flücht	-10794
▁showing	-10795
▁einst	-10796
▁sekunden	-10797
▁dialogue	-10798
▁certificate	-10799
mittag	-10800
▁91	-10801
▁motion	-10802
▁viet	-10803
▁ausstellungen	-10804
▁butter	-10805
bereiche	-10806
▁opposition	-10807
▁pret	-10808
▁acid	-10809
▁angesehen	-10810
▁alicante	-10811
▁initiat	-10812
▁begeister	-10813
▁riv	-10814
saw	-10815
▁bun	-10816
.19	-10817
▁berecht	-10818
▁angeles	-10819
▁festge	-10820
▁plays	-10821
▁constantly	-10822
produktion	-10823
▁ums	-10824
▁rear	-10825
▁berge	-10826
▁vielfalt	-10827
▁liefert	-10828
▁schaden	-10829
worfen	-10830
umfang	-10831
▁medizinische	-10832
▁streets	-10833
schul	-10834
▁merkmale	-10835
▁cub	-10836
▁releases	-10837
▁emergen	-10838
▁intr	-10839
▁gesche	-10840
büro	-10841
▁assistance	-10842
erie	-10843
essel	-10844
liegenden	-10845
▁inten	-10846
▁drawing	-10847
▁wishlist	-10848
▁precision	-10849
▁veränderungen	-10850
▁röm	-10851
▁uhren	-10852
▁bemerk	-10853
▁unc	-10854
▁meeres	-10855
ilder	-10856
freundlich	-10857
▁rhein	-10858
▁portrait	-10859
▁acquis	-10860
▁61	-10861
▁elast	-10862
zwischen	-10863
▁primarily	-10864
▁andalus	-10865
▁existence	-10866
▁mist	-10867
▁verbindungen	-10868
▁displays	-10869
▁knew	-10870
▁werkzeuge	-10871
▁fuer	-10872
▁amerika	-10873
▁christen	-10874
▁prima	-10875
▁spent	-10876
▁sons	-10877
▁dp	-10878
emark	-10879
zed	-10880
▁aggress	-10881
▁arrive	-10882
spar	-10883
▁laptop	-10884
▁standing	-10885
▁verschl	-10886
▁nörd	-10887
▁expensive	-10888
▁griechenland	-10889
▁gesundheits	-10890
▁kleines	-10891
▁lediglich	-10892
▁ratio	-10893
▁ält	-10894
auspiel	-10895
▁semin	-10896
ifications	-10897
icts	-10898
lets	-10899
▁denmark	-10900
▁intensive	-10901
▁escape	-10902
▁convention	-10903
unted	-10904
▁schol	-10905
▁stockholm	-10906
▁lunch	-10907
▁luke	-10908
▁lac	-10909
▁übrigen	-10910
▁generated	-10911
order	-10912
▁erneuer	-10913
▁steck	-10914
irus	-10915
▁kaffe	-10916
▁epis	-10917
▁recorded	-10918
▁gern	-10919
▁fourth	-10920
ocracy	-10921
▁bessere	-10922
fit	-10923
angt	-10924
▁bond	-10925
▁individuelle	-10926
▁lav	-10927
▁luf	-10928
gio	-10929
▁eingeb	-10930
▁cosmetics	-10931
▁contribution	-10932
▁runs	-10933
▁hochzeit	-10934
▁reb	-10935
▁1970	-10936
cular	-10937
▁warning	-10938
▁adm	-10939
▁küste	-10940
richtlinien	-10941
▁simon	-10942
▁represents	-10943
▁ruhig	-10944
▁influen	-10945
▁compliance	-10946
-01	-10947
▁mittag	-10948
▁nachbar	-10949
▁grav	-10950
▁attend	-10951
▁189	-10952
jing	-10953
▁mort	-10954
▁dust	-10955
idents	-10956
▁neder	-10957
versorgung	-10958
ede	-10959
▁handy	-10960
▁mah	-10961
esented	-10962
▁getr	-10963
▁diagram	-10964
▁signed	-10965
▁gericht	-10966
▁grace	-10967
▁minimal	-10968
▁charm	-10969
▁aid	-10970
▁bible	-10971
etze	-10972
▁entdeck	-10973
▁spok	-10974
navigation	-10975
▁überein	-10976
▁stream	-10977
▁inbe	-10978
▁asp	-10979
▁perspekt	-10980
▁bestätigt	-10981
▁2.5	-10982
▁tang	-10983
▁reis	-10984
▁geschirr	-10985
▁prolet	-10986
▁hi	-10987
▁selber	-10988
etr	-10989
▁chanc	-10990
oted	-10991
41	-10992
▁geschützt	-10993
schnitts	-10994
▁hei	-10995
▁coin	-10996
▁bohr	-10997
ötz	-10998
-200	-10999
pielt	-11000
▁türkei	-11001
▁amt	-11002
▁basiert	-11003
▁centers	-11004
▁1991	-11005
ergebnisse	-11006
gebä	-11007
▁sorgf	-11008
▁covers	-11009
▁herum	-11010
▁bedürfnisse	-11011
▁manifest	-11012
▁tatto	-11013
ktive	-11014
▁ansicht	-11015
▁zusch	-11016
▁increasingly	-11017
▁officer	-11018
▁quot	-11019
üb	-11020
▁luxembourg	-11021
▁erweiterung	-11022
▁shoes	-11023
▁proc	-11024
▁emotional	-11025
xx	-11026
▁gitar	-11027
37	-11028
richtet	-11029
▁cultiv	-11030
strom	-11031
▁pia	-11032
fred	-11033
▁chinesischen	-11034
▁verbessert	-11035
afrika	-11036
▁bags	-11037
▁ört	-11038
▁sides	-11039
schulen	-11040
villa	-11041
▁kong	-11042
▁pig	-11043
▁beschwerde	-11044
▁hochschule	-11045
ofen	-11046
▁bene	-11047
▁lights	-11048
▁anniversary	-11049
▁eingerollt	-11050
achte	-11051
ährt	-11052
▁organisiert	-11053
▁gehe	-11054
▁dunkel	-11055
▁hills	-11056
▁globalen	-11057
onien	-11058
▁milan	-11059
eldungen	-11060
▁autoren	-11061
▁diamond	-11062
▁cathed	-11063
▁darstellung	-11064
liness	-11065
▁grass	-11066
▁häuser	-11067
▁atom	-11068
üse	-11069
▁oak	-11070
▁gewonnen	-11071
▁bauen	-11072
▁fass	-11073
ysteme	-11074
▁stores	-11075
▁lau	-11076
▁authors	-11077
▁nationen	-11078
▁zahlung	-11079
defin	-11080
▁unbegrenz	-11081
▁versandrohr	-11082
enken	-11083
lett	-11084
▁niveau	-11085
▁gü	-11086
▁bestätigen	-11087
▁erzeug	-11088
▁treas	-11089
hausen	-11090
eta	-11091
pot	-11092
helm	-11093
hindern	-11094
▁becoming	-11095
▁machinery	-11096
▁29.	-11097
icians	-11098
ners	-11099
▁agriculture	-11100
▁domestic	-11101
▁occasion	-11102
▁türk	-11103
alon	-11104
▁gh	-11105
▁dah	-11106
▁stamp	-11107
▁supplies	-11108
▁ließ	-11109
▁quartal	-11110
▁evidence	-11111
▁taxes	-11112
▁finding	-11113
▁verbrauch	-11114
auftrag	-11115
▁leitung	-11116
▁marx	-11117
orgen	-11118
▁income	-11119
▁verbringen	-11120
▁gym	-11121
itu	-11122
master	-11123
aka	-11124
effe	-11125
▁gewöhn	-11126
▁granada	-11127
▁filme	-11128
▁assessment	-11129
▁atember	-11130
▁thor	-11131
▁modular	-11132
▁california	-11133
fish	-11134
uropa	-11135
▁regularly	-11136
▁30.	-11137
▁fähigkeit	-11138
▁mechanism	-11139
▁sof	-11140
▁criteria	-11141
▁polish	-11142
▁bonn	-11143
▁reply	-11144
▁amazon	-11145
▁pleasure	-11146
▁atemberaub	-11147
▁mirror	-11148
▁noise	-11149
▁absolut	-11150
▁breath	-11151
▁schlecht	-11152
gorith	-11153
▁melden	-11154
▁opinions	-11155
force	-11156
▁zoll	-11157
▁wichtigste	-11158
top	-11159
▁knows	-11160
▁organizations	-11161
▁einträge	-11162
▁1.2	-11163
▁optimale	-11164
▁matth	-11165
▁answers	-11166
▁klo	-11167
▁sugar	-11168
▁genehm	-11169
ässig	-11170
chnitten	-11171
▁sortiert	-11172
▁weiss	-11173
▁recording	-11174
▁willen	-11175
▁branch	-11176
▁moscow	-11177
▁impression	-11178
▁pel	-11179
stechnik	-11180
ighten	-11181
▁96	-11182
▁rated	-11183
▁studied	-11184
▁cycling	-11185
wege	-11186
▁vertical	-11187
▁formation	-11188
▁xx	-11189
▁parag	-11190
▁adam	-11191
theless	-11192
▁smoke	-11193
anschluss	-11194
robe	-11195
▁inj	-11196
▁geistes	-11197
▁formats	-11198
esa	-11199
ieur	-11200
▁stellte	-11201
▁alltag	-11202
▁prime	-11203
▁classical	-11204
▁vacuum	-11205
▁polizei	-11206
▁erzeugen	-11207
▁wolken	-11208
▁vitamin	-11209
zi	-11210
▁sfp	-11211
▁achtung	-11212
▁enabled	-11213
.2019	-11214
▁saved	-11215
▁mittl	-11216
▁verständnis	-11217
▁dauert	-11218
▁diabet	-11219
▁spectac	-11220
▁laund	-11221
▁verlag	-11222
▁represented	-11223
akers	-11224
estr	-11225
▁urheber	-11226
▁lieferbar	-11227
▁philosophy	-11228
▁undert	-11229
▁süden	-11230
▁formed	-11231
▁shanghai	-11232
glas	-11233
hoch	-11234
wesen	-11235
ially	-11236
▁simult	-11237
▁leidenschaft	-11238
▁tutorial	-11239
▁objective	-11240
oring	-11241
affung	-11242
▁decre	-11243
▁universities	-11244
kette	-11245
▁inhabit	-11246
▁größere	-11247
▁grünen	-11248
▁kostenlosen	-11249
zes	-11250
▁gelö	-11251
▁atmospher	-11252
kret	-11253
▁offenen	-11254
▁forth	-11255
▁tunnel	-11256
▁engag	-11257
ando	-11258
stil	-11259
▁texte	-11260
▁prophet	-11261
ühle	-11262
anspr	-11263
▁shares	-11264
repr	-11265
achtet	-11266
▁maler	-11267
▁loy	-11268
▁maximale	-11269
▁schulen	-11270
▁wettbewerb	-11271
▁bodies	-11272
▁respond	-11273
▁gegenwärt	-11274
▁incorrect	-11275
▁turning	-11276
▁weißen	-11277
▁therapy	-11278
▁agreed	-11279
deut	-11280
igtes	-11281
▁linien	-11282
▁collections	-11283
▁verhindern	-11284
▁shr	-11285
igern	-11286
▁hyper	-11287
▁crow	-11288
bike	-11289
▁revolutionary	-11290
▁23.	-11291
▁acts	-11292
▁mira	-11293
▁exclusively	-11294
▁1960	-11295
▁charming	-11296
▁fantast	-11297
zunehmen	-11298
▁pressemit	-11299
▁negot	-11300
▁äuß	-11301
▁upgrade	-11302
verbrauch	-11303
aro	-11304
ruption	-11305
▁canvas	-11306
▁complet	-11307
▁schmuck	-11308
▁bildschirm	-11309
▁cum	-11310
▁mouse	-11311
lic	-11312
▁housing	-11313
▁affected	-11314
▁seb	-11315
▁installations	-11316
start	-11317
▁begleitet	-11318
▁veranst	-11319
▁seating	-11320
▁applies	-11321
▁speziellen	-11322
▁gloss	-11323
▁einfacher	-11324
iminal	-11325
▁karls	-11326
größ	-11327
oni	-11328
▁starken	-11329
phan	-11330
▁exem	-11331
▁orgasm	-11332
fot	-11333
▁1-2	-11334
▁gang	-11335
ocol	-11336
▁packages	-11337
meer	-11338
▁cant	-11339
▁goethe	-11340
▁selben	-11341
▁satz	-11342
▁drivers	-11343
universität	-11344
▁charles	-11345
▁absolutely	-11346
▁inneren	-11347
▁kleid	-11348
▁balear	-11349
sthe	-11350
▁kö	-11351
▁beschäftigt	-11352
ieben	-11353
▁zumindest	-11354
inian	-11355
▁bildet	-11356
enth	-11357
▁linkedin	-11358
▁wesentlich	-11359
▁clothes	-11360
▁variable	-11361
▁tus	-11362
▁gästen	-11363
▁amenities	-11364
▁entit	-11365
▁schauspiel	-11366
▁accompanied	-11367
farbe	-11368
▁passt	-11369
▁imposs	-11370
▁schwarzen	-11371
eting	-11372
▁batterie	-11373
mund	-11374
▁habt	-11375
nik	-11376
setzungen	-11377
▁texas	-11378
▁vicinity	-11379
▁sunny	-11380
but	-11381
▁ausführung	-11382
papier	-11383
▁solidar	-11384
▁nevertheless	-11385
▁sharing	-11386
▁günstigsten	-11387
▁vollkommen	-11388
▁advertis	-11389
▁prepare	-11390
▁pom	-11391
▁promote	-11392
▁errors	-11393
▁pleased	-11394
▁nit	-11395
▁chemie	-11396
▁schreibtisch	-11397
strasse	-11398
▁neutral	-11399
▁neueste	-11400
passt	-11401
▁0,00	-11402
rät	-11403
▁öffnet	-11404
mitglied	-11405
▁processed	-11406
lichem	-11407
▁techniques	-11408
▁worten	-11409
cca	-11410
tung	-11411
player	-11412
▁catch	-11413
▁jens	-11414
▁diseases	-11415
▁einzigen	-11416
ui	-11417
iode	-11418
▁spitze	-11419
▁conversion	-11420
▁etabl	-11421
▁monument	-11422
burgh	-11423
autom	-11424
▁ebit	-11425
▁backup	-11426
uung	-11427
▁hände	-11428
prozess	-11429
▁krankheit	-11430
bla	-11431
▁herausforderung	-11432
▁arms	-11433
▁rechnung	-11434
▁ägypten	-11435
▁77	-11436
▁happened	-11437
finder	-11438
▁sonnenuntergang	-11439
▁ereignisse	-11440
stes	-11441
▁115	-11442
▁vertrieb	-11443
▁nachhaltige	-11444
▁jury	-11445
▁dublin	-11446
▁composition	-11447
▁gestaltung	-11448
▁messages	-11449
▁direkte	-11450
ennung	-11451
▁71	-11452
▁ank	-11453
▁wag	-11454
▁stuff	-11455
▁magazin	-11456
▁waters	-11457
▁partly	-11458
▁font	-11459
▁laundry	-11460
bene	-11461
▁mixed	-11462
oney	-11463
anbul	-11464
▁fed	-11465
amar	-11466
▁wiener	-11467
▁proven	-11468
▁bibliothek	-11469
▁allerg	-11470
▁empfangen	-11471
-6	-11472
▁sir	-11473
▁drinks	-11474
zens	-11475
laimer	-11476
▁individuals	-11477
▁ensures	-11478
▁anh	-11479
▁dm	-11480
▁instrumental	-11481
▁greatest	-11482
▁spitzen	-11483
zeichnen	-11484
▁jon	-11485
▁kh	-11486
verlust	-11487
▁fällt	-11488
▁bruder	-11489
▁candid	-11490
▁falle	-11491
▁cathedral	-11492
▁guided	-11493
▁meant	-11494
aufnahme	-11495
▁programmes	-11496
▁committed	-11497
▁teilnahme	-11498
▁schnee	-11499
▁hut	-11500
▁nationale	-11501
etragen	-11502
▁22.	-11503
wür	-11504
zubehör	-11505
üglich	-11506
leiten	-11507
88	-11508
zel	-11509
kin	-11510
ubil	-11511
▁darstell	-11512
▁erleich	-11513
▁steam	-11514
▁spazier	-11515
▁flugticket	-11516
▁arrived	-11517
▁alm	-11518
▁sucht	-11519
▁manually	-11520
▁diskutieren	-11521
▁absen	-11522
▁parken	-11523
▁listing	-11524
tert	-11525
avier	-11526
▁brothers	-11527
usten	-11528
▁wochenende	-11529
▁installieren	-11530
ni	-11531
eur	-11532
istern	-11533
▁erreichbar	-11534
▁adult	-11535
aktivitäten	-11536
▁gekauft	-11537
▁strugg	-11538
▁werbe	-11539
-04	-11540
▁argument	-11541
▁klaus	-11542
▁wines	-11543
imp	-11544
▁lovel	-11545
anbie	-11546
▁zeitgenöss	-11547
effiz	-11548
▁frisch	-11549
▁stability	-11550
arters	-11551
gut	-11552
phy	-11553
▁poet	-11554
▁übersetzt	-11555
▁shapes	-11556
zahlen	-11557
mittlung	-11558
▁bremen	-11559
▁67	-11560
▁clothing	-11561
▁aktuelles	-11562
▁höhere	-11563
▁850	-11564
▁villages	-11565
oty	-11566
▁discovered	-11567
▁gegenwart	-11568
▁antimal	-11569
▁nest	-11570
▁publikum	-11571
▁gelegt	-11572
search	-11573
▁entsprechende	-11574
preise	-11575
▁französischen	-11576
▁jewel	-11577
▁wirst	-11578
▁erklärung	-11579
▁schwerpunkt	-11580
▁schnitt	-11581
▁laufe	-11582
kennung	-11583
ussen	-11584
▁stärken	-11585
▁autumn	-11586
▁tonnen	-11587
▁frühen	-11588
gebracht	-11589
pak	-11590
bart	-11591
▁bezüglich	-11592
▁dancing	-11593
▁returns	-11594
▁representative	-11595
▁explained	-11596
▁klassischen	-11597
▁monuments	-11598
▁antimalware	-11599
▁kombiniert	-11600
rig	-11601
▁cancellation	-11602
wenn	-11603
▁verändert	-11604
pc	-11605
itäts	-11606
▁guidel	-11607
eme	-11608
▁besicht	-11609
▁weap	-11610
iy	-11611
▁durchmesser	-11612
▁tabelle	-11613
▁beam	-11614
▁anfragen	-11615
atische	-11616
▁teilnehmen	-11617
aturen	-11618
▁galaxy	-11619
▁christi	-11620
speed	-11621
▁ernährung	-11622
▁summit	-11623
▁remed	-11624
▁thread	-11625
arr	-11626
▁registrierung	-11627
▁anwender	-11628
chnen	-11629
▁interpretation	-11630
bold	-11631
utical	-11632
▁bedeuten	-11633
▁activated	-11634
▁carl	-11635
▁verpflichtet	-11636
▁mask	-11637
▁unterscheidet	-11638
what	-11639
unts	-11640
eline	-11641
▁isn	-11642
▁flexibility	-11643
sicherheit	-11644
ogram	-11645
▁hack	-11646
▁churches	-11647
law	-11648
▁staub	-11649
herz	-11650
▁artikelnummer	-11651
▁showed	-11652
▁traditions	-11653
▁anwesen	-11654
▁universe	-11655
▁aufsicht	-11656
▁rosa	-11657
attet	-11658
▁hungary	-11659
▁welchen	-11660
▁chairman	-11661
▁increases	-11662
stab	-11663
▁para	-11664
rale	-11665
▁municipality	-11666
▁serves	-11667
▁delicious	-11668
▁compr	-11669
▁stopp	-11670
▁tape	-11671
▁circumst	-11672
▁italienisch	-11673
▁lum	-11674
▁brasilien	-11675
▁agricultural	-11676
haup	-11677
▁ordnung	-11678
▁inse	-11679
▁istanbul	-11680
▁agend	-11681
▁directions	-11682
cci	-11683
▁bildern	-11684
oma	-11685
ilie	-11686
▁ökonom	-11687
▁viertel	-11688
▁daraus	-11689
systemen	-11690
-15	-11691
▁hervorragend	-11692
gment	-11693
▁decla	-11694
▁magnetic	-11695
▁simulation	-11696
plus	-11697
reiten	-11698
▁billiger	-11699
▁threats	-11700
▁precip	-11701
▁barbecue	-11702
▁reduziert	-11703
▁weihnachts	-11704
▁zugänglich	-11705
▁cod	-11706
looking	-11707
▁ports	-11708
▁df	-11709
▁zusätzlichen	-11710
▁wettbewerbs	-11711
▁pir	-11712
▁biom	-11713
estag	-11714
aschine	-11715
▁altstadt	-11716
▁2-3	-11717
▁pretty	-11718
▁legisl	-11719
▁rie	-11720
▁interactive	-11721
▁mittelalter	-11722
▁yec	-11723
handlungen	-11724
▁zählen	-11725
isticated	-11726
laut	-11727
▁composer	-11728
▁tables	-11729
▁concerned	-11730
▁unesco	-11731
langen	-11732
hause	-11733
▁letzter	-11734
▁tech	-11735
▁alpine	-11736
vors	-11737
abeth	-11738
varian	-11739
▁beton	-11740
imedia	-11741
ichtlich	-11742
ku	-11743
▁cerem	-11744
▁atmospheric	-11745
▁providers	-11746
▁supporting	-11747
▁rennen	-11748
▁grenze	-11749
▁öffnungs	-11750
▁affordable	-11751
▁harm	-11752
▁ti	-11753
▁grundlegen	-11754
▁gip	-11755
▁sudden	-11756
▁dubai	-11757
range	-11758
ängnis	-11759
▁communities	-11760
,99	-11761
▁ahead	-11762
astian	-11763
▁scan	-11764
▁olive	-11765
my	-11766
▁bottle	-11767
▁geprü	-11768
▁lieblings	-11769
zellen	-11770
sters	-11771
rap	-11772
▁energies	-11773
▁submitted	-11774
▁firef	-11775
▁doubt	-11776
▁kult	-11777
▁abschnitt	-11778
▁guaranteed	-11779
▁barbar	-11780
uber	-11781
▁erm	-11782
▁hinweise	-11783
aturing	-11784
▁sophisticated	-11785
▁jesu	-11786
▁roche	-11787
▁koordin	-11788
▁usual	-11789
▁chip	-11790
▁valuable	-11791
urer	-11792
▁cs	-11793
▁einloggen	-11794
▁konkre	-11795
▁effizienz	-11796
▁räume	-11797
▁quellen	-11798
▁sichtbar	-11799
rave	-11800
agog	-11801
zza	-11802
▁freiges	-11803
kes	-11804
lab	-11805
halter	-11806
▁excurs	-11807
▁lcd	-11808
▁stunning	-11809
▁meg	-11810
▁jordan	-11811
▁gefangen	-11812
▁ursprünglich	-11813
ärten	-11814
▁mu	-11815
▁rentals	-11816
▁beings	-11817
vorh	-11818
iffen	-11819
▁unbed	-11820
▁verschiedener	-11821
▁paintings	-11822
▁stated	-11823
▁zell	-11824
▁geschäftsführer	-11825
▁explorer	-11826
▁honor	-11827
▁loved	-11828
▁genaus	-11829
hersteller	-11830
ahren	-11831
ieties	-11832
▁aktiviert	-11833
▁enlar	-11834
▁vieler	-11835
▁ergänz	-11836
▁schall	-11837
älte	-11838
ichteten	-11839
▁artific	-11840
▁verbindet	-11841
frau	-11842
▁schnitts	-11843
▁recre	-11844
▁formul	-11845
agent	-11846
▁evaluations	-11847
▁hinsichtlich	-11848
▁76	-11849
erma	-11850
▁ausdrück	-11851
▁embedded	-11852
▁ud	-11853
▁sämtliche	-11854
▁86	-11855
rov	-11856
▁relation	-11857
▁hauptsächlich	-11858
▁anhand	-11859
▁partnerschaft	-11860
▁democratic	-11861
irect	-11862
▁conventional	-11863
▁manufacture	-11864
▁toy	-11865
eps	-11866
osph	-11867
▁connecting	-11868
▁händler	-11869
ildet	-11870
▁wallpaper	-11871
▁26.	-11872
▁einzigartigen	-11873
▁troub	-11874
▁übernehmen	-11875
▁hine	-11876
▁forscher	-11877
▁chal	-11878
zern	-11879
▁solchem	-11880
pert	-11881
▁zeug	-11882
steuerung	-11883
▁verpackung	-11884
half	-11885
lament	-11886
▁verlust	-11887
▁answered	-11888
edig	-11889
▁songtext	-11890
▁config	-11891
▁hoffnung	-11892
▁umge	-11893
▁invited	-11894
▁identify	-11895
inth	-11896
▁basierend	-11897
▁grid	-11898
▁erlauben	-11899
▁tempel	-11900
ließt	-11901
▁convey	-11902
▁gründe	-11903
▁nag	-11904
▁teen	-11905
▁looked	-11906
▁unterschiedlich	-11907
▁jahrzehn	-11908
▁electro	-11909
kategor	-11910
42	-11911
▁empire	-11912
▁trotzdem	-11913
osa	-11914
add	-11915
▁präsentieren	-11916
▁chocol	-11917
▁interessiert	-11918
▁gelesen	-11919
ziele	-11920
▁deinstall	-11921
▁impossible	-11922
dre	-11923
▁medik	-11924
▁erwart	-11925
▁orten	-11926
▁läuft	-11927
▁symph	-11928
▁elimin	-11929
▁luxemburg	-11930
▁respekt	-11931
▁1945	-11932
▁palest	-11933
▁jum	-11934
▁heads	-11935
▁perspective	-11936
▁gelangen	-11937
▁toolbar	-11938
▁herm	-11939
▁weich	-11940
▁dangerous	-11941
▁cheapest	-11942
▁decades	-11943
▁auftreten	-11944
bestimm	-11945
produkten	-11946
izen	-11947
▁entwickelte	-11948
while	-11949
schwe	-11950
about	-11951
▁suffering	-11952
▁nennen	-11953
▁turkish	-11954
▁forecast	-11955
▁additionally	-11956
▁ludwig	-11957
ruhe	-11958
fle	-11959
▁deleted	-11960
▁sitting	-11961
arkt	-11962
▁traditionelle	-11963
▁conv	-11964
-03	-11965
▁genauso	-11966
▁novel	-11967
▁struggle	-11968
▁moses	-11969
▁latein	-11970
▁vip	-11971
▁paradise	-11972
▁zentralen	-11973
▁headqu	-11974
▁vs	-11975
▁pharma	-11976
▁smoking	-11977
rup	-11978
▁vertrags	-11979
kammer	-11980
▁helpful	-11981
jected	-11982
▁legit	-11983
details	-11984
▁ordered	-11985
▁pear	-11986
▁stimm	-11987
ifer	-11988
▁leadership	-11989
▁soweit	-11990
▁abteilung	-11991
▁causes	-11992
▁florida	-11993
▁erzeugt	-11994
▁gründung	-11995
▁stimmung	-11996
▁fascin	-11997
▁cher	-11998
▁affairs	-11999
▁analysiert	-12000
▁philharmon	-12001
kommun	-12002
▁democracy	-12003
▁toward	-12004
▁akademie	-12005
▁korea	-12006
▁declar	-12007
usehen	-12008
▁alco	-12009
▁forever	-12010
▁seek	-12011
▁classes	-12012
▁sailing	-12013
▁violence	-12014
▁nür	-12015
dien	-12016
▁ay	-12017
▁neighbor	-12018
▁restr	-12019
geois	-12020
▁manche	-12021
▁powder	-12022
▁antib	-12023
▁deutscher	-12024
▁motorcy	-12025
▁villen	-12026
▁algorith	-12027
▁junior	-12028
holders	-12029
▁watches	-12030
▁manuell	-12031
▁summ	-12032
▁launched	-12033
▁certification	-12034
▁behandelt	-12035
apie	-12036
inhalt	-12037
▁webcam	-12038
▁assum	-12039
▁schra	-12040
steigen	-12041
▁precise	-12042
▁inbegriffen	-12043
zentren	-12044
▁extend	-12045
▁studios	-12046
▁erlä	-12047
▁inspired	-12048
iates	-12049
▁erzähl	-12050
lings	-12051
▁agenda	-12052
▁bicycle	-12053
▁bh	-12054
▁beliebte	-12055
▁ehemaligen	-12056
sper	-12057
▁kulturellen	-12058
▁lovely	-12059
▁maker	-12060
▁taiwan	-12061
▁explos	-12062
▁damen	-12063
▁supervis	-12064
▁florence	-12065
▁inhabitants	-12066
viel	-12067
case	-12068
▁thee	-12069
verarbeitung	-12070
▁erinnern	-12071
▁internationaler	-12072
▁xp	-12073
▁guarantees	-12074
▁alliance	-12075
▁diversity	-12076
▁endlich	-12077
▁downtown	-12078
▁gewichts	-12079
▁fabr	-12080
▁trinken	-12081
▁mahl	-12082
▁betrachten	-12083
itals	-12084
▁operator	-12085
▁unf	-12086
▁überzeugt	-12087
▁disclaimer	-12088
▁kondition	-12089
▁contribute	-12090
▁venedig	-12091
▁antiv	-12092
▁ships	-12093
▁malta	-12094
▁birds	-12095
▁1-	-12096
▁amerikanischen	-12097
minüt	-12098
▁abra	-12099
iedern	-12100
▁buddha	-12101
zeitraum	-12102
books	-12103
▁joined	-12104
▁harbour	-12105
▁cav	-12106
▁verletz	-12107
perform	-12108
▁porsche	-12109
▁ruf	-12110
▁spark	-12111
gelassen	-12112
▁piz	-12113
▁modus	-12114
gesehen	-12115
▁ry	-12116
▁definiert	-12117
▁begins	-12118
▁ink	-12119
▁grafik	-12120
▁feiert	-12121
▁proud	-12122
▁auflösung	-12123
camp	-12124
▁shell	-12125
▁unternehmer	-12126
▁decisions	-12127
pfl	-12128
ictions	-12129
bahnhof	-12130
▁realität	-12131
▁stro	-12132
▁mare	-12133
quer	-12134
▁dritt	-12135
▁langsam	-12136
ingung	-12137
reibt	-12138
▁intensiv	-12139
werten	-12140
▁eignet	-12141
konstru	-12142
▁territory	-12143
▁rit	-12144
▁vall	-12145
▁simultane	-12146
anwendungen	-12147
ulder	-12148
▁stolz	-12149
istisch	-12150
party	-12151
▁keys	-12152
▁öst	-12153
▁priest	-12154
▁extraordin	-12155
▁cockt	-12156
▁concerts	-12157
▁combine	-12158
▁äußerst	-12159
▁formal	-12160
▁ensemble	-12161
▁anst	-12162
table	-12163
▁proto	-12164
▁cul	-12165
becken	-12166
filter	-12167
▁academic	-12168
▁konsequ	-12169
▁publish	-12170
▁physics	-12171
krank	-12172
▁soil	-12173
▁gesp	-12174
▁applicable	-12175
▁finland	-12176
aceutical	-12177
▁coins	-12178
▁hpa	-12179
▁issued	-12180
aco	-12181
▁marc	-12182
▁ferienhäuser	-12183
▁strict	-12184
präs	-12185
▁musikal	-12186
▁gard	-12187
empf	-12188
▁labels	-12189
▁nederlands	-12190
▁elektrische	-12191
rifft	-12192
kal	-12193
▁dänemark	-12194
▁besitzen	-12195
athon	-12196
▁ibiza	-12197
▁gewählt	-12198
kleidung	-12199
▁informiert	-12200
ungal	-12201
▁proof	-12202
▁sloven	-12203
▁unterhaltung	-12204
▁stronghold	-12205
▁vr	-12206
▁tattoo	-12207
▁brüder	-12208
▁intellect	-12209
▁integriert	-12210
osten	-12211
▁erklärte	-12212
related	-12213
▁fußball	-12214
▁meines	-12215
beratung	-12216
▁fähigkeiten	-12217
▁pu	-12218
▁zählt	-12219
▁praktische	-12220
▁tempor	-12221
▁copper	-12222
übersicht	-12223
▁felder	-12224
▁immediate	-12225
▁völker	-12226
zust	-12227
vier	-12228
owe	-12229
▁resol	-12230
▁motto	-12231
▁engra	-12232
▁jag	-12233
▁untersucht	-12234
▁reichen	-12235
stücke	-12236
▁alamo	-12237
▁kooper	-12238
▁persönlich	-12239
▁prev	-12240
▁aktivität	-12241
oen	-12242
▁beet	-12243
▁ausflüge	-12244
▁boutique	-12245
▁consciousness	-12246
pn	-12247
instr	-12248
ständen	-12249
▁sodass	-12250
▁professionals	-12251
hlung	-12252
▁treten	-12253
▁paypal	-12254
▁talent	-12255
▁replacement	-12256
▁chef	-12257
▁collabor	-12258
▁sage	-12259
▁gender	-12260
▁excell	-12261
issionen	-12262
▁infin	-12263
level	-12264
▁veranstaltungs	-12265
▁cater	-12266
▁hilfs	-12267
▁wassers	-12268
not	-12269
▁narrow	-12270
▁detaillierte	-12271
▁conducted	-12272
▁varianten	-12273
▁westen	-12274
▁lind	-12275
arts	-12276
▁funds	-12277
▁schluss	-12278
▁sichern	-12279
▁adapter	-12280
verbindung	-12281
illed	-12282
▁ere	-12283
cul	-12284
▁abhängig	-12285
▁featuring	-12286
ologien	-12287
▁anschl	-12288
▁movements	-12289
▁definitely	-12290
▁native	-12291
▁bird	-12292
▁entwicklungen	-12293
▁buying	-12294
▁teachers	-12295
heben	-12296
▁letters	-12297
▁altar	-12298
▁implemented	-12299
▁aircraft	-12300
beg	-12301
▁reporting	-12302
▁circle	-12303
▁tourists	-12304
▁motorrad	-12305
udi	-12306
▁mg	-12307
▁benachricht	-12308
wärts	-12309
▁magnific	-12310
oys	-12311
kind	-12312
▁schuld	-12313
▁stylish	-12314
ipe	-12315
▁peaceful	-12316
rus	-12317
▁behaup	-12318
▁verwaltungs	-12319
▁filters	-12320
▁prince	-12321
▁indicated	-12322
▁hind	-12323
▁astronom	-12324
präsident	-12325
gler	-12326
▁gegensatz	-12327
▁examination	-12328
▁heilige	-12329
▁turb	-12330
▁compla	-12331
▁tourn	-12332
check	-12333
▁begonnen	-12334
▁differences	-12335
▁bench	-12336
▁verändern	-12337
▁divided	-12338
▁zuhause	-12339
▁precipitation	-12340
ariat	-12341
sburg	-12342
▁regelmäß	-12343
ained	-12344
iera	-12345
▁italienischen	-12346
aph	-12347
▁wesentlichen	-12348
▁kochen	-12349
kopf	-12350
commun	-12351
▁manip	-12352
▁vietnam	-12353
▁exit	-12354
▁menschheit	-12355
ivität	-12356
▁normalerweise	-12357
▁surfaces	-12358
▁lam	-12359
▁nuclear	-12360
▁bak	-12361
▁jährlich	-12362
▁dental	-12363
▁94	-12364
▁cannabis	-12365
▁speaking	-12366
▁entschieden	-12367
▁direktor	-12368
▁wunschl	-12369
riage	-12370
▁slovak	-12371
▁vie	-12372
▁sensitive	-12373
▁bergen	-12374
▁ruhigen	-12375
▁aktive	-12376
icit	-12377
▁beijing	-12378
▁bands	-12379
arische	-12380
▁charged	-12381
▁geschehen	-12382
▁wus	-12383
▁basil	-12384
kter	-12385
▁blocks	-12386
▁speech	-12387
▁laid	-12388
▁funktionalität	-12389
▁peru	-12390
▁fet	-12391
▁dokumentation	-12392
▁reihen	-12393
verschl	-12394
▁closer	-12395
▁brachte	-12396
▁containing	-12397
▁premier	-12398
▁kontakte	-12399
▁tenden	-12400
▁suc	-12401
▁ausländ	-12402
▁aufzug	-12403
▁mining	-12404
▁procedures	-12405
▁präsentation	-12406
del	-12407
appl	-12408
▁mete	-12409
▁maus	-12410
▁facil	-12411
bindung	-12412
▁symbols	-12413
ifizieren	-12414
▁baumw	-12415
▁patr	-12416
▁vorsitzen	-12417
▁grab	-12418
▁hl	-12419
zo	-12420
▁graphic	-12421
▁lade	-12422
▁klassen	-12423
räder	-12424
▁geburtstag	-12425
▁false	-12426
▁balt	-12427
ographic	-12428
▁thoughts	-12429
enhagen	-12430
cons	-12431
▁measurements	-12432
▁intelligence	-12433
ifft	-12434
▁vl	-12435
▁circumstances	-12436
▁müller	-12437
iffer	-12438
shirt	-12439
▁aftern	-12440
store	-12441
▁resulting	-12442
▁hätten	-12443
van	-12444
▁camps	-12445
▁strategies	-12446
-2018	-12447
organisation	-12448
▁chicago	-12449
hofer	-12450
▁regener	-12451
▁bc	-12452
▁niemals	-12453
▁27.	-12454
▁artificial	-12455
▁lieferanten	-12456
äusern	-12457
▁clip	-12458
▁gentle	-12459
▁ansprech	-12460
▁fleet	-12461
anders	-12462
▁clouds	-12463
▁construct	-12464
▁strecke	-12465
▁mitarbeitern	-12466
▁assoz	-12467
▁kunstdruck	-12468
älde	-12469
▁untersuchung	-12470
dar	-12471
okoll	-12472
▁va	-12473
arbeiter	-12474
sprodu	-12475
▁thereby	-12476
fragt	-12477
▁selbstverständ	-12478
▁roten	-12479
▁höhen	-12480
▁sexy	-12481
▁offens	-12482
▁substant	-12483
▁möglichen	-12484
▁bitten	-12485
▁entitled	-12486
denburg	-12487
staat	-12488
▁remained	-12489
▁ages	-12490
▁recognized	-12491
▁angemessen	-12492
▁clubs	-12493
pg	-12494
▁ausnahme	-12495
▁wandern	-12496
ofa	-12497
▁wunschliste	-12498
▁niedrig	-12499
▁31.	-12500
▁plötz	-12501
via	-12502
▁extract	-12503
▁bier	-12504
▁attempt	-12505
funktionen	-12506
uxe	-12507
▁decorated	-12508
teen	-12509
▁grundlagen	-12510
legten	-12511
elles	-12512
▁kings	-12513
komponenten	-12514
▁schedule	-12515
chi	-12516
▁entsteht	-12517
erver	-12518
▁alko	-12519
▁erhöh	-12520
▁bucht	-12521
▁wealth	-12522
fab	-12523
▁branche	-12524
ablen	-12525
▁dogs	-12526
gangs	-12527
▁denke	-12528
▁wake	-12529
▁trusted	-12530
▁portugu	-12531
▁230	-12532
▁banken	-12533
▁sees	-12534
▁beliebtesten	-12535
▁gy	-12536
▁ansatz	-12537
▁improvement	-12538
▁opposite	-12539
apeut	-12540
▁volle	-12541
▁paläst	-12542
▁fares	-12543
▁glaubens	-12544
▁ky	-12545
igerung	-12546
▁ultimate	-12547
▁viewing	-12548
▁aspekte	-12549
ppe	-12550
▁vorgesch	-12551
▁rs	-12552
▁wäsch	-12553
fenster	-12554
▁supplement	-12555
▁russischen	-12556
reprene	-12557
▁hundert	-12558
manager	-12559
▁markus	-12560
server	-12561
▁saving	-12562
▁schmerz	-12563
kräfte	-12564
issance	-12565
▁manufactured	-12566
▁rückgabe	-12567
lu	-12568
suche	-12569
mär	-12570
born	-12571
▁originally	-12572
▁countryside	-12573
ighter	-12574
▁confirmed	-12575
▁plenty	-12576
▁surprised	-12577
▁obtained	-12578
▁sessions	-12579
konto	-12580
▁asian	-12581
▁centres	-12582
▁kett	-12583
▁tanks	-12584
▁muslim	-12585
▁wünsche	-12586
▁bezahlen	-12587
▁dolom	-12588
▁recommendations	-12589
▁arena	-12590
din	-12591
▁entdeckt	-12592
rach	-12593
▁banking	-12594
▁implant	-12595
▁dör	-12596
.2015	-12597
▁5.0	-12598
▁sectors	-12599
▁faktoren	-12600
illas	-12601
▁governance	-12602
▁formula	-12603
üre	-12604
▁semi	-12605
▁gone	-12606
bür	-12607
serie	-12608
▁adop	-12609
▁pant	-12610
▁monaster	-12611
▁transition	-12612
sim	-12613
▁weihnachten	-12614
▁husband	-12615
host	-12616
▁textile	-12617
▁situations	-12618
wissenschaften	-12619
ervices	-12620
glish	-12621
orben	-12622
körper	-12623
för	-12624
zell	-12625
▁diabetes	-12626
▁offline	-12627
going	-12628
▁stammb	-12629
▁corre	-12630
pet	-12631
▁83	-12632
▁kontext	-12633
▁leisten	-12634
▁sanit	-12635
▁gebraucht	-12636
▁ue	-12637
--------	-12638
▁spin	-12639
anzeige	-12640
kat	-12641
organis	-12642
▁höheren	-12643
▁privile	-12644
▁adobe	-12645
▁explain	-12646
▁internets	-12647
▁hauses	-12648
verzeichnis	-12649
▁requested	-12650
pft	-12651
▁anre	-12652
emaschine	-12653
▁institutionen	-12654
▁leichte	-12655
▁belt	-12656
▁globale	-12657
▁individuellen	-12658
▁kapazität	-12659
▁93	-12660
▁datensatz	-12661
stark	-12662
▁solch	-12663
▁shot	-12664
▁renowned	-12665
▁amar	-12666
▁spray	-12667
▁concentration	-12668
▁befehl	-12669
▁femin	-12670
▁allian	-12671
▁komplette	-12672
▁grant	-12673
▁distributed	-12674
diese	-12675
wertung	-12676
▁nm	-12677
▁105	-12678
▁drives	-12679
▁isa	-12680
▁fulfil	-12681
athers	-12682
▁gumm	-12683
▁entirely	-12684
anna	-12685
gült	-12686
▁abraham	-12687
▁erwähnt	-12688
menü	-12689
ghan	-12690
▁herkunft	-12691
läuf	-12692
▁tiss	-12693
isi	-12694
▁businesses	-12695
ahme	-12696
▁bedeutend	-12697
▁keramik	-12698
▁networking	-12699
stone	-12700
▁97	-12701
▁atrave	-12702
omm	-12703
▁durchführung	-12704
ilian	-12705
wid	-12706
▁atraveo	-12707
▁steuerung	-12708
▁eigentum	-12709
▁shift	-12710
▁substances	-12711
avis	-12712
atischen	-12713
▁wörter	-12714
▁betrachtet	-12715
abteilung	-12716
▁aktualisiert	-12717
▁panoramic	-12718
alm	-12719
▁füllen	-12720
▁wishes	-12721
▁publishing	-12722
agues	-12723
▁granted	-12724
▁garantieren	-12725
▁kron	-12726
▁investitionen	-12727
▁cc	-12728
teln	-12729
▁xl	-12730
▁schwierig	-12731
▁centuries	-12732
▁rural	-12733
▁westlichen	-12734
ungsmittel	-12735
▁crew	-12736
▁wheels	-12737
▁einwohner	-12738
strand	-12739
▁distribut	-12740
▁entreprene	-12741
zent	-12742
▁günstigen	-12743
▁mexiko	-12744
criptions	-12745
▁pharmaceutical	-12746
▁buddh	-12747
control	-12748
▁lub	-12749
▁penis	-12750
▁atmosphär	-12751
▁root	-12752
aret	-12753
versicherung	-12754
▁ios	-12755
▁investments	-12756
oires	-12757
▁bam	-12758
▁vorbereitung	-12759
▁lowest	-12760
▁butt	-12761
urts	-12762
89	-12763
▁stich	-12764
run	-12765
wear	-12766
▁klick	-12767
▁familiar	-12768
▁dess	-12769
▁engines	-12770
▁freib	-12771
bergen	-12772
▁konkur	-12773
imens	-12774
▁approved	-12775
▁zune	-12776
▁walter	-12777
▁spectacular	-12778
▁enterprises	-12779
▁verur	-12780
▁87	-12781
▁aar	-12782
breite	-12783
▁hors	-12784
endruck	-12785
▁genaue	-12786
▁passende	-12787
▁2.1	-12788
▁references	-12789
▁tanzen	-12790
▁viney	-12791
▁ash	-12792
▁sections	-12793
▁boards	-12794
▁tracking	-12795
▁sms	-12796
▁closely	-12797
▁vorbei	-12798
▁edin	-12799
▁sardinia	-12800
▁compens	-12801
▁vollständige	-12802
▁pflicht	-12803
▁flexibilität	-12804
günst	-12805
46	-12806
hören	-12807
▁stones	-12808
▁versionen	-12809
▁kreativ	-12810
isely	-12811
waren	-12812
▁ausrüstung	-12813
▁wars	-12814
▁measured	-12815
▁reliability	-12816
▁überraschen	-12817
▁stere	-12818
▁3.5	-12819
▁ipad	-12820
▁controls	-12821
▁450	-12822
elor	-12823
▁fortschritt	-12824
▁bourgeois	-12825
lev	-12826
▁größeren	-12827
ünder	-12828
▁pots	-12829
▁getränke	-12830
▁unterwegs	-12831
ao	-12832
▁bare	-12833
lieferung	-12834
▁gelb	-12835
▁proport	-12836
▁zwöl	-12837
equ	-12838
▁sech	-12839
▁wirtschaftliche	-12840
hme	-12841
▁skiing	-12842
▁kid	-12843
bä	-12844
geladen	-12845
▁möbel	-12846
download	-12847
▁bapt	-12848
▁breiten	-12849
▁acquisition	-12850
▁relaxation	-12851
▁antrag	-12852
gemeinschaft	-12853
▁avenue	-12854
▁genre	-12855
xy	-12856
▁desert	-12857
▁gaming	-12858
▁humbold	-12859
▁none	-12860
▁reduzieren	-12861
▁besitzer	-12862
eper	-12863
weisung	-12864
länge	-12865
▁tritt	-12866
▁parlament	-12867
▁3.0	-12868
▁firefox	-12869
▁threat	-12870
▁interdis	-12871
▁merkzettel	-12872
▁otto	-12873
▁ausgeführt	-12874
▁ehren	-12875
▁springen	-12876
eman	-12877
▁waffen	-12878
wall	-12879
wach	-12880
▁appeared	-12881
▁gluten	-12882
su	-12883
▁leichter	-12884
opes	-12885
frequ	-12886
▁merken	-12887
▁küm	-12888
▁bik	-12889
online	-12890
▁fühlte	-12891
ografie	-12892
▁alkohol	-12893
▁fritz	-12894
▁lecture	-12895
▁dy	-12896
▁griff	-12897
▁verbraucher	-12898
horn	-12899
▁fanden	-12900
▁giant	-12901
▁30-	-12902
▁behalf	-12903
▁stammbaum	-12904
▁habit	-12905
▁confirmation	-12906
▁währung	-12907
▁purchased	-12908
▁kommunikations	-12909
▁programming	-12910
▁tox	-12911
▁elevator	-12912
raph	-12913
▁geprä	-12914
▁gebühr	-12915
etooth	-12916
▁verursacht	-12917
▁cow	-12918
▁afternoon	-12919
wander	-12920
▁explo	-12921
▁performances	-12922
acle	-12923
▁bronze	-12924
brows	-12925
ansa	-12926
▁moskau	-12927
▁betrieben	-12928
▁succeed	-12929
funk	-12930
▁offizielle	-12931
▁sonnenaufgang	-12932
▁ungarn	-12933
▁dargestellt	-12934
▁hügel	-12935
▁emergency	-12936
▁guidelines	-12937
betre	-12938
▁affect	-12939
▁brust	-12940
▁cooling	-12941
▁sicherlich	-12942
▁oberen	-12943
47	-12944
ordination	-12945
cking	-12946
▁sauer	-12947
▁erinnert	-12948
▁kommer	-12949
▁bedienung	-12950
▁administrative	-12951
▁refin	-12952
stad	-12953
▁belief	-12954
▁arzt	-12955
genden	-12956
▁tarif	-12957
▁lokal	-12958
▁vorstand	-12959
onto	-12960
3-	-12961
führte	-12962
▁sonstige	-12963
▁ergonom	-12964
▁inzwischen	-12965
▁zimmern	-12966
▁voltage	-12967
▁hunt	-12968
▁zucker	-12969
aland	-12970
histor	-12971
▁massive	-12972
▁deutschlands	-12973
▁wirken	-12974
bewe	-12975
▁rim	-12976
▁agents	-12977
andt	-12978
▁segel	-12979
▁ausgewählt	-12980
▁bungal	-12981
▁gospel	-12982
wirk	-12983
sky	-12984
▁tolle	-12985
▁cinema	-12986
▁2,5	-12987
▁venture	-12988
▁ironing	-12989
ulty	-12990
▁precisely	-12991
▁solches	-12992
▁beispiele	-12993
▁renewable	-12994
ktoren	-12995
▁gemüse	-12996
▁cloudy	-12997
▁gio	-12998
▁kürzlich	-12999
▁musst	-13000
▁schatten	-13001
ended	-13002
▁expenses	-13003
anch	-13004
weisungen	-13005
auschen	-13006
▁freiwill	-13007
▁visitor	-13008
▁metrop	-13009
weile	-13010
▁possess	-13011
▁geheimnis	-13012
bridge	-13013
▁alcohol	-13014
flugh	-13015
▁planeten	-13016
▁ausser	-13017
▁remaining	-13018
▁humboldt	-13019
▁naturally	-13020
▁distingu	-13021
▁kinders	-13022
▁afghan	-13023
▁brot	-13024
ießt	-13025
▁servers	-13026
▁consequences	-13027
▁anfordern	-13028
▁themes	-13029
days	-13030
▁bien	-13031
bereiten	-13032
▁dollars	-13033
▁serien	-13034
web	-13035
▁era	-13036
▁erzählt	-13037
▁wollten	-13038
▁aufs	-13039
▁pope	-13040
▁expectations	-13041
▁edinburgh	-13042
xim	-13043
▁toaster	-13044
▁stellung	-13045
▁chips	-13046
▁angepasst	-13047
▁toll	-13048
zahlung	-13049
▁industrielle	-13050
▁towns	-13051
▁practices	-13052
tran	-13053
▁samples	-13054
▁trock	-13055
▁15-	-13056
äler	-13057
▁poln	-13058
▁meinungen	-13059
▁schnellen	-13060
▁brüssel	-13061
▁zero	-13062
irty	-13063
immers	-13064
▁kongress	-13065
▁vielseit	-13066
▁organisieren	-13067
texte	-13068
yll	-13069
▁abendessen	-13070
quelle	-13071
arbeitungs	-13072
▁süß	-13073
alin	-13074
äser	-13075
▁gewer	-13076
▁semester	-13077
▁exercises	-13078
▁parteien	-13079
▁transferred	-13080
▁spül	-13081
ritz	-13082
restaur	-13083
▁playback	-13084
▁geliefert	-13085
▁bluetooth	-13086
▁verschickt	-13087
gery	-13088
▁ross	-13089
▁crown	-13090
reme	-13091
ports	-13092
▁wiederum	-13093
igo	-13094
holtz	-13095
▁hers	-13096
kehren	-13097
▁irgendwel	-13098
▁happens	-13099
▁werdet	-13100
▁73	-13101
▁extraordinary	-13102
onie	-13103
▁buyer	-13104
bö	-13105
fill	-13106
▁operate	-13107
▁provisions	-13108
estern	-13109
▁freigesch	-13110
▁ral	-13111
▁kenntnis	-13112
▁praktisch	-13113
▁genu	-13114
▁appointed	-13115
zeile	-13116
izieren	-13117
▁sachen	-13118
ielten	-13119
bag	-13120
▁gebet	-13121
▁maur	-13122
▁vollem	-13123
▁mosa	-13124
▁bestehenden	-13125
▁aims	-13126
▁moist	-13127
▁erfordert	-13128
▁versenden	-13129
▁michel	-13130
post	-13131
dateiendung	-13132
▁aktualisieren	-13133
▁nahezu	-13134
▁spezifikationen	-13135
rid	-13136
▁flächen	-13137
▁recognition	-13138
▁moments	-13139
▁stimul	-13140
▁geschichten	-13141
▁auge	-13142
▁newspaper	-13143
▁heidel	-13144
fordert	-13145
▁styles	-13146
▁geschäfte	-13147
▁rumän	-13148
hoff	-13149
zur	-13150
▁fakult	-13151
▁geändert	-13152
86	-13153
ingend	-13154
▁fridge	-13155
▁trainings	-13156
kirche	-13157
nern	-13158
▁behörden	-13159
▁oliven	-13160
▁schrif	-13161
ündung	-13162
▁strukturen	-13163
▁incredible	-13164
▁rue	-13165
▁geplant	-13166
▁positiv	-13167
▁todes	-13168
▁seed	-13169
▁erfolgreiche	-13170
▁chor	-13171
▁beteiligt	-13172
gebäude	-13173
▁framed	-13174
ritts	-13175
branche	-13176
.12.201	-13177
kg	-13178
build	-13179
ikat	-13180
ques	-13181
▁meilen	-13182
stätten	-13183
▁sitzen	-13184
▁appoint	-13185
▁kammer	-13186
▁vorbehalten	-13187
▁klavier	-13188
▁palm	-13189
kord	-13190
▁92	-13191
▁priority	-13192
▁doppelbett	-13193
py	-13194
▁underground	-13195
▁cz	-13196
▁solcher	-13197
-25	-13198
▁technique	-13199
▁twenty	-13200
▁fahrzeuge	-13201
▁wagen	-13202
▁flirts	-13203
▁properly	-13204
▁freigeschaltet	-13205
▁canad	-13206
herstellung	-13207
▁mithilfe	-13208
ska	-13209
▁betrifft	-13210
▁buen	-13211
atever	-13212
▁einblick	-13213
▁wirkt	-13214
▁valent	-13215
irs	-13216
▁ausgel	-13217
▁praktizierenden	-13218
▁tud	-13219
▁row	-13220
▁grat	-13221
▁relatively	-13222
▁überprüfung	-13223
▁weekly	-13224
mung	-13225
▁angenehm	-13226
bling	-13227
▁communist	-13228
▁incorpor	-13229
▁blow	-13230
▁rasch	-13231
ausstellung	-13232
ändigen	-13233
▁mächt	-13234
raten	-13235
▁bildungs	-13236
arge	-13237
prakt	-13238
▁funktionieren	-13239
▁raised	-13240
conne	-13241
001	-13242
sthet	-13243
▁menschliche	-13244
▁webseiten	-13245
▁protocol	-13246
iour	-13247
▁totally	-13248
▁whirl	-13249
▁programmen	-13250
interest	-13251
▁wirksam	-13252
▁aren	-13253
▁ug	-13254
▁bing	-13255
geh	-13256
▁coat	-13257
▁anfahrt	-13258
▁behold	-13259
▁searching	-13260
▁kontaktiert	-13261
uther	-13262
▁dargestellten	-13263
▁aest	-13264
▁seeing	-13265
webs	-13266
zesse	-13267
▁reden	-13268
▁hearts	-13269
▁euer	-13270
galerie	-13271
▁cameras	-13272
▁excellence	-13273
▁merch	-13274
▁einstellung	-13275
▁assets	-13276
etzten	-13277
kannten	-13278
▁netzwerken	-13279
▁affil	-13280
▁0.0	-13281
▁photographs	-13282
▁leaving	-13283
▁automatische	-13284
mails	-13285
▁sieb	-13286
▁blieb	-13287
▁tall	-13288
akete	-13289
zykl	-13290
▁stattfinden	-13291
▁poster	-13292
▁widget	-13293
orgt	-13294
▁genet	-13295
▁ergeben	-13296
▁schmid	-13297
▁sorgfält	-13298
▁liability	-13299
▁jener	-13300
▁continental	-13301
▁buchungs	-13302
▁flirtsofa	-13303
▁möglichst	-13304
projekte	-13305
▁directors	-13306
maßnahmen	-13307
▁supplied	-13308
▁1500	-13309
▁hide	-13310
▁offiziellen	-13311
▁transparen	-13312
elen	-13313
▁critic	-13314
bücher	-13315
▁orts	-13316
▁wunderschönen	-13317
▁gor	-13318
▁gust	-13319
▁vorgestellt	-13320
▁treib	-13321
▁wahre	-13322
▁sensoren	-13323
▁exposure	-13324
▁accordingly	-13325
▁draht	-13326
▁nötig	-13327
fur	-13328
▁übersetzen	-13329
oh	-13330
▁learned	-13331
▁mars	-13332
▁yoga	-13333
uggage	-13334
▁decken	-13335
▁abgest	-13336
▁slides	-13337
▁kollektion	-13338
aufent	-13339
▁fertigung	-13340
▁xml	-13341
rahmen	-13342
▁coating	-13343
▁anten	-13344
▁destroyed	-13345
▁probe	-13346
▁rul	-13347
▁berichtet	-13348
bole	-13349
.50	-13350
▁discovery	-13351
börse	-13352
verkauf	-13353
▁circuit	-13354
sex	-13355
berichte	-13356
ipping	-13357
▁berufs	-13358
▁multimedia	-13359
internet	-13360
▁limits	-13361
▁zellen	-13362
▁rauchen	-13363
file	-13364
▁bachelor	-13365
▁reh	-13366
ativer	-13367
▁whatever	-13368
▁meets	-13369
▁victory	-13370
igkeits	-13371
▁kug	-13372
▁lodge	-13373
▁refers	-13374
▁zin	-13375
riers	-13376
▁magnificent	-13377
▁medie	-13378
iny	-13379
engers	-13380
gendes	-13381
▁ade	-13382
german	-13383
▁apostol	-13384
▁suggestions	-13385
▁arz	-13386
▁geförder	-13387
uns	-13388
sec	-13389
krit	-13390
oge	-13391
▁790	-13392
▁philosophie	-13393
▁acry	-13394
leute	-13395
▁ursachen	-13396
▁konditionen	-13397
option	-13398
▁bekannte	-13399
würd	-13400
meter	-13401
▁sponsored	-13402
▁uni	-13403
▁declaration	-13404
▁ausgestattete	-13405
▁hygiene	-13406
▁konstruktion	-13407
▁oldest	-13408
former	-13409
abend	-13410
versch	-13411
▁combines	-13412
▁lufth	-13413
▁erfolgen	-13414
▁printer	-13415
▁hels	-13416
▁echte	-13417
▁behavior	-13418
fähig	-13419
klicken	-13420
▁sig	-13421
▁tibet	-13422
▁tepp	-13423
▁stärker	-13424
▁bezieht	-13425
stood	-13426
▁3000	-13427
parks	-13428
stage	-13429
▁knapp	-13430
▁gewissen	-13431
▁kass	-13432
81	-13433
▁bisschen	-13434
▁beendet	-13435
▁nachfrage	-13436
▁energien	-13437
▁gee	-13438
▁söhne	-13439
▁residential	-13440
▁maße	-13441
▁gehäuse	-13442
dest	-13443
▁consumers	-13444
▁diskussion	-13445
▁qualified	-13446
▁pont	-13447
▁clinical	-13448
bn	-13449
▁betreff	-13450
▁pastor	-13451
▁ends	-13452
▁hals	-13453
▁brücke	-13454
▁sri	-13455
▁1950	-13456
▁zeigte	-13457
▁verpflicht	-13458
▁winner	-13459
▁kontr	-13460
▁kollegen	-13461
ferenzen	-13462
▁discussed	-13463
▁metabol	-13464
▁reiten	-13465
▁establishment	-13466
listen	-13467
▁bewegt	-13468
▁stab	-13469
▁passiert	-13470
▁william	-13471
ippe	-13472
▁kupfer	-13473
▁agencies	-13474
greif	-13475
▁reifen	-13476
areness	-13477
plattform	-13478
▁brid	-13479
ifikation	-13480
home	-13481
▁hunde	-13482
▁delt	-13483
▁guides	-13484
▁dlr	-13485
▁pent	-13486
▁ipod	-13487
gebiete	-13488
▁broken	-13489
▁municipal	-13490
power	-13491
archiv	-13492
▁developer	-13493
bares	-13494
▁klassische	-13495
▁oste	-13496
▁durchge	-13497
vard	-13498
pit	-13499
city	-13500
▁termine	-13501
▁solved	-13502
▁folder	-13503
▁luggage	-13504
▁serviert	-13505
rome	-13506
aktische	-13507
▁metern	-13508
▁mischung	-13509
▁stärke	-13510
▁erdgeschoss	-13511
▁chocolate	-13512
▁beenden	-13513
▁lande	-13514
▁vereinigtes	-13515
▁leop	-13516
▁erkunden	-13517
▁architekten	-13518
▁rib	-13519
▁lufttemperatur	-13520
äg	-13521
▁volumen	-13522
▁calling	-13523
▁kurse	-13524
▁abbildung	-13525
▁constitution	-13526
▁eternal	-13527
▁verbind	-13528
..	-13529
▁investors	-13530
▁grundsätz	-13531
▁1988	-13532
▁medieval	-13533
houses	-13534
▁speisen	-13535
▁addresses	-13536
anen	-13537
▁bischof	-13538
wen	-13539
▁packaged	-13540
▁achiev	-13541
iertem	-13542
▁82	-13543
▁epc	-13544
▁tiefen	-13545
▁swed	-13546
▁wartung	-13547
club	-13548
▁hood	-13549
▁bibel	-13550
performance	-13551
ju	-13552
▁lago	-13553
▁propag	-13554
▁sonderangebote	-13555
▁spre	-13556
▁ell	-13557
▁grosse	-13558
opf	-13559
▁erstaun	-13560
▁eintrag	-13561
▁webdesign	-13562
▁1.000	-13563
▁setup	-13564
ochen	-13565
▁unus	-13566
▁focused	-13567
rug	-13568
▁forums	-13569
grunde	-13570
▁hav	-13571
▁lands	-13572
▁lanz	-13573
▁billig	-13574
▁shipped	-13575
▁ebenen	-13576
▁ub	-13577
▁kiss	-13578
▁gefertigt	-13579
▁beobachten	-13580
▁bezogen	-13581
ädt	-13582
▁masturb	-13583
▁vertriebs	-13584
▁gewähl	-13585
▁cheese	-13586
▁bah	-13587
änz	-13588
atisch	-13589
▁chemische	-13590
▁election	-13591
▁logged	-13592
▁streit	-13593
▁stammt	-13594
▁deluxe	-13595
▁automated	-13596
-02	-13597
▁begrüßt	-13598
▁reit	-13599
▁lessons	-13600
▁viv	-13601
ensa	-13602
▁indu	-13603
▁gebühren	-13604
bella	-13605
▁aco	-13606
▁lobby	-13607
▁relevance	-13608
orrow	-13609
▁haw	-13610
-09	-13611
▁flying	-13612
▁broch	-13613
▁soviet	-13614
▁hole	-13615
berry	-13616
icial	-13617
▁umgang	-13618
▁farmhouse	-13619
▁pend	-13620
▁shooting	-13621
olta	-13622
▁disappe	-13623
kern	-13624
▁widerstand	-13625
▁enthusi	-13626
▁argentina	-13627
▁grounds	-13628
▁belongs	-13629
▁eingabe	-13630
▁invo	-13631
standards	-13632
▁minder	-13633
▁wirklichkeit	-13634
▁bom	-13635
gede	-13636
schuhe	-13637
▁günstig	-13638
fter	-13639
▁rough	-13640
▁glory	-13641
freies	-13642
▁eingestellt	-13643
▁lufthansa	-13644
▁zieht	-13645
▁sib	-13646
astrop	-13647
▁palette	-13648
förm	-13649
▁aufzu	-13650
edition	-13651
▁ske	-13652
reds	-13653
▁christians	-13654
▁interf	-13655
▁belast	-13656
▁dt	-13657
▁mindest	-13658
▁vast	-13659
▁conce	-13660
▁kompetenz	-13661
▁helped	-13662
▁plas	-13663
▁caps	-13664
▁hearing	-13665
▁rt	-13666
fran	-13667
ystems	-13668
▁bosn	-13669
▁räum	-13670
▁bestandteil	-13671
▁provision	-13672
▁verlie	-13673
▁papst	-13674
▁sax	-13675
▁treated	-13676
▁intellectual	-13677
▁allowing	-13678
▁helmholtz	-13679
▁vermögen	-13680
▁lc	-13681
▁zweifel	-13682
▁slide	-13683
▁alters	-13684
▁aufre	-13685
anien	-13686
▁yah	-13687
▁breed	-13688
▁cottage	-13689
▁kulturelle	-13690
▁decoration	-13691
inrichtungen	-13692
▁gläub	-13693
▁eigentü	-13694
▁bühne	-13695
▁powers	-13696
ilia	-13697
▁ausgewählte	-13698
▁spoke	-13699
pes	-13700
programme	-13701
▁internationally	-13702
▁verfolgen	-13703
▁upload	-13704
ächer	-13705
▁schau	-13706
▁shel	-13707
▁chi	-13708
▁fügen	-13709
▁stephan	-13710
▁elite	-13711
▁gepl	-13712
▁neuro	-13713
▁gingen	-13714
▁mobilität	-13715
▁orientation	-13716
84	-13717
▁renaissance	-13718
▁projekten	-13719
▁continuing	-13720
▁favourites	-13721
▁christoph	-13722
▁marco	-13723
57	-13724
▁falsche	-13725
spreis	-13726
▁runde	-13727
irge	-13728
▁bomb	-13729
▁fellow	-13730
▁animation	-13731
▁pon	-13732
▁toiletten	-13733
ee	-13734
berlin	-13735
▁exklusive	-13736
▁fehlt	-13737
▁dage	-13738
▁broadcast	-13739
▁wick	-13740
▁reaction	-13741
anischen	-13742
▁pi	-13743
▁federation	-13744
▁arranged	-13745
endence	-13746
▁feiern	-13747
▁zugrunde	-13748
▁hz	-13749
▁verlangen	-13750
▁entscheidungen	-13751
▁wilhelm	-13752
▁ct	-13753
ipend	-13754
▁movies	-13755
▁gerechtigkeit	-13756
▁hur	-13757
örderung	-13758
▁zog	-13759
▁reaktionen	-13760
▁entwickelten	-13761
▁replaced	-13762
stream	-13763
▁konzip	-13764
▁lens	-13765
illen	-13766
▁hallo	-13767
▁verteilung	-13768
▁hervorragende	-13769
▁financing	-13770
versammlung	-13771
▁expo	-13772
▁hence	-13773
▁sterben	-13774
▁oze	-13775
imo	-13776
▁secretary	-13777
utation	-13778
▁produzieren	-13779
▁gul	-13780
oline	-13781
bin	-13782
▁millions	-13783
▁luxuri	-13784
-06	-13785
▁baus	-13786
▁pitch	-13787
▁monthly	-13788
▁abzu	-13789
▁scar	-13790
▁assozi	-13791
▁kand	-13792
▁hardly	-13793
inens	-13794
kennt	-13795
▁verhe	-13796
fahrer	-13797
zte	-13798
▁ron	-13799
▁überrasch	-13800
hängen	-13801
haust	-13802
verwaltung	-13803
▁empfehlungen	-13804
▁talking	-13805
▁galer	-13806
adel	-13807
bibliothek	-13808
▁stammen	-13809
▁konflikt	-13810
▁behinderten	-13811
▁generate	-13812
rees	-13813
▁costume	-13814
▁theorie	-13815
rö	-13816
▁fron	-13817
▁singapore	-13818
▁tomorrow	-13819
▁reproduction	-13820
ilber	-13821
▁forts	-13822
▁surely	-13823
▁qualitätss	-13824
▁latter	-13825
▁codes	-13826
▁possibly	-13827
▁expanded	-13828
▁warn	-13829
ußt	-13830
bewegung	-13831
laufen	-13832
▁reaktion	-13833
▁tempo	-13834
▁intense	-13835
▁overs	-13836
ellers	-13837
▁partnern	-13838
buchung	-13839
atively	-13840
▁büros	-13841
▁kleidung	-13842
▁angegebenen	-13843
emen	-13844
person	-13845
▁colleagues	-13846
▁mittlerweile	-13847
▁1.0	-13848
▁glücklich	-13849
ivalent	-13850
▁kompatibel	-13851
▁defense	-13852
▁verschwinden	-13853
▁welcom	-13854
▁bestimmen	-13855
▁wod	-13856
gerufen	-13857
▁turns	-13858
geld	-13859
52	-13860
▁empfänger	-13861
▁composed	-13862
▁hits	-13863
isierungs	-13864
pany	-13865
▁rod	-13866
▁übernimmt	-13867
▁frühl	-13868
▁ästhet	-13869
▁honey	-13870
▁jet	-13871
▁eink	-13872
▁attacks	-13873
pum	-13874
▁sla	-13875
▁pocket	-13876
▁vortrag	-13877
▁ack	-13878
mitten	-13879
▁holen	-13880
▁buenos	-13881
outs	-13882
irland	-13883
▁stake	-13884
▁geschäftsjahr	-13885
▁arbeitete	-13886
▁rw	-13887
▁linz	-13888
▁masse	-13889
▁petersburg	-13890
▁spannen	-13891
regierung	-13892
alog	-13893
▁monats	-13894
▁mehrheit	-13895
modus	-13896
▁contained	-13897
▁netzwerke	-13898
vertrag	-13899
▁tons	-13900
gelegen	-13901
▁jacket	-13902
▁appartement	-13903
▁satisfied	-13904
ems	-13905
konferenz	-13906
▁fremd	-13907
▁angesichts	-13908
▁nok	-13909
▁marit	-13910
register	-13911
ammelt	-13912
▁aires	-13913
▁ergänzt	-13914
▁solange	-13915
▁sevilla	-13916
▁engineer	-13917
▁taschen	-13918
lamp	-13919
▁economics	-13920
▁identification	-13921
▁dimensionen	-13922
▁entf	-13923
▁kämpfen	-13924
▁grüne	-13925
ighte	-13926
mic	-13927
▁klimatis	-13928
▁berühr	-13929
▁dynamics	-13930
▁awareness	-13931
▁generations	-13932
▁relative	-13933
▁sitze	-13934
▁zukunfts	-13935
▁sending	-13936
▁engineers	-13937
▁panoram	-13938
▁sebastian	-13939
stö	-13940
▁weisen	-13941
▁mileage	-13942
pfer	-13943
▁neust	-13944
▁operated	-13945
▁zauber	-13946
bill	-13947
namen	-13948
▁bayern	-13949
▁eigener	-13950
▁capable	-13951
▁unbedingt	-13952
▁risiken	-13953
temperaturen	-13954
▁hospitality	-13955
akul	-13956
var	-13957
händler	-13958
▁direkten	-13959
▁nachmittag	-13960
▁skulpt	-13961
▁league	-13962
reb	-13963
▁gras	-13964
▁trump	-13965
▁stages	-13966
▁südafrika	-13967
▁darstellen	-13968
schlüssel	-13969
style	-13970
▁java	-13971
▁fh	-13972
▁md	-13973
▁krise	-13974
▁conservation	-13975
▁organize	-13976
▁nutrition	-13977
▁holds	-13978
idem	-13979
▁pcs	-13980
ändige	-13981
▁willing	-13982
dok	-13983
▁newspapers	-13984
▁temp	-13985
▁crime	-13986
▁existiert	-13987
▁snapshot	-13988
▁revision	-13989
▁attached	-13990
▁vorgesehen	-13991
▁bestimmungen	-13992
pflege	-13993
▁genü	-13994
▁voraussetzungen	-13995
fried	-13996
▁renomm	-13997
esc	-13998
ician	-13999
bildungs	-14000
▁passengers	-14001
union	-14002
▁rote	-14003
▁fitted	-14004
▁strände	-14005
legte	-14006
▁meditation	-14007
▁overnight	-14008
new	-14009
▁vegas	-14010
▁nighttime	-14011
▁lakes	-14012
▁schwarze	-14013
▁seeds	-14014
regel	-14015
▁verwalten	-14016
ructed	-14017
▁apos	-14018
▁hundreds	-14019
▁beschreibt	-14020
▁conferences	-14021
▁dealer	-14022
▁sheets	-14023
▁marie	-14024
▁eph	-14025
vertre	-14026
▁kilometres	-14027
▁cape	-14028
▁widerruf	-14029
▁hunger	-14030
▁gesetze	-14031
ipedia	-14032
▁fruits	-14033
▁verhinder	-14034
▁ausbau	-14035
▁schein	-14036
▁zeitungen	-14037
▁stood	-14038
▁gefängnis	-14039
▁bearbeitung	-14040
▁funk	-14041
oro	-14042
▁lex	-14043
▁antonio	-14044
▁drawn	-14045
▁bob	-14046
▁netto	-14047
▁asset	-14048
jug	-14049
ckets	-14050
ourse	-14051
▁flugzeug	-14052
▁plot	-14053
schm	-14054
real	-14055
▁everywhere	-14056
gal	-14057
▁platten	-14058
▁pione	-14059
▁verarbeitet	-14060
▁fliesen	-14061
▁typische	-14062
▁kalt	-14063
▁königs	-14064
▁cables	-14065
▁whirlpool	-14066
▁gerichte	-14067
▁kostenloses	-14068
rasse	-14069
▁comparis	-14070
▁ray	-14071
▁beraten	-14072
▁friedens	-14073
▁victoria	-14074
▁supervisory	-14075
▁debt	-14076
▁buchst	-14077
bitte	-14078
▁specialists	-14079
spot	-14080
▁bacter	-14081
hmend	-14082
▁norweg	-14083
▁acquired	-14084
▁grundstück	-14085
atom	-14086
▁instrumente	-14087
▁gewerk	-14088
video	-14089
▁bart	-14090
▁geräten	-14091
▁receiving	-14092
▁richtlinien	-14093
1-	-14094
▁1987	-14095
▁entspannung	-14096
▁resorts	-14097
92	-14098
▁wax	-14099
▁einwill	-14100
züg	-14101
▁ri	-14102
▁herzlich	-14103
▁hay	-14104
▁elektronische	-14105
▁confident	-14106
▁specialized	-14107
▁angenommen	-14108
▁fis	-14109
▁progn	-14110
tels	-14111
▁berühmt	-14112
▁singer	-14113
▁vogel	-14114
▁swedish	-14115
▁kamin	-14116
▁gelöscht	-14117
▁inher	-14118
▁renovated	-14119
▁trick	-14120
▁freundlich	-14121
▁brush	-14122
ployment	-14123
▁verschle	-14124
▁compound	-14125
▁biod	-14126
▁identität	-14127
▁moderate	-14128
▁conclusion	-14129
▁öffnungszeiten	-14130
▁sic	-14131
.2014	-14132
▁facing	-14133
▁ausgeb	-14134
▁satan	-14135
anni	-14136
▁750	-14137
boat	-14138
▁ersetzt	-14139
▁spezialitäten	-14140
▁weiße	-14141
▁überleben	-14142
▁identified	-14143
hire	-14144
▁nordirland	-14145
stelle	-14146
anny	-14147
▁cluster	-14148
schafter	-14149
▁augenblick	-14150
▁repeated	-14151
▁kaffeemaschine	-14152
▁vereinfach	-14153
bezieh	-14154
medizin	-14155
▁bevorzug	-14156
▁angle	-14157
▁bewertet	-14158
▁irland	-14159
▁mes	-14160
▁relief	-14161
bereitung	-14162
▁windrichtung	-14163
▁liver	-14164
veranstaltungen	-14165
▁abu	-14166
▁zag	-14167
pres	-14168
▁grau	-14169
▁übertragung	-14170
▁understood	-14171
▁gifts	-14172
▁architekt	-14173
▁torn	-14174
▁exploration	-14175
▁scann	-14176
▁deswegen	-14177
▁melod	-14178
yers	-14179
▁abnehmen	-14180
▁vas	-14181
▁kohlen	-14182
▁symptoms	-14183
▁kant	-14184
▁josef	-14185
▁vereinbarung	-14186
▁nak	-14187
▁tausend	-14188
▁gnade	-14189
▁exception	-14190
▁umfassende	-14191
▁240	-14192
▁reparatur	-14193
▁getroffen	-14194
▁valle	-14195
▁ansprechpartner	-14196
ritzen	-14197
▁rabatt	-14198
▁schlä	-14199
▁verab	-14200
▁meals	-14201
▁palma	-14202
▁0.1	-14203
▁gebe	-14204
ieter	-14205
▁patri	-14206
▁gedruck	-14207
▁favorites	-14208
▁schatz	-14209
▁trifft	-14210
▁hubert	-14211
ätzung	-14212
▁vorsch	-14213
▁zoo	-14214
▁technological	-14215
▁romania	-14216
click	-14217
▁precious	-14218
▁ni	-14219
▁geschieht	-14220
piece	-14221
▁123	-14222
▁empfang	-14223
menge	-14224
▁approval	-14225
▁phones	-14226
▁blessed	-14227
▁assistant	-14228
kok	-14229
▁temporary	-14230
▁spezialisiert	-14231
alb	-14232
▁vista	-14233
▁strongly	-14234
▁enormous	-14235
eda	-14236
▁unmittelbar	-14237
▁wikipedia	-14238
▁oscommerce	-14239
▁notwendigkeit	-14240
9,00	-14241
▁sowjet	-14242
▁stadium	-14243
▁interviews	-14244
▁highway	-14245
▁interakt	-14246
▁entwickler	-14247
▁ventil	-14248
splan	-14249
▁handge	-14250
▁kräfte	-14251
aser	-14252
▁roth	-14253
▁surgery	-14254
okol	-14255
▁schafft	-14256
iop	-14257
ibly	-14258
▁gay	-14259
▁reset	-14260
bele	-14261
enkt	-14262
geräten	-14263
▁playground	-14264
worben	-14265
▁aquarium	-14266
ertal	-14267
▁konserv	-14268
▁favourite	-14269
▁replace	-14270
▁schrifts	-14271
stätte	-14272
▁erfolgreichen	-14273
rollen	-14274
▁rings	-14275
ologic	-14276
▁gefä	-14277
▁descend	-14278
anleitung	-14279
▁norway	-14280
▁boost	-14281
mob	-14282
▁hochwertigen	-14283
▁gek	-14284
▁myst	-14285
job	-14286
▁discussions	-14287
▁accuracy	-14288
▁gehirn	-14289
▁erlangen	-14290
▁täglichen	-14291
länder	-14292
▁carrier	-14293
▁leaf	-14294
▁priests	-14295
▁beseit	-14296
▁samuel	-14297
zia	-14298
▁santi	-14299
▁eindeut	-14300
▁ausges	-14301
▁helping	-14302
▁kompl	-14303
▁richter	-14304
▁reine	-14305
▁dw	-14306
▁unfor	-14307
▁killed	-14308
rs	-14309
proble	-14310
büros	-14311
kamp	-14312
▁licens	-14313
witz	-14314
▁bereitstellung	-14315
▁excess	-14316
▁oxy	-14317
luft	-14318
▁pixel	-14319
87	-14320
oben	-14321
▁subscription	-14322
kurse	-14323
▁mercury	-14324
▁strike	-14325
▁grossen	-14326
▁krankenhaus	-14327
▁legs	-14328
▁länd	-14329
▁relevanz	-14330
▁acoust	-14331
▁wardrobe	-14332
▁berichte	-14333
▁employee	-14334
freiheit	-14335
▁mailand	-14336
▁101	-14337
izität	-14338
▁toten	-14339
▁mondaufgang	-14340
activ	-14341
▁duplex	-14342
▁kommerziel	-14343
▁itiner	-14344
▁galleries	-14345
▁dna	-14346
▁jiang	-14347
▁alexand	-14348
▁linear	-14349
▁plugin	-14350
boote	-14351
ioxid	-14352
▁disposal	-14353
▁anch	-14354
▁lieber	-14355
wörter	-14356
▁befried	-14357
kk	-14358
▁castell	-14359
conditioned	-14360
omon	-14361
▁toilette	-14362
▁hinein	-14363
▁kostet	-14364
▁zwölf	-14365
base	-14366
▁hes	-14367
kannte	-14368
▁schäden	-14369
erl	-14370
▁arn	-14371
ifizierte	-14372
▁monduntergang	-14373
▁schöner	-14374
▁alert	-14375
▁2.2	-14376
hoven	-14377
▁delay	-14378
▁unterricht	-14379
▁degrees	-14380
▁pvc	-14381
▁heinrich	-14382
▁platforms	-14383
▁geneva	-14384
▁refres	-14385
▁failure	-14386
▁mehrwert	-14387
äure	-14388
marken	-14389
▁werktage	-14390
▁actively	-14391
▁ale	-14392
▁handwerk	-14393
▁expressed	-14394
▁schwed	-14395
▁vorbereitet	-14396
▁jacob	-14397
▁describes	-14398
apping	-14399
weiß	-14400
ols	-14401
▁ceremony	-14402
▁operators	-14403
blog	-14404
▁testen	-14405
▁ufer	-14406
attung	-14407
▁heinz	-14408
▁ausstellungs	-14409
ource	-14410
▁innovativen	-14411
▁folk	-14412
▁humans	-14413
▁urteil	-14414
▁festplatte	-14415
mers	-14416
▁competitive	-14417
▁grade	-14418
▁parkplätze	-14419
akten	-14420
▁dent	-14421
▁schwester	-14422
▁mould	-14423
▁accounts	-14424
▁unverg	-14425
▁bavaria	-14426
▁existenz	-14427
▁akzeptieren	-14428
▁aachen	-14429
▁subjects	-14430
▁umfeld	-14431
▁keeping	-14432
▁athlet	-14433
▁pist	-14434
▁summary	-14435
▁estimated	-14436
▁operational	-14437
▁gespielt	-14438
▁geschätz	-14439
▁proceedings	-14440
wohnung	-14441
▁premiere	-14442
▁studierenden	-14443
▁1985	-14444
▁peoples	-14445
▁anm	-14446
▁refugees	-14447
▁rolex	-14448
▁fireplace	-14449
nahm	-14450
▁consolid	-14451
▁seal	-14452
▁rack	-14453
▁fabrik	-14454
arus	-14455
▁vermut	-14456
modelle	-14457
▁ausgangspunkt	-14458
▁verbreitet	-14459
ußen	-14460
▁chore	-14461
▁bened	-14462
▁kilometers	-14463
▁pensionen	-14464
▁übersetz	-14465
▁adapted	-14466
▁referred	-14467
▁testimonial	-14468
▁besonderes	-14469
▁entstand	-14470
▁schnapp	-14471
▁zar	-14472
▁dens	-14473
▁praha	-14474
estet	-14475
spolitik	-14476
▁kick	-14477
▁welchem	-14478
▁uniform	-14479
▁armee	-14480
▁dagegen	-14481
▁bestellungen	-14482
▁reven	-14483
▁0,	-14484
tries	-14485
▁chairs	-14486
konzept	-14487
ifies	-14488
▁führungs	-14489
verhalten	-14490
▁gemälde	-14491
▁lese	-14492
irurg	-14493
tax	-14494
▁characteristic	-14495
oween	-14496
▁wären	-14497
please	-14498
illon	-14499
▁flood	-14500
▁kanal	-14501
▁foods	-14502
▁designers	-14503
▁wav	-14504
▁beru	-14505
▁vend	-14506
▁duft	-14507
▁produces	-14508
hd	-14509
▁feste	-14510
▁4.5	-14511
▁innere	-14512
▁überzeugen	-14513
▁pakistan	-14514
wein	-14515
▁aussteller	-14516
▁headquarters	-14517
▁bou	-14518
▁selling	-14519
▁savings	-14520
▁feind	-14521
ishment	-14522
▁assigned	-14523
aude	-14524
▁outer	-14525
▁syd	-14526
▁arbeitgeber	-14527
artige	-14528
▁explan	-14529
▁holder	-14530
methoden	-14531
▁errichtet	-14532
clo	-14533
verband	-14534
ifier	-14535
▁payments	-14536
▁consideration	-14537
▁konsum	-14538
▁variant	-14539
▁signals	-14540
▁verleiht	-14541
▁writer	-14542
▁finnland	-14543
▁suited	-14544
basis	-14545
▁collective	-14546
▁wäl	-14547
▁slots	-14548
▁leucht	-14549
ischt	-14550
▁matching	-14551
▁pian	-14552
▁müs	-14553
▁diving	-14554
▁charges	-14555
▁inmitten	-14556
marks	-14557
▁competence	-14558
ili	-14559
▁nürn	-14560
▁vorstellung	-14561
▁punkten	-14562
▁victor	-14563
▁twice	-14564
uda	-14565
▁marbella	-14566
▁2015-2019	-14567
▁nahmen	-14568
▁dü	-14569
werfen	-14570
▁zertifik	-14571
▁batteries	-14572
unte	-14573
schung	-14574
▁leuchten	-14575
▁tosk	-14576
lein	-14577
olas	-14578
▁mega	-14579
▁exists	-14580
▁aids	-14581
▁vaters	-14582
▁plötzlich	-14583
kehrt	-14584
▁tong	-14585
▁erstes	-14586
▁entworfen	-14587
outh	-14588
▁erden	-14589
▁sitzung	-14590
▁erwartungen	-14591
▁ursprünglichen	-14592
lässlich	-14593
▁zunehmend	-14594
▁gewohn	-14595
zeln	-14596
beck	-14597
▁surve	-14598
▁führer	-14599
▁geziel	-14600
▁beck	-14601
▁ungewöhnliche	-14602
from	-14603
onna	-14604
iev	-14605
▁twel	-14606
▁versat	-14607
lying	-14608
▁dryer	-14609
▁realized	-14610
▁slowen	-14611
▁immigr	-14612
▁mittelpunkt	-14613
▁pierre	-14614
▁spenden	-14615
▁ents	-14616
bewahrung	-14617
▁absatz	-14618
fahrens	-14619
▁activating	-14620
▁keywords	-14621
▁zeitung	-14622
▁boss	-14623
jack	-14624
schicht	-14625
shore	-14626
▁surprise	-14627
▁pull	-14628
▁alps	-14629
▁della	-14630
▁erweiterten	-14631
▁piazza	-14632
▁telefonnummer	-14633
▁rotter	-14634
▁0.5	-14635
▁erstellung	-14636
▁halloween	-14637
▁lehren	-14638
irat	-14639
berge	-14640
reibungen	-14641
▁pinterest	-14642
▁kath	-14643
bogen	-14644
▁kriegs	-14645
▁sick	-14646
agnet	-14647
▁innovationen	-14648
▁wang	-14649
▁rückkehr	-14650
▁restored	-14651
rin	-14652
▁schwere	-14653
▁epü	-14654
▁toiletries	-14655
▁sogenannten	-14656
asi	-14657
▁mixt	-14658
▁kurd	-14659
▁81	-14660
decken	-14661
away	-14662
neider	-14663
▁glance	-14664
▁industriellen	-14665
▁tauch	-14666
▁argentin	-14667
▁gewünschte	-14668
senz	-14669
ilton	-14670
space	-14671
hydr	-14672
rev	-14673
▁compass	-14674
▁assume	-14675
▁köst	-14676
▁wholes	-14677
▁modified	-14678
▁sak	-14679
▁ng	-14680
▁kirch	-14681
▁1986	-14682
▁obere	-14683
▁angriff	-14684
▁vegetables	-14685
ulich	-14686
▁accurate	-14687
neum	-14688
▁twelve	-14689
▁hängen	-14690
▁gekenn	-14691
▁schneider	-14692
▁meal	-14693
▁kristall	-14694
▁presentations	-14695
▁baro	-14696
▁vag	-14697
ueller	-14698
versandkosten	-14699
▁miner	-14700
▁dragon	-14701
▁archä	-14702
▁recognize	-14703
▁bügeleisen	-14704
optionen	-14705
▁orchester	-14706
▁seeking	-14707
▁internationales	-14708
▁canal	-14709
▁chall	-14710
▁climbing	-14711
▁einsetzen	-14712
▁zed	-14713
▁gestattet	-14714
▁geburts	-14715
wich	-14716
▁fernseher	-14717
▁bull	-14718
▁accident	-14719
▁fi	-14720
ctic	-14721
stiftung	-14722
▁moro	-14723
▁muscle	-14724
▁märkte	-14725
▁koll	-14726
lingen	-14727
▁encry	-14728
archite	-14729
gements	-14730
▁panels	-14731
▁describe	-14732
▁gefol	-14733
▁statistiken	-14734
▁lucky	-14735
▁didaktische	-14736
eben	-14737
▁producers	-14738
▁scot	-14739
rennen	-14740
▁florenz	-14741
pflicht	-14742
oul	-14743
▁kreditkarten	-14744
zing	-14745
▁karlsruhe	-14746
▁strö	-14747
▁gewid	-14748
sprecher	-14749
▁zen	-14750
▁allianz	-14751
quellen	-14752
▁humanity	-14753
abelle	-14754
dig	-14755
▁matthias	-14756
▁luc	-14757
▁wissens	-14758
auswahl	-14759
▁akzeptiere	-14760
▁cv	-14761
inki	-14762
▁verfügbaren	-14763
icl	-14764
▁rational	-14765
▁drinking	-14766
▁spaziergang	-14767
▁tam	-14768
ierer	-14769
▁vorstands	-14770
▁roses	-14771
▁erweitern	-14772
▁reflex	-14773
ernet	-14774
▁fotografie	-14775
▁acsi	-14776
▁aussagen	-14777
▁stayed	-14778
elli	-14779
▁profiles	-14780
▁tü	-14781
▁geladen	-14782
inum	-14783
▁detection	-14784
▁wachstums	-14785
ouse	-14786
strategie	-14787
▁champion	-14788
▁promin	-14789
iller	-14790
uts	-14791
▁lovers	-14792
▁evol	-14793
ienten	-14794
▁ereignis	-14795
▁adopted	-14796
▁invite	-14797
.90	-14798
▁remind	-14799
▁insight	-14800
▁compat	-14801
tal	-14802
▁relationships	-14803
▁legt	-14804
▁architectural	-14805
▁screw	-14806
▁notwendigen	-14807
▁sandy	-14808
anka	-14809
▁cyber	-14810
▁gipfel	-14811
▁wöch	-14812
▁trigger	-14813
▁holes	-14814
anbieter	-14815
▁ohr	-14816
▁trek	-14817
▁phant	-14818
▁angeschlossen	-14819
▁keyboard	-14820
temberg	-14821
mode	-14822
[...]
