<pad>	0
<unk>	0
<MASK>	0
▁a	-0
▁t	-1
es	-2
en	-3
▁d	-4
er	-5
▁c	-6
in	-7
▁s	-8
▁p	-9
on	-10
▁l	-11
▁,	-12
os	-13
or	-14
▁de	-15
ar	-16
▁th	-17
▁m	-18
an	-19
as	-20
re	-21
▁the	-22
al	-23
▁e	-24
ti	-25
▁o	-26
ci	-27
is	-28
▁f	-29
▁b	-30
▁h	-31
te	-32
ad	-33
▁w	-34
▁in	-35
qu	-36
un	-37
ro	-38
▁y	-39
it	-40
▁.	-41
▁n	-42
▁en	-43
▁an	-44
▁la	-45
ic	-46
▁of	-47
ent	-48
ed	-49
om	-50
▁to	-51
at	-52
le	-53
▁es	-54
▁con	-55
ur	-56
id	-57
▁g	-58
▁and	-59
us	-60
ing	-61
▁el	-62
am	-63
▁v	-64
▁re	-65
▁un	-66
il	-67
▁qu	-68
ot	-69
ón	-70
▁&	-71
tion	-72
el	-73
ta	-74
ra	-75
ol	-76
▁se	-77
▁que	-78
im	-79
▁al	-80
ch	-81
ct	-82
res	-83
aci	-84
▁par	-85
▁com	-86
ul	-87
▁pro	-88
▁:	-89
ig	-90
▁los	-91
ir	-92
▁su	-93
ter	-94
ce	-95
tr	-96
▁1	-97
▁for	-98
ap	-99
ut	-100
▁is	-101
ab	-102
et	-103
ve	-104
ers	-105
▁yo	-106
do	-107
▁del	-108
▁2	-109
quot	-110
ay	-111
ation	-112
▁j	-113
▁on	-114
▁be	-115
▁para	-116
ado	-117
em	-118
▁ex	-119
to	-120
▁as	-121
iv	-122
▁wh	-123
▁r	-124
ente	-125
▁las	-126
▁no	-127
ith	-128
ación	-129
ia	-130
▁por	-131
lo	-132
▁(	-133
▁with	-134
io	-135
▁)	-136
▁des	-137
▁it	-138
um	-139
od	-140
ib	-141
▁that	-142
if	-143
▁lo	-144
ly	-145
▁or	-146
▁ch	-147
▁una	-148
ted	-149
▁est	-150
▁so	-151
▁ha	-152
la	-153
ici	-154
ec	-155
▁ac	-156
tic	-157
ones	-158
ud	-159
ue	-160
est	-161
iz	-162
ist	-163
▁res	-164
th	-165
ag	-166
ía	-167
ien	-168
▁us	-169
▁tr	-170
ere	-171
▁you	-172
▁co	-173
and	-174
▁ar	-175
▁pr	-176
pe	-177
ver	-178
ant	-179
apos	-180
ill	-181
▁k	-182
ás	-183
idad	-184
▁are	-185
▁cu	-186
▁we	-187
▁per	-188
▁le	-189
rom	-190
▁ap	-191
▁ser	-192
for	-193
▁ne	-194
▁am	-195
ient	-196
▁comp	-197
▁pu	-198
per	-199
por	-200
▁me	-201
ción	-202
▁at	-203
ess	-204
▁he	-205
▁ho	-206
end	-207
▁20	-208
ion	-209
▁ad	-210
ac	-211
▁im	-212
ment	-213
▁this	-214
tiv	-215
ada	-216
▁ab	-217
▁dis	-218
▁sh	-219
ip	-220
▁st	-221
ados	-222
ity	-223
ug	-224
du	-225
ier	-226
up	-227
▁-	-228
▁do	-229
ie	-230
cia	-231
ales	-232
▁inter	-233
▁by	-234
▁from	-235
st	-236
ate	-237
igh	-238
▁car	-239
op	-240
▁can	-241
▁;	-242
ios	-243
▁pre	-244
▁3	-245
go	-246
▁más	-247
▁your	-248
mo	-249
ica	-250
de	-251
ens	-252
▁i	-253
▁cons	-254
ma	-255
▁pl	-256
co	-257
all	-258
▁mar	-259
bre	-260
ca	-261
ak	-262
▁man	-263
▁cl	-264
▁mu	-265
und	-266
ide	-267
aj	-268
ine	-269
▁not	-270
▁como	-271
cl	-272
▁wor	-273
▁gr	-274
ando	-275
▁si	-276
port	-277
▁cont	-278
án	-279
form	-280
▁ag	-281
ies	-282
ect	-283
pl	-284
ores	-285
og	-286
▁has	-287
ión	-288
▁ro	-289
bl	-290
ante	-291
ich	-292
▁te	-293
▁will	-294
▁em	-295
▁esta	-296
ore	-297
ual	-298
ans	-299
▁was	-300
amp	-301
ido	-302
ces	-303
▁di	-304
ina	-305
ts	-306
tel	-307
▁all	-308
fer	-309
▁have	-310
ard	-311
▁pres	-312
▁tra	-313
ow	-314
▁pued	-315
▁go	-316
con	-317
00	-318
ge	-319
era	-320
▁fr	-321
▁sus	-322
se	-323
que	-324
cial	-325
ure	-326
able	-327
▁cas	-328
▁pe	-329
amb	-330
▁tod	-331
ome	-332
▁201	-333
iento	-334
ener	-335
av	-336
▁sp	-337
aciones	-338
ok	-339
▁serv	-340
▁4	-341
▁produ	-342
▁ver	-343
ber	-344
ico	-345
▁ob	-346
▁pers	-347
▁col	-348
so	-349
ult	-350
▁cre	-351
ost	-352
▁ev	-353
▁cor	-354
cu	-355
ell	-356
art	-357
amente	-358
ish	-359
ite	-360
▁cr	-361
ice	-362
▁med	-363
pres	-364
én	-365
iti	-366
▁sin	-367
ust	-368
▁5	-369
ain	-370
▁nu	-371
▁fin	-372
ign	-373
▁hab	-374
▁inform	-375
ero	-376
cr	-377
encia	-378
ble	-379
▁op	-380
ight	-381
▁reg	-382
▁ent	-383
til	-384
▁vis	-385
▁este	-386
▁mo	-387
ach	-388
ida	-389
▁our	-390
mente	-391
cer	-392
ys	-393
▁person	-394
▁which	-395
ord	-396
▁sol	-397
▁more	-398
za	-399
▁new	-400
gr	-401
va	-402
ne	-403
out	-404
les	-405
▁u	-406
▁sal	-407
▁?	-408
▁they	-409
és	-410
▁son	-411
ive	-412
▁cent	-413
▁19	-414
ian	-415
añ	-416
▁their	-417
▁pos	-418
ase	-419
use	-420
com	-421
▁pol	-422
▁esp	-423
▁ind	-424
▁gu	-425
emp	-426
amos	-427
her	-428
▁fe	-429
▁but	-430
pon	-431
ast	-432
ame	-433
▁sobre	-434
▁ele	-435
age	-436
▁hotel	-437
gu	-438
act	-439
ador	-440
▁ins	-441
▁po	-442
tions	-443
▁af	-444
are	-445
▁his	-446
uld	-447
ile	-448
▁mon	-449
▁br	-450
ose	-451
▁bo	-452
wn	-453
ck	-454
▁up	-455
▁mis	-456
jo	-457
▁real	-458
▁may	-459
ario	-460
▁one	-461
▁pa	-462
▁bu	-463
▁min	-464
ugh	-465
ary	-466
ance	-467
der	-468
▁intern	-469
▁ter	-470
▁incl	-471
▁añ	-472
▁cal	-473
adas	-474
ong	-475
▁there	-476
▁who	-477
ial	-478
#9	-479
▁&#9	-480
▁sa	-481
ear	-482
br	-483
ther	-484
min	-485
▁dif	-486
fic	-487
tros	-488
ambi	-489
ations	-490
ura	-491
vel	-492
▁trans	-493
tem	-494
ís	-495
ven	-496
▁tim	-497
▁0	-498
▁its	-499
cul	-500
dad	-501
▁6	-502
cip	-503
▁mi	-504
▁aut	-505
▁tien	-506
▁ra	-507
cion	-508
▁comm	-509
ater	-510
ass	-511
ree	-512
man	-513
uer	-514
ld	-515
▁..	-516
ible	-517
▁puede	-518
tru	-519
pu	-520
gan	-521
▁san	-522
▁if	-523
ical	-524
▁her	-525
cho	-526
cre	-527
▁product	-528
car	-529
ple	-530
▁gener	-531
▁entre	-532
▁inv	-533
▁work	-534
▁sta	-535
▁200	-536
▁bar	-537
ciones	-538
unt	-539
▁form	-540
tive	-541
▁dur	-542
one	-543
▁está	-544
rol	-545
ke	-546
ence	-547
ire	-548
▁mod	-549
ction	-550
▁!	-551
cción	-552
low	-553
▁cap	-554
▁sim	-555
entes	-556
▁fo	-557
▁rel	-558
▁out	-559
no	-560
▁tu	-561
▁also	-562
vo	-563
▁nue	-564
acion	-565
▁7	-566
▁mej	-567
ga	-568
tit	-569
tim	-570
ould	-571
ora	-572
ced	-573
▁ve	-574
eces	-575
▁deb	-576
ese	-577
▁nos	-578
▁pero	-579
▁bus	-580
▁dire	-581
▁...	-582
ition	-583
ambién	-584
▁z	-585
ied	-586
▁10	-587
▁¿	-588
▁también	-589
ino	-590
▁men	-591
▁pod	-592
ento	-593
ún	-594
ros	-595
uro	-596
▁act	-597
▁other	-598
ake	-599
▁ph	-600
ings	-601
▁about	-602
▁8	-603
▁rev	-604
▁them	-605
ene	-606
ents	-607
antes	-608
ph	-609
▁val	-610
we	-611
▁exper	-612
▁pla	-613
enta	-614
cias	-615
ors	-616
▁desde	-617
▁loc	-618
ias	-619
▁hum	-620
pos	-621
▁when	-622
cur	-623
ory	-624
ivers	-625
▁prim	-626
▁nuest	-627
▁fl	-628
▁peop	-629
az	-630
▁mad	-631
▁cer	-632
▁fir	-633
cess	-634
ild	-635
par	-636
emos	-637
▁parti	-638
tica	-639
▁ca	-640
ath	-641
cep	-642
ural	-643
▁spe	-644
▁gra	-645
enti	-646
▁my	-647
ational	-648
ras	-649
pro	-650
ular	-651
▁what	-652
▁year	-653
ba	-654
▁people	-655
▁time	-656
▁lib	-657
baj	-658
arios	-659
ays	-660
ías	-661
ty	-662
iew	-663
▁jo	-664
ana	-665
▁add	-666
olog	-667
gar	-668
amiento	-669
ates	-670
▁conta	-671
▁seg	-672
gram	-673
▁prov	-674
▁ef	-675
▁inf	-676
da	-677
▁mejor	-678
▁some	-679
tal	-680
▁prin	-681
tes	-682
ior	-683
ito	-684
▁9	-685
▁web	-686
▁espe	-687
erv	-688
▁todo	-689
▁ext	-690
▁prof	-691
▁much	-692
▁import	-693
▁equ	-694
▁todos	-695
▁trabaj	-696
▁comple	-697
▁lu	-698
ds	-699
▁fam	-700
▁pas	-701
cio	-702
▁don	-703
ace	-704
now	-705
▁vide	-706
▁were	-707
▁world	-708
▁fot	-709
▁play	-710
▁plan	-711
▁bas	-712
▁conf	-713
▁á	-714
ices	-715
itu	-716
iones	-717
▁any	-718
ack	-719
ten	-720
ities	-721
▁publ	-722
bo	-723
line	-724
▁cuando	-725
▁tw	-726
▁these	-727
▁é	-728
▁been	-729
▁%	-730
idades	-731
ick	-732
uel	-733
▁organ	-734
▁sub	-735
▁ti	-736
▁program	-737
adores	-738
▁hay	-739
▁nor	-740
▁lle	-741
ft	-742
icación	-743
▁gre	-744
icio	-745
tis	-746
ctor	-747
los	-748
▁amp	-749
▁off	-750
▁activ	-751
▁ten	-752
▁def	-753
ful	-754
▁aqu	-755
idos	-756
gun	-757
▁coun	-758
▁tan	-759
▁nat	-760
▁li	-761
▁gro	-762
ugar	-763
▁than	-764
ano	-765
urn	-766
iente	-767
▁euro	-768
▁fue	-769
▁pal	-770
tro	-771
▁sup	-772
▁ci	-773
ments	-774
ang	-775
▁famil	-776
▁mun	-777
▁prop	-778
▁arch	-779
ata	-780
▁dr	-781
sion	-782
▁only	-783
▁bet	-784
ín	-785
▁neces	-786
▁ever	-787
ks	-788
▁gran	-789
tain	-790
▁had	-791
▁ni	-792
▁video	-793
▁god	-794
▁law	-795
▁sur	-796
aron	-797
▁over	-798
oci	-799
▁bl	-800
ita	-801
▁know	-802
▁cond	-803
▁dios	-804
▁camp	-805
▁str	-806
▁información	-807
▁cos	-808
▁use	-809
▁hist	-810
ér	-811
je	-812
fr	-813
▁best	-814
▁jue	-815
▁contin	-816
ición	-817
▁ed	-818
tor	-819
▁12	-820
▁most	-821
ona	-822
▁hel	-823
▁fun	-824
tras	-825
▁deci	-826
ista	-827
▁así	-828
tivo	-829
▁dos	-830
olu	-831
me	-832
▁cur	-833
ibil	-834
▁experien	-835
▁online	-836
rough	-837
▁tiene	-838
▁contact	-839
1;	-840
▁&#91;	-841
vi	-842
icos	-843
▁high	-844
entos	-845
esti	-846
gl	-847
ous	-848
▁first	-849
▁lugar	-850
mos	-851
icios	-852
▁sign	-853
▁ej	-854
ará	-855
▁cual	-856
ital	-857
cel	-858
▁muy	-859
▁him	-860
▁ll	-861
▁priv	-862
ating	-863
▁bel	-864
ind	-865
▁into	-866
int	-867
▁ma	-868
▁general	-869
▁mil	-870
▁15	-871
▁cam	-872
eros	-873
ms	-874
▁han	-875
▁có	-876
▁human	-877
ena	-878
ife	-879
▁tiemp	-880
▁see	-881
▁how	-882
▁requ	-883
▁lí	-884
▁18	-885
▁sig	-886
ustr	-887
▁information	-888
med	-889
po	-890
▁vol	-891
▁x	-892
▁util	-893
▁rec	-894
▁need	-895
3;	-896
▁&#93;	-897
▁free	-898
atos	-899
ub	-900
ús	-901
▁ah	-902
ental	-903
▁usted	-904
▁esto	-905
erg	-906
▁años	-907
▁organiz	-908
itar	-909
gos	-910
ond	-911
ió	-912
▁fotos	-913
▁bre	-914
udad	-915
▁algun	-916
ures	-917
▁tem	-918
▁art	-919
▁hom	-920
▁hasta	-921
▁habit	-922
▁would	-923
▁ciudad	-924
tico	-925
▁ref	-926
▁princip	-927
▁trad	-928
▁comun	-929
ific	-930
▁inst	-931
ated	-932
▁actual	-933
▁equip	-934
cha	-935
▁lar	-936
▁situ	-937
▁id	-938
▁econ	-939
arse	-940
▁ya	-941
cil	-942
▁super	-943
▁room	-944
▁cada	-945
iste	-946
▁hacer	-947
▁tiempo	-948
▁hol	-949
▁like	-950
icas	-951
acional	-952
▁after	-953
▁num	-954
▁now	-955
▁every	-956
na	-957
iendo	-958
▁very	-959
▁durante	-960
▁respon	-961
▁ofre	-962
ject	-963
▁están	-964
▁countr	-965
iver	-966
▁fran	-967
▁two	-968
▁contr	-969
▁jes	-970
▁through	-971
▁down	-972
▁many	-973
▁where	-974
▁mundo	-975
▁dep	-976
▁univers	-977
rac	-978
▁ide	-979
▁var	-980
▁prote	-981
▁proble	-982
▁11	-983
ícul	-984
▁includ	-985
▁cate	-986
illa	-987
titu	-988
▁ay	-989
land	-990
xt	-991
▁nues	-992
▁fuer	-993
▁social	-994
fore	-995
ientes	-996
▁mas	-997
▁mark	-998
▁apart	-999
▁utiliz	-1000
▁parte	-1001
▁air	-1002
▁país	-1003
▁part	-1004
▁fol	-1005
▁oc	-1006
iel	-1007
ystem	-1008
▁vida	-1009
ren	-1010
ally	-1011
▁well	-1012
▁otros	-1013
▁met	-1014
iness	-1015
mas	-1016
▁especial	-1017
ps	-1018
▁exp	-1019
arn	-1020
crip	-1021
▁reci	-1022
▁such	-1023
▁er	-1024
▁bien	-1025
oc	-1026
▁present	-1027
ara	-1028
ño	-1029
ho	-1030
king	-1031
▁mater	-1032
▁categ	-1033
ibu	-1034
las	-1035
als	-1036
ert	-1037
ters	-1038
▁sele	-1039
000	-1040
▁char	-1041
quier	-1042
▁show	-1043
ress	-1044
pr	-1045
▁repres	-1046
ator	-1047
▁result	-1048
den	-1049
ues	-1050
ider	-1051
▁get	-1052
▁total	-1053
ange	-1054
ctr	-1055
▁visit	-1056
pa	-1057
▁system	-1058
ware	-1059
▁simple	-1060
ves	-1061
▁life	-1062
▁devel	-1063
▁soci	-1064
fect	-1065
trar	-1066
▁perm	-1067
▁public	-1068
▁child	-1069
gin	-1070
elf	-1071
tar	-1072
ise	-1073
▁ir	-1074
▁mem	-1075
▁mal	-1076
▁stud	-1077
▁blo	-1078
ían	-1079
▁win	-1080
▁fa	-1081
▁vi	-1082
oth	-1083
▁mer	-1084
▁fil	-1085
▁él	-1086
che	-1087
▁make	-1088
▁personal	-1089
▁area	-1090
▁years	-1091
bar	-1092
▁commun	-1093
ja	-1094
ness	-1095
▁home	-1096
ting	-1097
▁natural	-1098
▁then	-1099
quil	-1100
▁control	-1101
vail	-1102
▁uno	-1103
red	-1104
▁develop	-1105
▁leg	-1106
orn	-1107
▁pueden	-1108
▁day	-1109
▁oper	-1110
abil	-1111
ua	-1112
▁españ	-1113
ep	-1114
ited	-1115
▁again	-1116
▁16	-1117
▁qué	-1118
▁día	-1119
xim	-1120
▁dispon	-1121
▁contra	-1122
▁30	-1123
▁desar	-1124
▁city	-1125
gen	-1126
ato	-1127
itor	-1128
uth	-1129
can	-1130
▁personas	-1131
▁anti	-1132
▁direct	-1133
▁call	-1134
▁nuestro	-1135
tiva	-1136
▁even	-1137
▁tom	-1138
▁tip	-1139
ican	-1140
duc	-1141
▁hi	-1142
ticas	-1143
endo	-1144
▁particip	-1145
▁lim	-1146
▁incre	-1147
▁said	-1148
▁dist	-1149
istas	-1150
▁sab	-1151
▁ú	-1152
jos	-1153
▁desarrol	-1154
ton	-1155
▁avail	-1156
cios	-1157
▁dere	-1158
ws	-1159
▁map	-1160
ality	-1161
▁beca	-1162
▁here	-1163
fici	-1164
▁differ	-1165
▁sm	-1166
tra	-1167
ey	-1168
ely	-1169
▁way	-1170
▁grand	-1171
▁chr	-1172
▁because	-1173
▁europe	-1174
ismo	-1175
▁archiv	-1176
▁ass	-1177
▁should	-1178
▁she	-1179
▁red	-1180
▁cab	-1181
▁those	-1182
▁dem	-1183
▁constru	-1184
ave	-1185
unto	-1186
▁encu	-1187
imiento	-1188
ender	-1189
▁abog	-1190
zo	-1191
▁empres	-1192
▁find	-1193
▁cult	-1194
idas	-1195
otros	-1196
van	-1197
cum	-1198
▁hor	-1199
▁todas	-1200
ween	-1201
▁ayud	-1202
▁esc	-1203
▁just	-1204
▁só	-1205
dos	-1206
▁between	-1207
ights	-1208
▁nuestra	-1209
ather	-1210
▁14	-1211
urs	-1212
ins	-1213
▁inclu	-1214
ecu	-1215
be	-1216
▁mayor	-1217
ientos	-1218
▁services	-1219
▁rela	-1220
▁ce	-1221
ink	-1222
▁good	-1223
aje	-1224
▁despu	-1225
▁mat	-1226
tir	-1227
▁vez	-1228
▁business	-1229
▁hos	-1230
ants	-1231
▁fu	-1232
▁dise	-1233
▁estud	-1234
▁amer	-1235
▁dom	-1236
▁book	-1237
its	-1238
-1	-1239
▁design	-1240
▁cris	-1241
esta	-1242
▁read	-1243
ames	-1244
▁market	-1245
ict	-1246
▁emp	-1247
▁porque	-1248
▁realiz	-1249
▁mé	-1250
▁señ	-1251
▁cat	-1252
▁mom	-1253
ough	-1254
▁long	-1255
▁casa	-1256
▁cómo	-1257
▁tre	-1258
ions	-1259
▁sea	-1260
ved	-1261
get	-1262
▁después	-1263
▁orig	-1264
▁view	-1265
▁great	-1266
▁made	-1267
▁13	-1268
▁bro	-1269
▁aquí	-1270
ches	-1271
▁donde	-1272
▁abogados	-1273
▁mill	-1274
▁main	-1275
▁líne	-1276
pect	-1277
▁international	-1278
▁fre	-1279
▁encon	-1280
▁follow	-1281
iar	-1282
cy	-1283
▁rom	-1284
ward	-1285
ger	-1286
▁servicios	-1287
eno	-1288
▁ig	-1289
▁expl	-1290
ious	-1291
ines	-1292
▁viv	-1293
▁ahora	-1294
ort	-1295
▁help	-1296
tivos	-1297
ama	-1298
▁baj	-1299
▁polí	-1300
▁estado	-1301
▁vers	-1302
▁centro	-1303
▁tar	-1304
▁own	-1305
▁forma	-1306
▁tal	-1307
au	-1308
▁location	-1309
▁presid	-1310
▁som	-1311
▁lan	-1312
▁encuent	-1313
▁les	-1314
▁via	-1315
▁resta	-1316
▁pat	-1317
▁back	-1318
▁imag	-1319
ern	-1320
▁corre	-1321
▁mot	-1322
ff	-1323
▁sk	-1324
▁difer	-1325
ceso	-1326
▁lat	-1327
20	-1328
▁industr	-1329
▁nom	-1330
▁bed	-1331
▁podr	-1332
round	-1333
chn	-1334
▁compan	-1335
▁sólo	-1336
▁fund	-1337
▁place	-1338
▁prev	-1339
▁set	-1340
tical	-1341
▁open	-1342
▁take	-1343
▁under	-1344
▁consider	-1345
crib	-1346
ork	-1347
▁estos	-1348
▁ban	-1349
▁era	-1350
▁soft	-1351
jer	-1352
▁pow	-1353
▁fact	-1354
▁int	-1355
uras	-1356
acter	-1357
inal	-1358
▁fav	-1359
▁imp	-1360
bier	-1361
▁ful	-1362
▁start	-1363
cis	-1364
.1	-1365
▁24	-1366
▁compar	-1367
▁model	-1368
▁div	-1369
▁must	-1370
miento	-1371
ands	-1372
vern	-1373
vers	-1374
▁cho	-1375
▁17	-1376
▁recom	-1377
▁ale	-1378
▁env	-1379
▁group	-1380
▁file	-1381
▁año	-1382
▁nuevo	-1383
▁conn	-1384
▁econom	-1385
▁histor	-1386
▁pop	-1387
▁internet	-1388
▁je	-1389
▁restaur	-1390
▁25	-1391
▁cualquier	-1392
▁haci	-1393
irit	-1394
yect	-1395
sh	-1396
ban	-1397
ños	-1398
ll	-1399
ío	-1400
tos	-1401
▁service	-1402
yers	-1403
hing	-1404
▁being	-1405
▁comb	-1406
gra	-1407
▁before	-1408
cos	-1409
▁ste	-1410
aba	-1411
▁ital	-1412
▁mus	-1413
tle	-1414
▁grup	-1415
▁ellos	-1416
▁anal	-1417
▁same	-1418
▁ty	-1419
ral	-1420
▁techn	-1421
▁apl	-1422
▁úl	-1423
▁pan	-1424
▁mismo	-1425
ña	-1426
▁línea	-1427
istema	-1428
▁entr	-1429
▁liv	-1430
ional	-1431
▁trabajo	-1432
▁mes	-1433
▁ur	-1434
▁compr	-1435
▁each	-1436
bal	-1437
chos	-1438
▁order	-1439
▁local	-1440
encias	-1441
▁sido	-1442
▁used	-1443
led	-1444
▁house	-1445
▁amb	-1446
▁nosotros	-1447
▁wr	-1448
▁mos	-1449
▁provid	-1450
▁eleg	-1451
ons	-1452
▁sistema	-1453
vis	-1454
▁mag	-1455
bil	-1456
mail	-1457
▁ear	-1458
▁different	-1459
truct	-1460
▁cuenta	-1461
▁mor	-1462
▁ple	-1463
tern	-1464
iciones	-1465
▁da	-1466
▁cle	-1467
▁tur	-1468
▁nuestros	-1469
ry	-1470
▁sc	-1471
arch	-1472
▁hace	-1473
▁pá	-1474
▁vir	-1475
▁gl	-1476
▁during	-1477
úm	-1478
▁final	-1479
▁trat	-1480
ize	-1481
icion	-1482
▁found	-1483
▁number	-1484
▁arg	-1485
▁199	-1486
▁engl	-1487
lar	-1488
cas	-1489
▁nueva	-1490
▁govern	-1491
load	-1492
way	-1493
▁ta	-1494
cid	-1495
ancia	-1496
▁offer	-1497
ium	-1498
ner	-1499
ism	-1500
come	-1501
▁available	-1502
▁power	-1503
▁mul	-1504
tio	-1505
▁sw	-1506
▁gar	-1507
▁calidad	-1508
ye	-1509
▁ded	-1510
▁poss	-1511
▁minut	-1512
aria	-1513
alth	-1514
▁lit	-1515
▁proyect	-1516
▁state	-1517
▁ju	-1518
▁expres	-1519
▁look	-1520
ites	-1521
zar	-1522
▁km	-1523
vil	-1524
▁solu	-1525
zas	-1526
▁continu	-1527
▁os	-1528
▁without	-1529
torne	-1530
▁obs	-1531
▁attorne	-1532
ets	-1533
▁news	-1534
▁access	-1535
▁electr	-1536
▁favor	-1537
▁sy	-1538
▁national	-1539
▁alquil	-1540
room	-1541
▁escu	-1542
▁segu	-1543
▁ub	-1544
ex	-1545
▁does	-1546
▁dec	-1547
eng	-1548
▁glo	-1549
▁phot	-1550
▁antes	-1551
ung	-1552
▁logo	-1553
cus	-1554
▁software	-1555
ización	-1556
ades	-1557
▁tanto	-1558
▁far	-1559
ement	-1560
▁áre	-1561
ric	-1562
▁material	-1563
▁energ	-1564
▁cir	-1565
ety	-1566
▁docum	-1567
▁estados	-1568
inas	-1569
▁servicio	-1570
▁exist	-1571
▁water	-1572
oma	-1573
▁educ	-1574
▁lawyers	-1575
ibilidad	-1576
urch	-1577
ade	-1578
bol	-1579
▁ofrece	-1580
▁dar	-1581
▁cour	-1582
▁reco	-1583
amento	-1584
▁wom	-1585
gn	-1586
▁process	-1587
▁tak	-1588
▁end	-1589
úbl	-1590
▁núm	-1591
▁distr	-1592
▁could	-1593
ticos	-1594
▁right	-1595
ning	-1596
illas	-1597
▁support	-1598
▁quality	-1599
▁lead	-1600
ierra	-1601
eck	-1602
▁productos	-1603
ustom	-1604
▁attorneys	-1605
mar	-1606
ped	-1607
rate	-1608
▁rad	-1609
▁pes	-1610
▁want	-1611
cord	-1612
▁project	-1613
▁rece	-1614
▁english	-1615
▁children	-1616
▁22	-1617
ished	-1618
▁inte	-1619
▁arr	-1620
▁camb	-1621
▁pass	-1622
▁bal	-1623
▁español	-1624
inos	-1625
▁vo	-1626
▁pad	-1627
ense	-1628
▁bod	-1629
▁color	-1630
▁enter	-1631
▁games	-1632
▁sigu	-1633
▁bra	-1634
▁custom	-1635
▁come	-1636
ál	-1637
▁country	-1638
▁estas	-1639
▁sac	-1640
▁juegos	-1641
itos	-1642
▁list	-1643
▁categor	-1644
▁descar	-1645
año	-1646
▁mujer	-1647
▁break	-1648
▁artícul	-1649
▁fut	-1650
▁otras	-1651
emplo	-1652
.5	-1653
▁gol	-1654
▁proper	-1655
▁palab	-1656
usti	-1657
▁top	-1658
▁llam	-1659
ders	-1660
▁buen	-1661
óm	-1662
▁inde	-1663
▁datos	-1664
▁nego	-1665
▁war	-1666
▁special	-1667
▁caus	-1668
ving	-1669
▁pap	-1670
▁did	-1671
ined	-1672
▁trav	-1673
▁respons	-1674
▁debe	-1675
▁eas	-1676
▁search	-1677
▁download	-1678
ivid	-1679
uso	-1680
▁let	-1681
▁partic	-1682
▁redu	-1683
pre	-1684
ister	-1685
▁dijo	-1686
▁solo	-1687
▁giv	-1688
▁against	-1689
rael	-1690
▁ped	-1691
▁apr	-1692
▁shall	-1693
▁last	-1694
▁refer	-1695
▁colle	-1696
▁segur	-1697
▁pag	-1698
▁embar	-1699
▁tipo	-1700
▁individ	-1701
cent	-1702
▁israel	-1703
▁port	-1704
▁archivo	-1705
▁ven	-1706
ivel	-1707
▁jud	-1708
▁estar	-1709
▁bene	-1710
▁habitaciones	-1711
▁pot	-1712
▁data	-1713
igo	-1714
▁review	-1715
▁inc	-1716
tail	-1717
▁investi	-1718
▁appl	-1719
let	-1720
ables	-1721
▁salv	-1722
▁reserv	-1723
▁comer	-1724
▁otro	-1725
emás	-1726
▁21	-1727
ieron	-1728
ám	-1729
▁había	-1730
embre	-1731
▁health	-1732
▁tener	-1733
▁cook	-1734
▁finan	-1735
▁conse	-1736
our	-1737
▁cop	-1738
▁products	-1739
ury	-1740
bor	-1741
▁har	-1742
ently	-1743
▁viol	-1744
▁nuev	-1745
▁qui	-1746
ueb	-1747
ests	-1748
▁peque	-1749
empre	-1750
▁esper	-1751
other	-1752
hip	-1753
▁siempre	-1754
▁días	-1755
▁100	-1756
▁además	-1757
▁tres	-1758
itions	-1759
ix	-1760
▁lord	-1761
▁anim	-1762
▁star	-1763
pec	-1764
▁ge	-1765
▁muchos	-1766
ilar	-1767
▁artic	-1768
▁nivel	-1769
▁while	-1770
▁hand	-1771
▁important	-1772
▁ol	-1773
▁descrip	-1774
ily	-1775
▁light	-1776
▁three	-1777
▁blan	-1778
▁allow	-1779
cated	-1780
▁spirit	-1781
▁má	-1782
▁since	-1783
entar	-1784
▁hacia	-1785
▁gobier	-1786
▁revolu	-1787
▁alquiler	-1788
▁sto	-1789
▁rep	-1790
▁nombre	-1791
▁vuel	-1792
▁build	-1793
▁tienen	-1794
▁pens	-1795
▁say	-1796
eda	-1797
▁speci	-1798
ont	-1799
▁particular	-1800
▁disco	-1801
▁número	-1802
cond	-1803
▁toda	-1804
▁terr	-1805
bres	-1806
onces	-1807
rá	-1808
▁prepar	-1809
▁et	-1810
▁deter	-1811
▁aud	-1812
▁net	-1813
▁tele	-1814
▁learn	-1815
▁both	-1816
ration	-1817
mal	-1818
▁mak	-1819
read	-1820
▁sex	-1821
ges	-1822
▁noti	-1823
▁dese	-1824
portun	-1825
.2	-1826
▁capaci	-1827
▁cele	-1828
▁algunos	-1829
istr	-1830
.0	-1831
▁verdad	-1832
▁faci	-1833
fe	-1834
▁manera	-1835
gas	-1836
▁internacional	-1837
ogra	-1838
yo	-1839
▁sitio	-1840
▁tierra	-1841
▁conven	-1842
▁name	-1843
▁sí	-1844
▁inici	-1845
pt	-1846
▁jesus	-1847
▁small	-1848
ying	-1849
▁admin	-1850
▁impro	-1851
▁class	-1852
the	-1853
▁du	-1854
ining	-1855
▁institu	-1856
óg	-1857
▁hecho	-1858
▁menos	-1859
▁mant	-1860
▁carr	-1861
tivas	-1862
▁añad	-1863
omb	-1864
▁juego	-1865
▁investig	-1866
▁accord	-1867
▁offers	-1868
▁pen	-1869
▁través	-1870
▁uso	-1871
itect	-1872
▁agre	-1873
ized	-1874
fec	-1875
cle	-1876
▁puer	-1877
▁central	-1878
▁auth	-1879
▁conoci	-1880
▁opin	-1881
▁tend	-1882
▁recib	-1883
ology	-1884
▁tras	-1885
▁tv	-1886
▁ques	-1887
▁alm	-1888
ists	-1889
▁experience	-1890
▁entonces	-1891
day	-1892
▁within	-1893
▁appro	-1894
ono	-1895
▁level	-1896
▁argent	-1897
▁gan	-1898
▁extra	-1899
▁mic	-1900
wer	-1901
▁recon	-1902
▁gal	-1903
▁villa	-1904
▁bol	-1905
▁global	-1906
▁aum	-1907
pend	-1908
rop	-1909
▁área	-1910
▁gas	-1911
▁jun	-1912
els	-1913
▁located	-1914
▁gen	-1915
ibles	-1916
cept	-1917
▁agua	-1918
ulo	-1919
▁tor	-1920
ique	-1921
▁perio	-1922
ample	-1923
▁cru	-1924
▁family	-1925
imin	-1926
▁abr	-1927
▁capital	-1928
éc	-1929
app	-1930
▁medio	-1931
una	-1932
▁perfect	-1933
▁windo	-1934
▁públ	-1935
▁christ	-1936
▁stre	-1937
clus	-1938
▁primer	-1939
▁stand	-1940
▁days	-1941
▁manag	-1942
▁50	-1943
▁vac	-1944
xico	-1945
▁decl	-1946
▁month	-1947
▁love	-1948
▁facil	-1949
elo	-1950
▁conver	-1951
▁ning	-1952
▁ke	-1953
▁muse	-1954
ientras	-1955
bers	-1956
▁aun	-1957
▁ejemplo	-1958
▁desarrollo	-1959
▁principal	-1960
▁otra	-1961
ash	-1962
▁ampl	-1963
gres	-1964
▁grupo	-1965
▁meet	-1966
▁face	-1967
▁tour	-1968
▁ún	-1969
▁times	-1970
▁sil	-1971
▁sep	-1972
▁mientras	-1973
▁interes	-1974
▁tus	-1975
▁llev	-1976
▁poder	-1977
terior	-1978
col	-1979
▁government	-1980
anos	-1981
ways	-1982
▁ger	-1983
▁profes	-1984
cado	-1985
ication	-1986
▁barcel	-1987
▁señor	-1988
ties	-1989
ics	-1990
▁selec	-1991
▁another	-1992
▁pra	-1993
▁ret	-1994
▁av	-1995
edor	-1996
▁instal	-1997
▁detail	-1998
ór	-1999
▁eng	-2000
▁king	-2001
▁aer	-2002
▁secre	-2003
char	-2004
▁unidos	-2005
▁fá	-2006
▁cla	-2007
▁identi	-2008
▁sen	-2009
▁email	-2010
▁resid	-2011
▁igles	-2012
▁company	-2013
▁ru	-2014
▁arm	-2015
▁seguridad	-2016
ats	-2017
ología	-2018
▁development	-2019
▁mucho	-2020
ír	-2021
▁old	-2022
cina	-2023
▁23	-2024
▁relig	-2025
esto	-2026
▁prac	-2027
till	-2028
▁coment	-2029
▁check	-2030
▁primera	-2031
▁nacional	-2032
gue	-2033
etas	-2034
alu	-2035
▁game	-2036
▁precio	-2037
▁ley	-2038
das	-2039
▁rooms	-2040
ik	-2041
▁programa	-2042
▁pág	-2043
lu	-2044
▁polic	-2045
abor	-2046
chool	-2047
▁resul	-2048
▁jul	-2049
▁record	-2050
▁acer	-2051
▁países	-2052
▁espaci	-2053
▁eso	-2054
▁funcion	-2055
▁united	-2056
jar	-2057
▁conv	-2058
▁momento	-2059
▁bajo	-2060
ración	-2061
▁usu	-2062
▁tec	-2063
fo	-2064
▁quien	-2065
▁obt	-2066
▁gobierno	-2067
▁states	-2068
▁asso	-2069
▁curr	-2070
▁price	-2071
▁estable	-2072
▁full	-2073
izar	-2074
▁site	-2075
▁langu	-2076
▁sino	-2077
▁frien	-2078
▁veces	-2079
▁rental	-2080
▁heart	-2081
tics	-2082
▁among	-2083
▁tel	-2084
▁empresa	-2085
▁case	-2086
▁barcelona	-2087
ale	-2088
▁airport	-2089
▁página	-2090
icar	-2091
▁producto	-2092
▁hombre	-2093
▁report	-2094
▁dest	-2095
isión	-2096
thers	-2097
ya	-2098
▁care	-2099
ping	-2100
▁promo	-2101
▁represent	-2102
▁rights	-2103
▁marketing	-2104
▁school	-2105
▁derechos	-2106
▁rem	-2107
.3	-2108
▁observ	-2109
▁medic	-2110
▁será	-2111
▁dev	-2112
▁hoy	-2113
▁divers	-2114
enci	-2115
▁caso	-2116
ibility	-2117
▁page	-2118
tas	-2119
ires	-2120
▁embargo	-2121
▁church	-2122
▁dig	-2123
▁women	-2124
ques	-2125
▁iss	-2126
▁give	-2127
▁cuer	-2128
fast	-2129
▁autor	-2130
▁poli	-2131
▁please	-2132
orm	-2133
ati	-2134
▁white	-2135
atu	-2136
▁oct	-2137
▁pis	-2138
sa	-2139
▁change	-2140
▁posible	-2141
▁center	-2142
▁consum	-2143
▁salud	-2144
table	-2145
▁around	-2146
▁encuentra	-2147
entro	-2148
▁estamos	-2149
▁contacto	-2150
▁according	-2151
▁libre	-2152
áp	-2153
▁2015	-2154
▁experiencia	-2155
hib	-2156
▁28	-2157
▁acuer	-2158
▁precios	-2159
▁body	-2160
▁defin	-2161
▁ella	-2162
▁sens	-2163
▁orden	-2164
▁accom	-2165
▁ese	-2166
porte	-2167
▁benef	-2168
tidad	-2169
less	-2170
▁justi	-2171
▁cost	-2172
▁demo	-2173
▁sing	-2174
▁feat	-2175
▁tex	-2176
▁arti	-2177
▁mac	-2178
▁today	-2179
▁importante	-2180
▁dra	-2181
▁niños	-2182
▁apar	-2183
10	-2184
▁using	-2185
▁pueb	-2186
▁hotels	-2187
▁fal	-2188
▁mund	-2189
▁always	-2190
▁pie	-2191
ired	-2192
▁pon	-2193
leg	-2194
▁coraz	-2195
he	-2196
▁extens	-2197
ability	-2198
▁mens	-2199
▁still	-2200
err	-2201
▁apo	-2202
▁miem	-2203
icial	-2204
▁abs	-2205
sos	-2206
▁unders	-2207
▁disfr	-2208
ek	-2209
▁vent	-2210
▁happ	-2211
▁argentina	-2212
▁countries	-2213
ply	-2214
▁seman	-2215
▁mov	-2216
▁base	-2217
▁din	-2218
▁conect	-2219
eza	-2220
▁enjo	-2221
ieve	-2222
▁jesús	-2223
estra	-2224
▁apro	-2225
▁sent	-2226
sel	-2227
▁fab	-2228
▁next	-2229
▁post	-2230
▁possible	-2231
▁wal	-2232
ula	-2233
▁hoteles	-2234
▁near	-2235
▁ubicación	-2236
▁popular	-2237
▁prem	-2238
ác	-2239
▁mach	-2240
▁similar	-2241
▁diferentes	-2242
▁second	-2243
tima	-2244
ctions	-2245
▁descu	-2246
▁pay	-2247
▁det	-2248
▁turn	-2249
cen	-2250
▁sum	-2251
▁pueblo	-2252
▁iglesia	-2253
▁individual	-2254
rid	-2255
▁especi	-2256
50	-2257
▁howe	-2258
▁civ	-2259
▁including	-2260
▁prob	-2261
▁mess	-2262
▁things	-2263
untos	-2264
▁según	-2265
▁addition	-2266
▁however	-2267
cir	-2268
mber	-2269
ería	-2270
▁cookies	-2271
book	-2272
▁26	-2273
▁sl	-2274
▁zona	-2275
▁original	-2276
bles	-2277
▁terra	-2278
edad	-2279
▁relacion	-2280
▁rele	-2281
▁community	-2282
iedad	-2283
km	-2284
▁persona	-2285
eras	-2286
site	-2287
▁put	-2288
▁though	-2289
▁encontrar	-2290
▁modern	-2291
net	-2292
▁dentro	-2293
▁il	-2294
▁méd	-2295
▁bath	-2296
▁move	-2297
▁che	-2298
ency	-2299
▁ba	-2300
ases	-2301
▁south	-2302
▁2018	-2303
▁política	-2304
iales	-2305
▁cier	-2306
ides	-2307
ares	-2308
▁2012	-2309
ages	-2310
▁vari	-2311
▁acco	-2312
▁historia	-2313
▁sever	-2314
oss	-2315
▁dan	-2316
▁27	-2317
mod	-2318
▁following	-2319
▁independ	-2320
▁perman	-2321
▁conten	-2322
▁head	-2323
,000	-2324
gre	-2325
▁estaba	-2326
▁pel	-2327
▁media	-2328
cimiento	-2329
▁efect	-2330
▁envi	-2331
▁cum	-2332
▁sch	-2333
▁connect	-2334
▁proyecto	-2335
▁profess	-2336
tación	-2337
▁lin	-2338
▁large	-2339
▁alo	-2340
▁private	-2341
▁40	-2342
▁escr	-2343
▁breakfast	-2344
▁windows	-2345
▁anun	-2346
▁example	-2347
erse	-2348
isti	-2349
▁food	-2350
ós	-2351
ission	-2352
iano	-2353
rateg	-2354
▁never	-2355
▁confer	-2356
ensa	-2357
▁obj	-2358
ram	-2359
▁aerop	-2360
ela	-2361
ason	-2362
▁pur	-2363
▁fiel	-2364
▁category	-2365
work	-2366
▁inno	-2367
osa	-2368
▁able	-2369
▁land	-2370
▁contribu	-2371
▁quier	-2372
▁prom	-2373
▁descargar	-2374
ird	-2375
▁director	-2376
▁propor	-2377
▁live	-2378
▁veh	-2379
cido	-2380
▁aeropuer	-2381
▁depend	-2382
▁ask	-2383
▁valor	-2384
▁santa	-2385
▁gente	-2386
▁etc	-2387
▁based	-2388
▁gt	-2389
iron	-2390
icated	-2391
ute	-2392
▁agr	-2393
▁improve	-2394
▁aunque	-2395
▁algo	-2396
dom	-2397
▁period	-2398
fi	-2399
▁fueron	-2400
▁hostel	-2401
▁author	-2402
▁00	-2403
▁ang	-2404
▁fig	-2405
▁2013	-2406
▁recu	-2407
▁determin	-2408
▁civil	-2409
anti	-2410
▁alta	-2411
▁flo	-2412
▁declar	-2413
▁tecn	-2414
eral	-2415
▁past	-2416
titud	-2417
ential	-2418
▁rus	-2419
▁va	-2420
▁obje	-2421
▁cerca	-2422
▁appe	-2423
bra	-2424
▁ráp	-2425
.4	-2426
▁beach	-2427
▁caracter	-2428
▁2011	-2429
▁clientes	-2430
▁muchas	-2431
▁grandes	-2432
▁deliver	-2433
▁constitu	-2434
▁proceso	-2435
adora	-2436
▁suc	-2437
▁clim	-2438
hn	-2439
▁cosas	-2440
ane	-2441
▁refle	-2442
▁less	-2443
▁treat	-2444
▁begin	-2445
▁gratis	-2446
▁ens	-2447
▁condiciones	-2448
▁perform	-2449
--	-2450
▁alim	-2451
▁china	-2452
ob	-2453
tific	-2454
thing	-2455
▁categoría	-2456
ength	-2457
ots	-2458
▁cin	-2459
anda	-2460
▁poco	-2461
▁err	-2462
▁elegir	-2463
▁incluso	-2464
▁distribu	-2465
uf	-2466
▁bla	-2467
▁intro	-2468
▁acuerdo	-2469
ples	-2470
▁encontr	-2471
oper	-2472
▁nav	-2473
uary	-2474
▁environ	-2475
▁estre	-2476
pi	-2477
uales	-2478
fort	-2479
ológ	-2480
▁decir	-2481
▁card	-2482
▁teach	-2483
▁legal	-2484
▁sci	-2485
of	-2486
▁asoci	-2487
earch	-2488
▁flor	-2489
▁commit	-2490
▁dir	-2491
▁obtener	-2492
▁ses	-2493
▁type	-2494
▁mass	-2495
▁send	-2496
ogle	-2497
▁dispos	-2498
▁2016	-2499
puest	-2500
ased	-2501
▁termin	-2502
▁pul	-2503
▁related	-2504
-2	-2505
jas	-2506
▁depart	-2507
▁den	-2508
▁log	-2509
▁called	-2510
▁complete	-2511
▁enjoy	-2512
▁impres	-2513
▁living	-2514
iza	-2515
▁deber	-2516
ha	-2517
▁return	-2518
▁span	-2519
▁test	-2520
atro	-2521
▁puerto	-2522
▁proced	-2523
▁amar	-2524
itch	-2525
itas	-2526
fico	-2527
▁research	-2528
▁big	-2529
▁four	-2530
ination	-2531
etes	-2532
▁multi	-2533
▁fel	-2534
▁esa	-2535
▁press	-2536
▁vic	-2537
iss	-2538
ñas	-2539
ived	-2540
▁mujeres	-2541
▁familia	-2542
▁few	-2543
▁reun	-2544
▁reser	-2545
▁travel	-2546
▁intel	-2547
▁autom	-2548
▁minutos	-2549
écn	-2550
▁google	-2551
▁acerca	-2552
▁secur	-2553
▁line	-2554
▁blog	-2555
▁2014	-2556
▁ase	-2557
▁adm	-2558
▁hard	-2559
▁medi	-2560
▁amor	-2561
▁cono	-2562
▁others	-2563
yl	-2564
imos	-2565
▁algunas	-2566
hol	-2567
▁nuestras	-2568
▁become	-2569
▁feel	-2570
▁cuerpo	-2571
▁acceso	-2572
▁sector	-2573
▁corazón	-2574
▁ideal	-2575
▁away	-2576
ifica	-2577
▁why	-2578
▁share	-2579
bs	-2580
gether	-2581
▁american	-2582
▁pain	-2583
▁hijo	-2584
▁económ	-2585
▁increase	-2586
▁29	-2587
▁padre	-2588
▁luz	-2589
▁underst	-2590
▁espír	-2591
▁wat	-2592
▁mapa	-2593
▁senti	-2594
ery	-2595
▁detall	-2596
amentos	-2597
timos	-2598
▁hu	-2599
▁clear	-2600
uego	-2601
bros	-2602
▁2010	-2603
▁labor	-2604
▁earth	-2605
▁ayuda	-2606
▁york	-2607
▁equipo	-2608
▁tax	-2609
▁gracias	-2610
▁emple	-2611
▁members	-2612
terna	-2613
▁pare	-2614
mer	-2615
ood	-2616
▁enfer	-2617
▁obl	-2618
▁ps	-2619
▁técn	-2620
▁separ	-2621
▁respect	-2622
▁2017	-2623
▁administ	-2624
▁click	-2625
puesta	-2626
▁ib	-2627
▁exam	-2628
nes	-2629
aban	-2630
▁father	-2631
▁fácil	-2632
eto	-2633
▁clar	-2634
inar	-2635
ecess	-2636
cciones	-2637
▁gratu	-2638
▁grow	-2639
▁unos	-2640
▁remo	-2641
▁coches	-2642
▁chang	-2643
▁bot	-2644
cted	-2645
▁tool	-2646
▁patr	-2647
urg	-2648
▁costa	-2649
▁198	-2650
tation	-2651
▁madrid	-2652
▁corr	-2653
▁aire	-2654
▁muer	-2655
▁park	-2656
▁meas	-2657
ape	-2658
▁results	-2659
plement	-2660
▁introdu	-2661
▁puedes	-2662
▁word	-2663
ised	-2664
▁imagen	-2665
tives	-2666
▁ii	-2667
▁environment	-2668
▁die	-2669
▁point	-2670
▁shop	-2671
▁extre	-2672
▁key	-2673
▁palabras	-2674
▁better	-2675
▁spanish	-2676
▁event	-2677
▁conditions	-2678
ams	-2679
▁security	-2680
.9	-2681
▁stay	-2682
▁rent	-2683
alla	-2684
▁vista	-2685
▁diseño	-2686
▁seleccion	-2687
auti	-2688
▁adv	-2689
▁resultados	-2690
▁aten	-2691
acy	-2692
▁together	-2693
▁vot	-2694
▁centre	-2695
▁aeropuerto	-2696
ming	-2697
ences	-2698
▁ans	-2699
▁compañ	-2700
▁little	-2701
▁black	-2702
yer	-2703
▁understand	-2704
iate	-2705
antas	-2706
yle	-2707
▁working	-2708
ged	-2709
▁means	-2710
▁sat	-2711
▁several	-2712
ually	-2713
▁solici	-2714
▁interpre	-2715
▁brand	-2716
wh	-2717
▁history	-2718
amientos	-2719
▁mir	-2720
▁maj	-2721
▁punto	-2722
▁van	-2723
▁31	-2724
▁bat	-2725
ison	-2726
▁artículo	-2727
▁prác	-2728
▁given	-2729
▁ris	-2730
▁febr	-2731
▁account	-2732
ready	-2733
cing	-2734
ánd	-2735
ecer	-2736
▁hy	-2737
ificación	-2738
▁mundial	-2739
▁dol	-2740
▁colomb	-2741
▁advan	-2742
▁miles	-2743
▁permite	-2744
iva	-2745
▁domin	-2746
self	-2747
acionales	-2748
▁until	-2749
▁upd	-2750
▁writ	-2751
▁spain	-2752
▁space	-2753
▁recur	-2754
▁tam	-2755
▁guard	-2756
▁island	-2757
▁website	-2758
▁specific	-2759
▁political	-2760
▁presente	-2761
▁influ	-2762
▁already	-2763
▁works	-2764
▁connec	-2765
▁aloj	-2766
▁misma	-2767
▁economic	-2768
row	-2769
▁antigu	-2770
iat	-2771
ured	-2772
▁non	-2773
▁night	-2774
▁derecho	-2775
▁hemos	-2776
.000	-2777
▁keep	-2778
▁mid	-2779
▁language	-2780
icaciones	-2781
▁gard	-2782
▁exclus	-2783
▁ante	-2784
ulation	-2785
▁interest	-2786
mend	-2787
▁tag	-2788
▁marca	-2789
▁think	-2790
▁provide	-2791
▁eg	-2792
▁cultural	-2793
bel	-2794
pes	-2795
érica	-2796
▁proporcion	-2797
osing	-2798
▁decid	-2799
▁aún	-2800
▁#	-2801
▁luego	-2802
▁region	-2803
▁cul	-2804
▁lleg	-2805
▁az	-2806
omas	-2807
▁details	-2808
▁install	-2809
iday	-2810
▁certain	-2811
▁necess	-2812
▁guer	-2813
▁cambi	-2814
▁low	-2815
▁success	-2816
▁empie	-2817
▁tas	-2818
▁mig	-2819
onia	-2820
▁preg	-2821
▁lista	-2822
ners	-2823
▁austr	-2824
▁party	-2825
▁upon	-2826
▁element	-2827
▁fle	-2828
▁menu	-2829
▁course	-2830
▁concer	-2831
.6	-2832
cal	-2833
▁close	-2834
▁common	-2835
▁sor	-2836
▁lic	-2837
▁evalu	-2838
▁cantidad	-2839
▁integr	-2840
▁horas	-2841
▁dice	-2842
▁comentarios	-2843
selves	-2844
▁ado	-2845
▁cann	-2846
▁millones	-2847
▁buenos	-2848
▁hosp	-2849
▁artist	-2850
▁america	-2851
▁effect	-2852
▁german	-2853
▁resist	-2854
▁inm	-2855
▁property	-2856
▁left	-2857
▁ill	-2858
▁const	-2859
▁nun	-2860
▁idea	-2861
201	-2862
▁young	-2863
▁peace	-2864
encial	-2865
▁2007	-2866
▁create	-2867
istro	-2868
▁added	-2869
usto	-2870
▁ingl	-2871
▁cambio	-2872
▁motor	-2873
él	-2874
igos	-2875
▁hijos	-2876
lace	-2877
izado	-2878
ísticas	-2879
▁aspect	-2880
▁once	-2881
▁cod	-2882
▁camino	-2883
▁juan	-2884
genes	-2885
▁espacio	-2886
ago	-2887
▁lot	-2888
▁cole	-2889
▁incluy	-2890
▁2009	-2891
▁comunidad	-2892
▁policy	-2893
▁ber	-2894
illo	-2895
peti	-2896
▁fed	-2897
▁paci	-2898
iado	-2899
▁españa	-2900
▁llegar	-2901
cell	-2902
▁actividades	-2903
cks	-2904
▁address	-2905
▁activities	-2906
▁pregunt	-2907
▁faith	-2908
▁60	-2909
▁gir	-2910
▁reach	-2911
▁fer	-2912
▁crear	-2913
ri	-2914
▁disfrut	-2915
▁due	-2916
▁reviews	-2917
▁grande	-2918
▁blanco	-2919
▁president	-2920
▁apartment	-2921
▁bio	-2922
▁run	-2923
▁recommend	-2924
▁prices	-2925
▁beauti	-2926
úsqu	-2927
▁fur	-2928
▁arte	-2929
éf	-2930
▁trip	-2931
af	-2932
▁empresas	-2933
▁inicio	-2934
▁espíritu	-2935
▁rema	-2936
▁content	-2937
▁presidente	-2938
▁came	-2939
▁ul	-2940
▁expos	-2941
▁significa	-2942
▁dedic	-2943
▁sain	-2944
▁beautiful	-2945
▁pec	-2946
ze	-2947
▁european	-2948
▁building	-2949
▁easy	-2950
▁jap	-2951
▁sun	-2952
▁enti	-2953
▁article	-2954
▁ben	-2955
▁atención	-2956
▁tes	-2957
▁ip	-2958
▁words	-2959
cra	-2960
▁fi	-2961
zamos	-2962
▁mejores	-2963
▁escrib	-2964
▁herman	-2965
▁búsqu	-2966
▁relación	-2967
▁condu	-2968
▁esti	-2969
▁cristo	-2970
▁sis	-2971
ization	-2972
▁compon	-2973
▁establ	-2974
▁capacidad	-2975
wards	-2976
▁appear	-2977
oso	-2978
▁catal	-2979
▁side	-2980
fa	-2981
▁transform	-2982
.7	-2983
by	-2984
▁hora	-2985
▁fuera	-2986
tional	-2987
mon	-2988
▁areas	-2989
▁adap	-2990
amer	-2991
▁acción	-2992
▁jer	-2993
▁hombres	-2994
▁oportun	-2995
▁north	-2996
▁ví	-2997
▁cooper	-2998
▁dia	-2999
▁confir	-3000
▁sym	-3001
val	-3002
▁dici	-3003
▁espec	-3004
▁interior	-3005
▁signific	-3006
▁afr	-3007
▁problemas	-3008
gress	-3009
▁town	-3010
ertas	-3011
▁correct	-3012
▁mm	-3013
▁sec	-3014
forma	-3015
▁tér	-3016
▁table	-3017
▁financi	-3018
▁death	-3019
▁varios	-3020
▁recomend	-3021
▁sociedad	-3022
▁conectar	-3023
▁cover	-3024
▁raz	-3025
▁ep	-3026
▁standard	-3027
▁miembros	-3028
▁beh	-3029
ints	-3030
tamente	-3031
▁humanos	-3032
▁bor	-3033
▁text	-3034
▁might	-3035
ological	-3036
▁transfer	-3037
▁norte	-3038
▁repro	-3039
▁item	-3040
▁campo	-3041
▁dich	-3042
.00	-3043
▁speak	-3044
▁provin	-3045
adamente	-3046
cional	-3047
▁dirección	-3048
iera	-3049
iana	-3050
▁somet	-3051
▁podría	-3052
▁indic	-3053
ament	-3054
▁music	-3055
▁comen	-3056
▁future	-3057
▁tenemos	-3058
▁der	-3059
▁therefore	-3060
▁manif	-3061
inación	-3062
cular	-3063
▁rey	-3064
▁innov	-3065
▁crea	-3066
▁temper	-3067
▁oblig	-3068
▁terms	-3069
▁nunca	-3070
▁too	-3071
▁image	-3072
▁nave	-3073
bro	-3074
▁crim	-3075
▁disponible	-3076
aces	-3077
▁dav	-3078
ler	-3079
ators	-3080
▁teléf	-3081
▁dedicated	-3082
ít	-3083
▁associ	-3084
▁society	-3085
▁discus	-3086
tado	-3087
▁energy	-3088
ling	-3089
respon	-3090
pal	-3091
▁eur	-3092
▁conex	-3093
erci	-3094
▁jug	-3095
▁choosing	-3096
▁mur	-3097
▁largo	-3098
▁pack	-3099
▁something	-3100
▁cm	-3101
▁podemos	-3102
estión	-3103
eth	-3104
▁mercado	-3105
▁john	-3106
▁paz	-3107
▁bur	-3108
▁going	-3109
▁junto	-3110
▁sour	-3111
▁bathroom	-3112
▁aseg	-3113
▁aj	-3114
▁accommod	-3115
▁noche	-3116
▁guerra	-3117
▁known	-3118
▁problema	-3119
▁bon	-3120
▁ship	-3121
▁week	-3122
▁semana	-3123
icional	-3124
áne	-3125
del	-3126
▁meses	-3127
▁hear	-3128
▁búsqueda	-3129
▁contem	-3130
▁situación	-3131
▁third	-3132
▁celebr	-3133
▁character	-3134
▁hal	-3135
▁alto	-3136
▁size	-3137
▁team	-3138
▁ayudar	-3139
▁compu	-3140
▁events	-3141
▁current	-3142
unda	-3143
ledge	-3144
▁crisis	-3145
ley	-3146
undo	-3147
timo	-3148
ende	-3149
▁estudi	-3150
▁later	-3151
▁habitación	-3152
iores	-3153
▁tro	-3154
ota	-3155
ids	-3156
▁having	-3157
▁date	-3158
▁tit	-3159
▁virt	-3160
▁abo	-3161
▁impact	-3162
abilidad	-3163
▁haber	-3164
▁bi	-3165
uto	-3166
izo	-3167
▁heav	-3168
▁artículos	-3169
▁electrón	-3170
▁major	-3171
zz	-3172
ograph	-3173
▁tradition	-3174
uble	-3175
▁hospital	-3176
▁minutes	-3177
▁flu	-3178
▁197	-3179
▁idi	-3180
ump	-3181
▁esfor	-3182
▁permiti	-3183
,5	-3184
▁action	-3185
▁siguiente	-3186
▁europa	-3187
▁fall	-3188
lic	-3189
▁dorm	-3190
▁mús	-3191
▁experim	-3192
iere	-3193
▁cand	-3194
▁nada	-3195
▁q	-3196
▁quer	-3197
▁info	-3198
▁sesión	-3199
ival	-3200
▁digital	-3201
arious	-3202
▁bud	-3203
▁subs	-3204
ka	-3205
▁industrial	-3206
.8	-3207
▁mayoría	-3208
▁select	-3209
60	-3210
▁arqu	-3211
ief	-3212
▁nar	-3213
▁lond	-3214
▁university	-3215
▁mean	-3216
▁whole	-3217
rar	-3218
▁conj	-3219
▁imá	-3220
▁club	-3221
nos	-3222
ran	-3223
▁deben	-3224
▁needs	-3225
▁companies	-3226
oles	-3227
rome	-3228
▁cuatro	-3229
▁education	-3230
▁relations	-3231
mit	-3232
▁link	-3233
ee	-3234
▁negocio	-3235
hod	-3236
▁tab	-3237
-0	-3238
▁pati	-3239
▁superior	-3240
▁describ	-3241
gon	-3242
▁revolution	-3243
▁alred	-3244
▁vene	-3245
▁estrel	-3246
▁excel	-3247
▁nuevos	-3248
▁fra	-3249
▁usar	-3250
▁tell	-3251
▁producción	-3252
ham	-3253
▁yet	-3254
íos	-3255
▁strive	-3256
▁noticias	-3257
▁enc	-3258
▁incor	-3259
▁añadir	-3260
▁fore	-3261
▁nature	-3262
▁pict	-3263
▁mostrar	-3264
▁abier	-3265
▁radio	-3266
ática	-3267
▁calif	-3268
▁cro	-3269
▁months	-3270
▁estate	-3271
▁won	-3272
▁estilo	-3273
play	-3274
▁inglés	-3275
▁hon	-3276
▁mano	-3277
ellos	-3278
fil	-3279
▁trib	-3280
▁question	-3281
▁playa	-3282
trum	-3283
▁correspon	-3284
▁pró	-3285
▁sir	-3286
▁lado	-3287
▁dirig	-3288
entemente	-3289
▁vien	-3290
▁modo	-3291
▁inj	-3292
▁stor	-3293
▁evid	-3294
▁holy	-3295
▁pasado	-3296
▁cocina	-3297
▁representa	-3298
▁fes	-3299
ances	-3300
▁chile	-3301
ibl	-3302
▁sem	-3303
▁impl	-3304
anza	-3305
▁atta	-3306
▁study	-3307
▁suf	-3308
▁ense	-3309
▁christi	-3310
▁estudio	-3311
uch	-3312
▁convers	-3313
▁sale	-3314
▁temperat	-3315
▁phys	-3316
▁road	-3317
▁street	-3318
▁baño	-3319
▁flow	-3320
▁short	-3321
▁management	-3322
▁corpor	-3323
▁wel	-3324
▁consul	-3325
▁na	-3326
▁architect	-3327
▁aplicación	-3328
▁imágenes	-3329
▁palabra	-3330
▁empiece	-3331
▁tomar	-3332
▁35	-3333
▁minister	-3334
▁ic	-3335
▁march	-3336
▁various	-3337
▁repu	-3338
▁500	-3339
▁términ	-3340
▁excep	-3341
▁bring	-3342
ift	-3343
▁bank	-3344
oke	-3345
▁making	-3346
▁aver	-3347
ufact	-3348
▁californ	-3349
▁wall	-3350
▁cuba	-3351
▁imper	-3352
des	-3353
zado	-3354
urales	-3355
▁enfermed	-3356
▁often	-3357
▁resour	-3358
▁investigación	-3359
▁necessary	-3360
▁ach	-3361
▁venta	-3362
▁facebook	-3363
▁ran	-3364
ramient	-3365
▁tratamiento	-3366
▁instrum	-3367
▁esforzamos	-3368
▁problem	-3369
▁exhib	-3370
▁include	-3371
▁shar	-3372
▁alg	-3373
wor	-3374
ux	-3375
▁money	-3376
fica	-3377
▁nuevas	-3378
▁mand	-3379
▁desp	-3380
▁fres	-3381
▁fire	-3382
▁rest	-3383
igur	-3384
▁manufact	-3385
▁alterna	-3386
oria	-3387
▁satis	-3388
▁vel	-3389
tran	-3390
ilt	-3391
▁above	-3392
▁limit	-3393
▁imm	-3394
▁normal	-3395
▁elimin	-3396
▁qued	-3397
▁mediante	-3398
▁previous	-3399
30	-3400
éis	-3401
ajes	-3402
▁aires	-3403
uv	-3404
▁desarroll	-3405
▁prove	-3406
▁colombia	-3407
▁jard	-3408
▁34	-3409
enda	-3410
▁features	-3411
▁knowledge	-3412
▁braz	-3413
▁discover	-3414
▁california	-3415
▁vin	-3416
ned	-3417
▁brind	-3418
▁herramient	-3419
▁pobl	-3420
uno	-3421
▁office	-3422
▁buena	-3423
▁consult	-3424
▁buscar	-3425
▁emerg	-3426
▁initi	-3427
▁arquitect	-3428
▁pi	-3429
▁cannot	-3430
ding	-3431
▁mexico	-3432
▁clean	-3433
▁further	-3434
ls	-3435
▁frecu	-3436
▁style	-3437
▁photos	-3438
▁desc	-3439
▁región	-3440
ífic	-3441
▁production	-3442
▁emo	-3443
▁att	-3444
▁bibl	-3445
▁francis	-3446
onom	-3447
isis	-3448
▁thous	-3449
▁front	-3450
▁range	-3451
▁casi	-3452
▁clos	-3453
▁wa	-3454
▁tempor	-3455
uts	-3456
▁libro	-3457
▁2008	-3458
▁quick	-3459
fied	-3460
▁really	-3461
▁comprar	-3462
▁regard	-3463
▁muerte	-3464
▁blood	-3465
ático	-3466
▁document	-3467
▁along	-3468
▁universidad	-3469
▁network	-3470
▁sport	-3471
▁siglo	-3472
ither	-3473
▁partes	-3474
▁invest	-3475
▁meeting	-3476
▁david	-3477
▁sant	-3478
▁pant	-3479
▁says	-3480
▁secret	-3481
ala	-3482
▁done	-3483
▁salvador	-3484
▁moder	-3485
▁hours	-3486
eron	-3487
▁wi	-3488
▁jeho	-3489
▁aumentar	-3490
▁muestra	-3491
uda	-3492
uses	-3493
▁true	-3494
▁perd	-3495
▁saint	-3496
gs	-3497
ola	-3498
alia	-3499
▁igual	-3500
▁strong	-3501
▁recogn	-3502
ól	-3503
▁everything	-3504
▁continue	-3505
▁fabric	-3506
▁utilizar	-3507
▁munici	-3508
▁scre	-3509
▁mont	-3510
▁estruct	-3511
▁kil	-3512
▁ann	-3513
▁reserva	-3514
▁buy	-3515
▁jos	-3516
▁created	-3517
▁liber	-3518
▁disponibles	-3519
tiene	-3520
▁million	-3521
▁viaje	-3522
▁customer	-3523
▁providing	-3524
deliver	-3525
▁archivos	-3526
▁situado	-3527
tera	-3528
▁green	-3529
énd	-3530
▁dej	-3531
▁pues	-3532
▁diseñ	-3533
▁habl	-3534
▁coche	-3535
▁technology	-3536
▁treatment	-3537
▁description	-3538
▁self	-3539
▁thus	-3540
▁construcción	-3541
delivered	-3542
▁debido	-3543
▁choose	-3544
ville	-3545
▁message	-3546
▁conexión	-3547
ím	-3548
ou	-3549
rio	-3550
▁decis	-3551
▁ries	-3552
▁doctor	-3553
▁usa	-3554
▁contenido	-3555
▁struct	-3556
▁cy	-3557
▁objetivo	-3558
▁century	-3559
▁engine	-3560
▁mó	-3561
▁realidad	-3562
▁portug	-3563
▁32	-3564
▁eti	-3565
▁value	-3566
▁accid	-3567
itter	-3568
▁pc	-3569
▁cumpl	-3570
▁receive	-3571
▁leer	-3572
▁edif	-3573
▁bedroom	-3574
▁seem	-3575
▁analys	-3576
▁destru	-3577
▁detalles	-3578
▁invol	-3579
imo	-3580
▁express	-3581
▁implement	-3582
▁jan	-3583
▁respuesta	-3584
▁agu	-3585
▁len	-3586
▁concep	-3587
▁opportun	-3588
▁fren	-3589
▁master	-3590
iter	-3591
▁fecha	-3592
▁took	-3593
word	-3594
▁ecu	-3595
view	-3596
álisis	-3597
▁wood	-3598
▁museum	-3599
▁magn	-3600
▁pool	-3601
ística	-3602
▁france	-3603
▁necesario	-3604
▁origin	-3605
▁bir	-3606
fy	-3607
▁libert	-3608
▁sure	-3609
▁strateg	-3610
▁paris	-3611
▁cross	-3612
▁organización	-3613
▁especially	-3614
▁logr	-3615
ications	-3616
▁age	-3617
▁sav	-3618
▁80	-3619
▁watch	-3620
▁led	-3621
▁todav	-3622
▁diffic	-3623
▁ideas	-3624
▁guar	-3625
▁double	-3626
▁students	-3627
▁method	-3628
▁emplo	-3629
dic	-3630
90	-3631
ening	-3632
▁condition	-3633
▁principales	-3634
▁fish	-3635
ught	-3636
▁visual	-3637
ció	-3638
▁dam	-3639
▁competi	-3640
▁temp	-3641
▁alojamiento	-3642
▁sug	-3643
▁acad	-3644
amental	-3645
▁application	-3646
tido	-3647
ended	-3648
▁energía	-3649
▁papel	-3650
logo	-3651
▁ago	-3652
▁friend	-3653
▁busc	-3654
itorio	-3655
▁ren	-3656
ns	-3657
▁usuarios	-3658
▁micro	-3659
▁mol	-3660
▁pros	-3661
ush	-3662
▁sistem	-3663
ately	-3664
▁tran	-3665
▁volunt	-3666
▁ros	-3667
pir	-3668
▁apartamento	-3669
▁cliente	-3670
▁single	-3671
ordin	-3672
▁dete	-3673
▁mensaje	-3674
ney	-3675
▁limp	-3676
▁todavía	-3677
ony	-3678
▁necesit	-3679
▁moun	-3680
▁kind	-3681
▁hid	-3682
▁reino	-3683
▁walk	-3684
▁prue	-3685
▁proces	-3686
▁tamaño	-3687
aja	-3688
▁grupos	-3689
▁problems	-3690
▁dim	-3691
▁recursos	-3692
▁taken	-3693
▁lev	-3694
▁descripción	-3695
▁mission	-3696
▁cristi	-3697
▁saber	-3698
▁systems	-3699
▁instru	-3700
▁eu	-3701
tan	-3702
▁proyectos	-3703
▁holiday	-3704
▁festiv	-3705
▁position	-3706
arán	-3707
uls	-3708
▁reason	-3709
▁dece	-3710
itive	-3711
▁trade	-3712
▁prior	-3713
ened	-3714
▁mind	-3715
▁phil	-3716
▁familiar	-3717
▁login	-3718
años	-3719
▁apoyo	-3720
ira	-3721
cript	-3722
isto	-3723
▁member	-3724
mobil	-3725
▁certific	-3726
▁adver	-3727
▁conte	-3728
ctive	-3729
▁recibir	-3730
▁amarillas	-3731
▁audio	-3732
▁function	-3733
ema	-3734
▁subject	-3735
▁friends	-3736
ximo	-3737
▁empe	-3738
▁actualiz	-3739
▁usuario	-3740
li	-3741
▁integra	-3742
▁sociales	-3743
▁modelo	-3744
▁request	-3745
chas	-3746
▁desta	-3747
▁teléfono	-3748
▁fac	-3749
▁transport	-3750
▁orient	-3751
▁aug	-3752
pan	-3753
▁station	-3754
▁looking	-3755
▁conci	-3756
uring	-3757
tage	-3758
▁casos	-3759
ether	-3760
▁avan	-3761
▁association	-3762
▁viaj	-3763
▁precis	-3764
gest	-3765
▁siendo	-3766
▁últimos	-3767
▁decor	-3768
itud	-3769
▁note	-3770
▁especialmente	-3771
▁invers	-3772
iencia	-3773
▁estr	-3774
bile	-3775
▁frente	-3776
▁saf	-3777
▁mí	-3778
▁ningún	-3779
▁ata	-3780
▁anterior	-3781
enas	-3782
▁edad	-3783
▁oil	-3784
▁series	-3785
▁comes	-3786
▁term	-3787
▁seguir	-3788
▁exact	-3789
▁volver	-3790
▁movimiento	-3791
▁places	-3792
▁prefer	-3793
▁análisis	-3794
yn	-3795
▁ases	-3796
▁sho	-3797
▁stop	-3798
usta	-3799
▁user	-3800
▁obra	-3801
▁regular	-3802
ected	-3803
ume	-3804
▁reprodu	-3805
▁hizo	-3806
▁amo	-3807
▁answer	-3808
▁educación	-3809
ulos	-3810
▁five	-3811
▁amigos	-3812
▁conserv	-3813
cta	-3814
estro	-3815
▁adecu	-3816
▁público	-3817
▁ello	-3818
▁paso	-3819
▁partir	-3820
▁méxico	-3821
▁2019	-3822
▁naturaleza	-3823
▁workers	-3824
▁américa	-3825
▁alrededor	-3826
▁naci	-3827
▁manten	-3828
▁ess	-3829
tention	-3830
isl	-3831
▁squ	-3832
▁aquellos	-3833
▁groups	-3834
▁naveg	-3835
ari	-3836
tura	-3837
▁comments	-3838
▁dinero	-3839
▁formas	-3840
▁yes	-3841
▁coll	-3842
▁sell	-3843
▁relacionados	-3844
▁plata	-3845
onio	-3846
▁serie	-3847
▁resultado	-3848
▁elev	-3849
▁bab	-3850
▁whether	-3851
▁pil	-3852
acción	-3853
▁cruz	-3854
▁chall	-3855
▁try	-3856
ajo	-3857
▁programas	-3858
▁fru	-3859
▁truth	-3860
▁unto	-3861
▁clic	-3862
▁version	-3863
icamente	-3864
▁regional	-3865
▁enseñ	-3866
▁puntos	-3867
▁bras	-3868
ograf	-3869
▁explor	-3870
▁strength	-3871
ring	-3872
though	-3873
▁ofic	-3874
▁abrir	-3875
▁resolu	-3876
▁makes	-3877
▁taking	-3878
▁primero	-3879
▁require	-3880
▁sed	-3881
roid	-3882
▁fuerza	-3883
▁dic	-3884
▁professional	-3885
side	-3886
▁copy	-3887
▁machine	-3888
▁resources	-3889
▁90	-3890
▁cred	-3891
▁alcan	-3892
▁medios	-3893
▁west	-3894
▁propos	-3895
▁analysis	-3896
▁éx	-3897
▁pun	-3898
ported	-3899
▁garanti	-3900
▁reno	-3901
▁transporte	-3902
▁although	-3903
ima	-3904
▁monta	-3905
lin	-3906
▁medit	-3907
ítulo	-3908
▁identific	-3909
▁error	-3910
▁cart	-3911
▁evang	-3912
tity	-3913
▁mobile	-3914
ann	-3915
▁excell	-3916
▁files	-3917
puesto	-3918
▁cinco	-3919
itary	-3920
▁went	-3921
▁prueba	-3922
▁neg	-3923
▁role	-3924
▁field	-3925
▁points	-3926
ais	-3927
▁compartir	-3928
▁gall	-3929
▁mich	-3930
lam	-3931
▁projects	-3932
▁provided	-3933
ified	-3934
▁entrada	-3935
▁última	-3936
▁clase	-3937
▁propiedad	-3938
▁photo	-3939
▁availability	-3940
▁santo	-3941
▁latin	-3942
▁configur	-3943
▁és	-3944
▁trata	-3945
▁kitch	-3946
illed	-3947
▁aleman	-3948
tember	-3949
▁brindar	-3950
▁realizar	-3951
▁quiere	-3952
ober	-3953
▁chap	-3954
ah	-3955
▁allí	-3956
zos	-3957
▁spiritual	-3958
▁futuro	-3959
▁images	-3960
▁45	-3961
▁importantes	-3962
▁situation	-3963
▁utiliza	-3964
▁apost	-3965
▁users	-3966
▁regul	-3967
ises	-3968
▁fuerte	-3969
▁música	-3970
▁cell	-3971
▁sexual	-3972
▁eventos	-3973
ecta	-3974
▁rich	-3975
▁lugares	-3976
▁store	-3977
enes	-3978
▁believe	-3979
uty	-3980
▁pregun	-3981
venes	-3982
▁ninguna	-3983
▁fem	-3984
▁propio	-3985
▁mel	-3986
▁alber	-3987
▁medical	-3988
iso	-3989
uela	-3990
▁tecnología	-3991
ills	-3992
▁ambiente	-3993
▁questions	-3994
▁fís	-3995
▁soy	-3996
▁metros	-3997
▁televis	-3998
▁host	-3999
▁focus	-4000
▁industry	-4001
eta	-4002
▁cód	-4003
▁cel	-4004
▁included	-4005
▁histór	-4006
▁sistemas	-4007
▁sound	-4008
▁venez	-4009
▁published	-4010
arias	-4011
▁seguro	-4012
▁construction	-4013
▁necesita	-4014
icidad	-4015
▁accommodation	-4016
▁escuchar	-4017
▁thin	-4018
▁transm	-4019
▁rod	-4020
▁fit	-4021
▁fuente	-4022
ubre	-4023
▁vig	-4024
▁70	-4025
▁moment	-4026
▁apartments	-4027
▁phone	-4028
▁october	-4029
40	-4030
▁farm	-4031
▁sue	-4032
▁cases	-4033
tiembre	-4034
▁esf	-4035
▁syn	-4036
▁jó	-4037
▁display	-4038
▁demand	-4039
▁33	-4040
▁protección	-4041
ctores	-4042
istic	-4043
▁videos	-4044
rado	-4045
▁libertad	-4046
▁garden	-4047
▁acces	-4048
zó	-4049
▁correo	-4050
▁agric	-4051
▁built	-4052
▁september	-4053
▁disponibilidad	-4054
▁clo	-4055
irs	-4056
anto	-4057
▁training	-4058
▁held	-4059
▁comien	-4060
▁themselves	-4061
imientos	-4062
▁tema	-4063
▁urban	-4064
▁facilities	-4065
onas	-4066
▁itself	-4067
▁oh	-4068
eness	-4069
▁mother	-4070
▁difí	-4071
▁compos	-4072
▁varias	-4073
▁ara	-4074
▁revel	-4075
▁ther	-4076
▁brazil	-4077
▁allows	-4078
▁doing	-4079
▁--	-4080
▁asegur	-4081
▁generar	-4082
▁jóvenes	-4083
▁hostels	-4084
▁nove	-4085
▁incluye	-4086
tice	-4087
▁equipment	-4088
▁tranquil	-4089
▁french	-4090
▁octubre	-4091
▁lux	-4092
▁box	-4093
▁union	-4094
▁obras	-4095
▁acep	-4096
▁invit	-4097
▁versión	-4098
estion	-4099
▁bul	-4100
▁council	-4101
▁least	-4102
hat	-4103
▁solid	-4104
▁tenía	-4105
culo	-4106
▁disfrutar	-4107
▁guarante	-4108
▁collection	-4109
▁automa	-4110
▁agricult	-4111
▁ocup	-4112
▁kitchen	-4113
▁received	-4114
▁candid	-4115
▁mejorar	-4116
▁cause	-4117
▁único	-4118
▁comercial	-4119
acidad	-4120
▁sam	-4121
▁cad	-4122
▁propia	-4123
▁cambiar	-4124
▁estoy	-4125
▁impos	-4126
▁vehícul	-4127
ically	-4128
ising	-4129
tivamente	-4130
▁protection	-4131
ule	-4132
80	-4133
▁himself	-4134
onic	-4135
▁enem	-4136
▁designed	-4137
atory	-4138
▁2006	-4139
▁vend	-4140
▁dial	-4141
▁surf	-4142
ars	-4143
▁wish	-4144
▁concent	-4145
bit	-4146
▁ustedes	-4147
▁sand	-4148
▁somos	-4149
▁expla	-4150
▁app	-4151
▁rul	-4152
▁sombr	-4153
▁colabor	-4154
▁ham	-4155
▁russ	-4156
▁booking	-4157
▁fundamental	-4158
▁culture	-4159
▁republ	-4160
iving	-4161
▁partners	-4162
▁mountain	-4163
▁source	-4164
▁evolu	-4165
▁perfec	-4166
▁segundo	-4167
▁cuar	-4168
▁registr	-4169
▁below	-4170
▁opiniones	-4171
usal	-4172
▁seen	-4173
▁respond	-4174
▁kr	-4175
ecen	-4176
▁vistas	-4177
▁julio	-4178
ár	-4179
ensión	-4180
▁septiembre	-4181
tiles	-4182
▁cuales	-4183
▁evangel	-4184
▁register	-4185
▁ganar	-4186
▁november	-4187
▁generate	-4188
▁estudios	-4189
12	-4190
▁average	-4191
▁required	-4192
▁difficult	-4193
▁madre	-4194
onos	-4195
ivo	-4196
▁características	-4197
ision	-4198
▁aquel	-4199
▁remem	-4200
▁cabo	-4201
▁movement	-4202
▁intens	-4203
▁december	-4204
▁tradu	-4205
▁commission	-4206
▁solicit	-4207
▁cuad	-4208
▁hall	-4209
▁opción	-4210
▁daily	-4211
▁six	-4212
gel	-4213
cin	-4214
▁thanks	-4215
itivo	-4216
▁superfici	-4217
▁played	-4218
▁comment	-4219
▁decision	-4220
icana	-4221
▁fully	-4222
▁stock	-4223
▁entire	-4224
▁latest	-4225
cla	-4226
▁plaza	-4227
▁drive	-4228
▁mys	-4229
▁ofrecer	-4230
▁cut	-4231
▁novi	-4232
▁kingdom	-4233
▁sold	-4234
▁washing	-4235
▁máqu	-4236
gado	-4237
▁escuela	-4238
▁esfuer	-4239
▁estudiantes	-4240
▁doble	-4241
▁jur	-4242
▁cultura	-4243
▁sentido	-4244
▁ing	-4245
▁lives	-4246
▁mart	-4247
mediate	-4248
-201	-4249
▁effec	-4250
▁pri	-4251
▁calle	-4252
ably	-4253
▁realmente	-4254
▁ram	-4255
▁terror	-4256
▁sacr	-4257
▁adj	-4258
▁amaz	-4259
▁ocur	-4260
▁cath	-4261
▁cheap	-4262
▁bos	-4263
▁lav	-4264
icado	-4265
▁descubr	-4266
hood	-4267
ianza	-4268
▁quién	-4269
anas	-4270
▁auto	-4271
▁partido	-4272
▁parque	-4273
son	-4274
▁segunda	-4275
▁ecuador	-4276
▁cha	-4277
▁asia	-4278
▁risk	-4279
tric	-4280
aría	-4281
▁pint	-4282
▁bill	-4283
▁señal	-4284
▁siguientes	-4285
▁alguna	-4286
aco	-4287
chan	-4288
▁comunicación	-4289
▁paul	-4290
▁cuán	-4291
▁tick	-4292
▁recuper	-4293
▁leaders	-4294
▁01	-4295
▁añadido	-4296
oto	-4297
lect	-4298
▁band	-4299
▁último	-4300
▁éxito	-4301
▁pregunta	-4302
▁traditional	-4303
▁permit	-4304
wa	-4305
▁dio	-4306
▁ec	-4307
▁technical	-4308
iger	-4309
▁cambios	-4310
▁financial	-4311
ford	-4312
▁medida	-4313
men	-4314
▁completo	-4315
▁reform	-4316
▁democra	-4317
adoras	-4318
ients	-4319
fully	-4320
▁twitter	-4321
▁alum	-4322
▁contempor	-4323
▁diagn	-4324
▁practic	-4325
▁hope	-4326
▁méto	-4327
éd	-4328
▁dado	-4329
▁drug	-4330
▁noviembre	-4331
▁lad	-4332
unch	-4333
▁italia	-4334
▁actividad	-4335
▁vehic	-4336
▁pron	-4337
álogo	-4338
▁changes	-4339
▁enco	-4340
▁enviar	-4341
íp	-4342
▁views	-4343
▁museo	-4344
▁leave	-4345
▁panel	-4346
greso	-4347
▁haga	-4348
▁customers	-4349
▁preven	-4350
▁grad	-4351
▁june	-4352
▁path	-4353
▁provides	-4354
▁india	-4355
▁unique	-4356
▁cra	-4357
-3	-4358
▁compra	-4359
org	-4360
▁olv	-4361
▁minim	-4362
▁flex	-4363
▁consejo	-4364
▁deep	-4365
▁sala	-4366
▁almac	-4367
▁planta	-4368
▁inmed	-4369
hes	-4370
▁mantener	-4371
▁informe	-4372
▁board	-4373
▁común	-4374
etro	-4375
▁floor	-4376
▁fon	-4377
▁francia	-4378
▁guest	-4379
▁step	-4380
▁oportunidad	-4381
iritual	-4382
▁parts	-4383
▁respecto	-4384
ania	-4385
▁pantalla	-4386
▁italiano	-4387
▁thing	-4388
▁haya	-4389
▁rock	-4390
▁firm	-4391
▁restaurant	-4392
▁hermos	-4393
ime	-4394
▁almost	-4395
▁eran	-4396
▁beb	-4397
▁story	-4398
▁ground	-4399
▁miss	-4400
▁vu	-4401
▁early	-4402
tero	-4403
▁purch	-4404
mark	-4405
▁code	-4406
▁conocer	-4407
▁disp	-4408
▁guide	-4409
ulas	-4410
▁includes	-4411
▁items	-4412
▁infec	-4413
▁aprender	-4414
▁articles	-4415
▁francisco	-4416
ips	-4417
▁militar	-4418
▁mayo	-4419
▁sufr	-4420
▁pueda	-4421
▁organization	-4422
▁christian	-4423
▁tercer	-4424
▁plat	-4425
▁july	-4426
▁espiritual	-4427
▁conocimiento	-4428
▁electrónico	-4429
▁recep	-4430
▁36	-4431
▁agreement	-4432
▁nothing	-4433
▁riesgo	-4434
▁trabajadores	-4435
▁iz	-4436
▁metal	-4437
tery	-4438
▁rob	-4439
uge	-4440
▁población	-4441
▁ofertas	-4442
▁italy	-4443
▁stat	-4444
▁freed	-4445
puestos	-4446
timas	-4447
▁computer	-4448
▁reconoci	-4449
▁josé	-4450
▁optim	-4451
cía	-4452
▁relationship	-4453
▁fla	-4454
▁execu	-4455
▁jerusal	-4456
▁visita	-4457
▁buf	-4458
▁performance	-4459
▁parties	-4460
▁maxim	-4461
▁diciembre	-4462
▁parece	-4463
▁posición	-4464
▁trabajar	-4465
▁án	-4466
▁journ	-4467
▁extrem	-4468
bern	-4469
▁tú	-4470
▁fas	-4471
▁nad	-4472
tively	-4473
▁convertir	-4474
▁ira	-4475
yes	-4476
▁llevar	-4477
▁golf	-4478
▁piscina	-4479
ternal	-4480
cles	-4481
▁android	-4482
▁términos	-4483
▁consecu	-4484
este	-4485
ablemente	-4486
▁unas	-4487
▁foreign	-4488
99	-4489
ini	-4490
▁suffer	-4491
▁directly	-4492
▁interés	-4493
▁sess	-4494
▁preguntas	-4495
▁tipos	-4496
▁bil	-4497
ceder	-4498
▁activity	-4499
▁busca	-4500
▁ó	-4501
▁vit	-4502
▁thought	-4503
▁necesidad	-4504
alo	-4505
▁vos	-4506
culos	-4507
▁micros	-4508
▁estad	-4509
uebl	-4510
▁2005	-4511
▁remember	-4512
▁médico	-4513
▁etiqu	-4514
▁víde	-4515
▁dre	-4516
ablo	-4517
▁1,	-4518
ea	-4519
▁asist	-4520
ifi	-4521
▁respec	-4522
mb	-4523
time	-4524
▁necesidades	-4525
▁additional	-4526
pose	-4527
▁bás	-4528
▁vivir	-4529
▁sev	-4530
▁australia	-4531
▁beginning	-4532
arnos	-4533
▁móvil	-4534
▁internacionales	-4535
▁directamente	-4536
▁aim	-4537
aña	-4538
han	-4539
▁interven	-4540
aps	-4541
▁command	-4542
▁january	-4543
cidos	-4544
▁festival	-4545
▁smart	-4546
▁alb	-4547
▁código	-4548
▁presencia	-4549
▁visto	-4550
▁court	-4551
▁fight	-4552
▁ace	-4553
▁analy	-4554
▁surround	-4555
▁produce	-4556
ering	-4557
▁efecto	-4558
dle	-4559
▁woman	-4560
▁associa	-4561
▁atr	-4562
▁efectos	-4563
▁registro	-4564
▁deal	-4565
▁east	-4566
▁scienti	-4567
ude	-4568
▁disc	-4569
puestas	-4570
ories	-4571
▁throughout	-4572
▁rate	-4573
▁police	-4574
▁tags	-4575
▁junio	-4576
▁líder	-4577
▁inmobil	-4578
▁falta	-4579
▁quienes	-4580
▁gold	-4581
▁solamente	-4582
▁tales	-4583
▁developed	-4584
▁assist	-4585
▁blue	-4586
▁pequeño	-4587
iba	-4588
▁196	-4589
rought	-4590
▁asked	-4591
▁puzz	-4592
▁ign	-4593
▁apartamentos	-4594
▁afect	-4595
enos	-4596
▁suite	-4597
iosos	-4598
▁enero	-4599
▁adop	-4600
▁tienda	-4601
▁niño	-4602
▁colum	-4603
▁incorpor	-4604
▁causa	-4605
cons	-4606
phone	-4607
▁cable	-4608
▁crecimiento	-4609
▁nega	-4610
▁vas	-4611
change	-4612
▁written	-4613
▁vie	-4614
ugg	-4615
▁materiales	-4616
▁cient	-4617
▁mec	-4618
▁medidas	-4619
▁fail	-4620
▁privado	-4621
▁justicia	-4622
▁guía	-4623
ég	-4624
▁nutr	-4625
▁afir	-4626
▁casas	-4627
umen	-4628
▁takes	-4629
iner	-4630
▁clave	-4631
▁conform	-4632
▁río	-4633
▁firms	-4634
▁editor	-4635
orr	-4636
▁sost	-4637
▁visibilidad	-4638
▁industria	-4639
▁military	-4640
▁ox	-4641
▁mex	-4642
▁flights	-4643
iles	-4644
▁universal	-4645
▁madera	-4646
▁half	-4647
amo	-4648
teriores	-4649
tiz	-4650
▁told	-4651
▁visibility	-4652
▁texto	-4653
▁film	-4654
ria	-4655
▁victor	-4656
▁ejerci	-4657
ocup	-4658
▁ga	-4659
▁podrá	-4660
▁parking	-4661
áb	-4662
▁existe	-4663
▁materials	-4664
utes	-4665
▁protect	-4666
▁freedom	-4667
▁boliv	-4668
▁plas	-4669
▁ciudades	-4670
▁creación	-4671
▁safety	-4672
▁satisf	-4673
iro	-4674
▁pier	-4675
▁welcome	-4676
▁thre	-4677
▁vuelos	-4678
▁atra	-4679
burg	-4680
ops	-4681
▁shows	-4682
▁dedicados	-4683
▁lucha	-4684
▁river	-4685
▁africa	-4686
izada	-4687
ented	-4688
▁sn	-4689
▁colo	-4690
▁ocas	-4691
▁immediate	-4692
▁completa	-4693
▁object	-4694
▁towards	-4695
olo	-4696
▁conference	-4697
▁journal	-4698
vá	-4699
ífico	-4700
▁sud	-4701
▁practice	-4702
▁february	-4703
▁august	-4704
▁perspec	-4705
▁suppl	-4706
▁fast	-4707
▁esté	-4708
▁reac	-4709
iedades	-4710
▁inicia	-4711
▁actualmente	-4712
▁calend	-4713
▁foto	-4714
▁approach	-4715
edores	-4716
▁jav	-4717
ih	-4718
▁stra	-4719
asing	-4720
ificar	-4721
▁staff	-4722
cados	-4723
▁hond	-4724
▁ways	-4725
▁bag	-4726
▁types	-4727
▁academ	-4728
▁pin	-4729
▁safe	-4730
▁liter	-4731
▁algún	-4732
úl	-4733
▁sigue	-4734
▁cancer	-4735
▁force	-4736
▁hot	-4737
ticamente	-4738
▁fis	-4739
▁principio	-4740
tically	-4741
▁vino	-4742
▁profesional	-4743
itorios	-4744
▁foot	-4745
▁levels	-4746
▁commer	-4747
▁physical	-4748
▁dark	-4749
▁coming	-4750
ancias	-4751
▁growth	-4752
▁plant	-4753
mientos	-4754
aves	-4755
▁restaurante	-4756
itable	-4757
▁solución	-4758
▁aprend	-4759
▁tarde	-4760
▁habían	-4761
▁sufici	-4762
▁whose	-4763
▁peso	-4764
▁issues	-4765
▁privacy	-4766
▁mostr	-4767
▁sombrero	-4768
▁isla	-4769
idor	-4770
▁lis	-4771
▁tall	-4772
▁hands	-4773
▁ejecu	-4774
▁consegu	-4775
▁febrero	-4776
yal	-4777
▁enfr	-4778
erta	-4779
▁section	-4780
▁properties	-4781
▁2004	-4782
▁lengu	-4783
▁2000	-4784
▁dro	-4785
▁update	-4786
▁excellent	-4787
▁save	-4788
▁april	-4789
▁estrellas	-4790
▁serán	-4791
▁relaciones	-4792
▁totalmente	-4793
▁options	-4794
irti	-4795
▁matter	-4796
▁amen	-4797
▁fron	-4798
▁piel	-4799
▁relev	-4800
▁cri	-4801
▁simplemente	-4802
▁sangre	-4803
▁establish	-4804
▁population	-4805
elas	-4806
▁cuanto	-4807
▁preocup	-4808
▁pasar	-4809
iting	-4810
▁ellas	-4811
▁hablar	-4812
▁gestión	-4813
▁enough	-4814
▁london	-4815
▁concre	-4816
▁obtain	-4817
▁thousands	-4818
▁dicho	-4819
▁vosotros	-4820
▁difícil	-4821
▁manos	-4822
▁políticas	-4823
orno	-4824
▁peti	-4825
▁niveles	-4826
▁heaven	-4827
eds	-4828
▁texas	-4829
▁anton	-4830
▁impr	-4831
▁recent	-4832
orge	-4833
▁marzo	-4834
▁opciones	-4835
ending	-4836
▁cic	-4837
▁oficial	-4838
▁tum	-4839
▁práctica	-4840
▁bec	-4841
▁terrace	-4842
▁incluyendo	-4843
itiz	-4844
bu	-4845
▁prot	-4846
▁complex	-4847
▁izquier	-4848
▁recover	-4849
▁demás	-4850
▁encar	-4851
olic	-4852
▁regres	-4853
▁sencil	-4854
void	-4855
▁pied	-4856
iers	-4857
▁print	-4858
▁formul	-4859
▁estim	-4860
▁guests	-4861
▁official	-4862
▁salida	-4863
▁uses	-4864
bour	-4865
inado	-4866
▁issue	-4867
▁37	-4868
▁distint	-4869
▁cielo	-4870
uar	-4871
▁talk	-4872
cop	-4873
pet	-4874
▁ones	-4875
tee	-4876
itz	-4877
▁occur	-4878
▁wide	-4879
▁profund	-4880
▁padres	-4881
▁skin	-4882
▁caf	-4883
▁effects	-4884
▁famos	-4885
df	-4886
▁recuer	-4887
▁inside	-4888
▁dress	-4889
▁distin	-4890
ionales	-4891
▁option	-4892
▁frequ	-4893
▁edificio	-4894
▁anci	-4895
ello	-4896
▁began	-4897
▁asc	-4898
▁compañía	-4899
▁basic	-4900
▁longer	-4901
▁estrateg	-4902
ef	-4903
▁dejar	-4904
▁solution	-4905
▁unidad	-4906
▁comisión	-4907
▁cities	-4908
▁sería	-4909
▁bord	-4910
▁currently	-4911
fortable	-4912
▁comprom	-4913
▁violencia	-4914
▁estaban	-4915
▁brasil	-4916
etos	-4917
▁función	-4918
▁wes	-4919
▁presence	-4920
▁apoy	-4921
▁anno	-4922
▁maintain	-4923
▁sustain	-4924
▁terraza	-4925
▁tienes	-4926
estas	-4927
▁got	-4928
▁evitar	-4929
reg	-4930
▁jardín	-4931
quir	-4932
▁curso	-4933
▁born	-4934
▁elementos	-4935
▁instalaciones	-4936
▁sense	-4937
▁higher	-4938
ajas	-4939
▁artis	-4940
▁sean	-4941
▁acom	-4942
▁lands	-4943
▁oro	-4944
▁aplicaciones	-4945
▁revolución	-4946
ives	-4947
▁increment	-4948
▁compare	-4949
▁becom	-4950
11	-4951
▁formación	-4952
▁jehová	-4953
ube	-4954
irse	-4955
▁iniciar	-4956
▁baja	-4957
▁village	-4958
▁opera	-4959
ians	-4960
▁weight	-4961
▁germany	-4962
▁pequeña	-4963
tividad	-4964
rim	-4965
▁washington	-4966
▁importancia	-4967
▁hacen	-4968
▁38	-4969
▁única	-4970
▁distancia	-4971
▁mez	-4972
▁write	-4973
▁japan	-4974
▁wifi	-4975
▁enfermedad	-4976
▁mejoren	-4977
▁brought	-4978
▁maría	-4979
▁testim	-4980
▁aproxim	-4981
▁outside	-4982
▁objec	-4983
▁sín	-4984
▁hub	-4985
▁abril	-4986
▁carta	-4987
▁visitas	-4988
ctors	-4989
irá	-4990
▁restaurantes	-4991
▁organizaciones	-4992
▁puzzle	-4993
áct	-4994
▁esos	-4995
▁updates	-4996
▁cd	-4997
esa	-4998
▁furn	-4999
▁mp	-5000
medio	-5001
ax	-5002
▁lik	-5003
▁marco	-5004
▁transl	-5005
▁compet	-5006
▁solutions	-5007
▁pictures	-5008
▁poner	-5009
▁acab	-5010
▁ads	-5011
▁organis	-5012
▁lig	-5013
▁idioma	-5014
▁hogar	-5015
▁job	-5016
▁amount	-5017
illos	-5018
atorio	-5019
▁considered	-5020
▁vacaciones	-5021
▁patients	-5022
vas	-5023
▁carry	-5024
▁rico	-5025
idamente	-5026
▁renov	-5027
ki	-5028
ron	-5029
▁equipos	-5030
▁bufetes	-5031
▁estación	-5032
úa	-5033
▁progress	-5034
▁aliment	-5035
▁hund	-5036
▁locales	-5037
uss	-5038
cida	-5039
▁300	-5040
lan	-5041
▁jac	-5042
▁sle	-5043
▁pacientes	-5044
▁became	-5045
▁corte	-5046
tios	-5047
▁someone	-5048
▁round	-5049
▁cere	-5050
▁mismos	-5051
▁exterior	-5052
▁disci	-5053
áticos	-5054
ky	-5055
erous	-5056
▁programs	-5057
ij	-5058
▁thank	-5059
▁ojos	-5060
▁assem	-5061
ónde	-5062
▁square	-5063
▁conjunto	-5064
▁sacer	-5065
▁dimens	-5066
▁saying	-5067
▁republic	-5068
▁adult	-5069
▁cuid	-5070
endimiento	-5071
▁joy	-5072
▁venezuela	-5073
▁deg	-5074
▁rub	-5075
▁federal	-5076
,00	-5077
▁active	-5078
▁pase	-5079
▁nations	-5080
▁apply	-5081
▁equipped	-5082
▁poor	-5083
▁voc	-5084
▁haciendo	-5085
▁bienven	-5086
▁extran	-5087
▁gave	-5088
yed	-5089
▁bad	-5090
▁honduras	-5091
idores	-5092
▁disease	-5093
▁reservar	-5094
▁villas	-5095
usión	-5096
▁capacity	-5097
▁esqu	-5098
▁compl	-5099
▁either	-5100
▁brows	-5101
otes	-5102
▁associated	-5103
▁tarif	-5104
▁economía	-5105
▁rather	-5106
▁soon	-5107
▁radi	-5108
▁shopping	-5109
▁reality	-5110
▁bea	-5111
45	-5112
▁bueno	-5113
▁simply	-5114
▁puesto	-5115
aign	-5116
ído	-5117
▁neigh	-5118
▁restaurants	-5119
▁consist	-5120
▁pesar	-5121
▁fondo	-5122
▁violence	-5123
▁confirm	-5124
bia	-5125
antly	-5126
▁temas	-5127
▁families	-5128
▁virtual	-5129
▁flat	-5130
▁aband	-5131
▁deleg	-5132
itivos	-5133
▁plus	-5134
▁oppos	-5135
▁visitar	-5136
▁oficina	-5137
▁belie	-5138
▁tools	-5139
▁ár	-5140
▁estat	-5141
▁mix	-5142
▁completamente	-5143
▁pien	-5144
lands	-5145
▁actualizaciones	-5146
▁studies	-5147
▁veloci	-5148
▁animales	-5149
▁middle	-5150
abe	-5151
hy	-5152
back	-5153
▁baratos	-5154
▁lum	-5155
▁edu	-5156
▁fans	-5157
icionales	-5158
▁concl	-5159
▁started	-5160
▁dolor	-5161
▁avoid	-5162
▁mary	-5163
▁saw	-5164
aya	-5165
▁monum	-5166
ny	-5167
ienda	-5168
▁ensure	-5169
▁fuerzas	-5170
▁gratuita	-5171
ground	-5172
▁repar	-5173
▁opportunity	-5174
house	-5175
▁mín	-5176
unts	-5177
ko	-5178
▁join	-5179
atas	-5180
▁negro	-5181
▁whom	-5182
iet	-5183
▁algu	-5184
araoke	-5185
▁procur	-5186
▁claim	-5187
▁criter	-5188
times	-5189
point	-5190
rup	-5191
▁announ	-5192
▁carb	-5193
ami	-5194
ósito	-5195
ría	-5196
▁bless	-5197
▁valores	-5198
zca	-5199
▁greater	-5200
▁prensa	-5201
íamos	-5202
▁pablo	-5203
▁unión	-5204
ross	-5205
ondicion	-5206
▁attention	-5207
▁familias	-5208
▁herramientas	-5209
▁pret	-5210
70	-5211
door	-5212
▁39	-5213
porta	-5214
▁everyone	-5215
▁coup	-5216
bas	-5217
▁cama	-5218
▁voz	-5219
ulación	-5220
▁formato	-5221
▁flash	-5222
osto	-5223
▁kar	-5224
▁steel	-5225
ield	-5226
▁camping	-5227
ándose	-5228
▁cán	-5229
▁campaign	-5230
ingo	-5231
▁corrup	-5232
▁dip	-5233
▁smo	-5234
▁offic	-5235
▁tourist	-5236
▁accept	-5237
▁pedro	-5238
▁angel	-5239
▁measure	-5240
▁conclus	-5241
know	-5242
▁desay	-5243
ité	-5244
▁habil	-5245
▁evento	-5246
▁crist	-5247
▁amplia	-5248
uesto	-5249
▁opinión	-5250
▁exig	-5251
éctr	-5252
▁economy	-5253
▁ye	-5254
▁fib	-5255
▁alemania	-5256
entan	-5257
▁inn	-5258
▁pago	-5259
right	-5260
▁alguien	-5261
ciales	-5262
▁cancel	-5263
▁colores	-5264
▁usually	-5265
▁inmobili	-5266
▁acondicion	-5267
ceed	-5268
▁continuación	-5269
íodo	-5270
press	-5271
▁zonas	-5272
▁sports	-5273
▁citiz	-5274
ility	-5275
▁caja	-5276
▁excelente	-5277
▁modelos	-5278
▁variedad	-5279
▁puedo	-5280
idel	-5281
▁comercio	-5282
▁ee	-5283
▁wire	-5284
▁jugar	-5285
bly	-5286
▁mente	-5287
▁razón	-5288
▁om	-5289
▁profesionales	-5290
▁período	-5291
▁speed	-5292
▁justice	-5293
tivity	-5294
▁sales	-5295
▁intelig	-5296
▁acciones	-5297
▁western	-5298
▁alma	-5299
▁referencia	-5300
▁dead	-5301
▁áreas	-5302
▁honor	-5303
board	-5304
quis	-5305
▁serious	-5306
▁naciones	-5307
▁asociación	-5308
▁gives	-5309
▁newslet	-5310
▁credit	-5311
▁2003	-5312
▁libr	-5313
▁carlos	-5314
▁fair	-5315
▁connection	-5316
▁committee	-5317
▁carib	-5318
▁org	-5319
▁dé	-5320
▁celeb	-5321
▁forces	-5322
▁wonder	-5323
▁password	-5324
▁09	-5325
▁compati	-5326
uma	-5327
ym	-5328
▁former	-5329
▁mañ	-5330
▁pelig	-5331
▁lack	-5332
▁monitor	-5333
▁adul	-5334
▁privacidad	-5335
▁famous	-5336
▁interc	-5337
metros	-5338
▁negocios	-5339
▁produc	-5340
25	-5341
istry	-5342
▁belle	-5343
▁ambos	-5344
▁tap	-5345
▁elabor	-5346
▁etiquetas	-5347
▁lost	-5348
icarag	-5349
▁prevent	-5350
ila	-5351
izes	-5352
tead	-5353
▁variety	-5354
ken	-5355
▁jose	-5356
▁fear	-5357
▁dónde	-5358
▁misión	-5359
▁tare	-5360
▁reverse	-5361
▁arriba	-5362
▁debes	-5363
▁demas	-5364
▁finally	-5365
▁across	-5366
▁48	-5367
▁birth	-5368
▁science	-5369
▁agosto	-5370
crimin	-5371
▁rap	-5372
graph	-5373
▁fotograf	-5374
▁gén	-5375
▁eyes	-5376
▁gratuito	-5377
▁hechos	-5378
▁entrega	-5379
▁glass	-5380
▁plantas	-5381
▁relax	-5382
▁chem	-5383
▁train	-5384
▁pert	-5385
▁estás	-5386
▁italian	-5387
▁solar	-5388
pañ	-5389
▁cabeza	-5390
▁supre	-5391
▁sie	-5392
▁polici	-5393
▁nicarag	-5394
▁needed	-5395
▁presenta	-5396
enses	-5397
▁apare	-5398
▁mediterr	-5399
▁adel	-5400
▁haz	-5401
▁pública	-5402
▁sección	-5403
▁cosa	-5404
▁mental	-5405
▁prison	-5406
▁buscando	-5407
áfico	-5408
▁soluciones	-5409
▁mechan	-5410
▁anuncios	-5411
▁rural	-5412
▁75	-5413
▁superficie	-5414
enamiento	-5415
▁accep	-5416
▁velocidad	-5417
▁estánd	-5418
▁effici	-5419
bod	-5420
▁pocos	-5421
▁hem	-5422
▁abra	-5423
▁existen	-5424
▁format	-5425
frica	-5426
▁municip	-5427
▁instit	-5428
izon	-5429
▁colon	-5430
▁arquitectura	-5431
ound	-5432
▁architecture	-5433
▁wine	-5434
▁lower	-5435
▁tendrá	-5436
▁mit	-5437
▁benefits	-5438
15	-5439
acio	-5440
usion	-5441
▁photograph	-5442
bility	-5443
▁reunión	-5444
▁purpose	-5445
▁spa	-5446
oms	-5447
▁aw	-5448
▁portal	-5449
inary	-5450
dam	-5451
▁summer	-5452
▁películ	-5453
▁posibilidad	-5454
▁forg	-5455
▁repúbl	-5456
amic	-5457
▁voice	-5458
▁presented	-5459
▁plazo	-5460
▁gallery	-5461
ensive	-5462
▁biblio	-5463
▁puerta	-5464
via	-5465
▁clas	-5466
▁rica	-5467
▁draw	-5468
▁bast	-5469
hab	-5470
▁convirti	-5471
▁feed	-5472
▁behind	-5473
▁monte	-5474
▁santi	-5475
nas	-5476
american	-5477
▁models	-5478
▁champ	-5479
▁creation	-5480
idge	-5481
ster	-5482
▁learning	-5483
▁religious	-5484
cito	-5485
▁quiet	-5486
▁chat	-5487
▁offering	-5488
▁oce	-5489
▁miembro	-5490
uck	-5491
jeta	-5492
▁primeros	-5493
▁od	-5494
▁count	-5495
▁llamado	-5496
lig	-5497
▁créd	-5498
▁gast	-5499
▁ingres	-5500
▁thy	-5501
▁trial	-5502
▁especiales	-5503
▁jew	-5504
▁imperial	-5505
▁interac	-5506
▁soul	-5507
▁legisl	-5508
▁meta	-5509
▁ja	-5510
cious	-5511
▁achieve	-5512
▁reduce	-5513
▁alimentos	-5514
▁paper	-5515
▁commercial	-5516
▁encuentran	-5517
▁virus	-5518
▁edition	-5519
▁pud	-5520
▁virgin	-5521
65	-5522
▁punt	-5523
unci	-5524
▁rein	-5525
▁diferente	-5526
24	-5527
▁efec	-5528
▁deuts	-5529
▁empleo	-5530
voc	-5531
▁boat	-5532
▁swim	-5533
▁pequeños	-5534
▁distance	-5535
-11	-5536
▁hair	-5537
▁sosten	-5538
▁comunidades	-5539
▁acon	-5540
▁amigo	-5541
ball	-5542
weet	-5543
▁broad	-5544
▁established	-5545
▁08	-5546
▁tribun	-5547
▁communities	-5548
▁forms	-5549
zan	-5550
ciendo	-5551
▁proph	-5552
▁menudo	-5553
cup	-5554
▁frame	-5555
▁antiguo	-5556
▁advertis	-5557
▁weather	-5558
▁load	-5559
ends	-5560
▁platform	-5561
▁edición	-5562
▁crí	-5563
▁thou	-5564
▁core	-5565
▁tenga	-5566
▁communication	-5567
▁destin	-5568
▁propiedades	-5569
▁puebl	-5570
pel	-5571
ética	-5572
▁cáncer	-5573
▁menor	-5574
ote	-5575
▁calcul	-5576
▁fort	-5577
▁usd	-5578
▁touch	-5579
▁república	-5580
▁ready	-5581
▁animal	-5582
▁sit	-5583
▁ton	-5584
▁season	-5585
ils	-5586
▁foundation	-5587
ification	-5588
uvo	-5589
▁unido	-5590
▁beneficios	-5591
encies	-5592
▁depos	-5593
▁ball	-5594
▁seis	-5595
▁expand	-5596
-4	-5597
▁delante	-5598
▁forum	-5599
▁independiente	-5600
▁completely	-5601
▁links	-5602
▁trasl	-5603
▁origen	-5604
ioso	-5605
▁esco	-5606
▁player	-5607
▁numeros	-5608
▁divid	-5609
▁05	-5610
▁cry	-5611
▁acceder	-5612
▁sumin	-5613
▁department	-5614
▁visits	-5615
top	-5616
▁recl	-5617
▁bedrooms	-5618
▁nadie	-5619
xima	-5620
light	-5621
▁euros	-5622
zada	-5623
▁resol	-5624
▁viene	-5625
▁mr	-5626
▁measures	-5627
▁participación	-5628
▁basado	-5629
▁advanced	-5630
▁perfil	-5631
▁eléctr	-5632
itis	-5633
▁peru	-5634
▁casino	-5635
▁species	-5636
where	-5637
▁sometimes	-5638
icano	-5639
▁semin	-5640
▁hermanos	-5641
▁easily	-5642
ciente	-5643
▁mane	-5644
▁exchange	-5645
▁florida	-5646
▁applications	-5647
▁incluyen	-5648
▁gusta	-5649
▁mencion	-5650
▁vib	-5651
▁wan	-5652
▁eat	-5653
ogue	-5654
▁transpar	-5655
urb	-5656
▁concept	-5657
▁grab	-5658
▁values	-5659
lict	-5660
▁capt	-5661
▁climate	-5662
oft	-5663
▁apps	-5664
▁stage	-5665
▁mañana	-5666
▁extranj	-5667
▁pueblos	-5668
▁choice	-5669
arte	-5670
▁instead	-5671
▁contract	-5672
ging	-5673
▁esas	-5674
▁gama	-5675
ship	-5676
▁pleas	-5677
▁03	-5678
▁gust	-5679
▁bes	-5680
▁desayuno	-5681
igu	-5682
▁prueb	-5683
▁estructura	-5684
▁shipping	-5685
▁quieres	-5686
▁newsletter	-5687
icult	-5688
▁manual	-5689
▁pick	-5690
▁canad	-5691
▁visión	-5692
▁acondicionado	-5693
▁enci	-5694
uta	-5695
ature	-5696
▁forest	-5697
▁2002	-5698
▁jobs	-5699
igen	-5700
▁principios	-5701
▁elements	-5702
▁específic	-5703
▁vesti	-5704
▁fantas	-5705
▁symbol	-5706
titude	-5707
pas	-5708
▁coast	-5709
▁55	-5710
▁04	-5711
▁response	-5712
ray	-5713
▁environmental	-5714
iados	-5715
▁tiendas	-5716
iling	-5717
▁avent	-5718
▁navig	-5719
▁redes	-5720
ffic	-5721
rated	-5722
▁infer	-5723
▁iv	-5724
▁humana	-5725
▁bay	-5726
bes	-5727
▁latino	-5728
ertos	-5729
▁gree	-5730
iqu	-5731
▁trop	-5732
▁solicitud	-5733
asons	-5734
▁dormitorios	-5735
▁canal	-5736
▁franc	-5737
▁fortal	-5738
▁07	-5739
▁admir	-5740
▁sé	-5741
▁desk	-5742
estos	-5743
▁yout	-5744
▁tengo	-5745
▁yourself	-5746
▁tuvo	-5747
utas	-5748
▁houses	-5749
▁effective	-5750
▁length	-5751
▁exposición	-5752
▁comida	-5753
▁destro	-5754
▁carried	-5755
iesta	-5756
ml	-5757
▁sitios	-5758
urance	-5759
▁tradicional	-5760
▁debemos	-5761
▁nota	-5762
▁agregar	-5763
▁metro	-5764
▁mention	-5765
▁profile	-5766
▁colección	-5767
▁roman	-5768
▁administra	-5769
▁gos	-5770
▁uk	-5771
▁europea	-5772
▁percent	-5773
▁wed	-5774
▁seven	-5775
▁capaz	-5776
▁pér	-5777
▁sky	-5778
▁sof	-5779
▁envío	-5780
▁attack	-5781
▁marav	-5782
▁ingen	-5783
▁qual	-5784
▁beauty	-5785
▁demon	-5786
▁clás	-5787
▁santiago	-5788
▁screen	-5789
▁eth	-5790
▁150	-5791
▁barb	-5792
▁técnica	-5793
▁nucle	-5794
▁pruebas	-5795
▁factor	-5796
▁verde	-5797
▁youtube	-5798
▁....	-5799
rada	-5800
▁artes	-5801
amin	-5802
▁árbol	-5803
▁hour	-5804
▁structure	-5805
▁sched	-5806
▁izquierda	-5807
▁ok	-5808
▁consol	-5809
vd	-5810
itado	-5811
ify	-5812
pap	-5813
▁suced	-5814
▁elect	-5815
▁contrase	-5816
▁42	-5817
▁abandon	-5818
▁02	-5819
▁conferencia	-5820
▁responsabilidad	-5821
▁loss	-5822
▁ut	-5823
tings	-5824
▁documentos	-5825
▁wit	-5826
▁sag	-5827
ésped	-5828
ecut	-5829
▁selección	-5830
uu	-5831
▁comfortable	-5832
▁strugg	-5833
unes	-5834
----	-5835
▁balance	-5836
▁interpretado	-5837
▁máximo	-5838
▁funciones	-5839
▁karaoke	-5840
32	-5841
ette	-5842
works	-5843
▁luis	-5844
▁desea	-5845
▁organizations	-5846
edia	-5847
▁rome	-5848
▁anything	-5849
▁dele	-5850
▁fix	-5851
▁pais	-5852
▁departamento	-5853
▁visa	-5854
▁doesn	-5855
▁rode	-5856
▁reve	-5857
▁comité	-5858
▁maximum	-5859
▁criminal	-5860
▁importance	-5861
▁lake	-5862
▁ord	-5863
▁podrían	-5864
▁anunci	-5865
▁acero	-5866
▁belong	-5867
▁escrito	-5868
▁actions	-5869
ém	-5870
ience	-5871
▁reference	-5872
igr	-5873
▁morn	-5874
▁sole	-5875
▁absolu	-5876
▁conflict	-5877
izados	-5878
▁lect	-5879
▁essential	-5880
▁voluntad	-5881
▁getting	-5882
lim	-5883
▁motors	-5884
▁understanding	-5885
▁correspond	-5886
▁azul	-5887
▁prohib	-5888
▁sacrif	-5889
▁humano	-5890
▁conseguir	-5891
▁desap	-5892
▁valle	-5893
▁gift	-5894
▁trabajos	-5895
▁rápido	-5896
dr	-5897
▁195	-5898
▁barr	-5899
idera	-5900
▁potential	-5901
▁involved	-5902
▁publicado	-5903
▁fresh	-5904
▁medium	-5905
▁actually	-5906
▁objeto	-5907
▁responsible	-5908
▁lleva	-5909
▁egy	-5910
▁session	-5911
▁device	-5912
▁chin	-5913
▁tratar	-5914
▁brill	-5915
▁cierto	-5916
▁ejér	-5917
▁leading	-5918
▁traffic	-5919
imir	-5920
estar	-5921
▁chann	-5922
▁agrad	-5923
▁charge	-5924
▁demos	-5925
▁49	-5926
viv	-5927
▁naturales	-5928
ífica	-5929
▁debería	-5930
▁gather	-5931
▁manufactur	-5932
hold	-5933
▁06	-5934
▁ingred	-5935
▁bolivia	-5936
▁dó	-5937
▁discrimin	-5938
unid	-5939
▁cant	-5940
▁graph	-5941
áticas	-5942
▁pastor	-5943
▁exclusiv	-5944
▁mayores	-5945
▁microsoft	-5946
▁dign	-5947
▁hip	-5948
iance	-5949
stas	-5950
▁scientific	-5951
▁campos	-5952
▁repe	-5953
▁persons	-5954
▁coff	-5955
▁portugal	-5956
▁sr	-5957
▁spread	-5958
▁palest	-5959
▁libros	-5960
mán	-5961
▁confid	-5962
verse	-5963
ched	-5964
▁quiero	-5965
▁creo	-5966
▁planet	-5967
▁entregue	-5968
▁destino	-5969
▁reading	-5970
▁longitud	-5971
▁fuego	-5972
▁storage	-5973
▁presup	-5974
▁prayer	-5975
ámara	-5976
▁gene	-5977
▁pdf	-5978
▁épo	-5979
racy	-5980
▁complement	-5981
▁status	-5982
▁argum	-5983
▁jack	-5984
▁interf	-5985
▁adicional	-5986
▁carre	-5987
▁ín	-5988
une	-5989
▁equil	-5990
▁máquina	-5991
▁feder	-5992
▁verano	-5993
edas	-5994
▁defend	-5995
▁basis	-5996
▁diferencia	-5997
atemal	-5998
▁quickly	-5999
▁limited	-6000
itation	-6001
▁pred	-6002
uación	-6003
▁castil	-6004
▁rating	-6005
▁experiment	-6006
ersey	-6007
18	-6008
▁claro	-6009
▁award	-6010
ingu	-6011
▁garant	-6012
▁advent	-6013
▁cloth	-6014
▁tarjeta	-6015
▁deutsch	-6016
▁track	-6017
inated	-6018
▁preci	-6019
▁policía	-6020
▁cubier	-6021
tig	-6022
▁morning	-6023
▁context	-6024
▁vídeo	-6025
▁quite	-6026
▁aprob	-6027
16	-6028
▁joven	-6029
▁burn	-6030
▁resto	-6031
▁costs	-6032
▁jersey	-6033
▁barco	-6034
▁hold	-6035
▁au	-6036
13	-6037
▁acompañ	-6038
▁vía	-6039
aged	-6040
▁launch	-6041
mp	-6042
▁relo	-6043
bi	-6044
jetas	-6045
▁levant	-6046
▁pressure	-6047
▁rid	-6048
▁offered	-6049
▁cord	-6050
▁equilib	-6051
▁ministerio	-6052
▁books	-6053
inc	-6054
▁nam	-6055
▁allá	-6056
▁arro	-6057
▁humanidad	-6058
▁finalmente	-6059
▁roma	-6060
▁convier	-6061
▁ministry	-6062
▁toma	-6063
▁rápida	-6064
▁forward	-6065
▁dólar	-6066
▁youth	-6067
▁mesa	-6068
▁tej	-6069
▁steps	-6070
old	-6071
▁acept	-6072
▁arres	-6073
▁cuidad	-6074
▁heard	-6075
▁vehículos	-6076
▁languages	-6077
▁estadounid	-6078
ox	-6079
▁administración	-6080
▁guatemal	-6081
▁lago	-6082
▁bear	-6083
▁económico	-6084
aries	-6085
▁agenda	-6086
-5	-6087
▁operation	-6088
ued	-6089
▁comentario	-6090
▁bible	-6091
▁aven	-6092
▁opened	-6093
▁occup	-6094
log	-6095
▁privada	-6096
ev	-6097
▁rene	-6098
▁premium	-6099
ative	-6100
pone	-6101
▁recono	-6102
▁vul	-6103
▁coordin	-6104
▁acog	-6105
▁promedio	-6106
▁instalación	-6107
▁antonio	-6108
▁blanca	-6109
▁abierto	-6110
▁vision	-6111
▁materia	-6112
▁extensión	-6113
▁berlin	-6114
▁historical	-6115
áneo	-6116
▁cámara	-6117
ii	-6118
▁panor	-6119
▁194	-6120
-13	-6121
▁lt	-6122
tom	-6123
▁terren	-6124
▁extension	-6125
▁wid	-6126
▁moral	-6127
try	-6128
▁tendr	-6129
▁atrac	-6130
▁typ	-6131
ez	-6132
▁cloud	-6133
eless	-6134
▁canada	-6135
▁wis	-6136
▁bey	-6137
▁pecado	-6138
▁fruit	-6139
amar	-6140
▁europ	-6141
▁consulta	-6142
▁derecha	-6143
edo	-6144
▁situated	-6145
▁button	-6146
▁lines	-6147
equ	-6148
▁mate	-6149
▁girl	-6150
▁obst	-6151
▁highly	-6152
▁parís	-6153
14	-6154
berg	-6155
▁entrar	-6156
▁restric	-6157
▁formal	-6158
▁alc	-6159
▁trying	-6160
▁avis	-6161
▁reducir	-6162
acia	-6163
ych	-6164
▁hier	-6165
▁exhibition	-6166
▁autob	-6167
▁export	-6168
▁cuestion	-6169
ards	-6170
▁siete	-6171
uos	-6172
tagon	-6173
▁tren	-6174
▁partner	-6175
▁decisión	-6176
▁penal	-6177
▁escal	-6178
▁meaning	-6179
▁discuss	-6180
▁attrac	-6181
▁copyright	-6182
▁nice	-6183
▁demasiado	-6184
▁resistencia	-6185
▁bit	-6186
▁salón	-6187
▁selection	-6188
▁personales	-6189
▁contraseña	-6190
▁decre	-6191
▁clin	-6192
▁centros	-6193
▁kne	-6194
curs	-6195
17	-6196
▁contiene	-6197
▁drop	-6198
▁excl	-6199
▁documento	-6200
▁constante	-6201
▁collabor	-6202
▁aplic	-6203
▁defensa	-6204
▁zap	-6205
erve	-6206
▁seems	-6207
▁doctr	-6208
aca	-6209
isa	-6210
▁tin	-6211
▁propias	-6212
▁hici	-6213
teca	-6214
empl	-6215
▁remain	-6216
▁conflic	-6217
▁investment	-6218
▁islands	-6219
▁gobern	-6220
▁devo	-6221
ements	-6222
▁dificult	-6223
▁delivery	-6224
▁skip	-6225
▁abajo	-6226
▁challeng	-6227
▁animals	-6228
▁cuarto	-6229
▁maqu	-6230
▁particularly	-6231
▁turismo	-6232
asa	-6233
▁tenido	-6234
▁dw	-6235
▁2001	-6236
oter	-6237
box	-6238
▁daniel	-6239
▁objetivos	-6240
▁fich	-6241
aro	-6242
▁pet	-6243
▁policies	-6244
▁flores	-6245
▁gain	-6246
phere	-6247
▁puedan	-6248
▁significant	-6249
▁diez	-6250
curso	-6251
▁encour	-6252
▁dance	-6253
▁belleza	-6254
▁cargo	-6255
izing	-6256
▁allowed	-6257
arlo	-6258
▁aproximadamente	-6259
▁44	-6260
greg	-6261
▁conocido	-6262
▁efici	-6263
▁egip	-6264
▁alco	-6265
▁stone	-6266
▁institutions	-6267
▁district	-6268
▁hun	-6269
▁positive	-6270
▁landsc	-6271
▁ambient	-6272
▁artists	-6273
▁alf	-6274
▁happy	-6275
urses	-6276
▁carrera	-6277
▁piso	-6278
▁mira	-6279
▁diagnos	-6280
19	-6281
▁brit	-6282
▁schools	-6283
lectual	-6284
▁reservas	-6285
▁46	-6286
vent	-6287
enciales	-6288
▁artistas	-6289
▁rápidamente	-6290
▁classic	-6291
▁obten	-6292
▁viajes	-6293
ilo	-6294
prend	-6295
▁pared	-6296
▁pérd	-6297
▁instant	-6298
▁43	-6299
▁categories	-6300
eks	-6301
▁ángel	-6302
▁cards	-6303
esis	-6304
▁coin	-6305
▁oración	-6306
ección	-6307
forts	-6308
▁subst	-6309
▁bend	-6310
▁roll	-6311
▁debate	-6312
▁swimming	-6313
enty	-6314
▁llegada	-6315
▁65	-6316
▁opening	-6317
▁idiomas	-6318
▁serve	-6319
▁justo	-6320
▁asistencia	-6321
▁experiences	-6322
▁surpr	-6323
▁oferta	-6324
▁ajust	-6325
▁hit	-6326
▁surface	-6327
có	-6328
▁europcar	-6329
▁evil	-6330
▁route	-6331
▁carne	-6332
▁jesu	-6333
aging	-6334
apy	-6335
▁tort	-6336
▁campaña	-6337
▁expression	-6338
▁independent	-6339
cont	-6340
▁sites	-6341
▁enfo	-6342
▁ability	-6343
▁beyond	-6344
▁crédito	-6345
▁highest	-6346
,8	-6347
▁espect	-6348
▁limpie	-6349
▁experiencias	-6350
▁ór	-6351
▁giving	-6352
▁procuradores	-6353
▁shown	-6354
▁nacionales	-6355
▁encuentro	-6356
▁eta	-6357
▁económica	-6358
▁useful	-6359
ácter	-6360
▁paral	-6361
▁ofrecen	-6362
arm	-6363
ónica	-6364
▁llama	-6365
▁pobre	-6366
▁purchase	-6367
▁chapter	-6368
aled	-6369
▁funciona	-6370
▁carácter	-6371
estic	-6372
elos	-6373
lah	-6374
▁quiz	-6375
▁parents	-6376
▁ocurr	-6377
▁cf	-6378
▁dang	-6379
▁resort	-6380
▁coffee	-6381
▁conoce	-6382
▁authorities	-6383
▁desarrollar	-6384
ginas	-6385
▁déc	-6386
▁clases	-6387
▁escrit	-6388
cun	-6389
inted	-6390
▁moderno	-6391
▁assembly	-6392
▁cá	-6393
▁maria	-6394
▁entender	-6395
▁block	-6396
▁startup	-6397
uc	-6398
pers	-6399
▁bish	-6400
▁vice	-6401
kes	-6402
▁objetos	-6403
▁éste	-6404
ístico	-6405
▁autoridades	-6406
▁bastante	-6407
▁banco	-6408
▁browser	-6409
priate	-6410
▁entertain	-6411
▁benefici	-6412
itario	-6413
yen	-6414
▁procesos	-6415
orios	-6416
▁recently	-6417
▁powerful	-6418
elling	-6419
▁mc	-6420
▁starting	-6421
▁municipal	-6422
▁musical	-6423
▁rules	-6424
▁aus	-6425
▁café	-6426
key	-6427
▁torre	-6428
▁revolucion	-6429
▁cuál	-6430
▁semanas	-6431
bed	-6432
▁pronto	-6433
▁payment	-6434
▁inversión	-6435
ashion	-6436
rados	-6437
otas	-6438
-7	-6439
▁carga	-6440
▁conciencia	-6441
▁miguel	-6442
▁xvi	-6443
▁convention	-6444
▁match	-6445
▁francés	-6446
▁witness	-6447
▁student	-6448
▁else	-6449
▁descarga	-6450
▁album	-6451
iga	-6452
▁plants	-6453
▁nov	-6454
▁entorno	-6455
▁rates	-6456
mine	-6457
▁eye	-6458
bella	-6459
▁luxury	-6460
▁sar	-6461
▁herramienta	-6462
itación	-6463
▁lab	-6464
▁cub	-6465
laz	-6466
▁páginas	-6467
▁linked	-6468
oría	-6469
▁congress	-6470
▁kn	-6471
▁door	-6472
▁pasos	-6473
▁immediately	-6474
▁fundación	-6475
timiento	-6476
▁attem	-6477
▁proto	-6478
▁xx	-6479
▁acts	-6480
▁edit	-6481
▁hyd	-6482
cto	-6483
ologies	-6484
▁similares	-6485
▁motorsport	-6486
▁ina	-6487
▁presión	-6488
gues	-6489
▁cars	-6490
▁maestro	-6491
▁wrong	-6492
▁esperanza	-6493
▁interesting	-6494
gment	-6495
▁carrito	-6496
▁mues	-6497
▁programme	-6498
▁plás	-6499
▁wanted	-6500
▁reasons	-6501
▁rat	-6502
▁apre	-6503
▁cuidado	-6504
isiones	-6505
▁llamada	-6506
▁conduc	-6507
▁domingo	-6508
▁espera	-6509
▁gospel	-6510
▁piezas	-6511
▁whe	-6512
▁peter	-6513
▁político	-6514
istics	-6515
▁server	-6516
▁jerusalem	-6517
▁installed	-6518
enge	-6519
▁hire	-6520
▁requiere	-6521
▁comfort	-6522
▁calls	-6523
▁huésped	-6524
▁aumento	-6525
▁strategy	-6526
itaria	-6527
ju	-6528
wood	-6529
tien	-6530
▁chrome	-6531
▁latina	-6532
▁colec	-6533
yment	-6534
▁letter	-6535
▁vuelo	-6536
hi	-6537
▁celebra	-6538
▁clín	-6539
apes	-6540
▁decora	-6541
▁enor	-6542
▁depor	-6543
▁estrella	-6544
▁soporte	-6545
▁título	-6546
▁royal	-6547
▁limpieza	-6548
▁solidar	-6549
▁instituciones	-6550
▁sla	-6551
▁rendimiento	-6552
▁guarantee	-6553
▁players	-6554
▁tarjetas	-6555
▁epis	-6556
▁interesante	-6557
▁tiempos	-6558
tipo	-6559
▁duración	-6560
rez	-6561
▁tuv	-6562
▁stars	-6563
▁finish	-6564
ológico	-6565
▁impuestos	-6566
▁operating	-6567
▁laws	-6568
▁infin	-6569
▁regarding	-6570
▁bloque	-6571
▁responsibility	-6572
▁refug	-6573
aster	-6574
▁quan	-6575
▁época	-6576
▁library	-6577
▁histórico	-6578
▁recorr	-6579
▁categorías	-6580
▁occid	-6581
▁zo	-6582
▁supply	-6583
ker	-6584
hor	-6585
▁abund	-6586
▁estrategia	-6587
▁altura	-6588
apia	-6589
▁diciendo	-6590
▁krish	-6591
▁duda	-6592
▁anyone	-6593
look	-6594
▁reports	-6595
▁fat	-6596
amble	-6597
▁cuestión	-6598
▁increasing	-6599
wide	-6600
jes	-6601
▁max	-6602
▁enfermedades	-6603
ámica	-6604
▁picture	-6605
▁trust	-6606
▁fuel	-6607
bilidad	-6608
▁incid	-6609
▁migr	-6610
▁figure	-6611
▁aguas	-6612
▁unit	-6613
▁instituto	-6614
▁presentación	-6615
▁posted	-6616
▁memoria	-6617
▁fashion	-6618
▁atmos	-6619
▁budget	-6620
▁produced	-6621
▁londres	-6622
▁proven	-6623
more	-6624
▁alex	-6625
▁unidades	-6626
▁contro	-6627
▁dog	-6628
▁fern	-6629
▁coord	-6630
▁ahor	-6631
▁sund	-6632
▁secretar	-6633
▁marbella	-6634
▁políticos	-6635
▁ventajas	-6636
▁nation	-6637
▁jour	-6638
ercise	-6639
▁suficiente	-6640
▁affect	-6641
▁miser	-6642
enth	-6643
▁pure	-6644
▁frank	-6645
▁catól	-6646
▁desaf	-6647
▁barrio	-6648
▁horizon	-6649
▁meters	-6650
▁clients	-6651
▁alone	-6652
▁elector	-6653
▁eres	-6654
▁wild	-6655
▁reserve	-6656
▁cél	-6657
▁submit	-6658
▁portugu	-6659
▁sympt	-6660
▁entrev	-6661
▁nicaragua	-6662
▁influence	-6663
▁lif	-6664
▁privile	-6665
oro	-6666
▁regist	-6667
▁cn	-6668
job	-6669
▁prima	-6670
▁injury	-6671
▁formulario	-6672
▁numbers	-6673
▁silver	-6674
▁declaración	-6675
▁minimum	-6676
▁decided	-6677
▁islas	-6678
▁selected	-6679
acer	-6680
▁weeks	-6681
▁consumo	-6682
▁parad	-6683
▁navigation	-6684
▁fif	-6685
▁frecuencia	-6686
▁victoria	-6687
▁cuban	-6688
▁inten	-6689
oting	-6690
▁vege	-6691
▁400	-6692
▁contains	-6693
▁dyn	-6694
▁habla	-6695
▁ze	-6696
▁sentir	-6697
▁citizens	-6698
▁exercise	-6699
▁ilum	-6700
▁ejempl	-6701
wise	-6702
▁fiesta	-6703
▁tic	-6704
town	-6705
iosa	-6706
▁struggle	-6707
asts	-6708
▁fond	-6709
▁premio	-6710
allas	-6711
▁ofrecemos	-6712
▁vehicle	-6713
▁informa	-6714
body	-6715
enar	-6716
▁sola	-6717
▁goal	-6718
▁deseo	-6719
ancy	-6720
urt	-6721
ru	-6722
▁fields	-6723
dll	-6724
▁brother	-6725
cracy	-6726
icity	-6727
▁worth	-6728
▁prep	-6729
▁leader	-6730
▁aprove	-6731
▁centr	-6732
▁institute	-6733
▁largest	-6734
▁consequ	-6735
▁suites	-6736
▁dream	-6737
▁baby	-6738
▁permiten	-6739
▁utilizando	-6740
▁degree	-6741
▁deals	-6742
amen	-6743
▁ciencia	-6744
▁mucha	-6745
▁administr	-6746
▁incluido	-6747
▁hacerlo	-6748
▁capítulo	-6749
▁renew	-6750
▁vues	-6751
▁vital	-6752
minu	-6753
▁valley	-6754
▁units	-6755
▁testi	-6756
▁fácilmente	-6757
itiva	-6758
▁divine	-6759
▁provincia	-6760
▁efforts	-6761
▁caused	-6762
▁quin	-6763
▁tribunal	-6764
▁authority	-6765
▁confianza	-6766
▁release	-6767
▁occas	-6768
iah	-6769
▁internal	-6770
▁window	-6771
▁feature	-6772
▁revista	-6773
▁iii	-6774
▁affec	-6775
▁comput	-6776
▁valencia	-6777
▁quantity	-6778
ierno	-6779
▁dispositivo	-6780
▁worksh	-6781
▁rober	-6782
▁arre	-6783
▁lanz	-6784
▁advantage	-6785
lines	-6786
over	-6787
▁disminu	-6788
▁documents	-6789
▁sabe	-6790
▁64	-6791
▁shared	-6792
ested	-6793
▁shower	-6794
▁encant	-6795
▁army	-6796
▁dispone	-6797
mm	-6798
▁kill	-6799
▁requirements	-6800
▁lograr	-6801
▁evidence	-6802
▁método	-6803
▁líneas	-6804
▁cien	-6805
▁preserv	-6806
▁tours	-6807
▁warn	-6808
▁ejército	-6809
▁lesiones	-6810
vos	-6811
quete	-6812
▁cursos	-6813
xto	-6814
íd	-6815
▁evangelio	-6816
▁rit	-6817
▁islam	-6818
▁spring	-6819
▁mue	-6820
▁absor	-6821
▁negoci	-6822
▁actualidad	-6823
▁increased	-6824
▁insurance	-6825
bus	-6826
▁valid	-6827
▁medicine	-6828
▁piedra	-6829
▁suelo	-6830
tid	-6831
▁title	-6832
▁posterior	-6833
,2	-6834
35	-6835
▁vivo	-6836
▁late	-6837
▁antigua	-6838
▁lím	-6839
▁terc	-6840
▁goes	-6841
▁cau	-6842
▁province	-6843
▁wil	-6844
▁propiet	-6845
▁ts	-6846
▁asim	-6847
▁salir	-6848
▁participar	-6849
▁challenge	-6850
▁connected	-6851
▁participantes	-6852
▁mecan	-6853
▁chic	-6854
▁supuesto	-6855
ieren	-6856
▁leyes	-6857
▁mexican	-6858
▁deten	-6859
▁expans	-6860
▁compens	-6861
▁médicos	-6862
▁memor	-6863
istrar	-6864
▁espacios	-6865
chaz	-6866
▁frances	-6867
▁publish	-6868
▁perfecto	-6869
▁guatemala	-6870
▁sínt	-6871
▁teaching	-6872
▁interested	-6873
ologías	-6874
dy	-6875
▁interview	-6876
▁discussion	-6877
▁gracia	-6878
▁cup	-6879
ni	-6880
stru	-6881
▁catholic	-6882
▁mall	-6883
,9	-6884
▁surve	-6885
-8	-6886
▁mantenimiento	-6887
tronom	-6888
stal	-6889
▁denom	-6890
▁didn	-6891
▁multiple	-6892
▁sleep	-6893
tages	-6894
ográ	-6895
▁playing	-6896
▁appropriate	-6897
▁threat	-6898
▁alumin	-6899
▁profession	-6900
▁bell	-6901
▁participation	-6902
▁bienes	-6903
▁creado	-6904
▁bright	-6905
▁outdoor	-6906
▁47	-6907
▁dor	-6908
▁fabr	-6909
▁temperature	-6910
▁administration	-6911
▁memory	-6912
▁kin	-6913
har	-6914
▁ms	-6915
▁dict	-6916
▁worked	-6917
▁permanente	-6918
▁inmedi	-6919
▁impresion	-6920
camiento	-6921
▁pequeñas	-6922
▁descubrir	-6923
▁huéspedes	-6924
lated	-6925
rote	-6926
utos	-6927
ético	-6928
▁isa	-6929
▁pensar	-6930
using	-6931
▁jam	-6932
▁warm	-6933
▁diálogo	-6934
ológica	-6935
▁galería	-6936
▁approxim	-6937
▁flight	-6938
▁estándar	-6939
▁cold	-6940
▁likely	-6941
▁gn	-6942
▁javas	-6943
▁aceite	-6944
para	-6945
▁magaz	-6946
▁aspectos	-6947
▁devices	-6948
bur	-6949
▁desem	-6950
▁próximo	-6951
▁telephone	-6952
▁priest	-6953
▁comerciales	-6954
▁pend	-6955
▁secund	-6956
▁granada	-6957
urre	-6958
▁domestic	-6959
tell	-6960
▁conscious	-6961
ieran	-6962
uly	-6963
▁javascript	-6964
▁impacto	-6965
hu	-6966
▁ropa	-6967
▁seek	-6968
▁compromiso	-6969
▁slow	-6970
▁christmas	-6971
▁weak	-6972
▁telef	-6973
▁fine	-6974
ardo	-6975
▁victim	-6976
▁cerc	-6977
▁bases	-6978
▁establecer	-6979
▁plataforma	-6980
gida	-6981
▁protagon	-6982
▁congreg	-6983
▁vid	-6984
▁41	-6985
▁adelante	-6986
dis	-6987
▁potencial	-6988
▁krishna	-6989
▁mini	-6990
▁dólares	-6991
cripción	-6992
▁democr	-6993
▁continuar	-6994
▁diversos	-6995
▁exci	-6996
clo	-6997
istir	-6998
▁técnicas	-6999
▁curiosos	-7000
▁exclusive	-7001
▁dipl	-7002
▁assess	-7003
▁temperatura	-7004
▁áfrica	-7005
olina	-7006
▁alcanzar	-7007
erated	-7008
▁ruta	-7009
▁ingenier	-7010
▁courses	-7011
utor	-7012
▁behav	-7013
íne	-7014
ugu	-7015
▁actualización	-7016
▁studio	-7017
▁custo	-7018
▁supervis	-7019
▁remove	-7020
▁planning	-7021
▁baños	-7022
graf	-7023
▁wind	-7024
▁zone	-7025
dated	-7026
▁adapt	-7027
▁taller	-7028
anes	-7029
▁pagar	-7030
▁bomb	-7031
▁lejos	-7032
últi	-7033
▁prepared	-7034
▁homes	-7035
▁raí	-7036
yó	-7037
▁permanent	-7038
atura	-7039
▁rio	-7040
▁motiv	-7041
ption	-7042
▁detect	-7043
iable	-7044
▁satur	-7045
▁lujo	-7046
▁múlti	-7047
ection	-7048
▁ignor	-7049
late	-7050
▁seleccionar	-7051
▁gi	-7052
zy	-7053
▁responsable	-7054
▁olvid	-7055
▁construir	-7056
▁pid	-7057
tral	-7058
tidos	-7059
ígen	-7060
▁kids	-7061
▁cot	-7062
▁fly	-7063
▁alemán	-7064
▁generación	-7065
▁alternative	-7066
▁terceros	-7067
enario	-7068
▁concepto	-7069
▁dvd	-7070
▁revolutionary	-7071
▁covered	-7072
▁víc	-7073
▁diario	-7074
teras	-7075
ald	-7076
▁mam	-7077
▁televisión	-7078
▁armas	-7079
-10	-7080
▁proporciona	-7081
▁installation	-7082
▁pattern	-7083
ously	-7084
▁processes	-7085
▁adultos	-7086
▁evaluación	-7087
▁plastic	-7088
ode	-7089
▁descon	-7090
▁target	-7091
▁anteriores	-7092
▁pere	-7093
▁admiradores	-7094
iación	-7095
▁decide	-7096
asting	-7097
▁obed	-7098
▁licencia	-7099
óst	-7100
▁grado	-7101
▁ocean	-7102
▁manage	-7103
▁intercamb	-7104
▁cál	-7105
▁norm	-7106
▁vier	-7107
asis	-7108
▁estancia	-7109
▁intellig	-7110
cionales	-7111
this	-7112
▁opinion	-7113
arily	-7114
▁tree	-7115
▁resulta	-7116
▁ancient	-7117
stra	-7118
▁elegante	-7119
▁arrival	-7120
▁expect	-7121
▁benefit	-7122
▁colaboración	-7123
▁tir	-7124
▁perfecta	-7125
,7	-7126
uther	-7127
▁útil	-7128
ss	-7129
▁podía	-7130
▁pies	-7131
ani	-7132
▁advance	-7133
▁methods	-7134
▁prácticas	-7135
▁proteger	-7136
▁pedido	-7137
▁trees	-7138
▁diversas	-7139
leo	-7140
▁goods	-7141
▁diver	-7142
▁external	-7143
▁congreso	-7144
▁direction	-7145
yos	-7146
▁especific	-7147
▁creating	-7148
▁manifest	-7149
aling	-7150
áis	-7151
vania	-7152
▁race	-7153
▁cooperación	-7154
▁pok	-7155
▁neu	-7156
▁psych	-7157
▁fuentes	-7158
▁reflex	-7159
▁iden	-7160
▁quím	-7161
▁placed	-7162
▁symptoms	-7163
▁requis	-7164
tienen	-7165
▁quar	-7166
▁incom	-7167
▁temporada	-7168
▁secretary	-7169
▁1998	-7170
▁existencia	-7171
▁ly	-7172
erva	-7173
▁dispositivos	-7174
▁cualquiera	-7175
ampo	-7176
▁facilit	-7177
▁fill	-7178
▁gh	-7179
▁cerem	-7180
▁palace	-7181
▁spl	-7182
▁taxi	-7183
▁shape	-7184
pens	-7185
▁destination	-7186
▁amenaz	-7187
aving	-7188
ianos	-7189
▁notice	-7190
▁remains	-7191
▁pope	-7192
▁verdadero	-7193
tida	-7194
▁ultim	-7195
ille	-7196
adura	-7197
tenance	-7198
▁journey	-7199
▁plans	-7200
▁grace	-7201
▁cells	-7202
▁iron	-7203
▁inaug	-7204
▁growing	-7205
▁rain	-7206
haps	-7207
▁extraordin	-7208
▁guid	-7209
éndose	-7210
▁consejos	-7211
fin	-7212
▁acus	-7213
▁comenzó	-7214
icia	-7215
▁vuelta	-7216
▁escuelas	-7217
▁resolution	-7218
▁asamble	-7219
▁juntos	-7220
▁larga	-7221
▁accident	-7222
▁elecciones	-7223
▁dat	-7224
▁spaces	-7225
▁becomes	-7226
▁manifesta	-7227
▁bah	-7228
inter	-7229
▁seleccione	-7230
▁requer	-7231
▁adquir	-7232
jan	-7233
▁dil	-7234
▁botón	-7235
▁breath	-7236
mbol	-7237
▁expresión	-7238
▁movil	-7239
▁amplio	-7240
▁dibu	-7241
▁autoridad	-7242
▁jugadores	-7243
▁toward	-7244
ever	-7245
▁cooperation	-7246
▁sede	-7247
▁thee	-7248
▁developing	-7249
▁rule	-7250
istros	-7251
estre	-7252
used	-7253
▁ken	-7254
▁promote	-7255
▁gon	-7256
▁tarifas	-7257
▁translation	-7258
ighte	-7259
fortun	-7260
▁purs	-7261
sp	-7262
▁artifici	-7263
▁combined	-7264
▁expected	-7265
▁papa	-7266
▁desire	-7267
▁pic	-7268
▁battle	-7269
▁incorre	-7270
▁alegr	-7271
▁ubicado	-7272
▁accompan	-7273
▁pedir	-7274
▁thinking	-7275
▁puertas	-7276
▁organized	-7277
▁intereses	-7278
▁planes	-7279
▁chinese	-7280
cat	-7281
lat	-7282
▁escuch	-7283
grad	-7284
▁síntomas	-7285
▁kit	-7286
▁distribución	-7287
ike	-7288
▁propósito	-7289
▁trin	-7290
▁aspecto	-7291
▁usando	-7292
.201	-7293
▁rum	-7294
▁88	-7295
▁sco	-7296
▁resolución	-7297
▁compre	-7298
▁conqu	-7299
▁despite	-7300
▁license	-7301
imen	-7302
▁pérdida	-7303
▁girls	-7304
▁perhaps	-7305
part	-7306
▁esfuerzo	-7307
▁52	-7308
▁enr	-7309
▁dry	-7310
,4	-7311
▁recommended	-7312
▁stress	-7313
▁ejecut	-7314
▁comod	-7315
▁bow	-7316
▁turned	-7317
▁secure	-7318
▁extend	-7319
▁adopt	-7320
▁conce	-7321
▁marcas	-7322
itales	-7323
▁apóst	-7324
▁accesorios	-7325
arle	-7326
▁apple	-7327
▁song	-7328
▁absolute	-7329
▁componentes	-7330
▁boca	-7331
▁vulner	-7332
▁relaj	-7333
▁ducha	-7334
▁tips	-7335
▁directo	-7336
▁prol	-7337
▁sate	-7338
▁médica	-7339
▁vamos	-7340
entas	-7341
ificado	-7342
▁probablemente	-7343
▁reb	-7344
▁lima	-7345
▁notific	-7346
▁cit	-7347
gery	-7348
▁satan	-7349
▁visitors	-7350
▁egypt	-7351
▁manager	-7352
ualmente	-7353
▁seres	-7354
▁enlace	-7355
▁diss	-7356
▁effort	-7357
▁gradu	-7358
▁sos	-7359
▁cirug	-7360
▁circu	-7361
▁vote	-7362
▁especies	-7363
▁entertainment	-7364
▁establecimiento	-7365
▁alcohol	-7366
▁overall	-7367
inois	-7368
▁combusti	-7369
▁brothers	-7370
▁democracy	-7371
▁fen	-7372
▁desper	-7373
▁1999	-7374
▁ticket	-7375
▁discipl	-7376
▁achie	-7377
▁navegador	-7378
▁esfuerzos	-7379
▁dul	-7380
▁thousand	-7381
▁bush	-7382
▁garantizar	-7383
▁vatic	-7384
itory	-7385
enso	-7386
▁enterpr	-7387
▁combin	-7388
▁maintenance	-7389
▁120	-7390
▁surg	-7391
▁expertos	-7392
▁imprimir	-7393
▁clara	-7394
▁circun	-7395
34	-7396
▁difference	-7397
▁obis	-7398
▁cool	-7399
▁separate	-7400
▁accur	-7401
▁followed	-7402
▁absol	-7403
▁sustainable	-7404
▁statis	-7405
▁chair	-7406
▁gab	-7407
▁tourism	-7408
▁aconte	-7409
▁propios	-7410
▁temple	-7411
▁russian	-7412
▁doub	-7413
▁bathrooms	-7414
▁aware	-7415
▁negoti	-7416
▁running	-7417
zando	-7418
iber	-7419
▁planeta	-7420
▁contexto	-7421
iciales	-7422
▁clearly	-7423
▁símbol	-7424
gio	-7425
▁protocol	-7426
▁apor	-7427
▁updated	-7428
▁felt	-7429
nam	-7430
▁fines	-7431
▁ourselves	-7432
▁eliminar	-7433
▁illinois	-7434
▁arena	-7435
▁debajo	-7436
▁wife	-7437
aga	-7438
▁elegant	-7439
▁setting	-7440
▁ejercicio	-7441
▁elig	-7442
▁elección	-7443
▁utilizado	-7444
alt	-7445
▁golpe	-7446
▁died	-7447
▁possibility	-7448
▁foro	-7449
▁healthy	-7450
▁figura	-7451
▁circum	-7452
▁minor	-7453
ánico	-7454
▁naz	-7455
▁tier	-7456
▁names	-7457
▁presentar	-7458
▁refr	-7459
▁reported	-7460
▁increí	-7461
,0	-7462
▁kg	-7463
▁progres	-7464
▁creative	-7465
▁medicamentos	-7466
▁predic	-7467
▁perú	-7468
▁sugges	-7469
▁probably	-7470
si	-7471
▁clima	-7472
▁configuración	-7473
▁bran	-7474
▁revis	-7475
▁métodos	-7476
▁navegación	-7477
▁sons	-7478
icó	-7479
▁participants	-7480
▁fum	-7481
▁relevant	-7482
▁russia	-7483
▁necesitan	-7484
▁calor	-7485
▁suger	-7486
▁brain	-7487
ael	-7488
▁permitir	-7489
iada	-7490
▁winter	-7491
▁detr	-7492
▁rail	-7493
▁college	-7494
▁cristal	-7495
▁afirm	-7496
▁mitad	-7497
▁colour	-7498
▁friday	-7499
▁detailed	-7500
wers	-7501
▁slo	-7502
▁sample	-7503
▁presupuesto	-7504
tionary	-7505
▁recordar	-7506
▁yel	-7507
▁daugh	-7508
ander	-7509
▁inspi	-7510
ylvania	-7511
▁inmediat	-7512
▁helps	-7513
▁principalmente	-7514
▁closed	-7515
▁accessories	-7516
▁mut	-7517
adic	-7518
▁definición	-7519
▁vuestro	-7520
▁penns	-7521
▁tickets	-7522
▁forth	-7523
▁alter	-7524
▁disap	-7525
▁últimas	-7526
ológicas	-7527
▁simpl	-7528
▁nearby	-7529
▁contemporary	-7530
▁fondos	-7531
estruct	-7532
atr	-7533
▁recientemente	-7534
▁inferior	-7535
▁enla	-7536
▁african	-7537
▁sunday	-7538
▁historic	-7539
▁ht	-7540
▁cara	-7541
▁individuals	-7542
▁sonido	-7543
▁wireless	-7544
▁interests	-7545
▁urg	-7546
▁cultiv	-7547
fs	-7548
▁rusia	-7549
inaria	-7550
▁participate	-7551
▁nuclear	-7552
legal	-7553
▁responder	-7554
22	-7555
▁fiscal	-7556
▁intent	-7557
▁ko	-7558
▁sovi	-7559
▁resistance	-7560
▁usb	-7561
▁teachers	-7562
▁sáb	-7563
▁menú	-7564
▁pieces	-7565
▁lady	-7566
▁54	-7567
olar	-7568
field	-7569
▁contrario	-7570
▁repa	-7571
▁escap	-7572
▁script	-7573
▁asign	-7574
▁seat	-7575
▁existing	-7576
▁height	-7577
▁viernes	-7578
▁statement	-7579
▁doc	-7580
▁células	-7581
▁listen	-7582
▁task	-7583
ulares	-7584
▁employe	-7585
▁walking	-7586
▁playl	-7587
▁heat	-7588
▁functions	-7589
▁vidas	-7590
cts	-7591
▁rechaz	-7592
▁factores	-7593
▁writing	-7594
tró	-7595
▁inspir	-7596
▁pennsylvania	-7597
▁neither	-7598
▁indigen	-7599
▁suitable	-7600
-6	-7601
▁requires	-7602
year	-7603
▁ou	-7604
atoria	-7605
▁completed	-7606
▁wonderful	-7607
▁visible	-7608
▁campes	-7609
amentales	-7610
▁electric	-7611
▁generation	-7612
▁pensamiento	-7613
▁wait	-7614
ivos	-7615
▁dollar	-7616
▁scan	-7617
▁lay	-7618
ror	-7619
aming	-7620
▁components	-7621
put	-7622
▁física	-7623
▁liqu	-7624
ded	-7625
▁explore	-7626
▁standards	-7627
rea	-7628
▁arts	-7629
▁rot	-7630
▁spir	-7631
▁líderes	-7632
▁marina	-7633
▁princi	-7634
anía	-7635
▁existence	-7636
▁nacimiento	-7637
▁mouth	-7638
▁iraq	-7639
cristo	-7640
▁vive	-7641
▁distribution	-7642
▁reached	-7643
▁ras	-7644
,6	-7645
▁biblia	-7646
▁adults	-7647
▁represents	-7648
▁damage	-7649
▁neighbor	-7650
▁castro	-7651
▁250	-7652
based	-7653
eler	-7654
▁recibido	-7655
▁recip	-7656
▁huge	-7657
▁territorio	-7658
inger	-7659
▁rég	-7660
▁possess	-7661
▁ciento	-7662
▁reh	-7663
cribe	-7664
▁deja	-7665
▁technologies	-7666
▁indigenous	-7667
▁logue	-7668
▁posibles	-7669
▁democratic	-7670
abled	-7671
▁hus	-7672
▁unif	-7673
▁66	-7674
▁catálogo	-7675
ómetros	-7676
▁escape	-7677
▁surgery	-7678
▁cumplir	-7679
▁perió	-7680
▁típ	-7681
▁appar	-7682
▁obr	-7683
▁turística	-7684
▁mete	-7685
eca	-7686
▁alquilar	-7687
▁indica	-7688
▁feet	-7689
▁lou	-7690
▁oportunidades	-7691
▁iran	-7692
▁probar	-7693
▁agency	-7694
▁obv	-7695
iture	-7696
▁streets	-7697
▁chain	-7698
▁huel	-7699
mes	-7700
▁truly	-7701
▁ahí	-7702
▁bacter	-7703
▁spo	-7704
dote	-7705
▁vivienda	-7706
▁newspap	-7707
-11-13	-7708
▁indeed	-7709
▁factors	-7710
▁disposición	-7711
▁correctamente	-7712
▁applied	-7713
▁grá	-7714
▁complejo	-7715
▁reservation	-7716
igan	-7717
▁tri	-7718
▁adoles	-7719
▁determinar	-7720
▁sins	-7721
▁altar	-7722
▁conditioning	-7723
▁2007-11-13	-7724
ensor	-7725
▁cirugía	-7726
▁feeling	-7727
▁irr	-7728
▁fishing	-7729
óstico	-7730
ket	-7731
▁190	-7732
▁piece	-7733
▁acqu	-7734
▁emph	-7735
▁circul	-7736
▁chal	-7737
▁respuestas	-7738
▁showing	-7739
▁advis	-7740
▁asimismo	-7741
▁diet	-7742
▁grave	-7743
▁comport	-7744
▁terminal	-7745
▁suel	-7746
▁ron	-7747
▁distintos	-7748
▁insp	-7749
▁vec	-7750
▁juicio	-7751
▁56	-7752
▁ámb	-7753
▁changed	-7754
▁determine	-7755
▁jesucristo	-7756
▁jehova	-7757
▁peoples	-7758
▁agrade	-7759
▁ticjob	-7760
▁aprop	-7761
▁castillo	-7762
▁pages	-7763
hone	-7764
▁vál	-7765
▁tráfico	-7766
▁numerous	-7767
elle	-7768
fera	-7769
▁normas	-7770
▁executive	-7771
▁afford	-7772
▁opportunities	-7773
▁marcha	-7774
▁wear	-7775
▁assistance	-7776
atorios	-7777
▁tun	-7778
▁successful	-7779
▁drink	-7780
▁mensajes	-7781
▁plante	-7782
▁majority	-7783
,3	-7784
▁ax	-7785
quetes	-7786
uries	-7787
▁funcionamiento	-7788
▁bern	-7789
▁esencial	-7790
▁comunes	-7791
▁pac	-7792
▁experts	-7793
▁electoral	-7794
▁describe	-7795
▁egipto	-7796
sts	-7797
▁continued	-7798
▁plen	-7799
▁commitment	-7800
▁descend	-7801
itage	-7802
▁male	-7803
▁poderos	-7804
▁matrim	-7805
▁teniendo	-7806
▁infan	-7807
▁universe	-7808
osop	-7809
▁reuniones	-7810
▁buenas	-7811
▁esperar	-7812
▁posibil	-7813
▁medicina	-7814
acious	-7815
▁infra	-7816
▁bom	-7817
▁término	-7818
iamente	-7819
▁eternal	-7820
portes	-7821
▁bolet	-7822
yendo	-7823
▁fals	-7824
▁razones	-7825
▁surv	-7826
▁wants	-7827
▁hill	-7828
▁gb	-7829
▁defense	-7830
▁counter	-7831
▁biblioteca	-7832
▁descans	-7833
▁película	-7834
▁cristianos	-7835
▁pecados	-7836
▁ministro	-7837
▁operations	-7838
▁carg	-7839
▁ventana	-7840
how	-7841
hr	-7842
▁mortal	-7843
▁punta	-7844
▁sad	-7845
▁patrim	-7846
▁chance	-7847
▁paid	-7848
▁resurre	-7849
▁perder	-7850
▁dates	-7851
▁educa	-7852
▁logotipo	-7853
itish	-7854
iment	-7855
▁verdadera	-7856
▁owners	-7857
▁vuestra	-7858
ánica	-7859
▁volume	-7860
▁manufacturer	-7861
▁songs	-7862
▁operaciones	-7863
▁compatible	-7864
▁sierra	-7865
▁terreno	-7866
▁knew	-7867
▁chemical	-7868
▁arbit	-7869
▁estará	-7870
▁yellow	-7871
▁agencia	-7872
osen	-7873
▁heritage	-7874
▁condición	-7875
.-	-7876
▁científic	-7877
▁rojo	-7878
▁approximately	-7879
▁pobres	-7880
▁asamblea	-7881
▁provo	-7882
vin	-7883
▁colors	-7884
▁merced	-7885
force	-7886
▁unity	-7887
gica	-7888
icious	-7889
▁gloria	-7890
▁tru	-7891
▁marc	-7892
▁wien	-7893
▁distingu	-7894
▁finales	-7895
▁camera	-7896
▁bron	-7897
▁heating	-7898
▁flowers	-7899
▁hermano	-7900
ró	-7901
▁convierte	-7902
▁95	-7903
▁asunto	-7904
▁calles	-7905
▁anuncio	-7906
▁género	-7907
▁generalmente	-7908
▁consci	-7909
▁nación	-7910
▁abre	-7911
▁ciudadanos	-7912
▁hearts	-7913
▁vehículo	-7914
▁generales	-7915
jeron	-7916
▁continues	-7917
▁buildings	-7918
▁asesin	-7919
▁inmediatamente	-7920
▁cort	-7921
brica	-7922
▁contain	-7923
▁cine	-7924
▁inicial	-7925
▁plane	-7926
▁adventure	-7927
▁reti	-7928
▁llamadas	-7929
▁invent	-7930
▁atmosphere	-7931
▁identidad	-7932
▁motivo	-7933
quiera	-7934
▁realizado	-7935
▁repl	-7936
▁artista	-7937
▁constant	-7938
▁santos	-7939
▁annual	-7940
▁patient	-7941
▁paquete	-7942
▁skills	-7943
rob	-7944
▁atrás	-7945
▁canciones	-7946
▁maes	-7947
▁objective	-7948
▁nas	-7949
mi	-7950
ída	-7951
▁border	-7952
▁bajos	-7953
▁representative	-7954
▁depending	-7955
▁joint	-7956
▁ri	-7957
▁grie	-7958
▁encan	-7959
▁cerrar	-7960
▁universo	-7961
dez	-7962
▁frequently	-7963
▁diam	-7964
▁trump	-7965
▁cast	-7966
▁consulte	-7967
▁aument	-7968
▁characteristics	-7969
nel	-7970
rese	-7971
▁cubr	-7972
oli	-7973
uste	-7974
▁democracia	-7975
▁compreh	-7976
▁vitam	-7977
▁ue	-7978
▁hundred	-7979
▁brown	-7980
▁signs	-7981
▁satell	-7982
▁offici	-7983
▁cafe	-7984
▁espir	-7985
▁recovery	-7986
▁forget	-7987
▁challenges	-7988
▁mere	-7989
▁decisiones	-7990
▁publicidad	-7991
21	-7992
▁99	-7993
icit	-7994
▁tat	-7995
▁freel	-7996
▁abor	-7997
▁philosop	-7998
cimientos	-7999
tate	-8000
▁solicitar	-8001
▁59	-8002
▁wrote	-8003
▁teatro	-8004
▁directv	-8005
▁bou	-8006
▁agencies	-8007
isation	-8008
▁conclu	-8009
▁riv	-8010
27	-8011
istan	-8012
▁ésta	-8013
stand	-8014
▁automatic	-8015
▁lived	-8016
▁amazing	-8017
▁templo	-8018
▁defect	-8019
▁happen	-8020
▁jord	-8021
▁comienza	-8022
▁trabajando	-8023
▁chief	-8024
▁integral	-8025
▁familiares	-8026
▁realiza	-8027
▁georg	-8028
▁potencia	-8029
ull	-8030
▁exactly	-8031
rest	-8032
▁publicación	-8033
▁urb	-8034
known	-8035
▁ak	-8036
▁meetings	-8037
tables	-8038
▁producir	-8039
▁abraham	-8040
▁conm	-8041
▁recepción	-8042
▁reduced	-8043
set	-8044
▁peligros	-8045
uset	-8046
▁happened	-8047
iene	-8048
izadas	-8049
▁appre	-8050
uit	-8051
▁queda	-8052
▁british	-8053
▁garantía	-8054
▁monday	-8055
▁advertising	-8056
remos	-8057
▁gobiernos	-8058
▁spr	-8059
▁marx	-8060
▁ice	-8061
▁rise	-8062
▁traducción	-8063
▁gets	-8064
▁palacio	-8065
▁regiones	-8066
28	-8067
▁aspects	-8068
guard	-8069
▁plug	-8070
▁volumen	-8071
▁suj	-8072
▁proporcionar	-8073
▁sorprend	-8074
bean	-8075
▁worldwide	-8076
▁agree	-8077
▁um	-8078
▁adolesc	-8079
ague	-8080
▁spot	-8081
▁golden	-8082
▁reward	-8083
▁nombres	-8084
ija	-8085
▁hd	-8086
áculo	-8087
free	-8088
▁austria	-8089
▁issued	-8090
íst	-8091
▁inmobiliario	-8092
▁193	-8093
▁drogas	-8094
▁pertene	-8095
▁veter	-8096
▁mínimo	-8097
▁pover	-8098
▁enfoque	-8099
▁llegó	-8100
▁asegurar	-8101
▁comprome	-8102
▁combinación	-8103
▁sectores	-8104
▁intim	-8105
▁primary	-8106
▁estrat	-8107
▁causes	-8108
▁encima	-8109
▁régimen	-8110
▁pasa	-8111
▁electronic	-8112
▁except	-8113
▁miedo	-8114
▁choc	-8115
▁presentation	-8116
▁regions	-8117
ov	-8118
▁chosen	-8119
▁eco	-8120
▁flamen	-8121
▁typical	-8122
bos	-8123
▁dll	-8124
▁governments	-8125
▁diab	-8126
▁objects	-8127
▁poly	-8128
▁kilómetros	-8129
gó	-8130
band	-8131
▁fulf	-8132
▁principles	-8133
▁asuntos	-8134
▁sharing	-8135
mented	-8136
▁tarea	-8137
▁norther	-8138
▁thr	-8139
▁metres	-8140
▁pm	-8141
▁secretario	-8142
isted	-8143
▁martin	-8144
cionar	-8145
▁profesor	-8146
▁mount	-8147
▁mountains	-8148
▁rese	-8149
▁shops	-8150
▁transpor	-8151
▁arab	-8152
▁incon	-8153
▁neck	-8154
▁arom	-8155
▁served	-8156
▁intra	-8157
▁massach	-8158
▁pregn	-8159
▁magazine	-8160
▁arc	-8161
quía	-8162
oxid	-8163
▁53	-8164
▁bap	-8165
uo	-8166
▁ath	-8167
eme	-8168
▁lunes	-8169
▁navidad	-8170
▁extremely	-8171
▁bici	-8172
▁mister	-8173
▁amster	-8174
▁religion	-8175
▁poverty	-8176
▁passed	-8177
▁snow	-8178
▁escribir	-8179
23	-8180
▁otor	-8181
▁85	-8182
▁abierta	-8183
▁radical	-8184
▁adicionales	-8185
▁chamb	-8186
▁instrucciones	-8187
▁teacher	-8188
▁flexible	-8189
▁oriente	-8190
▁podrán	-8191
▁accepted	-8192
▁multim	-8193
▁northern	-8194
▁playas	-8195
▁calef	-8196
▁hubo	-8197
▁agradable	-8198
▁contrat	-8199
▁seguros	-8200
▁insta	-8201
▁manner	-8202
usetts	-8203
fir	-8204
ayo	-8205
▁amsterdam	-8206
▁combination	-8207
▁58	-8208
words	-8209
▁suffering	-8210
▁massachusetts	-8211
acto	-8212
29	-8213
▁impuls	-8214
▁autonom	-8215
▁paseo	-8216
▁daño	-8217
vió	-8218
áticamente	-8219
ecía	-8220
▁aid	-8221
▁múltiples	-8222
dox	-8223
▁empleados	-8224
▁bob	-8225
▁castle	-8226
▁sexo	-8227
anzas	-8228
▁aisl	-8229
▁trabaja	-8230
▁estratég	-8231
▁hebre	-8232
▁distintas	-8233
▁prestig	-8234
▁dear	-8235
▁friendly	-8236
▁sier	-8237
wi	-8238
bon	-8239
▁cuyo	-8240
▁carn	-8241
▁llega	-8242
▁visitantes	-8243
▁eight	-8244
▁weap	-8245
▁alej	-8246
▁announced	-8247
▁simult	-8248
▁contactar	-8249
▁escala	-8250
term	-8251
▁innovation	-8252
▁tecnologías	-8253
▁inver	-8254
▁theme	-8255
▁inhab	-8256
▁leadership	-8257
▁novel	-8258
▁educational	-8259
minute	-8260
▁logos	-8261
▁quieren	-8262
▁pray	-8263
▁dialogue	-8264
▁critical	-8265
▁faq	-8266
▁intercambio	-8267
▁pose	-8268
▁committed	-8269
▁mentioned	-8270
▁diseñado	-8271
▁ador	-8272
▁pair	-8273
▁terminar	-8274
-19	-8275
▁dicen	-8276
▁equival	-8277
▁altos	-8278
▁socio	-8279
▁hidden	-8280
erland	-8281
▁refriger	-8282
▁operación	-8283
san	-8284
▁implementation	-8285
▁practical	-8286
▁described	-8287
▁números	-8288
▁tens	-8289
▁urugu	-8290
▁dining	-8291
75	-8292
▁judíos	-8293
▁bang	-8294
▁emiti	-8295
▁jefe	-8296
iendas	-8297
▁compared	-8298
▁representantes	-8299
▁momentos	-8300
▁carolina	-8301
▁protected	-8302
▁sel	-8303
▁silen	-8304
▁moda	-8305
▁yah	-8306
▁canadá	-8307
▁spacious	-8308
alidad	-8309
▁sust	-8310
place	-8311
26	-8312
fol	-8313
▁demonst	-8314
▁humanity	-8315
▁glory	-8316
▁cercan	-8317
▁bienvenida	-8318
lava	-8319
alled	-8320
▁puls	-8321
▁populares	-8322
▁fidel	-8323
▁empresar	-8324
▁obama	-8325
▁markets	-8326
▁driver	-8327
▁settings	-8328
▁jacob	-8329
ept	-8330
rant	-8331
▁exer	-8332
▁600	-8333
▁sacerd	-8334
ault	-8335
ícol	-8336
▁europeo	-8337
américa	-8338
▁facult	-8339
▁agentes	-8340
▁entrance	-8341
▁protest	-8342
▁calendario	-8343
▁tests	-8344
▁costo	-8345
▁gestion	-8346
▁queremos	-8347
▁propuesta	-8348
▁almacenamiento	-8349
spe	-8350
▁hur	-8351
▁montaña	-8352
▁unidas	-8353
ius	-8354
▁duration	-8355
▁filled	-8356
dor	-8357
ánea	-8358
▁examen	-8359
▁ubic	-8360
ech	-8361
▁beaches	-8362
▁rosa	-8363
▁innova	-8364
▁sources	-8365
ónico	-8366
▁detrás	-8367
ighteous	-8368
▁involu	-8369
▁lod	-8370
▁recognized	-8371
▁representatives	-8372
▁estadísticas	-8373
▁1010	-8374
▁ocho	-8375
▁exactamente	-8376
▁1997	-8377
▁insert	-8378
▁culturales	-8379
▁iphone	-8380
▁técnico	-8381
▁background	-8382
eria	-8383
▁duro	-8384
ione	-8385
▁caribbean	-8386
▁practices	-8387
▁individuales	-8388
▁waste	-8389
▁earn	-8390
▁servir	-8391
▁supported	-8392
▁mediterrane	-8393
▁compil	-8394
▁elemento	-8395
▁affected	-8396
▁japón	-8397
▁aparcamiento	-8398
▁directa	-8399
▁vall	-8400
▁leaves	-8401
▁drag	-8402
▁contenidos	-8403
cidas	-8404
▁procedimiento	-8405
▁bread	-8406
▁negative	-8407
▁óp	-8408
izaje	-8409
▁nic	-8410
▁relacionadas	-8411
ae	-8412
sm	-8413
▁verse	-8414
▁residence	-8415
▁definition	-8416
▁drugs	-8417
▁aceptar	-8418
▁taste	-8419
ored	-8420
▁iniciativa	-8421
▁prepare	-8422
▁bodies	-8423
▁fabricante	-8424
▁patio	-8425
▁consists	-8426
▁discíp	-8427
kers	-8428
▁sweet	-8429
tigo	-8430
▁caliente	-8431
▁norma	-8432
adero	-8433
▁registered	-8434
di	-8435
▁myself	-8436
poses	-8437
▁guitar	-8438
astre	-8439
olate	-8440
undos	-8441
terno	-8442
▁famoso	-8443
▁aplicar	-8444
▁hil	-8445
▁walls	-8446
▁coloc	-8447
▁informes	-8448
▁michael	-8449
▁package	-8450
orca	-8451
gal	-8452
▁satellite	-8453
▁shut	-8454
▁reconstru	-8455
▁adecuado	-8456
ficient	-8457
▁aventura	-8458
▁opos	-8459
▁convertirse	-8460
▁recuperación	-8461
▁math	-8462
▁máquinas	-8463
▁stories	-8464
▁vio	-8465
▁glor	-8466
▁identity	-8467
eo	-8468
▁movimientos	-8469
▁conflicto	-8470
▁cree	-8471
▁pobreza	-8472
▁comenzar	-8473
▁landscape	-8474
▁puntuación	-8475
▁periód	-8476
▁excurs	-8477
ules	-8478
▁registration	-8479
▁empezar	-8480
▁tenían	-8481
▁dias	-8482
▁advantages	-8483
▁distrito	-8484
▁hero	-8485
▁habrá	-8486
▁sirve	-8487
▁tail	-8488
usted	-8489
▁salvation	-8490
▁suave	-8491
▁mah	-8492
▁fij	-8493
▁aceler	-8494
▁souther	-8495
▁compla	-8496
eder	-8497
▁cif	-8498
▁heavy	-8499
▁ventas	-8500
▁procedure	-8501
▁networks	-8502
▁desempe	-8503
▁boletín	-8504
▁dormitorio	-8505
▁furniture	-8506
irect	-8507
▁importa	-8508
▁embaraz	-8509
road	-8510
▁tradición	-8511
icord	-8512
▁emergency	-8513
▁lengua	-8514
iques	-8515
▁demanda	-8516
cs	-8517
▁evolución	-8518
▁especie	-8519
ered	-8520
▁channel	-8521
▁acto	-8522
raciones	-8523
ella	-8524
▁cav	-8525
▁explained	-8526
▁dens	-8527
▁ski	-8528
▁deposit	-8529
▁pár	-8530
▁basa	-8531
▁mercedes	-8532
▁derr	-8533
fl	-8534
▁lam	-8535
uk	-8536
▁considera	-8537
▁vehicles	-8538
▁nombr	-8539
▁tower	-8540
unter	-8541
▁encontrado	-8542
▁vigil	-8543
▁upper	-8544
▁inher	-8545
▁edificios	-8546
▁promover	-8547
▁viajar	-8548
▁hermosa	-8549
▁acu	-8550
matic	-8551
▁maz	-8552
ológicos	-8553
▁vag	-8554
▁southern	-8555
▁machines	-8556
▁lee	-8557
▁mejora	-8558
▁restor	-8559
don	-8560
▁lla	-8561
▁exped	-8562
▁proveedores	-8563
▁compe	-8564
▁mobil	-8565
▁entidad	-8566
▁entradas	-8567
▁airlines	-8568
▁calendar	-8569
▁tercera	-8570
▁sueño	-8571
▁female	-8572
iff	-8573
▁kept	-8574
▁framework	-8575
tismo	-8576
enn	-8577
▁segura	-8578
▁anual	-8579
▁sábado	-8580
▁mercados	-8581
▁gardens	-8582
▁vein	-8583
▁hath	-8584
americana	-8585
▁competition	-8586
ampoco	-8587
▁amazon	-8588
▁client	-8589
▁religión	-8590
▁misericord	-8591
▁1990	-8592
▁palm	-8593
icaz	-8594
▁generally	-8595
▁anticip	-8596
▁preced	-8597
▁jean	-8598
▁bienestar	-8599
▁uruguay	-8600
▁artificial	-8601
▁tabla	-8602
▁collect	-8603
▁divor	-8604
▁kinds	-8605
▁explot	-8606
.10	-8607
▁reciente	-8608
▁explo	-8609
usias	-8610
▁paquetes	-8611
▁compañías	-8612
▁thurs	-8613
▁modific	-8614
▁conduct	-8615
▁comprender	-8616
▁spend	-8617
▁compara	-8618
▁calefacción	-8619
▁mt	-8620
▁detal	-8621
pensa	-8622
▁innovative	-8623
▁cuya	-8624
▁poker	-8625
sl	-8626
igned	-8627
▁secu	-8628
▁1996	-8629
▁itiner	-8630
▁equipada	-8631
▁spok	-8632
▁posibilidades	-8633
▁convención	-8634
▁james	-8635
▁employment	-8636
▁owner	-8637
▁initiative	-8638
▁pintura	-8639
▁miami	-8640
▁television	-8641
▁replace	-8642
▁percep	-8643
▁probable	-8644
gi	-8645
cón	-8646
▁tampoco	-8647
▁pesca	-8648
▁enable	-8649
▁drin	-8650
▁únicamente	-8651
▁hac	-8652
▁alegría	-8653
▁engineering	-8654
▁maravill	-8655
▁ferr	-8656
uri	-8657
▁housing	-8658
▁asociados	-8659
▁veget	-8660
▁mainly	-8661
▁kid	-8662
tible	-8663
cd	-8664
▁pav	-8665
▁moving	-8666
▁tried	-8667
▁coleg	-8668
▁vertical	-8669
▁retr	-8670
abezas	-8671
▁beds	-8672
▁máxima	-8673
▁etapa	-8674
▁voy	-8675
idez	-8676
▁fles	-8677
▁couple	-8678
ariamente	-8679
▁philip	-8680
udas	-8681
▁prole	-8682
▁barcos	-8683
▁seguimiento	-8684
▁consumption	-8685
▁consecuencia	-8686
▁jews	-8687
▁estadounidense	-8688
▁recomendar	-8689
ois	-8690
▁cleaning	-8691
▁jerusalén	-8692
▁correcta	-8693
fit	-8694
▁explica	-8695
▁planificación	-8696
▁colocar	-8697
udo	-8698
ibilities	-8699
▁japanese	-8700
▁ocasión	-8701
▁periodo	-8702
▁parli	-8703
rastruct	-8704
▁corporate	-8705
ísticos	-8706
▁priests	-8707
▁george	-8708
itan	-8709
▁57	-8710
▁messages	-8711
▁hará	-8712
ai	-8713
▁podrás	-8714
▁occasion	-8715
▁resp	-8716
▁integrated	-8717
▁hija	-8718
▁certainly	-8719
tile	-8720
dra	-8721
uded	-8722
▁planned	-8723
▁preparación	-8724
▁territory	-8725
▁remin	-8726
▁thir	-8727
▁utilizan	-8728
▁intr	-8729
▁boats	-8730
▁entreten	-8731
termin	-8732
▁parl	-8733
▁determined	-8734
▁800	-8735
▁alcance	-8736
▁linux	-8737
▁arrang	-8738
emia	-8739
queta	-8740
▁records	-8741
▁habitantes	-8742
▁professionals	-8743
▁mode	-8744
▁accidentes	-8745
▁claramente	-8746
▁autén	-8747
▁saved	-8748
aso	-8749
▁viven	-8750
▁significado	-8751
▁greatest	-8752
▁manip	-8753
▁lie	-8754
▁enorme	-8755
▁agents	-8756
▁retir	-8757
▁mediterranean	-8758
olas	-8759
▁rompec	-8760
▁expressed	-8761
▁incluir	-8762
▁cadena	-8763
▁thursday	-8764
▁founded	-8765
▁speaking	-8766
▁strategic	-8767
var	-8768
▁advice	-8769
▁bosque	-8770
▁processing	-8771
▁saturday	-8772
▁infrastruct	-8773
▁identify	-8774
cription	-8775
▁fabricación	-8776
▁automatically	-8777
▁discre	-8778
▁guerr	-8779
▁horm	-8780
roll	-8781
▁rompecabezas	-8782
▁crystal	-8783
▁51	-8784
▁classes	-8785
▁próxim	-8786
▁righteous	-8787
▁conocimientos	-8788
▁balcon	-8789
▁reloj	-8790
▁deseos	-8791
dia	-8792
▁boy	-8793
▁sabemos	-8794
▁proletar	-8795
bras	-8796
▁presentes	-8797
▁expecta	-8798
▁actuales	-8799
claim	-8800
etra	-8801
▁galax	-8802
▁collaboration	-8803
▁influencia	-8804
▁pist	-8805
▁joseph	-8806
▁suiza	-8807
pez	-8808
▁fase	-8809
▁abord	-8810
úr	-8811
▁gastos	-8812
íb	-8813
ertura	-8814
▁wednes	-8815
▁ára	-8816
▁partidos	-8817
presión	-8818
▁patrimonio	-8819
itzerland	-8820
▁hen	-8821
▁ult	-8822
▁bin	-8823
▁leads	-8824
ulate	-8825
▁experienced	-8826
▁tropical	-8827
▁situaciones	-8828
apor	-8829
▁favoritos	-8830
▁estén	-8831
▁proceed	-8832
▁contradic	-8833
▁exercis	-8834
▁acum	-8835
▁situada	-8836
▁evening	-8837
pm	-8838
▁fant	-8839
▁false	-8840
▁concerning	-8841
▁cuestiones	-8842
win	-8843
uración	-8844
▁recibe	-8845
▁jueves	-8846
atever	-8847
▁bridge	-8848
▁árboles	-8849
▁jih	-8850
apest	-8851
▁switzerland	-8852
▁notes	-8853
▁carretera	-8854
▁precisión	-8855
▁vender	-8856
▁reproducción	-8857
▁jorge	-8858
tista	-8859
▁moses	-8860
▁startups	-8861
cate	-8862
ituales	-8863
▁purposes	-8864
▁doors	-8865
uría	-8866
▁índ	-8867
▁dual	-8868
▁offices	-8869
▁rose	-8870
▁combustible	-8871
▁entry	-8872
▁released	-8873
▁estuv	-8874
coles	-8875
▁ces	-8876
▁discu	-8877
▁ingresos	-8878
ficos	-8879
-9	-8880
▁pelo	-8881
▁ana	-8882
▁nap	-8883
▁paciente	-8884
ameter	-8885
ellas	-8886
▁tierras	-8887
▁coal	-8888
▁testimonio	-8889
orio	-8890
▁servidor	-8891
▁nine	-8892
▁bars	-8893
▁applic	-8894
▁circumst	-8895
▁provis	-8896
hotel	-8897
ciles	-8898
▁flesh	-8899
▁gender	-8900
▁víctimas	-8901
▁armed	-8902
head	-8903
▁signed	-8904
▁vincul	-8905
▁porta	-8906
cam	-8907
ateral	-8908
▁election	-8909
▁brings	-8910
▁gustaría	-8911
▁editorial	-8912
onía	-8913
▁pensiones	-8914
▁presents	-8915
▁waters	-8916
▁camin	-8917
▁obtained	-8918
▁numerosos	-8919
avar	-8920
▁switch	-8921
▁decoración	-8922
▁buff	-8923
▁cil	-8924
itim	-8925
▁placer	-8926
▁define	-8927
izan	-8928
▁inner	-8929
▁infraestruct	-8930
▁hicieron	-8931
▁sindic	-8932
▁requisitos	-8933
▁sencillo	-8934
sc	-8935
ark	-8936
▁bebé	-8937
▁respet	-8938
▁whatever	-8939
▁deportes	-8940
▁harmon	-8941
▁brief	-8942
▁corto	-8943
▁knows	-8944
▁ataque	-8945
▁satél	-8946
▁faithful	-8947
▁accel	-8948
▁desarrollado	-8949
▁repos	-8950
▁necesaria	-8951
▁paisaje	-8952
▁gig	-8953
▁llegado	-8954
▁dominio	-8955
▁ultra	-8956
▁finland	-8957
▁ecos	-8958
▁filos	-8959
▁pagina	-8960
▁instructions	-8961
▁salt	-8962
▁chicago	-8963
pear	-8964
▁autobús	-8965
wan	-8966
▁activa	-8967
▁académ	-8968
▁sól	-8969
▁toler	-8970
▁oficinas	-8971
▁salvación	-8972
▁locations	-8973
opol	-8974
▁therapy	-8975
▁wednesday	-8976
▁removed	-8977
▁resolver	-8978
▁rig	-8979
▁scale	-8980
▁index	-8981
▁comienzo	-8982
▁proteg	-8983
▁christians	-8984
▁convert	-8985
▁reducción	-8986
▁obstante	-8987
mous	-8988
▁returned	-8989
▁visited	-8990
▁justific	-8991
▁specifically	-8992
▁enseñanza	-8993
▁fan	-8994
▁beings	-8995
tise	-8996
▁maps	-8997
▁crime	-8998
▁aparece	-8999
cm	-9000
▁180	-9001
▁gonz	-9002
▁evaluation	-9003
▁1994	-9004
itarios	-9005
▁consigu	-9006
igue	-9007
▁killed	-9008
▁ambas	-9009
icate	-9010
▁surrounded	-9011
poner	-9012
▁adjust	-9013
▁ál	-9014
▁1995	-9015
sible	-9016
tho	-9017
▁curren	-9018
▁formed	-9019
▁blessed	-9020
sen	-9021
taciones	-9022
▁mezcla	-9023
▁concord	-9024
▁refiere	-9025
▁órgan	-9026
▁wet	-9027
ígenas	-9028
▁rab	-9029
▁rol	-9030
▁elections	-9031
▁gate	-9032
▁intellectual	-9033
▁judicial	-9034
▁controlar	-9035
▁compres	-9036
▁opinions	-9037
▁goals	-9038
▁proveedor	-9039
▁pone	-9040
▁fotografía	-9041
ámetro	-9042
▁frecuentes	-9043
▁española	-9044
▁regíst	-9045
▁detalle	-9046
▁barra	-9047
▁named	-9048
▁diseases	-9049
ornos	-9050
▁kore	-9051
▁comedor	-9052
▁bañ	-9053
▁score	-9054
vera	-9055
esco	-9056
▁premios	-9057
▁eficaz	-9058
▁multimedia	-9059
▁phen	-9060
▁proposed	-9061
▁indis	-9062
▁enlaces	-9063
my	-9064
▁fantás	-9065
▁publicaciones	-9066
ipe	-9067
take	-9068
▁campe	-9069
▁interrup	-9070
▁circunst	-9071
▁dup	-9072
unge	-9073
▁murder	-9074
▁plano	-9075
▁hect	-9076
real	-9077
▁contribute	-9078
▁apenas	-9079
▁billion	-9080
▁tatto	-9081
▁segundos	-9082
▁propag	-9083
▁enf	-9084
▁multipl	-9085
sites	-9086
▁traslado	-9087
▁alimentación	-9088
▁inclus	-9089
▁larger	-9090
▁highl	-9091
▁hojas	-9092
ole	-9093
▁líqu	-9094
▁perspectiva	-9095
▁errores	-9096
▁principle	-9097
▁forgot	-9098
▁rodr	-9099
▁conforme	-9100
▁obvious	-9101
uros	-9102
iation	-9103
▁asesor	-9104
▁recre	-9105
▁lose	-9106
idays	-9107
▁reglas	-9108
▁adecuada	-9109
▁invierno	-9110
▁cuá	-9111
entic	-9112
▁conocida	-9113
▁asum	-9114
itici	-9115
▁regime	-9116
cking	-9117
▁jorn	-9118
nis	-9119
▁appears	-9120
▁entend	-9121
▁atlan	-9122
letas	-9123
down	-9124
oster	-9125
antos	-9126
▁comparar	-9127
▁negr	-9128
▁mois	-9129
▁dispar	-9130
▁caball	-9131
▁medie	-9132
▁bottom	-9133
ansas	-9134
ismos	-9135
▁aprendizaje	-9136
▁militares	-9137
▁toile	-9138
tified	-9139
lor	-9140
isla	-9141
▁remote	-9142
▁painting	-9143
▁inmobiliarios	-9144
▁bour	-9145
▁ciclo	-9146
▁transmit	-9147
▁concern	-9148
▁ml	-9149
aman	-9150
▁fechas	-9151
▁figures	-9152
▁manuel	-9153
▁waiting	-9154
onóm	-9155
pher	-9156
▁cubierta	-9157
▁ocult	-9158
▁permane	-9159
▁stain	-9160
athers	-9161
▁impresión	-9162
▁borde	-9163
atch	-9164
▁doubt	-9165
▁sacerdotes	-9166
zados	-9167
▁blogs	-9168
▁plate	-9169
▁alar	-9170
▁louis	-9171
▁innovación	-9172
cism	-9173
▁topics	-9174
▁subsid	-9175
▁promoción	-9176
▁comparación	-9177
▁7.5	-9178
▁pir	-9179
ibar	-9180
gase	-9181
▁jewish	-9182
▁iva	-9183
▁mód	-9184
▁mallorca	-9185
cor	-9186
▁viejo	-9187
▁consolid	-9188
▁63	-9189
▁edge	-9190
▁finished	-9191
▁estuvo	-9192
▁oficiales	-9193
▁breve	-9194
▁actu	-9195
▁lies	-9196
ulated	-9197
▁rebel	-9198
▁caribe	-9199
▁moved	-9200
▁analyz	-9201
▁derro	-9202
▁impress	-9203
isos	-9204
▁helped	-9205
▁recientes	-9206
▁fourth	-9207
▁explos	-9208
▁instrumentos	-9209
cad	-9210
▁dies	-9211
▁driving	-9212
▁marine	-9213
▁demands	-9214
▁movements	-9215
▁reconocimiento	-9216
▁rib	-9217
▁welcom	-9218
burgo	-9219
▁rique	-9220
▁ámbito	-9221
▁prosper	-9222
▁lea	-9223
▁hubiera	-9224
ecciones	-9225
▁deberá	-9226
▁resumen	-9227
▁equal	-9228
pression	-9229
▁batalla	-9230
▁worship	-9231
▁wisdom	-9232
▁camas	-9233
party	-9234
▁employees	-9235
▁collar	-9236
▁looks	-9237
▁conoc	-9238
ictory	-9239
istán	-9240
▁stic	-9241
▁pareja	-9242
▁happens	-9243
▁sort	-9244
▁actitud	-9245
▁victims	-9246
tia	-9247
▁respeto	-9248
▁moisés	-9249
▁learned	-9250
▁iglesias	-9251
▁ohio	-9252
▁miér	-9253
▁cp	-9254
▁sient	-9255
▁uns	-9256
▁suplement	-9257
▁jehovah	-9258
unte	-9259
▁attr	-9260
▁talking	-9261
▁prize	-9262
water	-9263
▁maybe	-9264
osas	-9265
▁orders	-9266
▁públicos	-9267
▁electro	-9268
▁techniques	-9269
▁career	-9270
▁arms	-9271
nd	-9272
▁spoke	-9273
▁castell	-9274
▁pric	-9275
▁diferencias	-9276
▁passion	-9277
like	-9278
▁appearance	-9279
▁becoming	-9280
▁señora	-9281
▁labour	-9282
text	-9283
▁cuánto	-9284
▁virginia	-9285
▁sugar	-9286
▁contrato	-9287
▁explain	-9288
▁primeras	-9289
▁luminos	-9290
▁examples	-9291
▁apreci	-9292
óvil	-9293
▁evolution	-9294
▁mismas	-9295
▁situations	-9296
▁stated	-9297
▁dosis	-9298
▁bishop	-9299
▁nearly	-9300
▁palma	-9301
▁antic	-9302
▁recuperar	-9303
▁ant	-9304
▁straight	-9305
▁millions	-9306
▁diego	-9307
▁sacerdote	-9308
▁quizás	-9309
▁miércoles	-9310
hel	-9311
▁organic	-9312
▁centers	-9313
▁pill	-9314
▁chur	-9315
▁moderna	-9316
▁invas	-9317
▁reconocer	-9318
▁bater	-9319
▁indígenas	-9320
▁guardar	-9321
▁phase	-9322
▁performed	-9323
▁regalo	-9324
▁direc	-9325
.50	-9326
▁preach	-9327
ógica	-9328
▁changing	-9329
▁mail	-9330
erías	-9331
▁decisions	-9332
▁depende	-9333
iosas	-9334
eco	-9335
▁suces	-9336
▁revisión	-9337
▁ring	-9338
▁affordable	-9339
▁repair	-9340
▁isn	-9341
▁politics	-9342
▁económicas	-9343
▁públicas	-9344
▁ore	-9345
-20	-9346
▁votos	-9347
▁rapid	-9348
▁attacks	-9349
▁nether	-9350
▁efficient	-9351
▁cabal	-9352
▁thick	-9353
▁parliament	-9354
▁contam	-9355
▁businesses	-9356
▁virgen	-9357
▁georgia	-9358
▁panama	-9359
▁sabid	-9360
▁continúa	-9361
ret	-9362
▁defined	-9363
▁diabetes	-9364
lier	-9365
chet	-9366
▁judge	-9367
▁sober	-9368
▁consiste	-9369
▁ciencias	-9370
▁piensa	-9371
▁noved	-9372
condition	-9373
▁publication	-9374
▁corner	-9375
▁enterprise	-9376
▁instalar	-9377
▁cuándo	-9378
▁hones	-9379
▁transmiti	-9380
▁cuentas	-9381
▁entered	-9382
▁embaj	-9383
▁siguen	-9384
▁consciousness	-9385
▁360	-9386
▁banks	-9387
▁1000	-9388
▁retro	-9389
▁autores	-9390
▁gif	-9391
▁dicha	-9392
▁sostenible	-9393
lets	-9394
▁sustan	-9395
irus	-9396
▁clinical	-9397
▁andalu	-9398
▁behold	-9399
▁perten	-9400
▁slight	-9401
▁none	-9402
▁datab	-9403
▁pena	-9404
▁aspir	-9405
▁dañ	-9406
▁older	-9407
▁secon	-9408
▁rally	-9409
▁factory	-9410
▁consultar	-9411
▁involucr	-9412
▁seed	-9413
▁reflect	-9414
▁disfrute	-9415
▁favorite	-9416
▁theat	-9417
tian	-9418
▁sevilla	-9419
▁cuentan	-9420
phones	-9421
▁puente	-9422
dole	-9423
▁oscur	-9424
▁viet	-9425
.20	-9426
▁bound	-9427
card	-9428
▁approved	-9429
▁domés	-9430
igration	-9431
▁willing	-9432
▁masa	-9433
fun	-9434
▁flujo	-9435
activ	-9436
▁greek	-9437
▁seeking	-9438
wing	-9439
yentes	-9440
▁affa	-9441
▁68	-9442
▁leaving	-9443
▁income	-9444
lez	-9445
▁charming	-9446
▁cómod	-9447
▁tejido	-9448
▁thoughts	-9449
vated	-9450
▁escribe	-9451
▁prime	-9452
▁occidental	-9453
▁territor	-9454
▁holidays	-9455
▁jardines	-9456
▁delivered	-9457
▁tradicionales	-9458
▁vuestros	-9459
su	-9460
▁muestran	-9461
inian	-9462
▁ov	-9463
▁filter	-9464
uci	-9465
▁domain	-9466
▁turns	-9467
met	-9468
cket	-9469
▁budapest	-9470
▁catalog	-9471
▁ejemplos	-9472
umes	-9473
▁mezcl	-9474
▁forced	-9475
▁llevó	-9476
▁estima	-9477
iam	-9478
▁turning	-9479
unta	-9480
▁answers	-9481
▁encontró	-9482
arr	-9483
▁gone	-9484
▁py	-9485
▁demostr	-9486
▁fom	-9487
standing	-9488
▁peligro	-9489
▁disciples	-9490
▁apoyar	-9491
▁ultimate	-9492
añas	-9493
▁deberían	-9494
tió	-9495
kin	-9496
▁enviado	-9497
▁reduc	-9498
▁thinks	-9499
▁desh	-9500
▁swed	-9501
reas	-9502
▁entra	-9503
▁exac	-9504
▁maneras	-9505
▁expert	-9506
uce	-9507
▁ambiental	-9508
▁comportamiento	-9509
▁contest	-9510
▁accordance	-9511
▁bau	-9512
▁directory	-9513
▁construido	-9514
▁liquid	-9515
▁tattoo	-9516
▁supreme	-9517
▁valoración	-9518
▁luna	-9519
ianas	-9520
▁oral	-9521
▁versions	-9522
▁tareas	-9523
▁caída	-9524
▁mantiene	-9525
▁properly	-9526
gada	-9527
▁instruments	-9528
▁teléfonos	-9529
▁irland	-9530
▁shapes	-9531
action	-9532
▁favour	-9533
quet	-9534
▁twenty	-9535
▁ire	-9536
▁raised	-9537
▁copia	-9538
aste	-9539
▁diversidad	-9540
star	-9541
▁relation	-9542
▁netherlands	-9543
▁impossible	-9544
iend	-9545
▁chica	-9546
▁recibió	-9547
enden	-9548
▁indones	-9549
▁push	-9550
▁theory	-9551
▁cita	-9552
▁entrevista	-9553
uesta	-9554
▁roof	-9555
udes	-9556
▁native	-9557
▁84	-9558
▁extreme	-9559
▁seconds	-9560
▁prolong	-9561
▁ia	-9562
len	-9563
▁efficiency	-9564
▁inflam	-9565
▁cc	-9566
atives	-9567
presid	-9568
grim	-9569
▁banda	-9570
▁normalmente	-9571
ele	-9572
▁junt	-9573
éu	-9574
erte	-9575
▁comprehensive	-9576
▁cay	-9577
▁concrete	-9578
--------	-9579
▁contents	-9580
omo	-9581
chr	-9582
▁wealth	-9583
▁sabiduría	-9584
64	-9585
▁muertos	-9586
▁necesarios	-9587
▁circumstances	-9588
▁bike	-9589
▁treas	-9590
▁esposa	-9591
▁anavar	-9592
yan	-9593
▁instrument	-9594
▁summ	-9595
▁cuadro	-9596
▁agrícol	-9597
▁professor	-9598
▁efic	-9599
▁incluidos	-9600
▁propuestas	-9601
▁hardware	-9602
enz	-9603
▁habilidades	-9604
▁topic	-9605
▁chi	-9606
▁alt	-9607
bral	-9608
tood	-9609
▁gem	-9610
▁mile	-9611
▁suggest	-9612
▁jamás	-9613
▁emper	-9614
ibly	-9615
olis	-9616
cked	-9617
▁agencias	-9618
▁gram	-9619
▁lor	-9620
▁feliz	-9621
▁oeste	-9622
éticos	-9623
▁bco	-9624
▁cuáles	-9625
▁arrived	-9626
▁incremental	-9627
▁agricultural	-9628
▁juz	-9629
▁strike	-9630
▁discurso	-9631
▁petición	-9632
▁menores	-9633
▁psic	-9634
▁inhabit	-9635
▁vill	-9636
▁físico	-9637
▁encontrará	-9638
▁lám	-9639
▁descargas	-9640
▁ciertos	-9641
▁considerar	-9642
uan	-9643
▁ángeles	-9644
▁crow	-9645
▁repeti	-9646
▁empty	-9647
▁reconcil	-9648
mej	-9649
ivas	-9650
▁desapare	-9651
▁próxima	-9652
▁moreover	-9653
▁representante	-9654
oras	-9655
▁differences	-9656
▁preparation	-9657
▁testing	-9658
▁wo	-9659
▁horario	-9660
▁reemp	-9661
hal	-9662
▁visiting	-9663
▁begins	-9664
▁convertido	-9665
▁mg	-9666
▁wik	-9667
▁scar	-9668
▁showed	-9669
▁andr	-9670
85	-9671
▁compras	-9672
▁stainless	-9673
▁ark	-9674
▁behavior	-9675
▁llamar	-9676
▁mercan	-9677
▁cesta	-9678
▁successfully	-9679
▁contar	-9680
▁fotografías	-9681
▁lectura	-9682
▁criteria	-9683
▁otherwise	-9684
▁científicos	-9685
▁segment	-9686
▁tos	-9687
▁vine	-9688
íg	-9689
tec	-9690
▁már	-9691
latinas	-9692
▁analizar	-9693
▁champions	-9694
▁vea	-9695
áculos	-9696
ead	-9697
▁tratado	-9698
drome	-9699
▁shel	-9700
acters	-9701
▁transportation	-9702
eries	-9703
▁monitoring	-9704
▁concerned	-9705
ulado	-9706
▁seeing	-9707
▁185	-9708
▁estan	-9709
▁habría	-9710
▁canales	-9711
▁deriv	-9712
▁respir	-9713
▁cosm	-9714
▁taxes	-9715
▁oak	-9716
▁lap	-9717
▁cycle	-9718
▁recogida	-9719
▁plástico	-9720
▁leather	-9721
▁hearing	-9722
▁defender	-9723
▁mercy	-9724
▁temporal	-9725
▁juríd	-9726
▁bags	-9727
logos	-9728
▁encounter	-9729
▁lleno	-9730
▁standing	-9731
▁opposition	-9732
▁lenguaje	-9733
▁hues	-9734
vs	-9735
▁recomendaciones	-9736
▁cyl	-9737
▁recr	-9738
▁competencia	-9739
▁besides	-9740
▁characters	-9741
▁satélite	-9742
▁hydro	-9743
▁florence	-9744
▁trim	-9745
▁jihlava	-9746
pla	-9747
abul	-9748
tillas	-9749
▁statistics	-9750
▁recompensa	-9751
you	-9752
95	-9753
▁stim	-9754
▁milan	-9755
▁disappear	-9756
▁frontera	-9757
▁móviles	-9758
tilla	-9759
reds	-9760
jected	-9761
▁attra	-9762
▁tac	-9763
ighted	-9764
▁encontramos	-9765
▁marr	-9766
ografía	-9767
▁inspec	-9768
▁abuse	-9769
▁equilibrio	-9770
▁procedures	-9771
▁procedimientos	-9772
▁scene	-9773
▁fitness	-9774
endas	-9775
▁basada	-9776
▁riesgos	-9777
abilities	-9778
▁permanecer	-9779
itarian	-9780
▁carbon	-9781
▁pig	-9782
▁initial	-9783
▁extranjero	-9784
▁europeos	-9785
▁automóvil	-9786
▁intelligence	-9787
▁corpora	-9788
▁oposición	-9789
▁colonial	-9790
▁apertura	-9791
zaron	-9792
▁flamenco	-9793
▁enfrent	-9794
care	-9795
▁bog	-9796
▁workshop	-9797
▁souls	-9798
▁promotion	-9799
▁regal	-9800
▁answered	-9801
▁marcos	-9802
▁incred	-9803
▁tiss	-9804
entina	-9805
▁cock	-9806
▁puso	-9807
▁coincid	-9808
-12	-9809
▁prome	-9810
▁informaciones	-9811
▁juris	-9812
▁gam	-9813
▁avi	-9814
into	-9815
▁reply	-9816
ji	-9817
▁entretenimiento	-9818
▁presentado	-9819
▁debt	-9820
▁capit	-9821
▁daughter	-9822
▁genu	-9823
▁previously	-9824
▁england	-9825
▁fuertes	-9826
▁communications	-9827
▁looked	-9828
▁cercano	-9829
▁identificar	-9830
▁teoría	-9831
▁gim	-9832
americano	-9833
▁discípulos	-9834
▁integración	-9835
▁masc	-9836
▁tomó	-9837
▁entrenamiento	-9838
▁hermoso	-9839
▁ireland	-9840
agonia	-9841
▁churches	-9842
▁agreed	-9843
▁minute	-9844
iese	-9845
▁necesitamos	-9846
▁fernando	-9847
▁racing	-9848
▁bak	-9849
teros	-9850
▁siglos	-9851
cc	-9852
▁ie	-9853
▁opens	-9854
▁horse	-9855
▁magic	-9856
▁matrimonio	-9857
▁brut	-9858
▁acceler	-9859
▁easier	-9860
▁enh	-9861
▁authors	-9862
▁collective	-9863
▁treated	-9864
▁belg	-9865
▁achieved	-9866
▁earlier	-9867
▁corazones	-9868
▁pleasure	-9869
▁rar	-9870
▁montañas	-9871
▁ka	-9872
▁alguno	-9873
▁missing	-9874
▁specta	-9875
▁infrastructure	-9876
▁recognize	-9877
▁doctors	-9878
▁hí	-9879
▁increíble	-9880
saw	-9881
▁católica	-9882
▁especta	-9883
bul	-9884
▁pref	-9885
▁sectors	-9886
▁chim	-9887
▁drama	-9888
▁spent	-9889
▁listed	-9890
▁añade	-9891
▁loved	-9892
▁inteligencia	-9893
▁raíces	-9894
▁academic	-9895
▁rh	-9896
▁requested	-9897
▁pastoral	-9898
37	-9899
ishing	-9900
▁margin	-9901
▁queen	-9902
▁till	-9903
▁bh	-9904
▁contrast	-9905
▁disfruta	-9906
▁harm	-9907
pointed	-9908
▁failure	-9909
▁tumor	-9910
areness	-9911
▁reliable	-9912
▁trail	-9913
▁ahead	-9914
▁venir	-9915
▁frac	-9916
▁marria	-9917
▁hong	-9918
▁accesible	-9919
▁cuesta	-9920
▁hamb	-9921
▁creer	-9922
▁convenient	-9923
▁ataques	-9924
▁multil	-9925
ierto	-9926
▁utilizamos	-9927
▁siquiera	-9928
▁rafa	-9929
▁posee	-9930
▁legitim	-9931
▁apostles	-9932
▁facing	-9933
▁managed	-9934
▁socios	-9935
▁quarter	-9936
▁creator	-9937
▁útiles	-9938
▁leon	-9939
▁tasa	-9940
▁misericordia	-9941
▁tamb	-9942
iang	-9943
▁contribution	-9944
▁wash	-9945
▁recorrido	-9946
▁1.5	-9947
▁raw	-9948
▁vídeos	-9949
▁sick	-9950
▁consecuencias	-9951
▁tent	-9952
▁persecu	-9953
ifer	-9954
▁automáticamente	-9955
pass	-9956
heim	-9957
▁stands	-9958
sta	-9959
▁strip	-9960
▁agricultura	-9961
▁vuelve	-9962
▁inev	-9963
▁capaces	-9964
▁reforma	-9965
▁cated	-9966
▁habana	-9967
▁tengan	-9968
▁pak	-9969
▁vietnam	-9970
▁unless	-9971
▁sensor	-9972
▁surely	-9973
▁numerosas	-9974
▁dura	-9975
▁bols	-9976
uff	-9977
▁sustitu	-9978
▁intervención	-9979
▁vast	-9980
▁kilom	-9981
▁quería	-9982
36	-9983
▁converter	-9984
▁posts	-9985
limited	-9986
▁sams	-9987
▁angeles	-9988
▁respal	-9989
▁perspective	-9990
iven	-9991
▁structures	-9992
▁crucial	-9993
▁párra	-9994
▁aviso	-9995
nia	-9996
▁victory	-9997
tify	-9998
▁há	-9999
▁coc	-10000
▁dot	-10001
lex	-10002
▁gun	-10003
▁cerebro	-10004
▁niñas	-10005
▁ot	-10006
▁partnership	-10007
▁perfectamente	-10008
ervicios	-10009
▁directorio	-10010
gadas	-10011
▁lluv	-10012
▁hundreds	-10013
▁crom	-10014
▁plays	-10015
▁hills	-10016
▁72	-10017
▁perfectly	-10018
▁dollars	-10019
▁moon	-10020
▁declared	-10021
▁paragu	-10022
▁reserved	-10023
▁dificultades	-10024
cloped	-10025
▁alcal	-10026
what	-10027
▁medieval	-10028
issions	-10029
▁tranquilidad	-10030
ylon	-10031
86	-10032
▁liberal	-10033
▁cash	-10034
born	-10035
▁trips	-10036
▁corriente	-10037
▁presentan	-10038
▁legisla	-10039
esper	-10040
▁neighborhood	-10041
▁immigration	-10042
▁progreso	-10043
elled	-10044
▁quiénes	-10045
▁ordenador	-10046
▁polvo	-10047
▁69	-10048
▁sobreviv	-10049
▁authentic	-10050
▁logged	-10051
▁schedule	-10052
▁marí	-10053
▁adopted	-10054
▁eastern	-10055
▁diagnóstico	-10056
▁profundo	-10057
▁feedback	-10058
▁funds	-10059
bled	-10060
itivas	-10061
▁celebrity	-10062
estr	-10063
▁iba	-10064
zgo	-10065
▁ingeniería	-10066
▁dimensiones	-10067
▁miner	-10068
▁campus	-10069
▁estructuras	-10070
olv	-10071
▁vary	-10072
▁imped	-10073
▁speech	-10074
▁conservación	-10075
▁admit	-10076
▁imposible	-10077
▁diversity	-10078
tism	-10079
▁canción	-10080
▁conden	-10081
▁económicos	-10082
▁cabello	-10083
▁brow	-10084
▁alleg	-10085
▁multitud	-10086
▁matters	-10087
▁audience	-10088
▁constitución	-10089
ager	-10090
entales	-10091
▁telecom	-10092
▁llena	-10093
▁etern	-10094
▁explorar	-10095
▁reduction	-10096
▁maestros	-10097
vere	-10098
▁notas	-10099
▁bouti	-10100
atar	-10101
▁weapons	-10102
▁sensación	-10103
▁formation	-10104
▁asociado	-10105
▁forever	-10106
▁creó	-10107
▁playlists	-10108
▁attend	-10109
▁superiores	-10110
▁machin	-10111
▁editar	-10112
▁pleasant	-10113
▁fellow	-10114
▁understood	-10115
▁77	-10116
▁ud	-10117
▁marked	-10118
atern	-10119
▁emb	-10120
ficas	-10121
▁solidarity	-10122
▁awards	-10123
▁cumplimiento	-10124
▁integration	-10125
▁contempl	-10126
cieron	-10127
▁awareness	-10128
culares	-10129
▁apóstoles	-10130
iled	-10131
▁ecol	-10132
▁unlimited	-10133
▁industriales	-10134
▁basket	-10135
▁coron	-10136
▁positions	-10137
▁emphas	-10138
iction	-10139
▁proposal	-10140
▁graves	-10141
▁onto	-10142
▁torn	-10143
▁intención	-10144
▁historias	-10145
▁recuerda	-10146
▁tues	-10147
▁venice	-10148
▁depth	-10149
▁balcony	-10150
▁overview	-10151
▁starts	-10152
▁pieza	-10153
▁acord	-10154
▁desapar	-10155
jud	-10156
erson	-10157
▁artistic	-10158
▁alert	-10159
▁wol	-10160
▁cancell	-10161
▁orgul	-10162
▁procl	-10163
▁alianza	-10164
▁comunic	-10165
▁hiv	-10166
▁pará	-10167
▁alliance	-10168
▁michigan	-10169
▁calling	-10170
▁cuidados	-10171
▁ash	-10172
▁brands	-10173
▁irán	-10174
▁coste	-10175
ester	-10176
▁screens	-10177
▁introduction	-10178
timientos	-10179
▁swe	-10180
▁reales	-10181
▁dal	-10182
▁officials	-10183
▁geograph	-10184
▁liver	-10185
▁facts	-10186
▁follows	-10187
▁attemp	-10188
▁piedras	-10189
▁currency	-10190
rag	-10191
▁nerv	-10192
▁reyes	-10193
▁milk	-10194
ciate	-10195
▁carp	-10196
▁impul	-10197
▁beat	-10198
▁og	-10199
▁peor	-10200
▁particularmente	-10201
▁tea	-10202
▁1992	-10203
▁supports	-10204
▁gras	-10205
▁fixed	-10206
▁cár	-10207
hua	-10208
▁rang	-10209
▁hoja	-10210
▁enrique	-10211
▁películas	-10212
▁grass	-10213
▁sacred	-10214
▁necesitas	-10215
▁pong	-10216
▁volunte	-10217
▁ster	-10218
▁appeared	-10219
▁inspired	-10220
▁profunda	-10221
oterapia	-10222
sequ	-10223
▁precisamente	-10224
▁mb	-10225
▁inal	-10226
▁almas	-10227
ajeros	-10228
▁alde	-10229
▁judgment	-10230
▁debil	-10231
▁hat	-10232
▁charles	-10233
▁berl	-10234
▁garcía	-10235
iller	-10236
▁masas	-10237
▁podido	-10238
▁revealed	-10239
▁stations	-10240
▁realización	-10241
▁agriculture	-10242
▁infantil	-10243
▁vs	-10244
▁ejercicios	-10245
89	-10246
▁divina	-10247
▁discounts	-10248
▁blow	-10249
▁sd	-10250
▁volv	-10251
ris	-10252
▁monet	-10253
▁afil	-10254
▁introduce	-10255
▁costos	-10256
▁fighting	-10257
ician	-10258
rations	-10259
▁prest	-10260
tesis	-10261
lav	-10262
▁rehabil	-10263
▁desplaz	-10264
▁cabe	-10265
▁femen	-10266
▁diplom	-10267
creen	-10268
▁xvii	-10269
▁sod	-10270
ulf	-10271
▁correcto	-10272
▁liberación	-10273
agen	-10274
▁breast	-10275
▁phenom	-10276
usa	-10277
unas	-10278
class	-10279
▁meat	-10280
▁pudo	-10281
emente	-10282
▁estacion	-10283
▁pene	-10284
tein	-10285
▁wheel	-10286
▁scul	-10287
▁avanzada	-10288
uario	-10289
▁conferencias	-10290
att	-10291
going	-10292
otos	-10293
ott	-10294
yeron	-10295
▁blind	-10296
▁geome	-10297
íes	-10298
▁powers	-10299
▁gear	-10300
organ	-10301
▁malta	-10302
▁valu	-10303
▁escenario	-10304
nic	-10305
▁extranjeros	-10306
▁appoint	-10307
▁attempt	-10308
▁beneficio	-10309
▁dangerous	-10310
arg	-10311
▁clasificación	-10312
▁floors	-10313
▁cruci	-10314
▁hin	-10315
▁oas	-10316
66	-10317
▁hue	-10318
▁fú	-10319
▁7,5	-10320
grafía	-10321
▁hostales	-10322
▁poca	-10323
▁knowing	-10324
▁antiguos	-10325
▁alab	-10326
urse	-10327
▁coca	-10328
▁regulations	-10329
▁cristiana	-10330
▁estaciones	-10331
▁altas	-10332
▁mud	-10333
▁variables	-10334
-200	-10335
▁mision	-10336
▁residencia	-10337
▁pocas	-10338
▁desen	-10339
▁complic	-10340
▁década	-10341
▁ocasiones	-10342
íl	-10343
▁robert	-10344
▁cuis	-10345
▁chocolate	-10346
▁martes	-10347
▁escritura	-10348
viamente	-10349
pat	-10350
▁ciertas	-10351
▁acid	-10352
▁manufacturing	-10353
icante	-10354
▁moments	-10355
▁reina	-10356
gro	-10357
▁reception	-10358
▁affairs	-10359
▁spons	-10360
▁residencial	-10361
▁newspaper	-10362
▁sudden	-10363
lán	-10364
▁deporte	-10365
▁stret	-10366
▁acknow	-10367
▁accompl	-10368
▁arter	-10369
▁component	-10370
▁fenóm	-10371
▁kb	-10372
▁constitution	-10373
ols	-10374
▁taught	-10375
▁respondió	-10376
▁suscr	-10377
▁capable	-10378
▁alternativa	-10379
▁tuesday	-10380
▁formar	-10381
world	-10382
▁alumnos	-10383
gados	-10384
▁objectives	-10385
icción	-10386
▁zar	-10387
eramente	-10388
▁municipality	-10389
▁investigadores	-10390
▁allowing	-10391
▁circunstancias	-10392
▁lift	-10393
▁gm	-10394
▁belief	-10395
cher	-10396
▁cream	-10397
▁irre	-10398
▁dando	-10399
▁viento	-10400
▁bened	-10401
▁ranking	-10402
▁responsables	-10403
▁scores	-10404
▁aves	-10405
▁balcón	-10406
▁oriental	-10407
▁tempr	-10408
▁fertil	-10409
▁libres	-10410
▁cierre	-10411
▁falls	-10412
▁pasó	-10413
▁porto	-10414
▁flower	-10415
▁sauna	-10416
▁baile	-10417
▁semillas	-10418
▁biod	-10419
▁muebles	-10420
▁intended	-10421
▁bb	-10422
cada	-10423
pp	-10424
órm	-10425
▁meteor	-10426
▁birds	-10427
▁62	-10428
▁vienen	-10429
▁noted	-10430
▁seeds	-10431
▁sizes	-10432
▁recommendations	-10433
▁inclusive	-10434
▁pensamientos	-10435
▁division	-10436
▁nutrition	-10437
▁pond	-10438
▁000	-10439
▁fiestas	-10440
▁bought	-10441
▁hang	-10442
▁sessions	-10443
▁panam	-10444
▁husband	-10445
icians	-10446
▁intest	-10447
uelo	-10448
▁versiones	-10449
▁hambre	-10450
▁finding	-10451
▁amena	-10452
▁ajuste	-10453
▁aeropuertos	-10454
▁salas	-10455
▁trabajan	-10456
▁estrategias	-10457
▁ventil	-10458
▁límites	-10459
▁prevenir	-10460
▁razon	-10461
▁1.2	-10462
▁comba	-10463
▁leche	-10464
▁manejo	-10465
▁io	-10466
▁luch	-10467
▁monit	-10468
▁corta	-10469
▁biggest	-10470
▁prel	-10471
isms	-10472
▁instrumento	-10473
▁downloads	-10474
▁dijeron	-10475
▁evidencia	-10476
▁severe	-10477
▁conced	-10478
ika	-10479
▁cheapest	-10480
▁survey	-10481
▁extensive	-10482
▁joined	-10483
▁contactos	-10484
life	-10485
zco	-10486
▁defens	-10487
▁dispu	-10488
▁tard	-10489
▁descuento	-10490
▁hyper	-10491
▁disord	-10492
▁candidate	-10493
▁introducción	-10494
▁transf	-10495
úan	-10496
▁cint	-10497
▁ble	-10498
▁crítica	-10499
▁adhes	-10500
▁insul	-10501
▁tendencia	-10502
▁67	-10503
▁identified	-10504
▁negra	-10505
▁observaron	-10506
▁formats	-10507
▁actos	-10508
▁aparte	-10509
▁annivers	-10510
▁estudiar	-10511
▁hablando	-10512
▁anteriormente	-10513
▁0.0	-10514
▁moneda	-10515
▁característica	-10516
▁asi	-10517
▁constituye	-10518
mun	-10519
▁pleno	-10520
▁plana	-10521
▁perdido	-10522
▁testimon	-10523
chi	-10524
▁raise	-10525
▁130	-10526
▁bund	-10527
▁brillante	-10528
▁totally	-10529
▁primavera	-10530
▁transferencia	-10531
▁encuentre	-10532
▁comodidad	-10533
hour	-10534
▁motivos	-10535
▁cartas	-10536
irt	-10537
▁ejecutivo	-10538
▁confidence	-10539
▁junta	-10540
mann	-10541
▁investigaciones	-10542
▁neuro	-10543
▁parent	-10544
▁91	-10545
▁prín	-10546
▁pursu	-10547
▁browse	-10548
▁colorado	-10549
▁divided	-10550
▁refor	-10551
▁recognition	-10552
well	-10553
▁attractions	-10554
▁vigor	-10555
▁nú	-10556
isible	-10557
▁gusto	-10558
▁tells	-10559
ading	-10560
▁introduced	-10561
▁alojamientos	-10562
▁fresco	-10563
▁gastronom	-10564
▁strategies	-10565
smo	-10566
▁depósito	-10567
▁símbolo	-10568
▁cientos	-10569
▁helping	-10570
▁aren	-10571
▁sixt	-10572
olos	-10573
▁institution	-10574
▁ocurre	-10575
▁lounge	-10576
▁afirma	-10577
▁rank	-10578
▁duty	-10579
▁compact	-10580
▁reseñas	-10581
▁tib	-10582
▁ingredients	-10583
clos	-10584
▁dak	-10585
ishment	-10586
terr	-10587
▁aquella	-10588
▁destinos	-10589
▁camar	-10590
étr	-10591
▁viviendas	-10592
▁routes	-10593
▁sets	-10594
▁bancos	-10595
▁contras	-10596
▁conversion	-10597
▁announce	-10598
umb	-10599
▁ejer	-10600
▁cathed	-10601
▁actuar	-10602
▁160	-10603
▁sesiones	-10604
▁volc	-10605
▁tob	-10606
▁amenaza	-10607
list	-10608
▁smooth	-10609
▁sheet	-10610
▁jugador	-10611
▁sequ	-10612
jado	-10613
▁agres	-10614
▁matr	-10615
▁sides	-10616
▁mine	-10617
▁cookie	-10618
▁keeping	-10619
ads	-10620
▁sabor	-10621
▁tox	-10622
▁interno	-10623
▁aux	-10624
gamos	-10625
▁semi	-10626
úcar	-10627
▁escribió	-10628
ína	-10629
▁legend	-10630
edades	-10631
clopedia	-10632
cast	-10633
geois	-10634
▁actualizado	-10635
▁eficiencia	-10636
oca	-10637
▁ficha	-10638
▁enemigos	-10639
▁saben	-10640
izaciones	-10641
vest	-10642
▁magnific	-10643
▁tutor	-10644
▁león	-10645
▁orientación	-10646
▁foods	-10647
▁marriage	-10648
▁glob	-10649
▁filosof	-10650
kind	-10651
▁publications	-10652
▁peas	-10653
▁database	-10654
wal	-10655
▁threats	-10656
▁femin	-10657
▁airports	-10658
▁mineral	-10659
▁incorrect	-10660
▁establecido	-10661
▁variable	-10662
▁celebración	-10663
▁trayect	-10664
▁instance	-10665
▁vess	-10666
sions	-10667
▁letters	-10668
▁brazilian	-10669
▁icon	-10670
eps	-10671
▁machinery	-10672
▁cv	-10673
▁valent	-10674
igración	-10675
▁decades	-10676
▁inteligente	-10677
▁conducir	-10678
rap	-10679
▁mala	-10680
▁preparar	-10681
apa	-10682
▁instagram	-10683
▁greece	-10684
▁1.1	-10685
▁intu	-10686
▁cuisine	-10687
▁1980	-10688
▁desn	-10689
ést	-10690
vez	-10691
abora	-10692
urar	-10693
▁daños	-10694
▁exteriores	-10695
▁110	-10696
fox	-10697
▁furnished	-10698
▁discriminación	-10699
teen	-10700
▁financiera	-10701
▁cierta	-10702
▁searching	-10703
▁kings	-10704
▁convin	-10705
▁muerto	-10706
▁fábrica	-10707
▁broken	-10708
▁criterios	-10709
▁dynamic	-10710
▁centuries	-10711
▁hav	-10712
icil	-10713
▁subscribe	-10714
▁tables	-10715
▁ss	-10716
▁gubern	-10717
haus	-10718
bio	-10719
uled	-10720
▁2.5	-10721
▁iluminación	-10722
▁thomas	-10723
▁label	-10724
▁spots	-10725
▁comprensión	-10726
76	-10727
tbol	-10728
▁medicamento	-10729
▁surrounding	-10730
gener	-10731
▁estudiante	-10732
▁emergencia	-10733
▁niger	-10734
▁provider	-10735
▁acuerdos	-10736
▁orange	-10737
▁aé	-10738
▁incen	-10739
▁hayan	-10740
31	-10741
▁iber	-10742
▁believed	-10743
▁transmisión	-10744
posed	-10745
▁tendrán	-10746
▁rafael	-10747
▁pricing	-10748
▁700	-10749
▁consequences	-10750
▁downtown	-10751
quar	-10752
▁accus	-10753
▁requests	-10754
▁sexy	-10755
▁tranquilo	-10756
ítulos	-10757
▁handle	-10758
▁gor	-10759
rd	-10760
▁ilim	-10761
▁launched	-10762
▁fútbol	-10763
▁ancho	-10764
▁individuos	-10765
▁conservation	-10766
▁jump	-10767
▁susp	-10768
istos	-10769
▁assessment	-10770
▁vemos	-10771
▁destruction	-10772
▁suerte	-10773
entimiento	-10774
▁creciente	-10775
▁gel	-10776
▁iso	-10777
▁porcent	-10778
▁hell	-10779
▁realize	-10780
enia	-10781
▁websites	-10782
▁fell	-10783
▁horizontal	-10784
▁sight	-10785
▁pus	-10786
▁indonesia	-10787
▁presentó	-10788
▁oea	-10789
▁represented	-10790
▁revolucionario	-10791
▁alrededores	-10792
▁inhabitants	-10793
▁intense	-10794
▁dish	-10795
▁terrible	-10796
▁epid	-10797
▁dificultad	-10798
▁imagine	-10799
▁abar	-10800
itus	-10801
▁entren	-10802
▁permitirá	-10803
▁tweet	-10804
▁obispo	-10805
▁facilitar	-10806
▁calm	-10807
▁warrant	-10808
▁caminos	-10809
▁laund	-10810
▁pretty	-10811
▁firma	-10812
▁tomando	-10813
ostro	-10814
▁football	-10815
▁diameter	-10816
▁relationships	-10817
▁gps	-10818
▁1993	-10819
▁discrimination	-10820
▁índice	-10821
▁observar	-10822
▁controlled	-10823
ector	-10824
▁ends	-10825
▁defici	-10826
▁antiv	-10827
▁78	-10828
▁refuge	-10829
▁dulce	-10830
▁fee	-10831
▁dubl	-10832
▁interna	-10833
▁malware	-10834
▁advers	-10835
▁clásico	-10836
▁traer	-10837
▁790	-10838
▁hemis	-10839
▁unesco	-10840
ificados	-10841
isco	-10842
tier	-10843
▁tranquila	-10844
▁parcial	-10845
▁anniversary	-10846
▁76	-10847
▁selecciona	-10848
▁2.0	-10849
▁sisters	-10850
ng	-10851
▁campsite	-10852
▁americas	-10853
▁adding	-10854
▁escritorio	-10855
▁nit	-10856
▁fro	-10857
▁rect	-10858
zer	-10859
▁illust	-10860
▁amenazas	-10861
▁escena	-10862
▁declaration	-10863
▁resulting	-10864
tered	-10865
▁140	-10866
ecos	-10867
▁accompanied	-10868
▁cortes	-10869
▁valoraciones	-10870
▁institución	-10871
umbre	-10872
▁diámetro	-10873
▁kilome	-10874
▁organisation	-10875
laced	-10876
▁investigation	-10877
enced	-10878
▁estatal	-10879
▁compañeros	-10880
▁jurisdic	-10881
iona	-10882
tización	-10883
panic	-10884
▁panamá	-10885
▁encourage	-10886
▁perfección	-10887
▁periodistas	-10888
icans	-10889
amor	-10890
fund	-10891
▁convirtió	-10892
▁receiving	-10893
▁outlook	-10894
▁deuda	-10895
▁ampliar	-10896
▁interface	-10897
▁seller	-10898
▁abstra	-10899
▁dominican	-10900
íso	-10901
▁minibar	-10902
▁nin	-10903
▁ejecución	-10904
▁indian	-10905
rad	-10906
▁ego	-10907
▁cumple	-10908
▁ultimos	-10909
▁ritmo	-10910
▁focused	-10911
▁votes	-10912
▁explicar	-10913
▁enhance	-10914
▁explains	-10915
azz	-10916
▁causar	-10917
▁desierto	-10918
▁tome	-10919
▁guarantees	-10920
▁depends	-10921
ondas	-10922
▁spoken	-10923
▁bookings	-10924
▁discovered	-10925
▁solve	-10926
▁histórica	-10927
▁blu	-10928
▁involve	-10929
▁electrical	-10930
with	-10931
▁ny	-10932
▁administrative	-10933
▁excess	-10934
▁avenue	-10935
▁profundidad	-10936
▁agent	-10937
▁mapas	-10938
▁feria	-10939
teo	-10940
fes	-10941
▁discusión	-10942
▁llevado	-10943
▁sacar	-10944
▁persist	-10945
▁verdaderamente	-10946
▁pp	-10947
▁dieta	-10948
▁propietario	-10949
▁destroy	-10950
▁bille	-10951
▁infection	-10952
▁tendencias	-10953
▁necesarias	-10954
▁elegido	-10955
▁sap	-10956
tiveness	-10957
▁fantastic	-10958
▁flag	-10959
ández	-10960
▁carreras	-10961
▁bach	-10962
cionario	-10963
▁supplier	-10964
▁división	-10965
▁siente	-10966
▁peaceful	-10967
▁ech	-10968
▁pear	-10969
▁fulfill	-10970
▁disfrutaron	-10971
▁formula	-10972
▁graphic	-10973
▁precise	-10974
portación	-10975
▁theatre	-10976
▁condem	-10977
▁establishment	-10978
▁mascul	-10979
▁fortale	-10980
▁carefully	-10981
▁modificar	-10982
▁escult	-10983
▁channels	-10984
▁fórm	-10985
▁wave	-10986
▁paradise	-10987
▁vín	-10988
▁exposiciones	-10989
▁paulo	-10990
▁darkness	-10991
▁encanto	-10992
▁nie	-10993
uting	-10994
▁paredes	-10995
▁guidel	-10996
▁clothes	-10997
▁laboratorio	-10998
ching	-10999
▁platos	-11000
▁tratamientos	-11001
▁catedral	-11002
▁pacific	-11003
▁impar	-11004
▁excelentes	-11005
▁activos	-11006
▁refres	-11007
▁darle	-11008
▁inmediato	-11009
▁desktop	-11010
▁concerns	-11011
▁activo	-11012
▁polar	-11013
oph	-11014
▁exercises	-11015
▁agreements	-11016
▁inci	-11017
▁interact	-11018
▁enemy	-11019
▁vidrio	-11020
▁cathedral	-11021
ulations	-11022
▁relacionado	-11023
▁communist	-11024
▁recién	-11025
▁consid	-11026
umer	-11027
▁azúcar	-11028
▁trig	-11029
▁cuerpos	-11030
▁semej	-11031
▁estadounidenses	-11032
▁constantly	-11033
▁ventaja	-11034
▁parcel	-11035
▁recorded	-11036
▁componente	-11037
▁anth	-11038
▁archive	-11039
▁destroyed	-11040
▁settle	-11041
zen	-11042
▁hiper	-11043
▁extern	-11044
▁huelga	-11045
▁bringing	-11046
mad	-11047
▁organizar	-11048
▁magne	-11049
▁gang	-11050
▁eterna	-11051
▁reempla	-11052
hem	-11053
▁printing	-11054
▁rede	-11055
▁eléctrica	-11056
▁hacemos	-11057
▁cír	-11058
▁trinidad	-11059
▁tasks	-11060
▁contrib	-11061
48	-11062
▁lá	-11063
▁movie	-11064
cro	-11065
▁displayed	-11066
▁wooden	-11067
store	-11068
▁universidades	-11069
▁ced	-11070
▁chil	-11071
fam	-11072
▁bourgeois	-11073
ugo	-11074
▁ferro	-11075
▁accounts	-11076
▁philosophy	-11077
▁denomin	-11078
▁discount	-11079
uga	-11080
yles	-11081
▁turkey	-11082
vol	-11083
▁regl	-11084
▁vaya	-11085
▁municipio	-11086
▁textos	-11087
▁lidera	-11088
▁utilización	-11089
▁buscan	-11090
▁soil	-11091
▁décadas	-11092
▁finance	-11093
▁dc	-11094
▁realizó	-11095
▁extremo	-11096
▁grant	-11097
▁infraestructura	-11098
▁fruits	-11099
weh	-11100
stos	-11101
▁paragraph	-11102
▁dará	-11103
▁ingredientes	-11104
▁matem	-11105
▁silencio	-11106
▁destrucción	-11107
▁legislación	-11108
▁lubr	-11109
▁aplica	-11110
▁confirmar	-11111
▁wars	-11112
▁mercur	-11113
38	-11114
umps	-11115
▁tok	-11116
liness	-11117
▁independencia	-11118
▁journalists	-11119
▁battery	-11120
tur	-11121
▁pit	-11122
▁cielos	-11123
tp	-11124
▁atm	-11125
▁electricity	-11126
▁perf	-11127
▁entero	-11128
▁prevención	-11129
▁débil	-11130
▁originales	-11131
▁inoxid	-11132
▁zel	-11133
ail	-11134
▁perci	-11135
▁pé	-11136
▁irlanda	-11137
▁solidaridad	-11138
▁berlín	-11139
▁dependiendo	-11140
▁bull	-11141
▁scr	-11142
▁fleet	-11143
▁observed	-11144
yas	-11145
▁sabía	-11146
▁combina	-11147
▁ciertamente	-11148
▁cober	-11149
▁cutting	-11150
▁paraguay	-11151
▁comunicaciones	-11152
▁orto	-11153
rev	-11154
▁firme	-11155
mont	-11156
iadas	-11157
cies	-11158
▁reclut	-11159
▁difficulty	-11160
▁eating	-11161
▁truck	-11162
chester	-11163
▁shor	-11164
▁sencilla	-11165
▁extended	-11166
▁museos	-11167
▁representación	-11168
oh	-11169
▁calificación	-11170
▁senior	-11171
▁mora	-11172
▁prince	-11173
▁americana	-11174
▁riding	-11175
▁concier	-11176
▁interpretación	-11177
▁usado	-11178
▁conversión	-11179
▁entregar	-11180
bing	-11181
▁inmigr	-11182
▁excursiones	-11183
▁comand	-11184
▁contribuir	-11185
▁spectacular	-11186
▁aquellas	-11187
rs	-11188
hist	-11189
▁torno	-11190
▁austral	-11191
▁esperamos	-11192
▁mons	-11193
gb	-11194
▁límite	-11195
▁referred	-11196
▁phar	-11197
▁disabled	-11198
▁mining	-11199
▁implica	-11200
▁jub	-11201
▁éstos	-11202
▁studied	-11203
▁vacation	-11204
▁jig	-11205
▁transformación	-11206
▁pom	-11207
vereign	-11208
friend	-11209
▁iniciativas	-11210
▁extent	-11211
▁mystery	-11212
aking	-11213
▁básica	-11214
▁descubre	-11215
▁vinos	-11216
▁yahweh	-11217
core	-11218
▁pix	-11219
▁font	-11220
▁drawing	-11221
cers	-11222
▁certificado	-11223
▁strengthen	-11224
▁electron	-11225
▁abroad	-11226
▁continuous	-11227
▁retor	-11228
▁candidates	-11229
▁stores	-11230
▁draft	-11231
▁und	-11232
cleta	-11233
▁prophet	-11234
▁sebas	-11235
▁tablet	-11236
▁invite	-11237
▁profesores	-11238
rich	-11239
▁filosofía	-11240
▁sacrifice	-11241
wed	-11242
▁trast	-11243
here	-11244
▁defe	-11245
▁sovereign	-11246
▁rue	-11247
▁comparte	-11248
abel	-11249
▁balear	-11250
▁trend	-11251
▁descuentos	-11252
urado	-11253
▁acepta	-11254
▁zeal	-11255
▁socialist	-11256
▁dictionary	-11257
▁siguiendo	-11258
▁nació	-11259
▁97	-11260
▁laboral	-11261
▁científico	-11262
▁específicas	-11263
▁samsung	-11264
▁candidatos	-11265
▁petró	-11266
eding	-11267
▁hostal	-11268
▁vale	-11269
▁isol	-11270
▁implementación	-11271
▁pip	-11272
▁tenerife	-11273
laga	-11274
▁luck	-11275
aremos	-11276
▁fruto	-11277
icked	-11278
▁rand	-11279
▁inoxidable	-11280
called	-11281
boa	-11282
▁torres	-11283
▁heads	-11284
▁perpet	-11285
▁immigr	-11286
▁específico	-11287
▁gathered	-11288
▁charm	-11289
▁unfortun	-11290
▁rentals	-11291
▁biodivers	-11292
▁aluminio	-11293
▁causas	-11294
ímenes	-11295
maras	-11296
doba	-11297
▁cycl	-11298
▁envía	-11299
isters	-11300
▁bosques	-11301
tó	-11302
▁haiti	-11303
▁suministro	-11304
▁monthly	-11305
▁holding	-11306
▁hierro	-11307
▁dinner	-11308
▁juvent	-11309
▁vocabul	-11310
▁suspend	-11311
▁excepto	-11312
▁musul	-11313
▁remed	-11314
▁lessons	-11315
▁puestos	-11316
chang	-11317
▁chronic	-11318
▁audiencia	-11319
▁lighting	-11320
izador	-11321
uz	-11322
▁tuvieron	-11323
▁pep	-11324
▁kong	-11325
ócr	-11326
▁79	-11327
▁cach	-11328
▁guad	-11329
▁inser	-11330
▁desafío	-11331
▁1991	-11332
▁latter	-11333
▁bond	-11334
abilidades	-11335
▁extensiones	-11336
▁mole	-11337
▁favorites	-11338
▁railway	-11339
▁subsequ	-11340
tles	-11341
▁functional	-11342
▁detallada	-11343
▁independientes	-11344
home	-11345
▁cose	-11346
▁packages	-11347
▁creen	-11348
▁bares	-11349
▁servant	-11350
▁fathers	-11351
▁submitted	-11352
▁ganado	-11353
▁ninguno	-11354
▁sister	-11355
▁techo	-11356
▁mundiales	-11357
screen	-11358
▁computers	-11359
▁crecer	-11360
▁técnicos	-11361
▁intelectual	-11362
▁exitos	-11363
▁cze	-11364
▁prevention	-11365
▁pisos	-11366
itely	-11367
▁confirmed	-11368
▁rostro	-11369
enza	-11370
▁toilet	-11371
▁riqueza	-11372
▁dimensions	-11373
▁financiación	-11374
▁preocupación	-11375
▁anch	-11376
▁smaller	-11377
gico	-11378
▁funcionarios	-11379
▁fragment	-11380
▁comprue	-11381
▁tai	-11382
▁crimes	-11383
▁custodia	-11384
▁impresionante	-11385
▁funding	-11386
▁toy	-11387
▁indicated	-11388
▁sacram	-11389
▁laser	-11390
▁eph	-11391
ril	-11392
▁ló	-11393
▁firefox	-11394
▁indiana	-11395
▁excepcional	-11396
▁gom	-11397
▁extr	-11398
▁74	-11399
▁vih	-11400
▁legales	-11401
yección	-11402
▁increases	-11403
▁lots	-11404
▁párrafo	-11405
▁improved	-11406
▁supplies	-11407
▁controvers	-11408
inta	-11409
▁mast	-11410
▁anne	-11411
▁discap	-11412
▁retail	-11413
▁empire	-11414
▁estil	-11415
▁triun	-11416
▁ancianos	-11417
ulties	-11418
▁fascin	-11419
▁grav	-11420
▁yach	-11421
▁acontecimientos	-11422
▁cardio	-11423
ánicos	-11424
ídos	-11425
▁franco	-11426
▁corruption	-11427
▁opposite	-11428
▁brasile	-11429
▁pasando	-11430
▁shot	-11431
▁remained	-11432
▁voto	-11433
▁teams	-11434
▁cena	-11435
▁reto	-11436
▁films	-11437
graphy	-11438
▁horno	-11439
▁warning	-11440
▁habilidad	-11441
▁cen	-11442
▁igualmente	-11443
▁morir	-11444
▁financiero	-11445
▁asegú	-11446
39	-11447
▁enemies	-11448
▁rare	-11449
▁furthermore	-11450
▁lem	-11451
▁outstanding	-11452
▁lagun	-11453
▁usual	-11454
curr	-11455
▁lament	-11456
▁autos	-11457
theless	-11458
▁html	-11459
▁transition	-11460
▁singap	-11461
peta	-11462
▁arrive	-11463
▁concil	-11464
▁movilidad	-11465
▁stored	-11466
▁patro	-11467
▁automática	-11468
▁risks	-11469
▁aur	-11470
▁cher	-11471
▁recruit	-11472
▁profeta	-11473
▁eficiente	-11474
page	-11475
cend	-11476
▁opcional	-11477
▁default	-11478
chillo	-11479
▁stream	-11480
▁pump	-11481
▁cogn	-11482
▁tonel	-11483
▁bis	-11484
▁muslim	-11485
bai	-11486
▁propietarios	-11487
▁claims	-11488
▁expansion	-11489
▁refers	-11490
▁té	-11491
▁océ	-11492
agne	-11493
▁universities	-11494
▁onu	-11495
▁researchers	-11496
▁oído	-11497
▁politici	-11498
▁bode	-11499
▁ido	-11500
▁representan	-11501
▁fundamentales	-11502
▁circle	-11503
▁inversiones	-11504
unk	-11505
▁98	-11506
▁cabin	-11507
▁invitados	-11508
alf	-11509
▁slip	-11510
▁invited	-11511
gulo	-11512
▁satisfacer	-11513
▁hecha	-11514
▁conducted	-11515
ocal	-11516
▁doctrina	-11517
fts	-11518
▁brace	-11519
▁forman	-11520
▁específicos	-11521
arten	-11522
▁ww	-11523
▁celebration	-11524
roqu	-11525
▁patrón	-11526
▁aport	-11527
▁lanzamiento	-11528
▁continental	-11529
domin	-11530
▁prést	-11531
▁corrupción	-11532
▁secreto	-11533
▁initiatives	-11534
▁continua	-11535
▁guarda	-11536
,99	-11537
▁tatu	-11538
▁jim	-11539
▁bid	-11540
▁eman	-11541
▁proud	-11542
▁gráfico	-11543
▁adobe	-11544
▁confron	-11545
enger	-11546
iego	-11547
▁informal	-11548
▁swiss	-11549
▁grecia	-11550
▁technological	-11551
▁gay	-11552
▁bass	-11553
▁mirar	-11554
▁aumenta	-11555
▁ojo	-11556
▁89	-11557
▁enables	-11558
▁crochet	-11559
▁carrying	-11560
▁recop	-11561
▁diesel	-11562
aped	-11563
▁constantemente	-11564
▁dishes	-11565
▁nueve	-11566
izz	-11567
▁cs	-11568
▁styl	-11569
plus	-11570
cost	-11571
▁budd	-11572
▁capa	-11573
▁appointed	-11574
▁verd	-11575
▁independence	-11576
▁digo	-11577
▁ky	-11578
▁periodista	-11579
▁ukra	-11580
▁devolu	-11581
▁neo	-11582
▁málaga	-11583
▁86	-11584
zadas	-11585
▁ruedas	-11586
tados	-11587
▁escriba	-11588
arian	-11589
▁repeated	-11590
▁organizado	-11591
▁considerable	-11592
▁ages	-11593
▁dj	-11594
▁sara	-11595
▁prede	-11596
▁allo	-11597
▁venido	-11598
▁anivers	-11599
▁civiles	-11600
▁reven	-11601
▁keywords	-11602
aux	-11603
▁maur	-11604
▁charges	-11605
ísimo	-11606
.11	-11607
zcan	-11608
▁crown	-11609
▁metrop	-11610
but	-11611
▁computadora	-11612
▁carro	-11613
▁museums	-11614
▁xix	-11615
▁cristiano	-11616
▁mediterráneo	-11617
▁llamados	-11618
▁vatican	-11619
▁gifts	-11620
▁salsa	-11621
entially	-11622
▁guaranteed	-11623
▁bishops	-11624
-15	-11625
▁helpful	-11626
▁shoes	-11627
ows	-11628
▁technique	-11629
▁subir	-11630
bling	-11631
▁petróleo	-11632
▁infl	-11633
▁milag	-11634
▁ended	-11635
▁alh	-11636
▁establece	-11637
▁granted	-11638
▁merece	-11639
▁designs	-11640
▁kan	-11641
▁bure	-11642
argentina	-11643
▁resource	-11644
▁encontrarás	-11645
▁recomendamos	-11646
▁murió	-11647
grade	-11648
▁specifications	-11649
▁temporary	-11650
lahoma	-11651
▁titan	-11652
▁informed	-11653
▁possibilities	-11654
▁contrary	-11655
▁florencia	-11656
▁delicious	-11657
▁indu	-11658
atures	-11659
rel	-11660
city	-11661
▁cooking	-11662
▁alicante	-11663
▁wound	-11664
▁summary	-11665
▁bic	-11666
▁shell	-11667
▁guidelines	-11668
▁attractive	-11669
▁mínima	-11670
▁celesti	-11671
▁explan	-11672
▁recurr	-11673
▁observe	-11674
▁utilice	-11675
▁vacío	-11676
▁tank	-11677
ólica	-11678
▁legislation	-11679
▁nevertheless	-11680
▁efectivo	-11681
▁existentes	-11682
▁considerado	-11683
▁silic	-11684
▁unknown	-11685
▁llen	-11686
rán	-11687
▁directed	-11688
▁covers	-11689
▁jane	-11690
▁urbano	-11691
▁transmission	-11692
gers	-11693
▁jon	-11694
▁grados	-11695
▁algor	-11696
▁decorated	-11697
▁jornada	-11698
▁lowest	-11699
▁inmigración	-11700
▁plot	-11701
carn	-11702
▁frío	-11703
▁diverse	-11704
▁criat	-11705
▁limits	-11706
▁worry	-11707
▁luchar	-11708
aki	-11709
▁feelings	-11710
▁proof	-11711
off	-11712
▁copa	-11713
▁cór	-11714
itarias	-11715
▁bañera	-11716
▁reproduc	-11717
▁peregr	-11718
▁189	-11719
▁packaging	-11720
▁ug	-11721
49	-11722
▁output	-11723
▁sucede	-11724
▁siga	-11725
utch	-11726
▁noches	-11727
▁bc	-11728
▁stages	-11729
▁exclu	-11730
▁brus	-11731
▁rever	-11732
▁sentimientos	-11733
▁selling	-11734
▁dedicado	-11735
▁documentación	-11736
▁guy	-11737
▁tiro	-11738
▁divis	-11739
▁hered	-11740
▁exists	-11741
33	-11742
▁electrónica	-11743
▁infección	-11744
ccion	-11745
alin	-11746
▁neum	-11747
▁coach	-11748
▁1989	-11749
▁cables	-11750
▁oklahoma	-11751
andro	-11752
▁promise	-11753
▁perros	-11754
▁mecanismo	-11755
tén	-11756
▁audiovis	-11757
lasting	-11758
▁boutique	-11759
▁fees	-11760
▁stro	-11761
▁pink	-11762
▁partida	-11763
americanos	-11764
▁ilust	-11765
▁posteriormente	-11766
▁alive	-11767
▁celebrate	-11768
▁lei	-11769
▁albergue	-11770
his	-11771
▁forec	-11772
▁aparecen	-11773
▁academy	-11774
▁soldados	-11775
▁garantiza	-11776
▁intratext	-11777
▁mirada	-11778
-18	-11779
▁quis	-11780
▁yoga	-11781
▁consumer	-11782
hum	-11783
aterra	-11784
▁ford	-11785
▁accommodations	-11786
▁corporation	-11787
▁summit	-11788
▁lanzar	-11789
▁putting	-11790
▁aids	-11791
▁aspi	-11792
▁caminar	-11793
▁lights	-11794
▁munich	-11795
▁meant	-11796
▁aimed	-11797
▁enemigo	-11798
▁mensual	-11799
▁mort	-11800
100	-11801
ussels	-11802
▁adam	-11803
uncia	-11804
▁traslad	-11805
▁freelance	-11806
▁gur	-11807
▁temor	-11808
▁precip	-11809
▁charter	-11810
tidas	-11811
▁mixed	-11812
▁cilind	-11813
▁buying	-11814
tella	-11815
▁próximos	-11816
anal	-11817
▁visualizar	-11818
▁previo	-11819
▁llevan	-11820
▁actualizar	-11821
▁damas	-11822
▁bulgar	-11823
▁participa	-11824
▁bonus	-11825
▁teen	-11826
▁buffet	-11827
▁tourn	-11828
▁sending	-11829
▁guided	-11830
▁negl	-11831
▁sections	-11832
▁templ	-11833
▁headquar	-11834
▁designer	-11835
▁institutional	-11836
▁900	-11837
enter	-11838
▁oly	-11839
▁espl	-11840
▁localidad	-11841
▁composed	-11842
▁ride	-11843
▁mood	-11844
▁cannab	-11845
▁pacto	-11846
▁soph	-11847
▁cerrado	-11848
.99	-11849
▁ner	-11850
chen	-11851
▁excelencia	-11852
▁ríos	-11853
▁overcome	-11854
▁sha	-11855
▁decoration	-11856
▁intervention	-11857
▁peticiones	-11858
▁neglig	-11859
▁halla	-11860
▁parlamento	-11861
▁clothing	-11862
enio	-11863
▁root	-11864
craft	-11865
▁improvement	-11866
riel	-11867
▁particulares	-11868
▁bm	-11869
pool	-11870
▁evaluar	-11871
▁elija	-11872
▁agrup	-11873
▁acced	-11874
▁tensión	-11875
▁financing	-11876
▁stood	-11877
▁priority	-11878
▁illegal	-11879
▁afterno	-11880
▁paint	-11881
▁infect	-11882
bag	-11883
▁hé	-11884
▁asom	-11885
▁celebrar	-11886
▁ratio	-11887
▁mosa	-11888
▁une	-11889
▁combine	-11890
▁distributed	-11891
▁returns	-11892
▁colours	-11893
▁literature	-11894
▁dogs	-11895
▁belgium	-11896
▁plena	-11897
blo	-11898
▁imperio	-11899
▁cobertura	-11900
▁serving	-11901
▁charl	-11902
▁brussels	-11903
▁dental	-11904
▁gest	-11905
▁ultr	-11906
▁episod	-11907
▁columna	-11908
▁compro	-11909
tif	-11910
control	-11911
▁participated	-11912
-2019	-11913
▁regionales	-11914
▁noble	-11915
▁mechanism	-11916
▁amenities	-11917
▁siria	-11918
▁básicos	-11919
▁hacerse	-11920
▁completar	-11921
sk	-11922
▁saud	-11923
▁irreg	-11924
▁failed	-11925
▁cámaras	-11926
anta	-11927
▁scheduled	-11928
endido	-11929
gry	-11930
▁layer	-11931
77	-11932
▁dejó	-11933
íf	-11934
terdam	-11935
▁espirituales	-11936
west	-11937
ifying	-11938
▁treatments	-11939
▁rear	-11940
engers	-11941
▁interpretation	-11942
▁flav	-11943
▁bolsa	-11944
▁desconoci	-11945
▁strict	-11946
tería	-11947
▁ascensor	-11948
▁overlook	-11949
▁climático	-11950
xi	-11951
gy	-11952
inario	-11953
▁experimentar	-11954
▁canon	-11955
▁corresponding	-11956
▁industries	-11957
▁championship	-11958
apps	-11959
ampa	-11960
▁comparison	-11961
▁arrested	-11962
▁catalonia	-11963
▁masses	-11964
.30	-11965
▁tanta	-11966
▁hers	-11967
dio	-11968
▁subm	-11969
osos	-11970
▁núcle	-11971
▁puesta	-11972
bourg	-11973
▁habló	-11974
▁occurred	-11975
▁czech	-11976
▁permiso	-11977
▁galaxy	-11978
onal	-11979
▁capacidades	-11980
▁laid	-11981
▁roca	-11982
▁funcional	-11983
▁terapia	-11984
▁elim	-11985
▁attitude	-11986
▁nuevamente	-11987
▁loading	-11988
qué	-11989
▁financieros	-11990
▁creador	-11991
▁altamente	-11992
▁blocks	-11993
vely	-11994
▁delete	-11995
▁maquinaria	-11996
loss	-11997
▁transformation	-11998
tained	-11999
▁affil	-12000
▁humil	-12001
▁narra	-12002
▁protes	-12003
▁fax	-12004
▁alas	-12005
▁morales	-12006
▁errors	-12007
▁rutas	-12008
▁serves	-12009
▁soldiers	-12010
▁alternativas	-12011
while	-12012
▁olvides	-12013
▁descanso	-12014
▁aniversario	-12015
▁hir	-12016
▁ordenados	-12017
▁repent	-12018
▁recuerdo	-12019
▁incap	-12020
▁juventud	-12021
▁accessible	-12022
rem	-12023
▁destinations	-12024
▁individuo	-12025
▁sword	-12026
▁cancelar	-12027
▁bebidas	-12028
▁intentar	-12029
ilio	-12030
▁hide	-12031
▁felicidad	-12032
▁contained	-12033
▁olive	-12034
izando	-12035
▁hern	-12036
wr	-12037
▁applicable	-12038
▁asking	-12039
cure	-12040
cow	-12041
▁colegio	-12042
▁gimnas	-12043
▁ard	-12044
▁cuello	-12045
▁mathema	-12046
▁liderazgo	-12047
▁profit	-12048
▁korea	-12049
▁inalám	-12050
▁facility	-12051
iest	-12052
usual	-12053
▁hacía	-12054
▁desert	-12055
agos	-12056
▁richard	-12057
▁doce	-12058
▁noct	-12059
▁contribución	-12060
▁precisely	-12061
▁cicl	-12062
▁photography	-12063
▁motion	-12064
▁operate	-12065
▁paraíso	-12066
▁tram	-12067
▁logueado	-12068
▁organismo	-12069
▁za	-12070
▁61	-12071
click	-12072
▁personalizado	-12073
▁contacts	-12074
▁andre	-12075
▁aparecer	-12076
zzi	-12077
▁personalidad	-12078
▁equipado	-12079
▁batería	-12080
▁happiness	-12081
▁filip	-12082
▁column	-12083
▁thor	-12084
eper	-12085
▁consag	-12086
▁suffered	-12087
▁caballo	-12088
▁lip	-12089
▁winning	-12090
horse	-12091
▁abus	-12092
▁bél	-12093
▁amist	-12094
▁preparado	-12095
leto	-12096
▁proposals	-12097
▁aliv	-12098
▁direcciones	-12099
▁loguearte	-12100
▁frecuentemente	-12101
▁350	-12102
▁dió	-12103
▁gil	-12104
▁entirely	-12105
▁privados	-12106
bert	-12107
68	-12108
▁generated	-12109
▁portra	-12110
▁samuel	-12111
▁010	-12112
▁mario	-12113
▁magnificent	-12114
▁spirits	-12115
▁requieren	-12116
teles	-12117
tiendo	-12118
▁lucas	-12119
▁renovated	-12120
▁composición	-12121
▁vegas	-12122
▁dormir	-12123
▁laundry	-12124
▁conflictos	-12125
▁parecen	-12126
▁sid	-12127
▁bureau	-12128
▁1970	-12129
▁cómodo	-12130
▁rango	-12131
▁slightly	-12132
▁container	-12133
alto	-12134
▁charged	-12135
▁vii	-12136
▁organismos	-12137
▁científica	-12138
▁regreso	-12139
▁continuing	-12140
▁inex	-12141
▁shado	-12142
▁alph	-12143
▁county	-12144
▁travelers	-12145
▁campesinos	-12146
▁criti	-12147
▁concert	-12148
▁xii	-12149
▁sq	-12150
▁antig	-12151
▁torne	-12152
▁caer	-12153
▁pasión	-12154
▁posiciones	-12155
67	-12156
▁discussed	-12157
▁garage	-12158
jero	-12159
▁listo	-12160
path	-12161
▁operativo	-12162
▁señales	-12163
▁belo	-12164
▁sufrimiento	-12165
▁reparación	-12166
▁dating	-12167
▁illum	-12168
▁etiqueta	-12169
▁sculpt	-12170
▁personajes	-12171
▁nev	-12172
▁biom	-12173
▁split	-12174
.90	-12175
▁fieles	-12176
tega	-12177
▁aims	-12178
▁flood	-12179
emas	-12180
▁ku	-12181
▁quote	-12182
▁realizada	-12183
▁religiosa	-12184
tech	-12185
▁adequ	-12186
▁farmers	-12187
▁exceptional	-12188
▁identificación	-12189
pati	-12190
▁vil	-12191
▁comunista	-12192
▁provisions	-12193
▁curios	-12194
▁neutral	-12195
▁obsta	-12196
▁documentation	-12197
▁healing	-12198
▁withdra	-12199
▁tomado	-12200
▁965	-12201
▁usan	-12202
▁panorama	-12203
▁corea	-12204
ueva	-12205
▁trends	-12206
▁residential	-12207
▁pista	-12208
▁springs	-12209
▁positivo	-12210
▁tribu	-12211
▁estarán	-12212
▁surge	-12213
▁diagnosis	-12214
éricas	-12215
▁sciences	-12216
▁seemed	-12217
ower	-12218
▁inglaterra	-12219
▁massive	-12220
tv	-12221
▁haven	-12222
▁utilizados	-12223
ósitos	-12224
▁demons	-12225
▁pasajeros	-12226
▁penet	-12227
▁descr	-12228
▁bahía	-12229
▁croati	-12230
▁dust	-12231
▁conceptos	-12232
▁warranty	-12233
▁conclusion	-12234
ógico	-12235
▁thro	-12236
▁coven	-12237
▁supone	-12238
orra	-12239
▁winds	-12240
▁delicios	-12241
▁secondary	-12242
▁cotid	-12243
▁sri	-12244
▁regla	-12245
▁poll	-12246
▁encuesta	-12247
▁recomienda	-12248
▁jet	-12249
issip	-12250
▁diversión	-12251
▁moroc	-12252
ambra	-12253
▁elige	-12254
▁ano	-12255
ultural	-12256
▁pide	-12257
inea	-12258
▁esenciales	-12259
▁ayudan	-12260
gación	-12261
▁mobility	-12262
▁registrar	-12263
▁congregation	-12264
▁venecia	-12265
▁pand	-12266
▁llame	-12267
▁superar	-12268
▁sagrada	-12269
▁allah	-12270
▁worse	-12271
éndolo	-12272
▁desafíos	-12273
▁salvo	-12274
▁chamber	-12275
▁ratings	-12276
▁smartphone	-12277
▁rss	-12278
unning	-12279
uestra	-12280
▁previa	-12281
▁servants	-12282
▁suit	-12283
▁orch	-12284
▁confess	-12285
▁árabe	-12286
▁soviet	-12287
▁nacido	-12288
bis	-12289
cau	-12290
pack	-12291
▁mississip	-12292
dan	-12293
emen	-12294
▁ventanas	-12295
▁carmen	-12296
bao	-12297
▁expansión	-12298
▁illness	-12299
▁judah	-12300
esión	-12301
▁patagonia	-12302
▁webapps	-12303
▁accuracy	-12304
imas	-12305
▁lunch	-12306
▁negociaciones	-12307
▁transac	-12308
▁controls	-12309
▁gaza	-12310
▁mouse	-12311
vc	-12312
▁queridos	-12313
▁inhib	-12314
▁reconoce	-12315
▁abuso	-12316
▁ports	-12317
▁extraordinary	-12318
▁olymp	-12319
.12	-12320
eller	-12321
▁diagnostic	-12322
▁comprobar	-12323
▁cuero	-12324
▁votar	-12325
▁lock	-12326
▁clínica	-12327
sten	-12328
▁decides	-12329
▁antivirus	-12330
▁afternoon	-12331
▁interfaz	-12332
▁architects	-12333
▁closer	-12334
▁absolutely	-12335
▁redon	-12336
▁personality	-12337
▁uniform	-12338
▁lópez	-12339
▁señaló	-12340
▁dreams	-12341
▁avenida	-12342
▁electricidad	-12343
▁ayudará	-12344
▁combinar	-12345
ups	-12346
▁allerg	-12347
▁parada	-12348
▁sacrificio	-12349
▁tratando	-12350
▁width	-12351
▁pertenece	-12352
dal	-12353
▁eliminación	-12354
▁lesson	-12355
▁patrocin	-12356
▁releases	-12357
▁remaining	-12358
▁formatos	-12359
▁pent	-12360
▁intento	-12361
▁residents	-12362
▁catalu	-12363
▁matthe	-12364
▁exquis	-12365
raid	-12366
▁grey	-12367
▁conve	-12368
▁salvar	-12369
▁poland	-12370
idh	-12371
▁volvió	-12372
produ	-12373
▁reper	-12374
▁mississippi	-12375
▁sounds	-12376
▁malo	-12377
▁awarded	-12378
▁faces	-12379
▁doctrine	-12380
▁cumbre	-12381
▁shooting	-12382
related	-12383
▁porcentaje	-12384
▁capacitación	-12385
▁emble	-12386
▁sought	-12387
▁autop	-12388
▁reacción	-12389
▁vestido	-12390
▁stones	-12391
▁almacen	-12392
▁precious	-12393
▁sufficient	-12394
▁125	-12395
▁viva	-12396
▁guides	-12397
▁emotional	-12398
▁arco	-12399
▁concentración	-12400
▁provincial	-12401
▁consta	-12402
▁propone	-12403
build	-12404
▁bing	-12405
▁tabern	-12406
leta	-12407
▁declaró	-12408
itate	-12409
▁reproductor	-12410
mel	-12411
▁talleres	-12412
▁pursuant	-12413
mn	-12414
▁amuebl	-12415
guez	-12416
▁workshops	-12417
▁metod	-12418
▁famosa	-12419
alm	-12420
cipe	-12421
▁hermanas	-12422
▁serp	-12423
▁chino	-12424
▁tuber	-12425
grado	-12426
▁gabriel	-12427
▁ucr	-12428
▁registros	-12429
▁letras	-12430
▁prelimin	-12431
▁difíciles	-12432
▁difficulties	-12433
▁argument	-12434
44	-12435
▁correspondiente	-12436
▁afecta	-12437
citos	-12438
▁listening	-12439
geno	-12440
▁misterio	-12441
▁supporting	-12442
isure	-12443
mol	-12444
▁probate	-12445
▁moz	-12446
▁manufacture	-12447
▁baratas	-12448
▁divino	-12449
▁pilgrim	-12450
▁chá	-12451
▁proclaim	-12452
▁aconse	-12453
▁smith	-12454
▁specialized	-12455
yside	-12456
consin	-12457
▁cinema	-12458
▁sitting	-12459
▁cig	-12460
▁enth	-12461
▁arque	-12462
▁confort	-12463
▁filtros	-12464
▁vanguard	-12465
▁gonzá	-12466
▁singular	-12467
▁twin	-12468
▁certificate	-12469
▁michel	-12470
▁wisconsin	-12471
▁permitido	-12472
▁trem	-12473
alus	-12474
▁indispens	-12475
▁ltd	-12476
ónicas	-12477
,500	-12478
▁ez	-12479
▁valuable	-12480
cap	-12481
▁extremadamente	-12482
▁francesa	-12483
▁ocul	-12484
▁disaster	-12485
▁reaction	-12486
porters	-12487
▁styles	-12488
▁enorm	-12489
▁negotiations	-12490
inda	-12491
▁concurso	-12492
▁conmigo	-12493
▁habitual	-12494
▁module	-12495
▁danger	-12496
▁manus	-12497
▁envió	-12498
▁cens	-12499
▁dimension	-12500
▁meter	-12501
▁dispers	-12502
▁hp	-12503
▁ency	-12504
▁guías	-12505
▁attribu	-12506
▁elder	-12507
▁privadas	-12508
▁quitar	-12509
▁dada	-12510
esthe	-12511
▁conserva	-12512
▁suma	-12513
ámico	-12514
▁cargos	-12515
▁toneladas	-12516
▁gent	-12517
▁excellence	-12518
▁minnes	-12519
▁secretaría	-12520
▁bone	-12521
▁consideration	-12522
▁periódico	-12523
war	-12524
▁tube	-12525
pero	-12526
▁creates	-12527
▁revelation	-12528
▁empresarial	-12529
▁containing	-12530
▁combines	-12531
▁dioces	-12532
▁contemporáneo	-12533
▁simul	-12534
▁remark	-12535
▁spotify	-12536
▁excepción	-12537
▁linkedin	-12538
hl	-12539
▁eventually	-12540
▁paralle	-12541
▁vuestras	-12542
▁cargar	-12543
urope	-12544
▁runs	-12545
▁asesinato	-12546
fall	-12547
▁vitamin	-12548
▁empieza	-12549
▁corn	-12550
▁exposed	-12551
▁supplement	-12552
▁eficacia	-12553
yac	-12554
▁indicate	-12555
▁consciente	-12556
▁programmes	-12557
▁hunt	-12558
▁aprovechar	-12559
▁jigsaw	-12560
▁invertir	-12561
▁juega	-12562
▁ofr	-12563
▁prague	-12564
▁inmigrantes	-12565
▁cantidades	-12566
acle	-12567
▁mult	-12568
átil	-12569
▁bomba	-12570
▁citizen	-12571
▁cargando	-12572
▁secundarios	-12573
▁syria	-12574
teries	-12575
uter	-12576
▁volvo	-12577
▁patent	-12578
▁prácticamente	-12579
▁slot	-12580
▁prisión	-12581
▁pudiera	-12582
▁organisations	-12583
▁subjects	-12584
▁mirror	-12585
▁speaks	-12586
▁inmun	-12587
▁alhambra	-12588
▁filters	-12589
osis	-12590
▁minnesota	-12591
▁ambass	-12592
▁boys	-12593
▁imple	-12594
▁behalf	-12595
▁conductor	-12596
▁vibr	-12597
▁increasingly	-12598
▁attended	-12599
▁tango	-12600
▁stability	-12601
▁contienen	-12602
▁radiation	-12603
▁judá	-12604
▁unfortunately	-12605
▁amate	-12606
▁narrow	-12607
▁arran	-12608
▁muscle	-12609
▁petro	-12610
▁demostrado	-12611
▁exclusivo	-12612
▁resuel	-12613
▁entit	-12614
▁privileg	-12615
when	-12616
▁gonzález	-12617
▁sociedades	-12618
▁eb	-12619
▁discos	-12620
▁supposed	-12621
▁vé	-12622
▁collected	-12623
▁parecer	-12624
▁respectivamente	-12625
inform	-12626
▁demostrar	-12627
▁chávez	-12628
▁countryside	-12629
▁headquarters	-12630
▁productores	-12631
▁empezó	-12632
▁3.5	-12633
▁estabilidad	-12634
▁unable	-12635
▁renewed	-12636
▁quito	-12637
▁destruir	-12638
▁damos	-12639
▁appeal	-12640
▁dimensión	-12641
▁angels	-12642
▁comunión	-12643
,1	-12644
▁impressive	-12645
▁provision	-12646
▁compuesto	-12647
▁disk	-12648
▁digitales	-12649
▁hogares	-12650
▁colaboradores	-12651
▁filehorse	-12652
▁literatura	-12653
▁turquía	-12654
▁dedicada	-12655
▁capitalism	-12656
lem	-12657
▁bird	-12658
▁montaje	-12659
▁lamp	-12660
▁autón	-12661
obtén	-12662
69	-12663
arlos	-12664
▁bicicleta	-12665
▁decía	-12666
▁accum	-12667
▁ayer	-12668
▁nights	-12669
▁faster	-12670
▁alimentaria	-12671
▁proxim	-12672
▁escond	-12673
▁estimated	-12674
▁consumidores	-12675
▁estándares	-12676
▁transición	-12677
cismo	-12678
▁contáct	-12679
▁roja	-12680
▁distrib	-12681
▁absolut	-12682
71	-12683
▁fox	-12684
▁soport	-12685
▁esperando	-12686
▁ambassador	-12687
▁metál	-12688
▁horn	-12689
▁jewel	-12690
astar	-12691
▁zoom	-12692
▁suggested	-12693
▁24-	-12694
▁passing	-12695
▁cala	-12696
▁recor	-12697
vard	-12698
▁bailar	-12699
▁pension	-12700
▁thermal	-12701
▁reflection	-12702
▁concepts	-12703
▁farmac	-12704
▁recoger	-12705
▁kur	-12706
▁abdom	-12707
ustin	-12708
▁alien	-12709
rey	-12710
▁leisure	-12711
▁afraid	-12712
▁ajustes	-12713
▁triste	-12714
▁happening	-12715
▁deserv	-12716
▁amantes	-12717
▁regulation	-12718
▁japones	-12719
ormal	-12720
▁flora	-12721
▁congregación	-12722
▁hes	-12723
▁generations	-12724
hen	-12725
▁kent	-12726
atri	-12727
▁elected	-12728
izó	-12729
79	-12730
▁seguido	-12731
▁instalada	-12732
▁originally	-12733
▁nord	-12734
▁promoting	-12735
▁interfer	-12736
▁dieron	-12737
istía	-12738
▁tendrás	-12739
▁profundamente	-12740
▁saving	-12741
▁alojar	-12742
▁espectáculo	-12743
▁mecanismos	-12744
▁debian	-12745
▁conclusión	-12746
enarios	-12747
break	-12748
▁zip	-12749
▁secador	-12750
▁lovely	-12751
▁lob	-12752
▁arquitectos	-12753
▁silence	-12754
▁configuration	-12755
▁medicines	-12756
▁drivers	-12757
▁tissue	-12758
▁discer	-12759
ension	-12760
▁capitalismo	-12761
▁alimento	-12762
▁arreg	-12763
curo	-12764
▁regener	-12765
hand	-12766
▁dejado	-12767
owned	-12768
▁zero	-12769
▁satanás	-12770
ículo	-12771
▁deeply	-12772
▁denunci	-12773
▁rs	-12774
▁eléctrico	-12775
▁fué	-12776
▁ibiza	-12777
▁certificación	-12778
ouses	-12779
▁automo	-12780
▁destaca	-12781
▁architectural	-12782
▁ceramic	-12783
▁spam	-12784
▁wordpress	-12785
▁coverage	-12786
▁háb	-12787
▁delic	-12788
▁signal	-12789
▁improving	-12790
▁elaboración	-12791
tact	-12792
▁absoluto	-12793
▁intention	-12794
▁cambia	-12795
▁cruel	-12796
▁empu	-12797
▁ubicada	-12798
arra	-12799
▁escog	-12800
▁roads	-12801
▁printed	-12802
▁difund	-12803
▁interactive	-12804
▁exceed	-12805
▁testamento	-12806
▁minds	-12807
▁signos	-12808
▁conocidos	-12809
▁ilegal	-12810
▁matthew	-12811
▁perro	-12812
▁abogado	-12813
▁llor	-12814
▁líquido	-12815
▁frutas	-12816
▁covenant	-12817
▁porn	-12818
▁secretariat	-12819
blas	-12820
▁captura	-12821
▁worst	-12822
▁frutos	-12823
▁frag	-12824
▁realized	-12825
▁prisoners	-12826
cut	-12827
▁naran	-12828
▁5-	-12829
▁wise	-12830
elve	-12831
▁arrep	-12832
▁gris	-12833
▁featuring	-12834
lando	-12835
emor	-12836
▁alerta	-12837
▁wedding	-12838
▁insect	-12839
▁regresar	-12840
▁refugiados	-12841
▁desired	-12842
▁chart	-12843
▁sospe	-12844
prene	-12845
▁snack	-12846
▁bienvenidos	-12847
▁agente	-12848
▁joan	-12849
▁viajeros	-12850
▁kir	-12851
▁ruso	-12852
▁fibra	-12853
▁diseños	-12854
▁agro	-12855
▁muestras	-12856
abo	-12857
▁rivers	-12858
serv	-12859
▁supon	-12860
▁portuguese	-12861
▁inspiration	-12862
▁laboratory	-12863
▁plenamente	-12864
▁plain	-12865
▁bilbao	-12866
made	-12867
▁suici	-12868
▁electrónicos	-12869
▁towns	-12870
▁loving	-12871
-14	-12872
▁lesb	-12873
▁pagos	-12874
▁stable	-12875
▁dirigido	-12876
▁pets	-12877
▁patriar	-12878
▁alamo	-12879
▁buses	-12880
inarias	-12881
▁isl	-12882
▁coopera	-12883
▁rell	-12884
▁branch	-12885
uegos	-12886
▁widely	-12887
oty	-12888
▁exit	-12889
▁interesantes	-12890
▁testament	-12891
▁pele	-12892
▁ariz	-12893
▁metropol	-12894
▁reciben	-12895
▁ré	-12896
▁exti	-12897
▁pia	-12898
▁circular	-12899
▁raza	-12900
▁resor	-12901
stall	-12902
chez	-12903
áfrica	-12904
▁pharm	-12905
▁vieja	-12906
osex	-12907
▁seminario	-12908
icales	-12909
▁tarifa	-12910
▁twelve	-12911
▁courage	-12912
▁rams	-12913
▁ester	-12914
▁1-2	-12915
▁horr	-12916
▁cataluña	-12917
▁tons	-12918
▁glad	-12919
▁avance	-12920
▁apostolic	-12921
▁decidió	-12922
▁nigeria	-12923
▁patterns	-12924
▁exception	-12925
▁eterno	-12926
▁atmós	-12927
▁medición	-12928
▁occurs	-12929
200	-12930
▁notable	-12931
▁específica	-12932
news	-12933
▁berg	-12934
▁usage	-12935
▁suppliers	-12936
▁gaz	-12937
▁pertin	-12938
▁conectado	-12939
▁texts	-12940
▁juez	-12941
▁intermed	-12942
▁llave	-12943
▁degrad	-12944
▁preval	-12945
▁myth	-12946
quiry	-12947
▁naturally	-12948
▁carden	-12949
▁tung	-12950
▁clásicos	-12951
aked	-12952
▁righteousness	-12953
▁plenty	-12954
▁recall	-12955
was	-12956
▁explicó	-12957
terday	-12958
▁casco	-12959
iac	-12960
uran	-12961
▁llamó	-12962
▁breaks	-12963
ufici	-12964
▁advoc	-12965
▁babylon	-12966
▁declaraciones	-12967
▁relaxing	-12968
iant	-12969
▁ortega	-12970
▁alle	-12971
▁investors	-12972
▁scientists	-12973
▁centres	-12974
uxe	-12975
pain	-12976
▁primarily	-12977
▁vienna	-12978
▁binary	-12979
omy	-12980
▁pt	-12981
onato	-12982
▁adquirir	-12983
agog	-12984
▁asian	-12985
▁everlasting	-12986
▁compress	-12987
▁hack	-12988
▁endo	-12989
▁chan	-12990
▁mechanical	-12991
▁jn	-12992
▁desa	-12993
▁throw	-12994
▁membership	-12995
▁pregnancy	-12996
▁delan	-12997
▁bottle	-12998
▁degre	-12999
▁customs	-13000
▁clock	-13001
▁fórmula	-13002
igual	-13003
▁diagram	-13004
▁provoc	-13005
vele	-13006
▁veinte	-13007
▁considering	-13008
atorias	-13009
▁noticia	-13010
▁masturb	-13011
▁das	-13012
▁delay	-13013
oney	-13014
▁diccionario	-13015
▁atribu	-13016
▁exciting	-13017
▁yesterday	-13018
▁decidir	-13019
▁2.	-13020
▁96	-13021
▁photographs	-13022
▁ome	-13023
under	-13024
▁cotton	-13025
▁querido	-13026
▁parish	-13027
oll	-13028
icks	-13029
▁anunció	-13030
▁188	-13031
▁registrarse	-13032
▁peces	-13033
▁fluid	-13034
▁ker	-13035
▁ordered	-13036
▁passage	-13037
▁directions	-13038
▁distinctive	-13039
▁federation	-13040
pot	-13041
ionar	-13042
cav	-13043
asta	-13044
▁ships	-13045
▁alberto	-13046
72	-13047
▁cárcel	-13048
▁exhibitions	-13049
▁lás	-13050
▁embra	-13051
▁figuras	-13052
akes	-13053
▁tech	-13054
▁aprovech	-13055
▁obispos	-13056
▁propon	-13057
▁counsel	-13058
▁perce	-13059
▁serbia	-13060
ográfica	-13061
▁diploma	-13062
▁everyday	-13063
agu	-13064
▁normally	-13065
▁matt	-13066
▁config	-13067
unya	-13068
alda	-13069
omon	-13070
▁conveniente	-13071
▁stopped	-13072
▁cambiado	-13073
▁asisti	-13074
▁matar	-13075
▁devil	-13076
▁protein	-13077
ively	-13078
▁explotación	-13079
▁percentage	-13080
▁fifth	-13081
ede	-13082
▁aci	-13083
▁closely	-13084
▁pidió	-13085
oni	-13086
▁metabol	-13087
▁vaticano	-13088
▁certification	-13089
▁restr	-13090
▁deliber	-13091
▁shr	-13092
▁chest	-13093
▁tocar	-13094
▁dui	-13095
▁igualdad	-13096
enea	-13097
▁rend	-13098
▁combat	-13099
▁chip	-13100
▁smartphones	-13101
smoking	-13102
▁graphics	-13103
▁reproducir	-13104
▁fortaleza	-13105
udio	-13106
▁parks	-13107
▁bracelet	-13108
radas	-13109
▁94	-13110
▁league	-13111
▁musulman	-13112
▁habéis	-13113
▁invisible	-13114
▁fabricantes	-13115
▁lung	-13116
ticut	-13117
▁generaciones	-13118
icto	-13119
▁aprobación	-13120
▁personalizada	-13121
▁worker	-13122
onso	-13123
tría	-13124
▁endu	-13125
▁sexuales	-13126
▁lados	-13127
▁equipamiento	-13128
▁equiv	-13129
ificada	-13130
▁ave	-13131
▁resurrection	-13132
▁injusti	-13133
hop	-13134
▁71	-13135
▁oscuridad	-13136
▁evol	-13137
▁holds	-13138
▁desarrolla	-13139
lying	-13140
▁ove	-13141
▁abu	-13142
rian	-13143
▁princes	-13144
▁lun	-13145
▁definir	-13146
▁aroma	-13147
▁viendo	-13148
▁consent	-13149
▁promin	-13150
▁comidas	-13151
enon	-13152
proof	-13153
▁bancar	-13154
▁recurso	-13155
flow	-13156
▁pón	-13157
▁uv	-13158
▁coral	-13159
▁symbols	-13160
▁sobr	-13161
otherapy	-13162
▁frequency	-13163
letos	-13164
▁anywhere	-13165
▁entreprene	-13166
▁ensay	-13167
▁compass	-13168
▁frases	-13169
▁liturg	-13170
▁ves	-13171
▁desl	-13172
dem	-13173
▁fumadores	-13174
▁dobles	-13175
▁brun	-13176
quez	-13177
itivamente	-13178
▁mostly	-13179
▁elevator	-13180
▁cubrir	-13181
▁lluvia	-13182
uster	-13183
▁surroundings	-13184
55	-13185
agement	-13186
▁montón	-13187
▁descubier	-13188
▁wines	-13189
▁william	-13190
▁registry	-13191
▁founder	-13192
▁luces	-13193
▁cercana	-13194
▁quir	-13195
▁parques	-13196
▁autobuses	-13197
▁símbolos	-13198
hyth	-13199
▁preparing	-13200
▁amn	-13201
▁nurs	-13202
▁bélgica	-13203
▁ecl	-13204
grafo	-13205
▁93	-13206
▁conformidad	-13207
▁específicamente	-13208
▁enormous	-13209
▁relative	-13210
▁motores	-13211
▁llegaron	-13212
▁composition	-13213
▁fitted	-13214
▁interesado	-13215
▁pointed	-13216
ée	-13217
ámicas	-13218
▁villages	-13219
▁reducida	-13220
▁cep	-13221
▁kal	-13222
▁ronda	-13223
amics	-13224
▁calib	-13225
▁determinado	-13226
▁3-	-13227
▁weekend	-13228
▁desempeñ	-13229
▁scope	-13230
▁órganos	-13231
▁acabado	-13232
▁incredible	-13233
▁caj	-13234
▁sorted	-13235
▁mateo	-13236
▁inters	-13237
▁rurales	-13238
▁malas	-13239
▁testigos	-13240
▁continente	-13241
bir	-13242
▁automático	-13243
▁modificación	-13244
acho	-13245
▁auxil	-13246
▁relatively	-13247
▁arizona	-13248
amba	-13249
▁careful	-13250
▁creemos	-13251
▁dism	-13252
▁lenin	-13253
▁connecticut	-13254
▁monedas	-13255
▁journalist	-13256
▁compruebe	-13257
▁plazas	-13258
▁custody	-13259
▁catch	-13260
uten	-13261
▁thread	-13262
▁dispute	-13263
▁ordinary	-13264
▁experimental	-13265
▁crimen	-13266
▁surprised	-13267
illaje	-13268
▁receta	-13269
▁keys	-13270
▁menti	-13271
ikes	-13272
▁ward	-13273
▁appointment	-13274
▁fauna	-13275
▁advert	-13276
▁justa	-13277
▁ascend	-13278
eland	-13279
▁spin	-13280
▁fundador	-13281
▁sudáfrica	-13282
▁carav	-13283
▁acost	-13284
▁inmue	-13285
▁competitive	-13286
▁degrees	-13287
▁beta	-13288
▁respective	-13289
▁owi	-13290
▁salió	-13291
▁esencia	-13292
▁corin	-13293
▁grasa	-13294
rooms	-13295
▁corred	-13296
▁diaria	-13297
▁capitalist	-13298
▁personalized	-13299
▁forests	-13300
ste	-13301
denes	-13302
▁contigo	-13303
▁ama	-13304
▁producido	-13305
▁romano	-13306
▁tatuaje	-13307
▁pedidos	-13308
ólico	-13309
▁isaac	-13310
gir	-13311
▁pleased	-13312
▁correa	-13313
▁archives	-13314
fran	-13315
▁catalan	-13316
▁cultures	-13317
▁effectively	-13318
▁emocion	-13319
arla	-13320
▁tantos	-13321
oder	-13322
zará	-13323
▁religiosos	-13324
▁novedades	-13325
▁luxem	-13326
spam	-13327
▁absolutamente	-13328
▁mendo	-13329
anced	-13330
▁ng	-13331
▁simples	-13332
▁ingreso	-13333
▁quedó	-13334
▁magnetic	-13335
oted	-13336
▁modernas	-13337
▁señala	-13338
trans	-13339
▁actores	-13340
▁infecciones	-13341
▁raíz	-13342
▁managing	-13343
aran	-13344
▁soc	-13345
astro	-13346
▁cuidada	-13347
▁recog	-13348
▁82	-13349
▁puro	-13350
▁oscuro	-13351
▁coher	-13352
78	-13353
▁viste	-13354
▁restore	-13355
▁sweden	-13356
▁jerem	-13357
▁ilimitado	-13358
▁atlas	-13359
▁avión	-13360
▁relacionada	-13361
▁disney	-13362
▁garantías	-13363
▁ausencia	-13364
▁gym	-13365
▁bolsos	-13366
▁academia	-13367
▁pronunci	-13368
▁ost	-13369
▁ende	-13370
▁indoor	-13371
▁evidente	-13372
▁tennis	-13373
▁entusias	-13374
▁ritual	-13375
▁catalunya	-13376
▁connections	-13377
▁departure	-13378
▁verdes	-13379
▁tamaños	-13380
61	-13381
▁dwi	-13382
▁acogedor	-13383
▁exclusiva	-13384
inton	-13385
▁trag	-13386
▁mechanisms	-13387
73	-13388
▁referencias	-13389
tre	-13390
▁migration	-13391
working	-13392
▁addressed	-13393
▁regalos	-13394
▁render	-13395
▁pendientes	-13396
▁hence	-13397
▁deleted	-13398
▁executed	-13399
▁officers	-13400
▁parecía	-13401
▁disponen	-13402
▁gráficos	-13403
▁statements	-13404
iors	-13405
▁1.3	-13406
▁benj	-13407
▁pearl	-13408
she	-13409
▁estilos	-13410
ington	-13411
▁highlight	-13412
▁sú	-13413
▁clip	-13414
uve	-13415
▁rodeado	-13416
▁irregular	-13417
▁enferm	-13418
▁deluxe	-13419
▁dominicana	-13420
▁reclam	-13421
▁resurrección	-13422
worth	-13423
▁communion	-13424
▁resistente	-13425
▁enseñanzas	-13426
▁cerebral	-13427
▁ortho	-13428
▁officer	-13429
▁carac	-13430
▁indirect	-13431
▁unions	-13432
▁4-	-13433
▁sangu	-13434
▁capture	-13435
▁jordan	-13436
▁lógica	-13437
▁curs	-13438
▁talla	-13439
▁equipadas	-13440
▁references	-13441
▁pup	-13442
▁brazos	-13443
▁ceremony	-13444
áreas	-13445
▁siento	-13446
▁functionality	-13447
▁irak	-13448
▁atmósfera	-13449
▁triple	-13450
▁providers	-13451
▁asistir	-13452
▁governor	-13453
▁extract	-13454
furt	-13455
▁corona	-13456
▁anunciante	-13457
▁vitamina	-13458
▁atractivo	-13459
▁affir	-13460
▁divul	-13461
cipl	-13462
▁dije	-13463
▁dose	-13464
▁treinta	-13465
yente	-13466
dp	-13467
▁lcd	-13468
▁toque	-13469
cursos	-13470
ht	-13471
▁predomin	-13472
▁pregnant	-13473
▁embarazo	-13474
▁drinking	-13475
▁casual	-13476
ág	-13477
aneous	-13478
▁oven	-13479
▁ladr	-13480
▁mascotas	-13481
▁sharp	-13482
▁demuestra	-13483
▁reader	-13484
▁detección	-13485
▁producen	-13486
▁roots	-13487
▁ruling	-13488
iario	-13489
▁cohes	-13490
▁kilometers	-13491
▁greatly	-13492
atz	-13493
▁nieve	-13494
▁harmony	-13495
▁violent	-13496
▁fronteras	-13497
▁colombian	-13498
▁conversation	-13499
iéndose	-13500
▁arabia	-13501
coming	-13502
▁saints	-13503
▁acr	-13504
bury	-13505
▁cardinal	-13506
▁adolescentes	-13507
▁residentes	-13508
▁fratern	-13509
umping	-13510
▁thirty	-13511
▁ocupa	-13512
▁exposure	-13513
▁kiss	-13514
▁desin	-13515
▁proclam	-13516
atiz	-13517
▁prision	-13518
▁dignity	-13519
▁maquillaje	-13520
▁exclusivamente	-13521
ísima	-13522
▁reservations	-13523
▁excur	-13524
▁sheep	-13525
▁discutir	-13526
▁enlar	-13527
▁humor	-13528
▁guinea	-13529
▁mantén	-13530
aka	-13531
▁cuadrados	-13532
▁comenta	-13533
▁grown	-13534
▁reset	-13535
▁buscador	-13536
arme	-13537
agn	-13538
▁turistas	-13539
▁módulo	-13540
▁programación	-13541
▁analytics	-13542
inding	-13543
▁publicar	-13544
▁ios	-13545
▁inqu	-13546
▁piloto	-13547
▁antiguas	-13548
▁noise	-13549
▁relativamente	-13550
▁monumentos	-13551
▁seco	-13552
▁sofa	-13553
▁hermana	-13554
▁modos	-13555
▁notic	-13556
▁cancellation	-13557
apas	-13558
▁tác	-13559
▁esquí	-13560
▁succeed	-13561
▁perdon	-13562
▁buce	-13563
áneamente	-13564
▁quizá	-13565
▁amarillo	-13566
▁inac	-13567
▁javier	-13568
▁federación	-13569
▁115	-13570
▁pendiente	-13571
onto	-13572
marks	-13573
▁piano	-13574
▁mostrando	-13575
▁bug	-13576
fel	-13577
▁audi	-13578
ustable	-13579
▁integrado	-13580
▁oax	-13581
▁attached	-13582
folio	-13583
▁silla	-13584
▁entidades	-13585
▁océano	-13586
▁asociaciones	-13587
front	-13588
▁virtud	-13589
▁anger	-13590
▁motorcy	-13591
ande	-13592
▁concentration	-13593
▁cerámica	-13594
▁interesados	-13595
▁gimnasio	-13596
▁prado	-13597
▁identif	-13598
▁corresponde	-13599
▁vicepresid	-13600
▁tow	-13601
ienta	-13602
▁suele	-13603
▁listas	-13604
▁healthcare	-13605
▁fortalecer	-13606
▁everywhere	-13607
▁preguntó	-13608
▁covering	-13609
▁adquis	-13610
▁gases	-13611
▁eug	-13612
iveness	-13613
plan	-13614
▁hig	-13615
embol	-13616
▁junior	-13617
quel	-13618
▁interiores	-13619
▁temperaturas	-13620
▁rubber	-13621
▁eeuu	-13622
quer	-13623
▁trouble	-13624
▁expon	-13625
▁plato	-13626
▁wasn	-13627
▁recy	-13628
▁beber	-13629
▁characteristic	-13630
▁conces	-13631
▁religiosas	-13632
wich	-13633
éticas	-13634
▁mando	-13635
▁conducta	-13636
▁bacteria	-13637
▁sensitive	-13638
▁entering	-13639
▁conversación	-13640
▁genera	-13641
▁personnel	-13642
▁featured	-13643
▁genetic	-13644
▁puertos	-13645
▁satisfacción	-13646
▁cannabis	-13647
isi	-13648
▁discovery	-13649
ielo	-13650
▁alarm	-13651
▁dignidad	-13652
▁amateur	-13653
pg	-13654
▁sustancias	-13655
icardo	-13656
-01	-13657
▁gib	-13658
▁etiquet	-13659
▁vacu	-13660
▁garaje	-13661
▁masters	-13662
oston	-13663
▁fenómeno	-13664
▁analiza	-13665
andia	-13666
▁macro	-13667
▁fui	-13668
▁resuci	-13669
ighter	-13670
ivamente	-13671
▁oto	-13672
▁deterior	-13673
▁episcop	-13674
▁atlán	-13675
▁disposiciones	-13676
▁periods	-13677
conditioned	-13678
▁infected	-13679
▁actualizando	-13680
▁accurate	-13681
▁anten	-13682
lock	-13683
▁entitled	-13684
▁progressive	-13685
▁displaying	-13686
acon	-13687
inity	-13688
▁kim	-13689
▁nube	-13690
▁mankind	-13691
▁participating	-13692
▁eje	-13693
▁mixt	-13694
ameters	-13695
▁modernos	-13696
▁certified	-13697
▁lon	-13698
case	-13699
▁jacu	-13700
bla	-13701
▁maryland	-13702
▁meal	-13703
▁reaching	-13704
▁amplias	-13705
▁defenders	-13706
▁necesitar	-13707
▁instantly	-13708
▁alba	-13709
▁misso	-13710
▁roberto	-13711
▁embr	-13712
▁extensions	-13713
elli	-13714
▁maravilloso	-13715
▁qualified	-13716
▁patrones	-13717
▁childhood	-13718
▁underground	-13719
▁cura	-13720
▁ordenar	-13721
▁screensh	-13722
▁1960	-13723
▁tagged	-13724
▁israeli	-13725
▁prophets	-13726
.200	-13727
▁conexiones	-13728
▁arquitecto	-13729
74	-13730
▁laugh	-13731
mina	-13732
▁blas	-13733
▁celestial	-13734
▁celebrated	-13735
▁essence	-13736
▁experto	-13737
-2018	-13738
▁orn	-13739
▁tó	-13740
eses	-13741
▁pacífico	-13742
▁ricardo	-13743
▁ocupación	-13744
▁communicate	-13745
▁talks	-13746
tations	-13747
▁merely	-13748
▁73	-13749
▁caught	-13750
▁paisajes	-13751
▁hosts	-13752
▁maison	-13753
▁gathering	-13754
▁infections	-13755
▁handling	-13756
▁viney	-13757
▁culturas	-13758
▁espada	-13759
▁piz	-13760
▁precau	-13761
▁dientes	-13762
▁eps	-13763
▁tight	-13764
izer	-13765
▁albert	-13766
▁orthodox	-13767
▁stem	-13768
▁mista	-13769
▁traditions	-13770
▁sys	-13771
▁hidro	-13772
▁trading	-13773
gh	-13774
▁legs	-13775
▁eucar	-13776
▁humanitarian	-13777
▁núcleo	-13778
▁contamin	-13779
▁seas	-13780
▁removal	-13781
▁chick	-13782
▁altern	-13783
▁contributed	-13784
abeth	-13785
ulada	-13786
▁survival	-13787
▁sv	-13788
▁relief	-13789
▁demandas	-13790
▁greet	-13791
orear	-13792
chem	-13793
▁bienvenido	-13794
▁multic	-13795
▁midst	-13796
umbr	-13797
▁surprise	-13798
▁rut	-13799
ologist	-13800
▁steph	-13801
▁auditor	-13802
erge	-13803
▁contributions	-13804
▁profound	-13805
▁gods	-13806
▁kansas	-13807
▁procesamiento	-13808
▁rup	-13809
▁resc	-13810
▁nest	-13811
▁profetas	-13812
▁medianos	-13813
▁modified	-13814
▁monaster	-13815
▁testimony	-13816
▁bench	-13817
▁sugerencias	-13818
▁cañ	-13819
▁reducing	-13820
▁institucional	-13821
▁nick	-13822
▁leyendo	-13823
▁wicked	-13824
▁observación	-13825
▁apostle	-13826
▁biological	-13827
rog	-13828
▁drinks	-13829
▁alp	-13830
▁vegetables	-13831
pol	-13832
▁carbono	-13833
▁lets	-13834
▁lider	-13835
▁enjoying	-13836
▁sujeto	-13837
▁sombra	-13838
▁absence	-13839
▁wellness	-13840
▁regístrese	-13841
▁barato	-13842
▁facultad	-13843
▁opon	-13844
▁saludable	-13845
▁parámetros	-13846
▁aparición	-13847
conn	-13848
▁brush	-13849
▁explorer	-13850
▁turk	-13851
▁expensive	-13852
▁ricos	-13853
▁tubo	-13854
▁approval	-13855
▁formado	-13856
▁paintings	-13857
▁apunt	-13858
▁purchased	-13859
▁charity	-13860
ijing	-13861
▁doméstica	-13862
íe	-13863
íguez	-13864
▁terminado	-13865
ulous	-13866
▁podían	-13867
▁praise	-13868
▁organize	-13869
▁bulgaria	-13870
▁interr	-13871
telación	-13872
▁rena	-13873
▁scat	-13874
▁negros	-13875
▁ortodox	-13876
▁dwell	-13877
▁dispuesto	-13878
▁fiber	-13879
ymph	-13880
▁enthusias	-13881
▁havana	-13882
▁audiovisual	-13883
▁pilar	-13884
▁hitler	-13885
▁millas	-13886
▁170	-13887
▁rice	-13888
▁separado	-13889
▁blancos	-13890
▁gó	-13891
▁assign	-13892
▁revisar	-13893
▁creyentes	-13894
▁breaking	-13895
▁dibujos	-13896
ials	-13897
▁quanti	-13898
▁microw	-13899
▁readers	-13900
▁herself	-13901
▁americano	-13902
érico	-13903
▁orgas	-13904
▁consumers	-13905
fra	-13906
inous	-13907
▁larg	-13908
▁polonia	-13909
▁miti	-13910
uerzo	-13911
▁construida	-13912
▁danza	-13913
▁bonito	-13914
any	-13915
▁drawn	-13916
▁facilidad	-13917
▁expresar	-13918
▁andalucía	-13919
▁empresariales	-13920
udos	-13921
▁mendoza	-13922
▁guidance	-13923
exist	-13924
▁classification	-13925
esas	-13926
▁embal	-13927
▁enhan	-13928
▁vigilancia	-13929
▁compilation	-13930
▁nik	-13931
▁oui	-13932
▁destacar	-13933
▁aldea	-13934
▁examin	-13935
▁provocar	-13936
▁maintained	-13937
▁bella	-13938
▁turístico	-13939
▁chicas	-13940
▁sueños	-13941
▁ambientales	-13942
▁repeat	-13943
▁suelen	-13944
▁temperatures	-13945
▁poblaciones	-13946
ghan	-13947
▁especialistas	-13948
▁tela	-13949
master	-13950
▁significantly	-13951
▁orqu	-13952
▁negligencia	-13953
▁gentiles	-13954
nap	-13955
▁measurement	-13956
▁inspiración	-13957
▁humans	-13958
▁apocal	-13959
▁instante	-13960
▁poe	-13961
▁1988	-13962
▁dutch	-13963
tains	-13964
▁minimal	-13965
▁regularly	-13966
▁engañ	-13967
▁llegan	-13968
▁zealand	-13969
▁reflexión	-13970
▁indispensable	-13971
▁definitely	-13972
▁cerve	-13973
▁sincer	-13974
▁encontra	-13975
▁implemented	-13976
▁ponga	-13977
▁restable	-13978
▁concluded	-13979
▁wages	-13980
▁manufacturers	-13981
▁gira	-13982
▁convoc	-13983
▁atlantic	-13984
▁seguidores	-13985
▁llevará	-13986
aks	-13987
▁martín	-13988
▁euchar	-13989
quality	-13990
▁vector	-13991
pected	-13992
▁ministers	-13993
py	-13994
▁reconocido	-13995
▁tested	-13996
general	-13997
▁santuario	-13998
ori	-13999
▁calent	-14000
▁beloved	-14001
▁rodríguez	-14002
▁nich	-14003
▁afirmó	-14004
▁acaba	-14005
▁galile	-14006
▁zones	-14007
▁boston	-14008
▁mover	-14009
▁4.0	-14010
learn	-14011
▁entendimiento	-14012
▁comprob	-14013
▁perdón	-14014
▁tourists	-14015
▁deberán	-14016
▁compliance	-14017
▁greg	-14018
contin	-14019
▁existente	-14020
▁blessing	-14021
▁escrituras	-14022
zza	-14023
▁aside	-14024
▁writer	-14025
▁escapar	-14026
▁sabes	-14027
▁atracciones	-14028
▁industrias	-14029
▁román	-14030
▁vecinos	-14031
▁campañas	-14032
▁classical	-14033
▁culp	-14034
▁permission	-14035
▁md	-14036
▁crimin	-14037
▁quit	-14038
▁cultivo	-14039
▁espíritus	-14040
▁panels	-14041
▁admiti	-14042
▁tuve	-14043
▁vapor	-14044
titudes	-14045
▁recording	-14046
▁ida	-14047
▁expresa	-14048
.95	-14049
▁exces	-14050
teful	-14051
▁caps	-14052
▁promesa	-14053
▁produces	-14054
▁relajarse	-14055
▁externo	-14056
▁príncipe	-14057
▁anat	-14058
▁assistant	-14059
▁básico	-14060
▁funcionan	-14061
▁examine	-14062
▁acercar	-14063
ige	-14064
▁copiar	-14065
▁estrés	-14066
▁terap	-14067
▁luke	-14068
▁chilean	-14069
▁romanos	-14070
▁limitado	-14071
▁sofá	-14072
▁limpiar	-14073
▁ape	-14074
▁reembol	-14075
imi	-14076
▁póngase	-14077
▁automóviles	-14078
▁epidem	-14079
▁jazz	-14080
▁courts	-14081
check	-14082
▁kh	-14083
▁measured	-14084
▁eduardo	-14085
irán	-14086
adi	-14087
▁deplo	-14088
etraje	-14089
izas	-14090
▁fract	-14091
▁andalus	-14092
▁practicar	-14093
odos	-14094
▁row	-14095
▁couldn	-14096
▁borders	-14097
▁reign	-14098
▁obligación	-14099
▁perfor	-14100
hai	-14101
▁beijing	-14102
▁dinámica	-14103
▁históricos	-14104
▁organiza	-14105
tock	-14106
▁butter	-14107
▁astronom	-14108
uj	-14109
▁rosario	-14110
▁2-	-14111
▁movies	-14112
▁adher	-14113
▁informacion	-14114
▁dragon	-14115
▁destac	-14116
▁caridad	-14117
▁realizan	-14118
charge	-14119
ui	-14120
▁ayunt	-14121
agre	-14122
▁faced	-14123
▁translated	-14124
mus	-14125
▁hyp	-14126
▁laguna	-14127
▁órdenes	-14128
inder	-14129
▁insufici	-14130
▁ment	-14131
▁identification	-14132
▁220	-14133
▁enabled	-14134
tist	-14135
▁quem	-14136
▁suficientemente	-14137
▁1.4	-14138
▁escan	-14139
▁asegúrese	-14140
▁vicente	-14141
▁monas	-14142
vir	-14143
▁emisiones	-14144
▁conduce	-14145
burgh	-14146
42	-14147
▁acknowled	-14148
▁circuit	-14149
▁satisfe	-14150
▁ipod	-14151
▁arn	-14152
▁innovations	-14153
quen	-14154
▁espero	-14155
▁contaminación	-14156
▁margar	-14157
▁apariencia	-14158
▁hors	-14159
asty	-14160
weight	-14161
▁lex	-14162
▁amounts	-14163
▁attorney	-14164
▁obey	-14165
▁vulnerable	-14166
▁stunning	-14167
▁devoted	-14168
oo	-14169
▁lodge	-14170
▁apóstol	-14171
▁constituyen	-14172
ologic	-14173
▁restricciones	-14174
▁valenci	-14175
▁correctly	-14176
▁specified	-14177
▁tradiciones	-14178
▁ingles	-14179
▁tong	-14180
▁pierre	-14181
▁escolar	-14182
▁appreciate	-14183
rat	-14184
▁immobil	-14185
▁congres	-14186
▁europeas	-14187
▁dichos	-14188
▁logrado	-14189
▁asesoramiento	-14190
▁niña	-14191
ogen	-14192
▁astr	-14193
▁leban	-14194
▁sorpres	-14195
62	-14196
▁jar	-14197
▁cleanliness	-14198
▁wc	-14199
▁sinc	-14200
akian	-14201
▁membr	-14202
▁convenio	-14203
▁meals	-14204
▁versa	-14205
▁promised	-14206
▁toman	-14207
63	-14208
ography	-14209
▁trato	-14210
▁ácido	-14211
▁bandera	-14212
▁fusion	-14213
▁jacuzzi	-14214
▁1985	-14215
▁dirigida	-14216
fact	-14217
▁likewise	-14218
▁regardless	-14219
imens	-14220
▁finca	-14221
▁phones	-14222
▁islamic	-14223
itat	-14224
▁signo	-14225
▁álb	-14226
▁efectiva	-14227
▁directors	-14228
cht	-14229
▁adds	-14230
▁passengers	-14231
▁navegar	-14232
▁facilitate	-14233
▁waves	-14234
discipl	-14235
▁suddenly	-14236
▁socialista	-14237
▁localización	-14238
▁finger	-14239
▁hielo	-14240
▁concepción	-14241
▁terrorismo	-14242
▁voices	-14243
▁marks	-14244
▁viñ	-14245
▁presidential	-14246
▁egyp	-14247
▁wherever	-14248
▁replaced	-14249
▁inven	-14250
▁avances	-14251
▁moto	-14252
ábamos	-14253
▁registrado	-14254
▁etapas	-14255
▁publicada	-14256
▁missionary	-14257
▁expuls	-14258
▁decrease	-14259
▁energías	-14260
▁watching	-14261
▁genes	-14262
▁2020	-14263
▁americans	-14264
▁pescado	-14265
▁restored	-14266
there	-14267
▁lector	-14268
techn	-14269
▁congel	-14270
▁superviv	-14271
▁involves	-14272
▁politicians	-14273
▁lateral	-14274
enaje	-14275
▁trials	-14276
▁ipad	-14277
tn	-14278
▁ukraine	-14279
▁láser	-14280
▁falle	-14281
▁espectacular	-14282
▁concierto	-14283
▁specialist	-14284
▁tender	-14285
▁consigue	-14286
▁attach	-14287
▁creando	-14288
▁directora	-14289
▁married	-14290
▁proporcionan	-14291
bid	-14292
astres	-14293
▁lectores	-14294
▁rueda	-14295
▁verso	-14296
far	-14297
▁immigrants	-14298
▁highlighted	-14299
▁belongs	-14300
▁austin	-14301
▁córdoba	-14302
▁difusión	-14303
▁strange	-14304
atering	-14305
▁geneva	-14306
▁publica	-14307
▁snap	-14308
▁camiones	-14309
▁compartido	-14310
▁pollu	-14311
▁podamos	-14312
▁ceo	-14313
▁loyal	-14314
style	-14315
tex	-14316
amil	-14317
▁fides	-14318
▁alleged	-14319
▁financiamiento	-14320
▁literal	-14321
▁representation	-14322
amed	-14323
cura	-14324
▁deck	-14325
▁lifest	-14326
▁parallel	-14327
▁offline	-14328
▁backup	-14329
stre	-14330
ank	-14331
▁misiones	-14332
sec	-14333
▁duties	-14334
cars	-14335
▁newly	-14336
▁calder	-14337
▁upload	-14338
▁holoca	-14339
▁ross	-14340
▁comunicado	-14341
▁collections	-14342
▁castellano	-14343
▁harbour	-14344
▁hob	-14345
▁saltar	-14346
being	-14347
▁compensación	-14348
▁forming	-14349
▁branches	-14350
▁1.	-14351
▁seleccionado	-14352
illing	-14353
night	-14354
▁suecia	-14355
▁viviendo	-14356
▁pilot	-14357
▁dudas	-14358
unce	-14359
▁algod	-14360
▁92	-14361
▁indicates	-14362
▁logic	-14363
▁inequ	-14364
▁slide	-14365
▁socie	-14366
▁milán	-14367
▁restauración	-14368
▁aclar	-14369
▁haird	-14370
▁cement	-14371
▁productive	-14372
▁genuine	-14373
▁sail	-14374
▁medication	-14375
▁rip	-14376
▁believes	-14377
▁secciones	-14378
▁adequate	-14379
▁libremente	-14380
ungal	-14381
▁cuyos	-14382
▁acquired	-14383
▁comprend	-14384
▁tay	-14385
▁utilizada	-14386
▁habiendo	-14387
▁torment	-14388
anim	-14389
phy	-14390
▁smoking	-14391
▁chimenea	-14392
illes	-14393
enh	-14394
▁bí	-14395
▁renunci	-14396
ston	-14397
ostar	-14398
▁missouri	-14399
▁hydra	-14400
▁aseo	-14401
▁refugio	-14402
adel	-14403
▁ocio	-14404
▁tasas	-14405
▁1.0	-14406
▁saith	-14407
▁ministros	-14408
▁aquello	-14409
▁terrest	-14410
▁neighbour	-14411
▁household	-14412
▁refin	-14413
▁fide	-14414
▁macba	-14415
▁debía	-14416
▁assets	-14417
▁enseñar	-14418
▁nevera	-14419
▁developer	-14420
▁mío	-14421
▁manejar	-14422
orrow	-14423
▁divide	-14424
▁81	-14425
cías	-14426
▁suministr	-14427
tea	-14428
▁introducir	-14429
usts	-14430
▁juven	-14431
▁granja	-14432
▁protagonista	-14433
▁ongoing	-14434
▁inmediata	-14435
▁rhyth	-14436
▁intenso	-14437
▁frase	-14438
▁zapatos	-14439
▁necklace	-14440
▁cuen	-14441
▁coordinación	-14442
▁themes	-14443
43	-14444
▁protocolo	-14445
▁producing	-14446
▁makeup	-14447
▁bogot	-14448
▁ray	-14449
▁substanti	-14450
▁rinc	-14451
▁introduzca	-14452
▁equivalent	-14453
▁detener	-14454
▁3.	-14455
▁continuo	-14456
▁producers	-14457
ándole	-14458
▁exclusively	-14459
▁recruiters	-14460
▁wake	-14461
mat	-14462
▁scot	-14463
▁vías	-14464
inders	-14465
▁clubs	-14466
▁tenness	-14467
▁1986	-14468
▁expertise	-14469
-25	-14470
▁bios	-14471
▁sida	-14472
▁cobr	-14473
▁incons	-14474
▁vest	-14475
uana	-14476
▁dioses	-14477
▁maya	-14478
▁highlights	-14479
▁discern	-14480
▁afric	-14481
▁debates	-14482
▁actively	-14483
▁malaga	-14484
▁mans	-14485
▁twice	-14486
▁freelan	-14487
▁brindarte	-14488
▁válv	-14489
▁slowly	-14490
tempor	-14491
▁papers	-14492
▁teeth	-14493
▁conclusiones	-14494
alias	-14495
▁structural	-14496
▁lent	-14497
cara	-14498
▁1987	-14499
▁impuesto	-14500
▁petition	-14501
▁strongly	-14502
▁preview	-14503
▁wishes	-14504
▁sonr	-14505
▁panoramic	-14506
▁deportivo	-14507
▁muro	-14508
▁crímenes	-14509
▁pertenecen	-14510
antia	-14511
cp	-14512
▁oxy	-14513
▁pérez	-14514
-30	-14515
▁sti	-14516
▁romantic	-14517
▁prepara	-14518
▁químicos	-14519
íbase	-14520
▁compensation	-14521
▁weekly	-14522
▁comando	-14523
▁teachings	-14524
▁pinturas	-14525
▁societies	-14526
▁rolex	-14527
▁adapted	-14528
▁informó	-14529
▁placa	-14530
▁millón	-14531
▁classified	-14532
▁specially	-14533
▁inaugur	-14534
▁positiva	-14535
▁foster	-14536
▁futuras	-14537
▁américas	-14538
▁castel	-14539
▁tennessee	-14540
▁spare	-14541
▁reclutadores	-14542
▁83	-14543
▁causing	-14544
▁química	-14545
▁reveal	-14546
▁escritos	-14547
▁investments	-14548
▁avakian	-14549
▁siervo	-14550
ucky	-14551
▁icono	-14552
hs	-14553
▁corp	-14554
cletas	-14555
▁interval	-14556
▁react	-14557
mac	-14558
teenth	-14559
▁funcionalidad	-14560
▁skill	-14561
▁separated	-14562
▁térm	-14563
rupt	-14564
▁incend	-14565
▁neol	-14566
▁voluntarios	-14567
iances	-14568
▁loves	-14569
▁jackson	-14570
▁divorce	-14571
▁exactitud	-14572
▁reservados	-14573
onial	-14574
pera	-14575
▁prefi	-14576
▁apel	-14577
▁monuments	-14578
▁emociones	-14579
▁gad	-14580
▁jama	-14581
▁tratados	-14582
▁prioridad	-14583
▁clinton	-14584
▁parroqu	-14585
gur	-14586
econom	-14587
▁ratific	-14588
▁loan	-14589
▁competit	-14590
olver	-14591
▁oaxaca	-14592
icom	-14593
▁intercambi	-14594
▁discussions	-14595
íci	-14596
▁cana	-14597
▁moscow	-14598
▁democrática	-14599
▁lisbon	-14600
▁refund	-14601
98	-14602
▁inoc	-14603
▁spending	-14604
lle	-14605
▁reformas	-14606
enever	-14607
▁shin	-14608
▁athle	-14609
pie	-14610
▁developments	-14611
▁kas	-14612
▁trou	-14613
util	-14614
▁painted	-14615
▁manz	-14616
▁stom	-14617
▁folk	-14618
bec	-14619
onés	-14620
▁pulse	-14621
▁rhod	-14622
▁divertido	-14623
▁keeps	-14624
▁pretende	-14625
▁limpio	-14626
▁esquina	-14627
▁diseñada	-14628
▁pasta	-14629
▁microondas	-14630
▁realizadas	-14631
▁bauti	-14632
▁fach	-14633
▁paypal	-14634
▁characterized	-14635
▁regístrate	-14636
▁vacuum	-14637
uliar	-14638
▁lac	-14639
▁www	-14640
▁philipp	-14641
▁rin	-14642
▁asiento	-14643
▁hung	-14644
▁pistas	-14645
cot	-14646
▁decade	-14647
▁transfers	-14648
▁substance	-14649
▁encarn	-14650
▁heights	-14651
▁awa	-14652
▁pasada	-14653
▁refugees	-14654
▁assigned	-14655
▁api	-14656
▁harass	-14657
▁merch	-14658
▁consistent	-14659
oce	-14660
▁smoke	-14661
▁acting	-14662
▁permanece	-14663
▁minuto	-14664
▁arrest	-14665
▁círculo	-14666
urity	-14667
ómetro	-14668
▁abiertas	-14669
umed	-14670
▁105	-14671
▁cubre	-14672
▁críticas	-14673
▁mandato	-14674
[...]
