<pad>	0
<unk>	0
<MASK>	0
▁a	-0
▁d	-1
es	-2
▁t	-3
on	-4
en	-5
▁p	-6
in	-7
▁c	-8
▁l	-9
er	-10
▁s	-11
re	-12
▁,	-13
ti	-14
ou	-15
an	-16
▁th	-17
is	-18
▁m	-19
or	-20
▁de	-21
it	-22
▁the	-23
▁f	-24
os	-25
ar	-26
ent	-27
▁e	-28
al	-29
▁b	-30
qu	-31
ap	-32
▁o	-33
tion	-34
▁in	-35
le	-36
▁w	-37
at	-38
apos	-39
▁.	-40
▁n	-41
ro	-42
▁an	-43
il	-44
▁h	-45
ur	-46
▁of	-47
▁u	-48
▁v	-49
ic	-50
om	-51
▁la	-52
ed	-53
▁r	-54
el	-55
as	-56
our	-57
ation	-58
▁to	-59
ing	-60
▁g	-61
▁le	-62
ment	-63
▁and	-64
▁un	-65
▁et	-66
te	-67
▁re	-68
us	-69
▁en	-70
ot	-71
ce	-72
▁qu	-73
ch	-74
▁con	-75
ve	-76
ir	-77
▁les	-78
▁des	-79
et	-80
▁1	-81
ri	-82
▁à	-83
▁pro	-84
ra	-85
ol	-86
▁2	-87
ant	-88
est	-89
▁&	-90
▁com	-91
▁:	-92
▁au	-93
▁é	-94
ct	-95
id	-96
▁par	-97
▁j	-98
ag	-99
mp	-100
ers	-101
ous	-102
ig	-103
▁on	-104
▁ch	-105
▁y	-106
me	-107
▁for	-108
ans	-109
ad	-110
ul	-111
▁(	-112
▁)	-113
és	-114
ter	-115
ess	-116
ie	-117
▁du	-118
ion	-119
▁se	-120
▁is	-121
ab	-122
▁i	-123
ci	-124
▁ex	-125
▁pour	-126
au	-127
▁be	-128
▁pl	-129
ne	-130
▁al	-131
▁st	-132
▁pr	-133
que	-134
and	-135
pp	-136
ire	-137
ay	-138
▁su	-139
▁est	-140
▁une	-141
se	-142
ain	-143
ort	-144
▁20	-145
ver	-146
am	-147
▁as	-148
ith	-149
ill	-150
ac	-151
▁wh	-152
ow	-153
▁or	-154
▁dé	-155
ont	-156
▁dans	-157
▁ac	-158
ate	-159
ut	-160
▁mo	-161
▁with	-162
ist	-163
ly	-164
▁ne	-165
▁it	-166
out	-167
age	-168
st	-169
di	-170
un	-171
ure	-172
▁sur	-173
end	-174
pe	-175
ff	-176
▁that	-177
▁que	-178
ée	-179
th	-180
ais	-181
iv	-182
▁can	-183
im	-184
res	-185
quot	-186
ction	-187
um	-188
▁il	-189
les	-190
▁ar	-191
▁comp	-192
du	-193
▁ét	-194
▁cont	-195
▁at	-196
ite	-197
▁-	-198
▁k	-199
ér	-200
▁ré	-201
ations	-202
op	-203
▁app	-204
oc	-205
▁3	-206
▁tr	-207
▁you	-208
▁are	-209
de	-210
ib	-211
ge	-212
ité	-213
▁ad	-214
▁qui	-215
li	-216
▁fa	-217
ance	-218
ale	-219
▁sh	-220
▁ser	-221
▁pas	-222
ine	-223
▁av	-224
mb	-225
urs	-226
▁this	-227
ere	-228
▁ou	-229
ati	-230
able	-231
▁pe	-232
▁not	-233
og	-234
ity	-235
▁ave	-236
▁by	-237
▁comm	-238
rom	-239
ue	-240
▁vous	-241
ence	-242
▁gr	-243
▁me	-244
▁201	-245
ons	-246
▁so	-247
▁ce	-248
▁we	-249
for	-250
▁plus	-251
▁he	-252
ens	-253
ux	-254
oun	-255
▁;	-256
ts	-257
ard	-258
tic	-259
▁avec	-260
▁tra	-261
▁te	-262
tre	-263
▁acc	-264
ments	-265
ich	-266
▁from	-267
od	-268
▁sa	-269
pr	-270
▁inter	-271
▁res	-272
ak	-273
▁mar	-274
00	-275
▁dis	-276
igh	-277
ail	-278
▁per	-279
ées	-280
ces	-281
ques	-282
form	-283
lis	-284
vel	-285
ier	-286
▁all	-287
ère	-288
ice	-289
iti	-290
▁4	-291
▁ha	-292
▁cl	-293
ub	-294
ide	-295
all	-296
ust	-297
▁fr	-298
amp	-299
tions	-300
ait	-301
ign	-302
onn	-303
cl	-304
ld	-305
▁ab	-306
▁your	-307
▁ent	-308
iss	-309
▁imp	-310
lo	-311
▁exp	-312
▁co	-313
▁produ	-314
▁cons	-315
▁sp	-316
ord	-317
▁was	-318
▁5	-319
ique	-320
▁man	-321
▁us	-322
▁am	-323
▁19	-324
▁si	-325
▁canad	-326
aire	-327
ies	-328
▁no	-329
lic	-330
fic	-331
té	-332
▁sont	-333
▁will	-334
▁di	-335
▁ag	-336
ès	-337
▁nous	-338
▁serv	-339
ond	-340
▁car	-341
▁je	-342
ille	-343
ell	-344
elle	-345
▁fin	-346
▁ro	-347
▁200	-348
ru	-349
air	-350
ors	-351
ien	-352
ins	-353
▁aut	-354
ace	-355
ven	-356
aux	-357
ated	-358
▁pre	-359
ert	-360
are	-361
ang	-362
ants	-363
▁pos	-364
▁do	-365
oir	-366
che	-367
▁min	-368
ult	-369
mes	-370
▁have	-371
▁col	-372
ud	-373
ose	-374
ré	-375
ok	-376
▁wor	-377
▁aux	-378
▁ph	-379
▁op	-380
ia	-381
ette	-382
ient	-383
ore	-384
its	-385
act	-386
ach	-387
▁pers	-388
ome	-389
if	-390
▁go	-391
ten	-392
ong	-393
so	-394
én	-395
ours	-396
ise	-397
▁pri	-398
ear	-399
ents	-400
ions	-401
▁vot	-402
éri	-403
▁ob	-404
der	-405
ile	-406
▁prop	-407
▁inform	-408
▁sy	-409
par	-410
oin	-411
▁rec	-412
▁off	-413
port	-414
▁has	-415
▁parti	-416
▁6	-417
▁mon	-418
tit	-419
▁new	-420
ip	-421
▁votre	-422
cial	-423
av	-424
▁int	-425
▁ont	-426
ary	-427
ures	-428
#9	-429
▁&#9	-430
ive	-431
tiv	-432
▁which	-433
ase	-434
▁vis	-435
▁ter	-436
▁fe	-437
▁trans	-438
▁?	-439
els	-440
enti	-441
min	-442
ight	-443
éc	-444
▁canada	-445
▁pol	-446
ois	-447
▁son	-448
aires	-449
ays	-450
▁ê	-451
ec	-452
▁el	-453
▁ann	-454
ern	-455
▁mais	-456
▁cent	-457
▁cette	-458
▁more	-459
ect	-460
▁7	-461
▁pub	-462
ram	-463
gh	-464
▁été	-465
ould	-466
▁ma	-467
▁our	-468
▁reg	-469
ass	-470
ost	-471
ast	-472
uss	-473
lé	-474
one	-475
▁0	-476
▁tout	-477
▁af	-478
▁es	-479
▁ins	-480
▁prog	-481
▁uti	-482
her	-483
▁10	-484
cip	-485
▁8	-486
▁but	-487
ari	-488
▁eff	-489
ree	-490
ational	-491
▁eu	-492
▁lo	-493
iz	-494
▁prov	-495
ices	-496
▁rés	-497
▁!	-498
ible	-499
▁sec	-500
▁être	-501
ouve	-502
▁entre	-503
▁dire	-504
ry	-505
use	-506
▁part	-507
▁its	-508
▁intern	-509
▁im	-510
ks	-511
bre	-512
▁their	-513
ound	-514
cri	-515
oup	-516
ouv	-517
ther	-518
▁bo	-519
▁comme	-520
ount	-521
ages	-522
tes	-523
▁utilis	-524
▁br	-525
▁conf	-526
▁one	-527
▁out	-528
▁diff	-529
lement	-530
▁form	-531
▁they	-532
▁prés	-533
▁9	-534
▁bl	-535
▁nom	-536
▁there	-537
▁his	-538
▁ass	-539
▁spe	-540
▁env	-541
▁loc	-542
ric	-543
▁rel	-544
gan	-545
▁cor	-546
ution	-547
▁commun	-548
▁gu	-549
▁program	-550
▁mont	-551
ress	-552
uis	-553
cess	-554
▁%	-555
ual	-556
▁up	-557
▁vo	-558
ack	-559
▁year	-560
▁..	-561
ian	-562
▁18	-563
ms	-564
mo	-565
▁ind	-566
ande	-567
▁also	-568
ber	-569
ière	-570
▁information	-571
ition	-572
onne	-573
▁disp	-574
ime	-575
▁if	-576
ves	-577
▁supp	-578
▁mé	-579
tive	-580
▁who	-581
▁sub	-582
ats	-583
ités	-584
ical	-585
▁inc	-586
olog	-587
ese	-588
▁mat	-589
iew	-590
▁...	-591
ough	-592
rib	-593
ke	-594
▁prof	-595
tif	-596
▁emp	-597
ouver	-598
▁déc	-599
lect	-600
ég	-601
cep	-602
▁li	-603
dition	-604
ph	-605
ourn	-606
▁dem	-607
▁sc	-608
omm	-609
▁euro	-610
▁ces	-611
ets	-612
▁organ	-613
ake	-614
ème	-615
▁main	-616
▁other	-617
▁sol	-618
▁tou	-619
▁inst	-620
ez	-621
vent	-622
▁amp	-623
▁dev	-624
▁_	-625
▁services	-626
ui	-627
▁pres	-628
▁éc	-629
ange	-630
▁fl	-631
anc	-632
ade	-633
▁sit	-634
▁char	-635
▁conc	-636
▁ver	-637
▁inf	-638
ues	-639
igne	-640
▁aff	-641
▁pré	-642
▁proj	-643
cher	-644
▁rep	-645
▁z	-646
▁cap	-647
iques	-648
▁tw	-649
▁been	-650
▁trav	-651
▁dur	-652
rit	-653
▁cour	-654
ities	-655
▁my	-656
▁requ	-657
▁ren	-658
▁eng	-659
▁work	-660
▁public	-661
▁act	-662
▁incl	-663
ivers	-664
ings	-665
ory	-666
▁12	-667
▁prem	-668
ll	-669
ind	-670
▁rap	-671
▁deux	-672
ates	-673
▁sou	-674
▁autres	-675
alement	-676
▁fil	-677
▁gen	-678
ish	-679
▁leur	-680
ix	-681
▁ses	-682
▁év	-683
art	-684
chn	-685
▁bas	-686
▁were	-687
▁15	-688
ême	-689
▁vers	-690
▁may	-691
teur	-692
▁memb	-693
▁prin	-694
ente	-695
▁about	-696
▁time	-697
own	-698
ame	-699
▁temp	-700
erv	-701
▁import	-702
ner	-703
▁tous	-704
▁fir	-705
oll	-706
▁service	-707
▁ju	-708
aph	-709
ial	-710
▁pass	-711
tique	-712
▁perm	-713
▁peut	-714
▁rég	-715
ission	-716
▁notre	-717
1;	-718
▁&#91;	-719
ath	-720
▁ég	-721
▁techn	-722
▁elle	-723
▁personn	-724
ante	-725
ères	-726
ative	-727
tis	-728
ild	-729
▁ils	-730
▁rev	-731
▁poss	-732
iers	-733
▁num	-734
▁these	-735
ble	-736
▁men	-737
▁sal	-738
ateur	-739
ature	-740
▁when	-741
cc	-742
▁fait	-743
▁than	-744
▁att	-745
▁phot	-746
▁peu	-747
▁activ	-748
ally	-749
▁cre	-750
▁rest	-751
crip	-752
aient	-753
▁long	-754
▁dep	-755
ted	-756
lish	-757
▁site	-758
▁non	-759
ick	-760
▁apr	-761
▁any	-762
lection	-763
▁sign	-764
▁ref	-765
▁cas	-766
▁id	-767
elles	-768
onom	-769
▁bu	-770
▁poin	-771
▁jus	-772
3;	-773
▁&#93;	-774
▁met	-775
▁ret	-776
oss	-777
▁add	-778
ession	-779
▁port	-780
we	-781
oy	-782
com	-783
ains	-784
alis	-785
▁how	-786
▁fam	-787
▁hot	-788
ici	-789
▁mus	-790
▁donn	-791
▁product	-792
ision	-793
▁plan	-794
▁first	-795
▁11	-796
▁envir	-797
▁30	-798
▁cal	-799
ôt	-800
▁over	-801
▁té	-802
ft	-803
ys	-804
ov	-805
▁bien	-806
▁contact	-807
endre	-808
▁some	-809
▁ty	-810
part	-811
▁gén	-812
aine	-813
▁appro	-814
▁bet	-815
ieu	-816
▁ques	-817
abil	-818
co	-819
▁str	-820
▁gre	-821
ances	-822
ely	-823
éd	-824
▁page	-825
▁use	-826
ussi	-827
▁artic	-828
▁applic	-829
▁air	-830
▁inv	-831
ét	-832
led	-833
▁dist	-834
▁cert	-835
ater	-836
eur	-837
▁sé	-838
very	-839
▁see	-840
▁her	-841
▁indi	-842
▁had	-843
▁what	-844
▁hum	-845
nement	-846
▁only	-847
ences	-848
▁bar	-849
ouvel	-850
▁peop	-851
▁rép	-852
▁kn	-853
ines	-854
▁resp	-855
▁situ	-856
▁x	-857
▁place	-858
rent	-859
▁199	-860
▁qual	-861
aut	-862
▁même	-863
ating	-864
-1	-865
▁aussi	-866
▁cli	-867
▁val	-868
pect	-869
▁16	-870
oth	-871
▁tro	-872
io	-873
▁po	-874
day	-875
▁doc	-876
let	-877
ales	-878
20	-879
raph	-880
▁ext	-881
▁web	-882
▁ca	-883
▁liv	-884
▁world	-885
wn	-886
mer	-887
▁dro	-888
▁pra	-889
▁contin	-890
.1	-891
▁high	-892
nes	-893
▁nombre	-894
ger	-895
▁people	-896
000	-897
▁mod	-898
▁grand	-899
▁était	-900
▁comment	-901
opp	-902
▁cré	-903
▁cr	-904
up	-905
▁would	-906
ident	-907
▁them	-908
ste	-909
▁hel	-910
▁international	-911
▁che	-912
▁two	-913
▁emplo	-914
ables	-915
▁14	-916
tement	-917
velop	-918
▁enc	-919
▁pays	-920
▁dou	-921
▁13	-922
▁ve	-923
▁hist	-924
▁bel	-925
▁soci	-926
▁bec	-927
▁europe	-928
▁ev	-929
als	-930
▁quel	-931
▁develop	-932
man	-933
▁faire	-934
▁camp	-935
▁const	-936
ps	-937
▁nouvel	-938
▁pa	-939
▁esp	-940
▁17	-941
▁après	-942
enc	-943
fi	-944
▁process	-945
▁don	-946
▁med	-947
▁ple	-948
gr	-949
era	-950
▁avail	-951
▁propos	-952
ibil	-953
▁into	-954
▁sans	-955
▁centre	-956
ett	-957
▁sk	-958
mber	-959
▁after	-960
▁cel	-961
endant	-962
▁count	-963
▁docu	-964
bo	-965
▁très	-966
ctions	-967
vern	-968
▁dec	-969
land	-970
▁conse	-971
▁cha	-972
▁organis	-973
▁cro	-974
▁lang	-975
tim	-976
▁dép	-977
ises	-978
▁syste	-979
▁équ	-980
az	-981
▁fon	-982
▁cham	-983
ax	-984
▁ans	-985
▁gener	-986
ob	-987
agn	-988
▁lors	-989
▁fran	-990
urn	-991
iste	-992
▁priv	-993
▁obj	-994
▁direct	-995
ock	-996
▁access	-997
ited	-998
ood	-999
▁25	-1000
▁need	-1001
▁génér	-1002
per	-1003
oire	-1004
▁well	-1005
▁mil	-1006
▁most	-1007
ular	-1008
▁recher	-1009
▁vol	-1010
▁group	-1011
▁mal	-1012
ck	-1013
ider	-1014
▁présent	-1015
▁end	-1016
▁bro	-1017
▁home	-1018
▁mill	-1019
▁mes	-1020
▁bre	-1021
ollow	-1022
fore	-1023
▁partic	-1024
▁beau	-1025
▁sm	-1026
▁tot	-1027
▁nouve	-1028
▁nos	-1029
▁vill	-1030
▁avant	-1031
▁ains	-1032
▁ainsi	-1033
ince	-1034
▁rem	-1035
xt	-1036
▁very	-1037
fication	-1038
▁follow	-1039
▁support	-1040
ouse	-1041
▁24	-1042
ude	-1043
▁govern	-1044
▁fun	-1045
▁log	-1046
▁years	-1047
lè	-1048
▁particip	-1049
be	-1050
▁cur	-1051
uit	-1052
▁mer	-1053
▁pop	-1054
ges	-1055
▁également	-1056
▁vos	-1057
▁design	-1058
▁lib	-1059
ower	-1060
▁under	-1061
▁univers	-1062
▁where	-1063
▁report	-1064
▁gra	-1065
▁occ	-1066
iter	-1067
▁rece	-1068
▁dern	-1069
soci	-1070
▁march	-1071
▁thr	-1072
ful	-1073
▁france	-1074
▁princip	-1075
line	-1076
old	-1077
arge	-1078
mbre	-1079
ink	-1080
ditions	-1081
▁exper	-1082
▁aj	-1083
▁free	-1084
duc	-1085
▁associ	-1086
▁accord	-1087
▁national	-1088
▁sch	-1089
▁leurs	-1090
▁minist	-1091
ateurs	-1092
▁bus	-1093
▁vie	-1094
▁dom	-1095
▁vi	-1096
▁sous	-1097
▁ste	-1098
tiques	-1099
get	-1100
▁such	-1101
ration	-1102
▁télé	-1103
▁enf	-1104
▁suiv	-1105
▁includ	-1106
▁prote	-1107
ards	-1108
aint	-1109
▁hotel	-1110
cription	-1111
ows	-1112
▁tour	-1113
uelle	-1114
▁day	-1115
ah	-1116
▁offic	-1117
▁déf	-1118
▁date	-1119
▁jour	-1120
ches	-1121
▁syst	-1122
▁through	-1123
mple	-1124
ween	-1125
isse	-1126
▁every	-1127
▁fac	-1128
▁ke	-1129
▁conne	-1130
▁now	-1131
▁between	-1132
ulation	-1133
▁toute	-1134
▁order	-1135
▁tri	-1136
ton	-1137
▁travail	-1138
▁down	-1139
▁dispon	-1140
▁chr	-1141
▁anal	-1142
▁cours	-1143
tail	-1144
▁gouver	-1145
▁hom	-1146
velopp	-1147
▁sel	-1148
▁like	-1149
semb	-1150
▁indust	-1151
▁fra	-1152
▁disc	-1153
ren	-1154
▁depuis	-1155
▁employ	-1156
▁autre	-1157
▁lui	-1158
▁toutes	-1159
▁during	-1160
rie	-1161
▁ess	-1162
▁vari	-1163
▁pi	-1164
▁made	-1165
▁ec	-1166
▁him	-1167
ruct	-1168
▁find	-1169
▁article	-1170
ved	-1171
ister	-1172
▁environ	-1173
▁view	-1174
▁franç	-1175
ule	-1176
▁she	-1177
ital	-1178
▁lim	-1179
udi	-1180
ning	-1181
teurs	-1182
ator	-1183
▁mark	-1184
ides	-1185
▁dat	-1186
▁respons	-1187
▁lif	-1188
▁should	-1189
▁important	-1190
▁rou	-1191
▁spé	-1192
▁entrepr	-1193
ars	-1194
▁orig	-1195
▁voir	-1196
▁nor	-1197
▁many	-1198
▁available	-1199
▁temps	-1200
ily	-1201
esse	-1202
ta	-1203
dit	-1204
▁cat	-1205
aur	-1206
▁développ	-1207
▁pan	-1208
▁prix	-1209
▁produits	-1210
ense	-1211
lev	-1212
▁cult	-1213
▁room	-1214
alu	-1215
▁must	-1216
▁make	-1217
▁cou	-1218
▁fond	-1219
ural	-1220
▁nature	-1221
▁mot	-1222
▁read	-1223
▁then	-1224
▁stand	-1225
▁person	-1226
utes	-1227
▁21	-1228
hip	-1229
til	-1230
▁know	-1231
arm	-1232
▁number	-1233
mail	-1234
▁rapport	-1235
▁ord	-1236
ograph	-1237
▁conditions	-1238
ze	-1239
▁system	-1240
▁class	-1241
▁fonction	-1242
▁recherche	-1243
aines	-1244
utions	-1245
▁sep	-1246
▁good	-1247
anti	-1248
enne	-1249
ites	-1250
▁monde	-1251
▁total	-1252
▁22	-1253
orte	-1254
▁arri	-1255
▁chaque	-1256
▁second	-1257
▁fois	-1258
▁used	-1259
alth	-1260
▁pu	-1261
ious	-1262
▁change	-1263
▁fer	-1264
atis	-1265
▁arch	-1266
▁possible	-1267
▁programme	-1268
▁politi	-1269
une	-1270
▁conseil	-1271
iness	-1272
ouvez	-1273
lex	-1274
été	-1275
▁open	-1276
▁ris	-1277
rait	-1278
▁sw	-1279
▁each	-1280
▁news	-1281
pl	-1282
▁ach	-1283
iel	-1284
▁compan	-1285
ources	-1286
he	-1287
▁français	-1288
▁here	-1289
▁pay	-1290
.2	-1291
arch	-1292
▁différ	-1293
▁fourn	-1294
ole	-1295
bec	-1296
ute	-1297
▁back	-1298
ork	-1299
▁adv	-1300
▁project	-1301
tin	-1302
▁dés	-1303
▁again	-1304
uses	-1305
▁gar	-1306
▁comb	-1307
▁ai	-1308
▁sav	-1309
▁sant	-1310
▁recomm	-1311
▁even	-1312
▁instit	-1313
ug	-1314
▁table	-1315
▁point	-1316
▁lead	-1317
ced	-1318
▁tre	-1319
▁technolog	-1320
▁type	-1321
ather	-1322
▁cho	-1323
▁personnes	-1324
xim	-1325
▁question	-1326
ement	-1327
▁conn	-1328
▁aw	-1329
▁trois	-1330
▁fut	-1331
▁ban	-1332
ene	-1333
▁préc	-1334
▁jan	-1335
▁hand	-1336
▁produit	-1337
▁bi	-1338
ina	-1339
▁exc	-1340
▁repr	-1341
▁hôt	-1342
▁avoir	-1343
▁prob	-1344
tice	-1345
▁ful	-1346
agement	-1347
▁last	-1348
▁peuvent	-1349
▁play	-1350
▁require	-1351
▁dont	-1352
▁government	-1353
▁contr	-1354
▁ligne	-1355
▁commission	-1356
ness	-1357
▁differ	-1358
▁profession	-1359
▁rad	-1360
▁imm	-1361
.0	-1362
▁social	-1363
▁2015	-1364
ict	-1365
▁sera	-1366
ium	-1367
▁child	-1368
▁bou	-1369
▁face	-1370
▁contrib	-1371
ause	-1372
▁speci	-1373
ron	-1374
rer	-1375
▁ital	-1376
▁before	-1377
antes	-1378
▁mul	-1379
▁equ	-1380
▁sci	-1381
▁opp	-1382
oration	-1383
▁23	-1384
▁those	-1385
ieux	-1386
▁appar	-1387
▁auth	-1388
▁finan	-1389
▁avait	-1390
▁def	-1391
▁oper	-1392
▁leg	-1393
▁som	-1394
▁list	-1395
tern	-1396
▁city	-1397
▁ang	-1398
▁take	-1399
▁gl	-1400
▁oct	-1401
ler	-1402
▁help	-1403
uel	-1404
oi	-1405
▁application	-1406
▁pouv	-1407
▁admin	-1408
agne	-1409
▁concern	-1410
▁demand	-1411
ension	-1412
ights	-1413
▁er	-1414
▁health	-1415
▁just	-1416
▁ir	-1417
mar	-1418
▁life	-1419
ai	-1420
int	-1421
ral	-1422
ving	-1423
▁commer	-1424
▁products	-1425
▁restaur	-1426
▁cet	-1427
▁compr	-1428
▁cri	-1429
▁100	-1430
▁iss	-1431
▁offer	-1432
▁best	-1433
idé	-1434
▁cela	-1435
ty	-1436
▁2014	-1437
▁house	-1438
▁partie	-1439
▁constru	-1440
ety	-1441
▁wind	-1442
tical	-1443
▁pur	-1444
▁tit	-1445
▁found	-1446
▁gouvernement	-1447
▁mainten	-1448
▁afin	-1449
ager	-1450
cle	-1451
asse	-1452
▁demande	-1453
▁hon	-1454
rol	-1455
▁fich	-1456
▁book	-1457
▁review	-1458
▁let	-1459
▁art	-1460
ret	-1461
oupe	-1462
▁exe	-1463
▁install	-1464
lique	-1465
vous	-1466
▁bes	-1467
▁human	-1468
▁document	-1469
▁modi	-1470
gy	-1471
▁inté	-1472
▁jours	-1473
bil	-1474
▁2012	-1475
aiss	-1476
entes	-1477
▁tim	-1478
▁present	-1479
▁moins	-1480
▁jusqu	-1481
▁contre	-1482
▁fem	-1483
▁way	-1484
bres	-1485
▁direc	-1486
▁paris	-1487
king	-1488
▁hy	-1489
▁data	-1490
▁mom	-1491
▁ten	-1492
▁données	-1493
50	-1494
▁lit	-1495
▁file	-1496
▁initi	-1497
▁2013	-1498
red	-1499
▁same	-1500
▁année	-1501
▁commit	-1502
▁pouvez	-1503
▁nav	-1504
▁km	-1505
▁identi	-1506
▁doit	-1507
▁since	-1508
▁area	-1509
▁fact	-1510
▁déb	-1511
▁english	-1512
▁maj	-1513
orth	-1514
tails	-1515
▁description	-1516
▁fri	-1517
jour	-1518
▁because	-1519
▁meille	-1520
quer	-1521
ep	-1522
▁sim	-1523
▁administ	-1524
vers	-1525
▁effect	-1526
▁pat	-1527
▁cir	-1528
ench	-1529
▁nouveau	-1530
▁perform	-1531
▁business	-1532
▁large	-1533
▁cer	-1534
▁système	-1535
▁premier	-1536
▁cle	-1537
ception	-1538
▁maison	-1539
▁saint	-1540
▁transport	-1541
-2	-1542
▁real	-1543
oris	-1544
▁god	-1545
dic	-1546
ests	-1547
ipe	-1548
ipp	-1549
▁rais	-1550
▁get	-1551
▁moy	-1552
▁projet	-1553
ma	-1554
app	-1555
▁minutes	-1556
▁special	-1557
osition	-1558
▁aug	-1559
aking	-1560
ête	-1561
▁meet	-1562
rez	-1563
▁ville	-1564
illes	-1565
▁pendant	-1566
aces	-1567
▁ép	-1568
▁great	-1569
▁pal	-1570
▁grande	-1571
▁autom	-1572
row	-1573
êt	-1574
▁days	-1575
▁50	-1576
▁internet	-1577
▁selon	-1578
▁2011	-1579
▁bed	-1580
▁octo	-1581
▁avez	-1582
ules	-1583
cept	-1584
iment	-1585
▁mess	-1586
▁voy	-1587
▁water	-1588
ave	-1589
▁current	-1590
▁origin	-1591
▁div	-1592
outh	-1593
▁jo	-1594
▁sen	-1595
▁bon	-1596
▁encore	-1597
▁hol	-1598
ries	-1599
▁soit	-1600
ape	-1601
écur	-1602
ability	-1603
eter	-1604
ieurs	-1605
ized	-1606
olution	-1607
to	-1608
rir	-1609
ibles	-1610
▁shall	-1611
▁loi	-1612
▁net	-1613
▁septe	-1614
vention	-1615
▁exam	-1616
ran	-1617
▁q	-1618
▁ens	-1619
èg	-1620
▁three	-1621
▁hab	-1622
uer	-1623
▁lég	-1624
▁2018	-1625
▁avons	-1626
ency	-1627
▁look	-1628
▁stud	-1629
▁journ	-1630
▁auc	-1631
▁elect	-1632
▁top	-1633
vid	-1634
▁informations	-1635
-0	-1636
▁development	-1637
▁résult	-1638
▁without	-1639
▁online	-1640
▁said	-1641
lab	-1642
▁économ	-1643
▁cust	-1644
▁state	-1645
fs	-1646
ières	-1647
▁search	-1648
▁own	-1649
▁compte	-1650
▁set	-1651
▁being	-1652
▁inn	-1653
▁ur	-1654
▁sécur	-1655
▁puis	-1656
▁law	-1657
fe	-1658
▁incre	-1659
▁ear	-1660
eng	-1661
▁accue	-1662
▁canadian	-1663
ament	-1664
201	-1665
▁could	-1666
▁nouvelle	-1667
▁polic	-1668
▁cook	-1669
▁right	-1670
▁within	-1671
▁cop	-1672
▁action	-1673
▁quelques	-1674
orts	-1675
▁réf	-1676
▁contra	-1677
▁general	-1678
ds	-1679
▁sl	-1680
ha	-1681
▁power	-1682
▁grat	-1683
ever	-1684
ode	-1685
▁nove	-1686
.3	-1687
▁addition	-1688
▁train	-1689
▁questions	-1690
▁dit	-1691
go	-1692
ided	-1693
▁intér	-1694
▁show	-1695
▁2010	-1696
▁première	-1697
▁étab	-1698
▁2016	-1699
▁mor	-1700
▁sens	-1701
▁individ	-1702
▁région	-1703
▁start	-1704
▁production	-1705
load	-1706
▁groupe	-1707
▁cad	-1708
▁représ	-1709
▁tax	-1710
ories	-1711
▁lab	-1712
▁level	-1713
▁constit	-1714
▁did	-1715
▁communic	-1716
atives	-1717
▁custom	-1718
je	-1719
▁want	-1720
uite	-1721
tez	-1722
▁following	-1723
▁country	-1724
▁ven	-1725
▁plusieurs	-1726
érie	-1727
fer	-1728
▁french	-1729
▁eas	-1730
▁vide	-1731
omp	-1732
▁dieu	-1733
▁circ	-1734
▁version	-1735
▁und	-1736
éro	-1737
ération	-1738
▁does	-1739
▁land	-1740
▁mag	-1741
▁base	-1742
▁photos	-1743
▁resear	-1744
▁décl	-1745
▁protection	-1746
atic	-1747
▁glo	-1748
▁wom	-1749
▁gam	-1750
▁culture	-1751
▁27	-1752
▁ici	-1753
ann	-1754
▁anim	-1755
▁particul	-1756
▁colle	-1757
▁chang	-1758
val	-1759
▁enti	-1760
▁different	-1761
▁section	-1762
jours	-1763
site	-1764
.5	-1765
▁règ	-1766
itions	-1767
▁sau	-1768
▁alors	-1769
▁seu	-1770
▁objec	-1771
▁éch	-1772
▁26	-1773
▁giv	-1774
▁please	-1775
▁31	-1776
▁jou	-1777
▁lic	-1778
▁small	-1779
ik	-1780
elf	-1781
▁nive	-1782
ties	-1783
▁unique	-1784
▁néc	-1785
▁econom	-1786
▁respect	-1787
▁local	-1788
erc	-1789
▁obs	-1790
termin	-1791
▁dr	-1792
▁sem	-1793
▁28	-1794
▁ajou	-1795
▁inde	-1796
▁suc	-1797
tle	-1798
▁bal	-1799
▁moment	-1800
rée	-1801
ôle	-1802
▁mois	-1803
ison	-1804
▁points	-1805
▁santé	-1806
ential	-1807
▁langu	-1808
ones	-1809
duction	-1810
onnement	-1811
ool	-1812
▁nécess	-1813
▁mu	-1814
▁share	-1815
▁sti	-1816
▁company	-1817
▁évalu	-1818
▁198	-1819
▁both	-1820
tention	-1821
idence	-1822
▁research	-1823
temp	-1824
ination	-1825
▁while	-1826
▁proc	-1827
ibilité	-1828
partment	-1829
▁annon	-1830
reg	-1831
10	-1832
the	-1833
work	-1834
▁cy	-1835
ware	-1836
read	-1837
▁build	-1838
▁code	-1839
ends	-1840
▁name	-1841
▁arr	-1842
▁développement	-1843
▁typ	-1844
tres	-1845
ctive	-1846
▁2009	-1847
▁bri	-1848
▁month	-1849
▁2007	-1850
▁champ	-1851
tien	-1852
▁region	-1853
▁note	-1854
▁exist	-1855
ario	-1856
▁toujours	-1857
ource	-1858
▁effic	-1859
▁image	-1860
▁équipe	-1861
▁instru	-1862
ash	-1863
▁author	-1864
▁price	-1865
pé	-1866
ury	-1867
▁position	-1868
▁seulement	-1869
▁arm	-1870
▁avis	-1871
lu	-1872
▁aur	-1873
▁case	-1874
rier	-1875
▁visite	-1876
ième	-1877
▁diffic	-1878
▁wee	-1879
ased	-1880
▁rend	-1881
▁gt	-1882
▁fre	-1883
clus	-1884
▁super	-1885
atique	-1886
▁mach	-1887
▁visit	-1888
▁tu	-1889
lin	-1890
▁assur	-1891
▁petit	-1892
ulaire	-1893
▁struct	-1894
▁photo	-1895
éli	-1896
▁cam	-1897
▁market	-1898
▁chambres	-1899
▁qualité	-1900
coup	-1901
sement	-1902
▁location	-1903
isc	-1904
équ	-1905
iens	-1906
ting	-1907
▁christ	-1908
▁environment	-1909
▁péri	-1910
▁coun	-1911
▁ger	-1912
▁donc	-1913
▁enfants	-1914
▁permet	-1915
▁sén	-1916
seigne	-1917
book	-1918
▁anti	-1919
ils	-1920
▁hor	-1921
▁test	-1922
▁pot	-1923
iles	-1924
ateg	-1925
▁children	-1926
▁40	-1927
▁moder	-1928
▁including	-1929
▁hau	-1930
▁lieu	-1931
▁membres	-1932
▁conten	-1933
oses	-1934
▁however	-1935
▁situation	-1936
itation	-1937
▁management	-1938
▁2017	-1939
▁four	-1940
▁sécurité	-1941
▁dim	-1942
▁quand	-1943
▁années	-1944
vez	-1945
▁fab	-1946
▁beaucoup	-1947
▁ges	-1948
▁réalis	-1949
▁expéri	-1950
ied	-1951
qué	-1952
ience	-1953
▁command	-1954
▁sup	-1955
▁vac	-1956
arn	-1957
▁distrib	-1958
▁team	-1959
▁del	-1960
▁european	-1961
lig	-1962
év	-1963
erial	-1964
▁light	-1965
▁nat	-1966
▁2008	-1967
▁politique	-1968
▁care	-1969
▁obten	-1970
▁members	-1971
▁ap	-1972
▁chec	-1973
▁red	-1974
▁mic	-1975
em	-1976
▁chois	-1977
▁mas	-1978
▁consult	-1979
▁hôtel	-1980
uf	-1981
▁fig	-1982
▁full	-1983
ults	-1984
▁sty	-1985
▁élect	-1986
hic	-1987
▁stock	-1988
▁arg	-1989
▁divers	-1990
room	-1991
▁activités	-1992
▁parties	-1993
ane	-1994
▁email	-1995
tifs	-1996
▁control	-1997
▁bra	-1998
▁provide	-1999
▁tar	-2000
▁download	-2001
la	-2002
▁personne	-2003
ém	-2004
▁europé	-2005
hn	-2006
▁compos	-2007
aî	-2008
ody	-2009
ica	-2010
▁navig	-2011
▁soft	-2012
▁account	-2013
isions	-2014
▁post	-2015
ivent	-2016
mé	-2017
▁against	-2018
▁interest	-2019
▁cher	-2020
▁abs	-2021
▁san	-2022
▁major	-2023
ienne	-2024
ling	-2025
▁collection	-2026
▁eau	-2027
▁expl	-2028
▁fav	-2029
▁faç	-2030
▁comple	-2031
oph	-2032
▁clim	-2033
▁29	-2034
▁qué	-2035
▁remp	-2036
▁dra	-2037
ctor	-2038
▁repres	-2039
ization	-2040
▁vir	-2041
ots	-2042
▁alle	-2043
uellement	-2044
▁spéci	-2045
▁histor	-2046
other	-2047
▁consider	-2048
▁jam	-2049
▁simp	-2050
▁exemple	-2051
▁ed	-2052
▁family	-2053
▁tradition	-2054
▁vou	-2055
mm	-2056
oint	-2057
▁fur	-2058
▁viol	-2059
▁ceux	-2060
▁facil	-2061
▁droit	-2062
▁coup	-2063
▁dri	-2064
▁partir	-2065
▁expr	-2066
ume	-2067
▁prév	-2068
▁bud	-2069
nent	-2070
▁quality	-2071
▁gestion	-2072
mi	-2073
phone	-2074
onse	-2075
hing	-2076
cer	-2077
.4	-2078
▁prom	-2079
cent	-2080
▁société	-2081
▁utilisation	-2082
▁représent	-2083
▁bat	-2084
▁elles	-2085
cont	-2086
▁inves	-2087
éra	-2088
▁next	-2089
▁break	-2090
ason	-2091
▁content	-2092
▁savoir	-2093
pro	-2094
▁emb	-2095
▁habit	-2096
▁refer	-2097
▁certain	-2098
▁press	-2099
omb	-2100
▁double	-2101
▁examp	-2102
▁suite	-2103
▁lorsque	-2104
▁office	-2105
▁condu	-2106
▁multi	-2107
▁ajouter	-2108
▁check	-2109
érence	-2110
▁indic	-2111
ationale	-2112
▁vue	-2113
ws	-2114
oles	-2115
istes	-2116
pt	-2117
▁élé	-2118
▁appel	-2119
▁alb	-2120
aill	-2121
▁arti	-2122
atures	-2123
ût	-2124
▁sun	-2125
▁tak	-2126
▁anci	-2127
ids	-2128
▁lat	-2129
tain	-2130
▁clients	-2131
▁offers	-2132
▁cin	-2133
▁ge	-2134
▁jud	-2135
▁located	-2136
▁spir	-2137
▁times	-2138
tives	-2139
▁audi	-2140
▁environnement	-2141
▁sever	-2142
▁based	-2143
pend	-2144
▁téléch	-2145
▁glob	-2146
▁chez	-2147
iod	-2148
oires	-2149
▁old	-2150
▁ouv	-2151
▁war	-2152
ément	-2153
▁tex	-2154
semble	-2155
▁ress	-2156
face	-2157
▁vale	-2158
▁address	-2159
▁head	-2160
isme	-2161
▁ide	-2162
▁destin	-2163
▁north	-2164
▁2006	-2165
▁ill	-2166
▁déclar	-2167
▁regard	-2168
▁using	-2169
leur	-2170
▁appli	-2171
30	-2172
▁trouver	-2173
ject	-2174
ately	-2175
▁word	-2176
pri	-2177
▁period	-2178
orer	-2179
▁continu	-2180
jet	-2181
▁win	-2182
▁come	-2183
▁aide	-2184
eder	-2185
alog	-2186
▁cookies	-2187
▁capac	-2188
▁women	-2189
▁rent	-2190
▁explo	-2191
▁civ	-2192
▁québec	-2193
▁maintenant	-2194
▁amer	-2195
▁ouver	-2196
lished	-2197
ific	-2198
▁étaient	-2199
▁niveau	-2200
▁bure	-2201
▁sat	-2202
▁appr	-2203
tics	-2204
ism	-2205
▁material	-2206
erst	-2207
▁less	-2208
▁cô	-2209
▁exerc	-2210
▁rom	-2211
▁nouvelles	-2212
▁agree	-2213
▁particular	-2214
▁améli	-2215
uille	-2216
▁impro	-2217
ino	-2218
▁corre	-2219
çu	-2220
▁record	-2221
▁mondi	-2222
èle	-2223
▁documents	-2224
▁sing	-2225
gg	-2226
▁certains	-2227
▁parf	-2228
▁success	-2229
▁community	-2230
erie	-2231
▁works	-2232
rique	-2233
▁droits	-2234
▁résultats	-2235
▁rights	-2236
▁propri	-2237
▁innov	-2238
▁policy	-2239
▁radio	-2240
ili	-2241
▁school	-2242
▁experience	-2243
▁caract	-2244
ène	-2245
▁according	-2246
af	-2247
gin	-2248
ior	-2249
▁offre	-2250
isation	-2251
▁accès	-2252
▁chambre	-2253
▁food	-2254
▁gard	-2255
▁peti	-2256
▁parc	-2257
▁état	-2258
▁prior	-2259
alité	-2260
ners	-2261
▁stat	-2262
ortun	-2263
▁compar	-2264
▁pap	-2265
▁near	-2266
▁00	-2267
amment	-2268
▁travel	-2269
▁call	-2270
▁course	-2271
▁excell	-2272
ics	-2273
▁around	-2274
ists	-2275
▁affich	-2276
ducation	-2277
▁phys	-2278
▁déj	-2279
▁har	-2280
lace	-2281
▁minim	-2282
yn	-2283
▁prac	-2284
▁adap	-2285
con	-2286
▁ontario	-2287
▁return	-2288
ought	-2289
▁vit	-2290
und	-2291
ervation	-2292
▁rév	-2293
▁job	-2294
▁enter	-2295
ways	-2296
▁analy	-2297
▁music	-2298
itement	-2299
▁court	-2300
▁say	-2301
▁construction	-2302
▁source	-2303
▁promo	-2304
▁minister	-2305
ators	-2306
▁territ	-2307
▁roy	-2308
▁suff	-2309
nel	-2310
▁déjà	-2311
sh	-2312
▁station	-2313
▁ii	-2314
▁much	-2315
▁maxim	-2316
▁ensemble	-2317
▁sil	-2318
▁mis	-2319
▁request	-2320
▁represent	-2321
▁cm	-2322
venir	-2323
abilité	-2324
▁website	-2325
▁images	-2326
.9	-2327
▁still	-2328
less	-2329
▁union	-2330
▁condition	-2331
jourd	-2332
▁sex	-2333
ended	-2334
,000	-2335
leurs	-2336
cel	-2337
ually	-2338
▁fo	-2339
ulations	-2340
▁mission	-2341
view	-2342
▁syn	-2343
▁général	-2344
▁tor	-2345
▁dém	-2346
▁countries	-2347
▁dispos	-2348
▁collab	-2349
atre	-2350
▁relations	-2351
cted	-2352
▁committe	-2353
▁association	-2354
▁secur	-2355
▁another	-2356
▁population	-2357
▁hui	-2358
▁studi	-2359
60	-2360
▁aujourd	-2361
mit	-2362
▁jul	-2363
▁agric	-2364
▁six	-2365
▁select	-2366
▁windows	-2367
▁chap	-2368
▁rése	-2369
ouvent	-2370
ng	-2371
▁mise	-2372
▁sélection	-2373
▁activities	-2374
▁continue	-2375
▁client	-2376
▁sus	-2377
▁afric	-2378
▁conv	-2379
▁articles	-2380
▁vidé	-2381
▁week	-2382
▁isra	-2383
▁spécial	-2384
▁spirit	-2385
▁adop	-2386
▁accueil	-2387
▁fes	-2388
▁map	-2389
▁assist	-2390
▁cadre	-2391
▁result	-2392
▁utiliser	-2393
▁60	-2394
▁results	-2395
▁processus	-2396
▁seront	-2397
▁rich	-2398
▁liste	-2399
cier	-2400
▁accomp	-2401
▁etc	-2402
▁example	-2403
▁bén	-2404
▁personal	-2405
▁mun	-2406
▁sud	-2407
▁village	-2408
▁entreprise	-2409
▁allow	-2410
▁oblig	-2411
▁fix	-2412
▁2019	-2413
▁fund	-2414
▁meas	-2415
▁défin	-2416
.00	-2417
orter	-2418
▁grâ	-2419
▁today	-2420
ward	-2421
▁doivent	-2422
ple	-2423
ize	-2424
▁publi	-2425
▁homme	-2426
va	-2427
▁few	-2428
▁among	-2429
ared	-2430
▁cost	-2431
▁key	-2432
▁piè	-2433
▁rapide	-2434
▁menu	-2435
▁envoy	-2436
▁west	-2437
▁specific	-2438
▁nord	-2439
oud	-2440
aff	-2441
▁bene	-2442
aille	-2443
itch	-2444
▁évé	-2445
▁norm	-2446
▁façon	-2447
▁mass	-2448
▁united	-2449
▁sais	-2450
▁fichier	-2451
▁pouvoir	-2452
▁big	-2453
sc	-2454
▁exig	-2455
▁game	-2456
▁phil	-2457
▁simple	-2458
ture	-2459
uc	-2460
▁siè	-2461
▁put	-2462
▁deli	-2463
▁permett	-2464
▁sommes	-2465
▁grâce	-2466
▁force	-2467
▁besoin	-2468
ying	-2469
▁viv	-2470
▁south	-2471
▁relig	-2472
▁gal	-2473
▁lin	-2474
▁mati	-2475
of	-2476
ived	-2477
▁estab	-2478
▁carte	-2479
▁tal	-2480
▁extra	-2481
▁tur	-2482
▁charge	-2483
rain	-2484
▁occas	-2485
▁member	-2486
ght	-2487
▁give	-2488
▁ber	-2489
▁disponible	-2490
▁states	-2491
▁tool	-2492
▁far	-2493
▁stre	-2494
▁language	-2495
vement	-2496
fier	-2497
usion	-2498
irm	-2499
lais	-2500
edi	-2501
▁voyage	-2502
▁festiv	-2503
▁â	-2504
▁cé	-2505
ront	-2506
ird	-2507
érique	-2508
▁président	-2509
way	-2510
▁pil	-2511
▁wat	-2512
ana	-2513
ox	-2514
▁several	-2515
▁vra	-2516
tier	-2517
lation	-2518
▁sites	-2519
▁proble	-2520
▁required	-2521
▁cart	-2522
▁impact	-2523
itter	-2524
▁financial	-2525
-201	-2526
regist	-2527
▁sac	-2528
br	-2529
▁sor	-2530
▁discuss	-2531
▁assemb	-2532
▁wal	-2533
▁board	-2534
▁tant	-2535
▁king	-2536
▁fore	-2537
▁dav	-2538
▁adress	-2539
▁effec	-2540
osp	-2541
ently	-2542
ls	-2543
▁event	-2544
▁host	-2545
▁justice	-2546
▁lum	-2547
▁ministre	-2548
▁guide	-2549
▁software	-2550
▁commercial	-2551
▁opportun	-2552
▁aim	-2553
▁trib	-2554
▁parten	-2555
rieur	-2556
érer	-2557
▁parag	-2558
▁chur	-2559
ote	-2560
▁subs	-2561
▁private	-2562
▁rele	-2563
▁lux	-2564
▁rob	-2565
▁details	-2566
▁restaurant	-2567
▁corp	-2568
▁poli	-2569
▁cos	-2570
▁renseigne	-2571
▁committee	-2572
▁german	-2573
▁remo	-2574
▁pati	-2575
▁eur	-2576
▁video	-2577
fied	-2578
▁black	-2579
▁ay	-2580
▁milit	-2581
▁ener	-2582
▁jean	-2583
unis	-2584
▁provin	-2585
tig	-2586
illet	-2587
▁bord	-2588
▁events	-2589
▁ci	-2590
▁enregist	-2591
▁security	-2592
▁bureau	-2593
▁réc	-2594
,5	-2595
nements	-2596
▁june	-2597
▁197	-2598
uary	-2599
▁termin	-2600
▁jeun	-2601
cul	-2602
▁ps	-2603
orn	-2604
▁artist	-2605
▁working	-2606
▁performance	-2607
▁via	-2608
▁ni	-2609
▁style	-2610
▁découv	-2611
▁saf	-2612
▁able	-2613
onde	-2614
acy	-2615
▁grow	-2616
▁writ	-2617
▁click	-2618
by	-2619
être	-2620
udes	-2621
▁quar	-2622
vious	-2623
▁direction	-2624
▁femmes	-2625
▁beh	-2626
nous	-2627
▁heure	-2628
▁êtes	-2629
▁35	-2630
wer	-2631
▁2005	-2632
▁fiel	-2633
▁always	-2634
km	-2635
miss	-2636
▁film	-2637
▁comité	-2638
iture	-2639
▁cause	-2640
▁famille	-2641
action	-2642
▁celui	-2643
▁montré	-2644
lément	-2645
cript	-2646
▁suis	-2647
▁consid	-2648
▁matéri	-2649
anger	-2650
▁terr	-2651
▁augment	-2652
▁line	-2653
▁entrée	-2654
gé	-2655
▁répond	-2656
▁mars	-2657
vier	-2658
▁rooms	-2659
▁aucun	-2660
▁formation	-2661
▁cuis	-2662
▁salle	-2663
cil	-2664
nelle	-2665
▁individual	-2666
▁option	-2667
▁expérience	-2668
.6	-2669
▁acqu	-2670
▁prendre	-2671
▁analys	-2672
▁amb	-2673
▁feder	-2674
▁marché	-2675
▁nations	-2676
▁doll	-2677
▁stay	-2678
resp	-2679
▁dece	-2680
ression	-2681
▁mac	-2682
▁underst	-2683
▁jap	-2684
▁organisation	-2685
▁bill	-2686
erve	-2687
▁types	-2688
▁facebook	-2689
ca	-2690
▁185	-2691
ength	-2692
▁standard	-2693
pendant	-2694
▁paragraph	-2695
▁mai	-2696
ara	-2697
iver	-2698
▁coop	-2699
▁message	-2700
,9	-2701
ibility	-2702
▁provided	-2703
▁intro	-2704
▁solutions	-2705
▁mid	-2706
▁final	-2707
▁franc	-2708
▁juin	-2709
▁période	-2710
ready	-2711
time	-2712
▁solution	-2713
▁further	-2714
ives	-2715
,00	-2716
▁industri	-2717
▁deb	-2718
hib	-2719
▁heart	-2720
▁body	-2721
bles	-2722
na	-2723
ming	-2724
▁structure	-2725
▁pack	-2726
ètres	-2727
ung	-2728
▁heures	-2729
▁disco	-2730
▁lord	-2731
▁million	-2732
▁given	-2733
▁official	-2734
▁simil	-2735
▁love	-2736
itable	-2737
▁reconn	-2738
▁mesure	-2739
fast	-2740
▁strat	-2741
▁conform	-2742
▁applications	-2743
▁moyen	-2744
lim	-2745
▁already	-2746
vi	-2747
bile	-2748
iner	-2749
▁histoire	-2750
iser	-2751
fort	-2752
40	-2753
▁original	-2754
▁près	-2755
dess	-2756
erty	-2757
▁close	-2758
▁000	-2759
▁étudi	-2760
onst	-2761
▁reven	-2762
▁dig	-2763
▁travaill	-2764
▁nu	-2765
▁police	-2766
▁début	-2767
des	-2768
▁nouveaux	-2769
issance	-2770
▁surve	-2771
▁renseignements	-2772
▁currently	-2773
▁ask	-2774
▁front	-2775
▁terre	-2776
▁réun	-2777
▁jeu	-2778
▁future	-2779
nels	-2780
ufact	-2781
▁little	-2782
▁treat	-2783
wa	-2784
▁atte	-2785
▁flo	-2786
▁natural	-2787
▁october	-2788
▁forme	-2789
ases	-2790
▁présente	-2791
tie	-2792
▁mode	-2793
uter	-2794
▁low	-2795
▁clear	-2796
▁blog	-2797
▁rencont	-2798
rant	-2799
▁global	-2800
▁recommand	-2801
▁scienti	-2802
▁prot	-2803
mission	-2804
▁rédu	-2805
▁turn	-2806
▁tv	-2807
▁jur	-2808
▁aller	-2809
ification	-2810
▁manufact	-2811
▁haut	-2812
▁run	-2813
.7	-2814
▁necess	-2815
▁sent	-2816
▁entreprises	-2817
thers	-2818
▁meeting	-2819
ril	-2820
arger	-2821
▁short	-2822
ony	-2823
▁faci	-2824
cy	-2825
▁center	-2826
èmes	-2827
▁pier	-2828
▁size	-2829
▁ot	-2830
▁network	-2831
▁john	-2832
▁council	-2833
▁invest	-2834
▁passe	-2835
ove	-2836
▁mi	-2837
▁féd	-2838
▁certi	-2839
▁january	-2840
▁frais	-2841
▁archite	-2842
▁central	-2843
▁young	-2844
▁better	-2845
▁september	-2846
▁university	-2847
▁affaires	-2848
▁hu	-2849
gré	-2850
▁vé	-2851
▁text	-2852
▁partners	-2853
▁occasion	-2854
▁dir	-2855
▁montre	-2856
▁corresp	-2857
ey	-2858
▁hal	-2859
▁benef	-2860
▁subject	-2861
▁park	-2862
▁cover	-2863
bru	-2864
▁history	-2865
▁toget	-2866
▁semb	-2867
▁december	-2868
▁mort	-2869
▁correspond	-2870
▁together	-2871
▁conver	-2872
cture	-2873
▁observ	-2874
dom	-2875
▁terms	-2876
▁trade	-2877
ley	-2878
▁intégr	-2879
df	-2880
▁tel	-2881
gie	-2882
▁become	-2883
▁sam	-2884
▁night	-2885
▁think	-2886
▁programmes	-2887
▁mobile	-2888
▁mm	-2889
▁ul	-2890
▁communication	-2891
▁church	-2892
yer	-2893
▁logici	-2894
ué	-2895
atory	-2896
▁economic	-2897
ham	-2898
▁appropri	-2899
▁octobre	-2900
▁quatre	-2901
▁manière	-2902
▁millions	-2903
▁travers	-2904
▁hard	-2905
tra	-2906
▁effet	-2907
▁media	-2908
▁outil	-2909
--	-2910
▁32	-2911
ined	-2912
ending	-2913
▁wr	-2914
▁propose	-2915
éré	-2916
▁left	-2917
▁situé	-2918
▁enj	-2919
▁link	-2920
▁janvier	-2921
▁live	-2922
▁lot	-2923
▁exclus	-2924
▁--	-2925
fect	-2926
▁aust	-2927
▁véri	-2928
ogle	-2929
ros	-2930
▁corps	-2931
▁allem	-2932
▁energy	-2933
▁learn	-2934
▁mr	-2935
▁contract	-2936
▁charact	-2937
▁accept	-2938
▁dess	-2939
ands	-2940
▁contenu	-2941
▁categ	-2942
▁side	-2943
▁nombreux	-2944
▁russ	-2945
▁building	-2946
▁range	-2947
rid	-2948
▁font	-2949
▁moi	-2950
ogn	-2951
▁trouv	-2952
▁camping	-2953
▁until	-2954
▁holid	-2955
met	-2956
▁stratég	-2957
▁septembre	-2958
cembre	-2959
▁invol	-2960
éric	-2961
cé	-2962
▁hô	-2963
▁white	-2964
▁pict	-2965
ters	-2966
▁zone	-2967
▁happ	-2968
ged	-2969
▁various	-2970
▁catég	-2971
▁google	-2972
▁2004	-2973
▁fais	-2974
▁autor	-2975
▁finance	-2976
ka	-2977
▁langue	-2978
▁common	-2979
▁beach	-2980
▁create	-2981
▁capital	-2982
▁november	-2983
▁expos	-2984
▁mount	-2985
▁états	-2986
▁parce	-2987
▁breakfast	-2988
▁cand	-2989
▁évaluation	-2990
▁montréal	-2991
▁express	-2992
▁regist	-2993
lac	-2994
▁magn	-2995
▁honor	-2996
▁president	-2997
▁april	-2998
▁rac	-2999
▁complex	-3000
▁hotels	-3001
▁living	-3002
▁obtenir	-3003
hod	-3004
▁détermin	-3005
▁vic	-3006
iez	-3007
▁photograph	-3008
▁concernant	-3009
▁join	-3010
▁actuellement	-3011
▁decision	-3012
▁panier	-3013
▁administration	-3014
▁muse	-3015
▁attention	-3016
▁établis	-3017
▁enjoy	-3018
▁model	-3019
aim	-3020
▁argent	-3021
bruary	-3022
▁éner	-3023
▁past	-3024
▁bul	-3025
▁adj	-3026
▁party	-3027
▁satis	-3028
ifi	-3029
▁cuisine	-3030
▁clos	-3031
▁33	-3032
▁wel	-3033
▁porte	-3034
self	-3035
ops	-3036
▁pc	-3037
▁province	-3038
80	-3039
▁cell	-3040
▁belie	-3041
▁eux	-3042
▁naturel	-3043
▁means	-3044
uts	-3045
▁property	-3046
▁route	-3047
▁chau	-3048
ark	-3049
▁legal	-3050
▁secteur	-3051
▁mobil	-3052
ensions	-3053
ires	-3054
▁personnel	-3055
▁décembre	-3056
▁fév	-3057
▁valeur	-3058
12	-3059
enses	-3060
▁jav	-3061
▁coord	-3062
▁lou	-3063
▁artis	-3064
tient	-3065
orie	-3066
▁financi	-3067
▁inte	-3068
tro	-3069
▁commentaires	-3070
atif	-3071
ican	-3072
▁convention	-3073
▁purp	-3074
ery	-3075
▁games	-3076
▁february	-3077
▁fabric	-3078
uillez	-3079
▁training	-3080
leg	-3081
▁mad	-3082
▁accep	-3083
▁trouve	-3084
▁format	-3085
tity	-3086
raient	-3087
ores	-3088
▁novembre	-3089
▁subst	-3090
ether	-3091
▁ajout	-3092
▁souvent	-3093
▁2000	-3094
▁matière	-3095
▁prépar	-3096
aissance	-3097
▁jeux	-3098
▁seul	-3099
enn	-3100
▁canadien	-3101
lements	-3102
▁wish	-3103
▁therefore	-3104
▁os	-3105
▁ep	-3106
▁aliment	-3107
▁once	-3108
▁road	-3109
▁why	-3110
▁july	-3111
▁ressources	-3112
▁understand	-3113
▁areas	-3114
▁quick	-3115
▁signific	-3116
▁exception	-3117
itive	-3118
▁anglais	-3119
▁previous	-3120
▁related	-3121
ex	-3122
▁department	-3123
▁plac	-3124
▁parmi	-3125
▁mand	-3126
▁value	-3127
▁mention	-3128
▁estim	-3129
▁modern	-3130
▁sn	-3131
▁options	-3132
▁décision	-3133
▁disponibles	-3134
▁cra	-3135
▁série	-3136
▁influ	-3137
▁space	-3138
▁compris	-3139
▁ordin	-3140
▁réseau	-3141
▁reach	-3142
▁sett	-3143
▁arriv	-3144
▁discover	-3145
▁employe	-3146
▁never	-3147
▁info	-3148
ellement	-3149
alogue	-3150
▁tag	-3151
▁licence	-3152
▁hours	-3153
▁80	-3154
lise	-3155
▁espace	-3156
wh	-3157
ceed	-3158
▁45	-3159
▁bonne	-3160
▁color	-3161
▁ho	-3162
tiful	-3163
▁jamais	-3164
ocra	-3165
▁retour	-3166
odes	-3167
▁machine	-3168
▁occup	-3169
èrent	-3170
arg	-3171
▁transform	-3172
▁titre	-3173
quoi	-3174
▁contrôle	-3175
▁things	-3176
ott	-3177
icip	-3178
▁journal	-3179
▁reviews	-3180
▁connect	-3181
fications	-3182
▁added	-3183
▁devant	-3184
pir	-3185
▁bath	-3186
▁connex	-3187
▁haute	-3188
▁called	-3189
▁faut	-3190
▁forum	-3191
ained	-3192
▁assess	-3193
▁budget	-3194
▁town	-3195
▁février	-3196
▁avril	-3197
▁carri	-3198
rice	-3199
▁safety	-3200
▁là	-3201
▁forces	-3202
▁médi	-3203
iding	-3204
▁90	-3205
▁begin	-3206
▁beautiful	-3207
▁hommes	-3208
thing	-3209
▁broad	-3210
gement	-3211
▁easy	-3212
▁green	-3213
vely	-3214
▁équip	-3215
▁projets	-3216
▁thé	-3217
▁méth	-3218
▁dernier	-3219
-3	-3220
airs	-3221
ipment	-3222
titude	-3223
ariat	-3224
can	-3225
▁card	-3226
▁months	-3227
issant	-3228
▁integr	-3229
▁plu	-3230
▁municip	-3231
▁cab	-3232
mobil	-3233
▁créer	-3234
▁élev	-3235
▁include	-3236
▁procéd	-3237
▁surface	-3238
zz	-3239
▁upd	-3240
▁fit	-3241
▁political	-3242
▁club	-3243
▁method	-3244
▁star	-3245
urer	-3246
▁cath	-3247
▁propre	-3248
▁raison	-3249
▁mesures	-3250
come	-3251
▁industry	-3252
▁upon	-3253
▁needs	-3254
▁gens	-3255
▁actual	-3256
▁ic	-3257
▁fils	-3258
.8	-3259
lay	-3260
anche	-3261
▁détails	-3262
▁veuillez	-3263
▁ensure	-3264
▁risk	-3265
▁systems	-3266
▁technology	-3267
▁statis	-3268
▁vér	-3269
lier	-3270
▁notamment	-3271
▁third	-3272
▁museum	-3273
▁mich	-3274
▁commande	-3275
▁complet	-3276
ilt	-3277
▁files	-3278
▁perman	-3279
▁chose	-3280
▁pourquoi	-3281
▁ayant	-3282
▁aider	-3283
▁keep	-3284
▁étr	-3285
▁foot	-3286
▁70	-3287
▁conte	-3288
ueur	-3289
▁actions	-3290
quel	-3291
▁federal	-3292
▁send	-3293
rim	-3294
▁gratuite	-3295
▁sujet	-3296
▁guer	-3297
▁complete	-3298
▁whether	-3299
▁foc	-3300
▁mak	-3301
▁cit	-3302
▁certaines	-3303
▁sea	-3304
dll	-3305
do	-3306
▁juillet	-3307
▁essenti	-3308
▁anne	-3309
▁august	-3310
▁optim	-3311
bl	-3312
▁commenc	-3313
isti	-3314
▁education	-3315
▁espr	-3316
▁ara	-3317
▁comments	-3318
▁jeunes	-3319
▁maximum	-3320
ommod	-3321
▁having	-3322
▁wood	-3323
▁away	-3324
▁traitement	-3325
▁affect	-3326
▁mettre	-3327
▁politiques	-3328
▁2003	-3329
▁micro	-3330
auv	-3331
▁often	-3332
▁vidéo	-3333
▁jes	-3334
▁plat	-3335
▁below	-3336
ourg	-3337
▁produc	-3338
▁cann	-3339
▁va	-3340
▁resources	-3341
▁trop	-3342
▁above	-3343
▁encour	-3344
▁taken	-3345
▁belg	-3346
▁dernière	-3347
▁autoris	-3348
▁domaine	-3349
▁strong	-3350
▁transf	-3351
▁wall	-3352
▁béné	-3353
▁agreement	-3354
▁vert	-3355
▁participants	-3356
▁lire	-3357
▁différents	-3358
▁secret	-3359
ss	-3360
éris	-3361
▁gratuit	-3362
né	-3363
▁confer	-3364
orm	-3365
ledge	-3366
▁perfect	-3367
▁nég	-3368
▁airport	-3369
▁aucune	-3370
▁analyse	-3371
▁#	-3372
▁accommod	-3373
▁tourn	-3374
▁mieux	-3375
▁ra	-3376
▁succ	-3377
yl	-3378
▁économique	-3379
▁five	-3380
▁aver	-3381
tr	-3382
▁pris	-3383
▁compe	-3384
▁musique	-3385
▁director	-3386
▁too	-3387
▁cast	-3388
▁implement	-3389
▁pied	-3390
▁bank	-3391
uels	-3392
ised	-3393
▁cependant	-3394
▁bâ	-3395
▁choose	-3396
▁bois	-3397
tir	-3398
▁recommend	-3399
▁ministère	-3400
▁taille	-3401
▁engine	-3402
▁progress	-3403
aring	-3404
▁island	-3405
▁received	-3406
▁necessary	-3407
▁gold	-3408
▁scre	-3409
édi	-3410
zer	-3411
▁aspect	-3412
▁store	-3413
▁teach	-3414
▁spect	-3415
atiques	-3416
▁led	-3417
▁issues	-3418
ades	-3419
unch	-3420
▁supplément	-3421
▁due	-3422
eu	-3423
▁modèle	-3424
▁installation	-3425
ban	-3426
▁availability	-3427
▁principal	-3428
lez	-3429
▁villa	-3430
▁soul	-3431
▁lu	-3432
▁lac	-3433
pa	-3434
▁agricult	-3435
▁cru	-3436
▁proté	-3437
tition	-3438
▁distribution	-3439
▁others	-3440
mment	-3441
ering	-3442
ona	-3443
▁celle	-3444
▁choix	-3445
▁importance	-3446
▁hôtels	-3447
lacement	-3448
▁figure	-3449
▁navigation	-3450
▁quanti	-3451
▁known	-3452
side	-3453
▁expect	-3454
uve	-3455
▁tend	-3456
▁vict	-3457
▁bur	-3458
▁livra	-3459
ube	-3460
▁honour	-3461
▁bag	-3462
ush	-3463
forme	-3464
▁ther	-3465
▁différentes	-3466
▁concent	-3467
▁derniers	-3468
bur	-3469
▁amount	-3470
▁cross	-3471
▁graph	-3472
▁fort	-3473
tte	-3474
ige	-3475
▁fall	-3476
▁recogn	-3477
▁twitter	-3478
▁dollars	-3479
▁character	-3480
▁features	-3481
▁conséqu	-3482
▁transfer	-3483
▁chac	-3484
used	-3485
ettes	-3486
▁paul	-3487
▁poly	-3488
▁civil	-3489
▁restaurants	-3490
▁hyd	-3491
mis	-3492
ems	-3493
ville	-3494
▁infr	-3495
▁miss	-3496
▁included	-3497
tc	-3498
wards	-3499
▁satisf	-3500
▁register	-3501
▁université	-3502
▁nécessaire	-3503
▁dét	-3504
▁copy	-3505
▁apartment	-3506
itaire	-3507
▁hé	-3508
uits	-3509
▁complè	-3510
▁proch	-3511
▁places	-3512
▁approach	-3513
▁réponse	-3514
11	-3515
naire	-3516
▁candid	-3517
▁quan	-3518
ièrement	-3519
▁adresse	-3520
▁ads	-3521
▁jés	-3522
bs	-3523
den	-3524
▁javas	-3525
▁came	-3526
▁field	-3527
▁fire	-3528
▁côté	-3529
▁active	-3530
▁deuxième	-3531
ither	-3532
▁difficult	-3533
▁receive	-3534
lée	-3535
▁additional	-3536
▁chall	-3537
▁institutions	-3538
▁appare	-3539
▁took	-3540
▁laqu	-3541
▁pdf	-3542
▁aéro	-3543
▁peace	-3544
▁liber	-3545
quez	-3546
cal	-3547
▁2002	-3548
fois	-3549
uring	-3550
▁sport	-3551
bes	-3552
▁pourrait	-3553
▁held	-3554
▁minimum	-3555
▁pen	-3556
▁dam	-3557
gar	-3558
▁nam	-3559
▁meilleur	-3560
▁vendre	-3561
▁der	-3562
▁techniques	-3563
▁provides	-3564
▁dél	-3565
▁age	-3566
▁utilisé	-3567
▁médic	-3568
▁distance	-3569
▁quebec	-3570
▁issue	-3571
lam	-3572
inal	-3573
bed	-3574
term	-3575
▁buy	-3576
▁later	-3577
▁equipment	-3578
▁study	-3579
fique	-3580
▁laquelle	-3581
▁javascript	-3582
▁né	-3583
▁36	-3584
▁crit	-3585
▁single	-3586
▁événements	-3587
▁technique	-3588
▁cul	-3589
▁projects	-3590
▁society	-3591
▁devrait	-3592
iller	-3593
▁created	-3594
ality	-3595
▁series	-3596
▁pierre	-3597
▁purch	-3598
▁orient	-3599
ology	-3600
▁consul	-3601
▁nation	-3602
▁increase	-3603
▁pens	-3604
▁feel	-3605
quent	-3606
ologie	-3607
▁jesus	-3608
▁intérêt	-3609
▁idé	-3610
▁ordre	-3611
auté	-3612
▁function	-3613
▁fonds	-3614
▁participation	-3615
▁appear	-3616
▁festival	-3617
▁entra	-3618
▁exéc	-3619
▁evalu	-3620
▁couleur	-3621
▁jard	-3622
rés	-3623
▁disponibilité	-3624
▁professional	-3625
oût	-3626
▁apply	-3627
▁dès	-3628
▁caractéris	-3629
▁vacances	-3630
▁vend	-3631
▁cinq	-3632
▁jésus	-3633
erver	-3634
▁proper	-3635
▁efforts	-3636
▁numéro	-3637
▁effective	-3638
▁précéd	-3639
15	-3640
▁senator	-3641
▁cu	-3642
▁donner	-3643
cast	-3644
▁attra	-3645
aged	-3646
90	-3647
▁sources	-3648
▁télécharger	-3649
▁kind	-3650
aise	-3651
▁plans	-3652
▁clean	-3653
lème	-3654
ano	-3655
▁jobs	-3656
▁tas	-3657
word	-3658
▁master	-3659
atoire	-3660
▁along	-3661
itez	-3662
▁relev	-3663
êts	-3664
▁attend	-3665
▁auto	-3666
▁doss	-3667
▁paie	-3668
▁confirm	-3669
▁500	-3670
▁ye	-3671
▁membre	-3672
▁pièces	-3673
▁34	-3674
▁hold	-3675
▁ram	-3676
▁aven	-3677
ably	-3678
cr	-3679
▁yet	-3680
▁directement	-3681
▁holiday	-3682
ney	-3683
▁items	-3684
▁capit	-3685
▁comfort	-3686
gen	-3687
étés	-3688
▁2001	-3689
▁esprit	-3690
▁organiz	-3691
ares	-3692
isé	-3693
▁father	-3694
▁extension	-3695
▁indé	-3696
▁exhib	-3697
▁touch	-3698
▁quelque	-3699
▁por	-3700
▁technical	-3701
▁livraison	-3702
▁gaz	-3703
▁semaine	-3704
▁calcul	-3705
▁ensuite	-3706
▁rôle	-3707
▁mix	-3708
rement	-3709
▁activité	-3710
▁donne	-3711
car	-3712
▁consomm	-3713
▁agency	-3714
▁barcel	-3715
▁ben	-3716
tawa	-3717
▁immobil	-3718
▁196	-3719
▁knowledge	-3720
▁tele	-3721
vision	-3722
▁vision	-3723
iné	-3724
▁problème	-3725
▁assurer	-3726
ensive	-3727
▁tom	-3728
antage	-3729
▁terme	-3730
astruct	-3731
▁achie	-3732
▁box	-3733
▁gau	-3734
▁role	-3735
▁pours	-3736
▁chef	-3737
▁règlement	-3738
times	-3739
▁partager	-3740
ça	-3741
▁endro	-3742
▁appartement	-3743
▁cd	-3744
▁voici	-3745
▁collec	-3746
▁hous	-3747
▁adapt	-3748
eth	-3749
▁jac	-3750
▁parli	-3751
▁infrastruct	-3752
▁thus	-3753
over	-3754
ians	-3755
▁donné	-3756
▁plas	-3757
▁might	-3758
▁lond	-3759
▁shipp	-3760
▁ip	-3761
▁directeur	-3762
▁ago	-3763
▁fédér	-3764
▁making	-3765
▁communaut	-3766
▁quantité	-3767
▁companies	-3768
lit	-3769
▁blo	-3770
dre	-3771
▁van	-3772
▁sale	-3773
elves	-3774
aît	-3775
▁export	-3776
voir	-3777
▁abord	-3778
iled	-3779
▁sin	-3780
▁sector	-3781
▁vin	-3782
▁ey	-3783
▁students	-3784
▁alli	-3785
oins	-3786
▁reason	-3787
▁fichiers	-3788
▁amend	-3789
mon	-3790
▁mouve	-3791
▁garanti	-3792
▁père	-3793
▁rapp	-3794
▁internationale	-3795
eurs	-3796
▁technologies	-3797
▁véhic	-3798
▁tribun	-3799
▁compagn	-3800
aître	-3801
▁texte	-3802
▁watch	-3803
▁taux	-3804
▁pratique	-3805
▁least	-3806
▁determin	-3807
ester	-3808
▁speak	-3809
▁deal	-3810
▁blanc	-3811
lir	-3812
14	-3813
▁nombreuses	-3814
ured	-3815
uk	-3816
rimer	-3817
▁favor	-3818
▁bring	-3819
▁exté	-3820
èrement	-3821
▁ton	-3822
▁rate	-3823
▁nuit	-3824
▁avaient	-3825
isl	-3826
ips	-3827
▁ba	-3828
▁européenne	-3829
▁symb	-3830
▁flor	-3831
▁leaders	-3832
25	-3833
sez	-3834
▁pages	-3835
▁bénéfic	-3836
▁aéroport	-3837
▁death	-3838
▁visiteurs	-3839
vo	-3840
▁août	-3841
▁parking	-3842
▁whole	-3843
▁vig	-3844
▁published	-3845
▁étant	-3846
ifs	-3847
▁ment	-3848
▁programs	-3849
gra	-3850
▁gall	-3851
▁designed	-3852
▁contemp	-3853
70	-3854
▁rue	-3855
▁ta	-3856
▁staff	-3857
oul	-3858
roid	-3859
▁plant	-3860
▁cases	-3861
▁besoins	-3862
ada	-3863
▁similar	-3864
▁visits	-3865
▁requirements	-3866
pecial	-3867
▁sole	-3868
▁séjour	-3869
▁newslet	-3870
onto	-3871
ète	-3872
▁vehic	-3873
▁guar	-3874
▁améliorer	-3875
▁thanks	-3876
▁écrit	-3877
ired	-3878
▁altern	-3879
▁publique	-3880
▁friend	-3881
▁plate	-3882
▁session	-3883
▁electric	-3884
▁brows	-3885
▁sum	-3886
▁decl	-3887
▁pool	-3888
ublic	-3889
▁systèmes	-3890
▁annonces	-3891
▁mur	-3892
▁dyn	-3893
▁mig	-3894
▁grands	-3895
▁ing	-3896
▁exemp	-3897
partments	-3898
▁guerre	-3899
▁customer	-3900
99	-3901
▁intéress	-3902
▁petite	-3903
att	-3904
▁parliament	-3905
issent	-3906
▁nationale	-3907
▁symp	-3908
da	-3909
▁groupes	-3910
13	-3911
change	-3912
▁canadiens	-3913
ster	-3914
▁den	-3915
urr	-3916
oque	-3917
▁submit	-3918
▁plupart	-3919
▁display	-3920
▁espè	-3921
▁opin	-3922
▁ottawa	-3923
eria	-3924
▁improve	-3925
▁investis	-3926
▁serait	-3927
▁excellent	-3928
iff	-3929
ological	-3930
▁going	-3931
▁collaboration	-3932
▁éléments	-3933
▁science	-3934
▁sû	-3935
▁agit	-3936
▁riv	-3937
ouss	-3938
▁limit	-3939
alités	-3940
▁leave	-3941
▁changes	-3942
▁ham	-3943
▁soutien	-3944
▁bab	-3945
▁appe	-3946
▁sound	-3947
▁garden	-3948
rup	-3949
▁seule	-3950
èque	-3951
45	-3952
idents	-3953
lan	-3954
ky	-3955
▁lt	-3956
▁institution	-3957
▁israel	-3958
▁street	-3959
▁étude	-3960
opping	-3961
▁communauté	-3962
▁générale	-3963
▁frame	-3964
▁violence	-3965
▁connexion	-3966
▁stri	-3967
▁challen	-3968
ba	-3969
▁serve	-3970
▁notes	-3971
▁attrib	-3972
anced	-3973
▁particulier	-3974
▁costs	-3975
▁contribution	-3976
▁î	-3977
▁christi	-3978
atifs	-3979
ych	-3980
▁toronto	-3981
▁domin	-3982
▁études	-3983
▁enqu	-3984
▁référence	-3985
▁intérieur	-3986
▁prim	-3987
▁mean	-3988
▁outre	-3989
▁marque	-3990
▁miles	-3991
pec	-3992
▁lois	-3993
▁famil	-3994
▁groups	-3995
▁harm	-3996
▁passer	-3997
▁especial	-3998
▁really	-3999
▁exec	-4000
bit	-4001
▁juste	-4002
▁mondiale	-4003
▁fish	-4004
▁gros	-4005
uelles	-4006
▁discip	-4007
issez	-4008
▁confort	-4009
▁offici	-4010
lections	-4011
▁fournir	-4012
oti	-4013
▁foreign	-4014
▁sain	-4015
▁skip	-4016
▁former	-4017
▁weight	-4018
▁reste	-4019
lèmes	-4020
▁concl	-4021
▁durant	-4022
za	-4023
▁améric	-4024
▁especially	-4025
▁looking	-4026
▁femme	-4027
cies	-4028
▁notice	-4029
▁mir	-4030
▁remar	-4031
▁lorsqu	-4032
▁conference	-4033
gu	-4034
oring	-4035
▁ly	-4036
▁initiative	-4037
▁built	-4038
▁century	-4039
ender	-4040
cs	-4041
▁choses	-4042
▁david	-4043
▁musée	-4044
▁claim	-4045
▁vente	-4046
▁collect	-4047
▁industrie	-4048
▁regulations	-4049
▁préf	-4050
▁communi	-4051
▁lut	-4052
▁establish	-4053
▁roman	-4054
cin	-4055
most	-4056
indre	-4057
▁relative	-4058
▁innovation	-4059
▁digital	-4060
▁promotion	-4061
▁ground	-4062
▁problèmes	-4063
▁37	-4064
ross	-4065
▁malad	-4066
ico	-4067
▁sénateur	-4068
▁hosp	-4069
▁labor	-4070
▁volume	-4071
page	-4072
▁risque	-4073
▁squ	-4074
▁parts	-4075
âte	-4076
▁leader	-4077
▁mem	-4078
aging	-4079
ya	-4080
▁config	-4081
▁diam	-4082
▁toutefois	-4083
▁newsletter	-4084
▁pla	-4085
▁interpr	-4086
olf	-4087
▁fau	-4088
ignes	-4089
▁devez	-4090
rict	-4091
▁clin	-4092
▁48	-4093
▁problem	-4094
▁american	-4095
▁gé	-4096
▁création	-4097
rage	-4098
▁organization	-4099
▁kil	-4100
▁money	-4101
osph	-4102
▁italy	-4103
▁centr	-4104
▁spr	-4105
▁gir	-4106
▁consci	-4107
▁announ	-4108
pective	-4109
▁examen	-4110
▁parlement	-4111
▁classe	-4112
êtes	-4113
▁capacité	-4114
▁siècle	-4115
▁manif	-4116
▁shipping	-4117
▁acheter	-4118
▁oil	-4119
▁regional	-4120
▁aqu	-4121
▁river	-4122
rich	-4123
▁yes	-4124
ède	-4125
▁oui	-4126
aison	-4127
▁done	-4128
▁1,	-4129
▁annual	-4130
▁objet	-4131
▁earth	-4132
▁cherche	-4133
▁answer	-4134
▁rien	-4135
▁significant	-4136
ennes	-4137
▁honourable	-4138
▁logiciel	-4139
▁cut	-4140
▁coû	-4141
▁em	-4142
▁friends	-4143
▁words	-4144
missions	-4145
▁voiture	-4146
▁suivant	-4147
▁user	-4148
▁york	-4149
▁environmental	-4150
▁category	-4151
▁prep	-4152
rop	-4153
▁38	-4154
▁summ	-4155
▁01	-4156
▁livre	-4157
ief	-4158
▁bout	-4159
▁sout	-4160
uration	-4161
▁tir	-4162
ument	-4163
▁emer	-4164
▁farm	-4165
▁contain	-4166
idential	-4167
▁appu	-4168
▁75	-4169
uted	-4170
▁subse	-4171
wor	-4172
alisation	-4173
▁brand	-4174
▁arts	-4175
▁africa	-4176
▁limited	-4177
▁én	-4178
▁presented	-4179
aps	-4180
▁delivery	-4181
▁catégorie	-4182
▁kitch	-4183
▁durée	-4184
▁senti	-4185
▁proced	-4186
18	-4187
▁bir	-4188
ank	-4189
▁tell	-4190
▁param	-4191
▁directly	-4192
▁includes	-4193
▁independ	-4194
ga	-4195
▁sports	-4196
▁users	-4197
▁audit	-4198
fully	-4199
▁sugg	-4200
▁treatment	-4201
▁self	-4202
▁conven	-4203
▁activity	-4204
▁répar	-4205
▁sure	-4206
▁convers	-4207
▁publication	-4208
ablement	-4209
▁succès	-4210
▁sort	-4211
temps	-4212
▁terra	-4213
▁église	-4214
cra	-4215
▁dan	-4216
▁early	-4217
▁analysis	-4218
▁énergie	-4219
dam	-4220
▁merci	-4221
▁ali	-4222
▁administra	-4223
▁erre	-4224
▁lumière	-4225
▁concept	-4226
▁dernières	-4227
▁témo	-4228
▁pren	-4229
▁sust	-4230
▁audio	-4231
▁tard	-4232
▁organisations	-4233
▁mari	-4234
onnes	-4235
▁popular	-4236
16	-4237
▁developed	-4238
▁italian	-4239
ills	-4240
▁certific	-4241
▁descri	-4242
fy	-4243
▁impression	-4244
-4	-4245
▁basis	-4246
▁emploi	-4247
▁compé	-4248
▁lun	-4249
▁pie	-4250
▁virt	-4251
▁paragraphe	-4252
▁pén	-4253
▁objectif	-4254
▁opér	-4255
▁laiss	-4256
▁presse	-4257
▁tes	-4258
▁instant	-4259
▁path	-4260
▁zones	-4261
▁solid	-4262
▁strength	-4263
▁assistance	-4264
▁customers	-4265
▁conclus	-4266
▁shopping	-4267
▁soon	-4268
▁caf	-4269
▁true	-4270
▁cliquez	-4271
▁austral	-4272
▁seigne	-4273
▁wi	-4274
▁constitution	-4275
key	-4276
anch	-4277
▁bib	-4278
▁phone	-4279
▁makes	-4280
▁téléphone	-4281
▁envoyer	-4282
▁dynam	-4283
▁album	-4284
▁cannot	-4285
▁profess	-4286
mark	-4287
aster	-4288
▁souha	-4289
▁essay	-4290
▁existe	-4291
▁kitchen	-4292
▁ever	-4293
▁blue	-4294
▁communications	-4295
▁pain	-4296
▁save	-4297
ening	-4298
duced	-4299
▁computer	-4300
èles	-4301
▁remain	-4302
▁300	-4303
illed	-4304
19	-4305
rance	-4306
▁entraî	-4307
▁signal	-4308
▁spa	-4309
▁chair	-4310
▁guid	-4311
▁trip	-4312
▁estate	-4313
▁drive	-4314
▁var	-4315
▁réserv	-4316
ini	-4317
ished	-4318
▁steel	-4319
▁obtain	-4320
▁mp	-4321
ault	-4322
▁comes	-4323
▁term	-4324
▁separ	-4325
▁journée	-4326
▁chin	-4327
▁chemin	-4328
▁comprend	-4329
▁parents	-4330
iction	-4331
hold	-4332
▁films	-4333
mn	-4334
▁visited	-4335
▁walk	-4336
qués	-4337
▁rapidement	-4338
▁bedroom	-4339
▁accé	-4340
▁consist	-4341
▁try	-4342
▁sein	-4343
près	-4344
▁mos	-4345
▁investig	-4346
▁fair	-4347
▁39	-4348
▁travaux	-4349
tout	-4350
▁prices	-4351
▁méd	-4352
▁noir	-4353
▁poids	-4354
ror	-4355
▁jardin	-4356
▁feu	-4357
▁belle	-4358
▁monit	-4359
ump	-4360
bon	-4361
ival	-4362
▁din	-4363
▁grandes	-4364
▁reli	-4365
▁considered	-4366
▁méc	-4367
▁contac	-4368
aume	-4369
asing	-4370
même	-4371
▁average	-4372
▁soient	-4373
▁canadienne	-4374
eration	-4375
usement	-4376
orial	-4377
ued	-4378
round	-4379
▁retr	-4380
▁cf	-4381
▁concer	-4382
▁unit	-4383
▁seigneur	-4384
apes	-4385
▁smart	-4386
▁éto	-4387
▁luxe	-4388
men	-4389
▁tableau	-4390
cteur	-4391
▁origine	-4392
▁mét	-4393
▁move	-4394
▁cultural	-4395
▁rendre	-4396
▁offrir	-4397
▁école	-4398
▁reference	-4399
ding	-4400
▁surv	-4401
▁deven	-4402
▁match	-4403
▁choisir	-4404
▁ski	-4405
▁entire	-4406
▁republic	-4407
aw	-4408
▁bio	-4409
▁permis	-4410
▁agence	-4411
▁welcome	-4412
▁japan	-4413
▁télécharge	-4414
mont	-4415
ellig	-4416
êmes	-4417
▁découvrir	-4418
onie	-4419
▁auprès	-4420
▁credit	-4421
▁everything	-4422
▁renfor	-4423
▁selection	-4424
▁conformément	-4425
▁allows	-4426
▁pisc	-4427
▁aille	-4428
▁automatique	-4429
▁vu	-4430
▁deliver	-4431
▁standards	-4432
▁rome	-4433
▁italie	-4434
▁portug	-4435
▁1999	-4436
▁psych	-4437
right	-4438
▁contactez	-4439
▁pé	-4440
▁maî	-4441
▁reç	-4442
▁thous	-4443
▁germany	-4444
▁payment	-4445
▁experts	-4446
▁meilleure	-4447
▁medical	-4448
▁départ	-4449
▁jurid	-4450
▁vraiment	-4451
▁written	-4452
▁utilisateurs	-4453
▁55	-4454
▁repro	-4455
▁rock	-4456
▁autour	-4457
▁contempor	-4458
▁42	-4459
house	-4460
▁commerce	-4461
ama	-4462
▁season	-4463
▁las	-4464
▁facilities	-4465
▁milieu	-4466
▁across	-4467
iling	-4468
▁china	-4469
iance	-4470
redi	-4471
▁gas	-4472
crire	-4473
▁half	-4474
xe	-4475
▁guarante	-4476
▁lien	-4477
erse	-4478
▁faites	-4479
▁taking	-4480
issement	-4481
▁species	-4482
▁uk	-4483
vre	-4484
▁interp	-4485
▁protect	-4486
kn	-4487
tish	-4488
▁nut	-4489
sements	-4490
▁phase	-4491
ething	-4492
▁accommodation	-4493
▁afrique	-4494
uent	-4495
▁interven	-4496
▁rej	-4497
▁calend	-4498
▁sciences	-4499
aily	-4500
▁browser	-4501
▁faith	-4502
▁crimin	-4503
net	-4504
▁either	-4505
▁souten	-4506
▁ble	-4507
▁immedi	-4508
▁bor	-4509
▁inspir	-4510
▁imag	-4511
▁suisse	-4512
▁strateg	-4513
quant	-4514
▁établissement	-4515
▁ray	-4516
onti	-4517
ored	-4518
▁proposed	-4519
▁correct	-4520
▁rental	-4521
▁ailleurs	-4522
comp	-4523
▁america	-4524
ola	-4525
▁bâti	-4526
▁materials	-4527
▁something	-4528
▁méde	-4529
▁chem	-4530
▁ling	-4531
▁plein	-4532
▁responsible	-4533
▁bathroom	-4534
iennent	-4535
▁exigences	-4536
▁edit	-4537
▁enfant	-4538
▁sold	-4539
17	-4540
ki	-4541
▁réglement	-4542
▁automatic	-4543
32	-4544
▁mex	-4545
▁passé	-4546
▁afficher	-4547
▁agriculture	-4548
▁soy	-4549
▁temper	-4550
▁award	-4551
▁connaiss	-4552
▁dise	-4553
lant	-4554
chan	-4555
▁technologie	-4556
▁conférence	-4557
▁royal	-4558
▁facile	-4559
▁went	-4560
▁approxim	-4561
▁round	-4562
▁fully	-4563
▁persons	-4564
▁reçu	-4565
▁flex	-4566
quée	-4567
▁rub	-4568
▁regular	-4569
▁reports	-4570
▁provincial	-4571
▁surpr	-4572
▁surveill	-4573
▁daily	-4574
cia	-4575
▁pictures	-4576
fiques	-4577
ève	-4578
istance	-4579
▁intellig	-4580
▁alth	-4581
▁hall	-4582
dessous	-4583
▁entend	-4584
▁plut	-4585
▁cot	-4586
▁terrain	-4587
▁tent	-4588
▁proxim	-4589
ically	-4590
▁adver	-4591
▁rail	-4592
▁valid	-4593
▁sustain	-4594
▁print	-4595
▁step	-4596
▁although	-4597
▁relation	-4598
▁defin	-4599
▁established	-4600
▁floor	-4601
▁response	-4602
▁régul	-4603
▁growth	-4604
▁déclaration	-4605
▁absol	-4606
▁illust	-4607
▁atm	-4608
▁opportunity	-4609
aisse	-4610
▁petits	-4611
duce	-4612
▁speed	-4613
▁hyp	-4614
▁communities	-4615
aries	-4616
▁contacter	-4617
ena	-4618
▁ça	-4619
ffic	-4620
▁défense	-4621
▁purpose	-4622
▁levels	-4623
▁tools	-4624
▁rh	-4625
▁tribunal	-4626
▁répondre	-4627
uant	-4628
▁écl	-4629
▁195	-4630
▁tels	-4631
▁maintain	-4632
bers	-4633
▁liqu	-4634
▁150	-4635
▁destination	-4636
ray	-4637
▁plage	-4638
▁summer	-4639
▁wit	-4640
▁lik	-4641
orate	-4642
▁compon	-4643
▁patients	-4644
▁historique	-4645
▁élab	-4646
rou	-4647
▁towards	-4648
▁loss	-4649
▁chacun	-4650
cm	-4651
oke	-4652
▁électron	-4653
▁latest	-4654
▁rapports	-4655
▁bless	-4656
▁comprendre	-4657
▁cele	-4658
gue	-4659
gation	-4660
▁fisc	-4661
▁cathol	-4662
▁potential	-4663
▁versions	-4664
▁mouvement	-4665
▁says	-4666
▁pros	-4667
ulaires	-4668
▁associated	-4669
▁croissance	-4670
oli	-4671
▁electron	-4672
▁flow	-4673
tices	-4674
umes	-4675
ja	-4676
▁objectifs	-4677
actions	-4678
▁exploitation	-4679
▁edition	-4680
▁east	-4681
▁dipl	-4682
lies	-4683
▁efficace	-4684
▁cn	-4685
▁beginning	-4686
cles	-4687
▁interview	-4688
▁item	-4689
naires	-4690
▁44	-4691
fl	-4692
▁experien	-4693
▁salon	-4694
▁09	-4695
▁measures	-4696
ologique	-4697
ira	-4698
nelles	-4699
▁passion	-4700
▁recent	-4701
▁ceci	-4702
▁benefits	-4703
ipped	-4704
▁peuple	-4705
-5	-4706
▁sand	-4707
▁dre	-4708
▁itself	-4709
▁max	-4710
▁prend	-4711
▁takes	-4712
▁transpar	-4713
▁longer	-4714
▁annonce	-4715
▁surtout	-4716
▁rouge	-4717
▁amis	-4718
ria	-4719
ffe	-4720
▁langues	-4721
utive	-4722
▁brun	-4723
▁proven	-4724
▁montreal	-4725
▁bell	-4726
itiz	-4727
pper	-4728
▁bour	-4729
acle	-4730
▁deme	-4731
▁demander	-4732
▁responsable	-4733
▁06	-4734
▁fast	-4735
▁dll	-4736
▁financement	-4737
dle	-4738
▁dépos	-4739
cipe	-4740
▁quantity	-4741
▁though	-4742
▁impos	-4743
▁réunion	-4744
▁changement	-4745
▁aura	-4746
▁fi	-4747
▁présence	-4748
▁sched	-4749
▁geor	-4750
▁thank	-4751
▁écran	-4752
▁08	-4753
▁uses	-4754
▁propriété	-4755
▁stage	-4756
▁paiement	-4757
▁release	-4758
▁matter	-4759
▁urg	-4760
▁moyenne	-4761
▁toile	-4762
▁privacy	-4763
ift	-4764
▁regul	-4765
▁paper	-4766
▁object	-4767
▁effets	-4768
rét	-4769
▁involved	-4770
▁résultat	-4771
▁étrang	-4772
▁outils	-4773
▁problems	-4774
▁albert	-4775
▁architecture	-4776
▁capacity	-4777
▁souff	-4778
▁infrastructure	-4779
▁partenaires	-4780
▁couver	-4781
▁concert	-4782
▁merc	-4783
bas	-4784
▁exposition	-4785
▁vote	-4786
ih	-4787
▁compare	-4788
quet	-4789
▁endroit	-4790
▁1996	-4791
aves	-4792
▁industrial	-4793
▁lake	-4794
étique	-4795
▁homepage	-4796
▁almost	-4797
▁prime	-4798
rations	-4799
▁tête	-4800
▁exact	-4801
▁studies	-4802
▁amour	-4803
▁launch	-4804
▁song	-4805
ttes	-4806
son	-4807
▁piscine	-4808
▁christian	-4809
▁él	-4810
▁lanc	-4811
▁guest	-4812
▁couleurs	-4813
tise	-4814
▁haiti	-4815
▁pilot	-4816
▁mécan	-4817
35	-4818
▁permanent	-4819
▁magas	-4820
▁agré	-4821
umin	-4822
▁offres	-4823
▁194	-4824
▁surround	-4825
▁mètres	-4826
▁termes	-4827
▁traditional	-4828
▁exercice	-4829
▁rules	-4830
▁tiss	-4831
▁fournisse	-4832
▁lesqu	-4833
▁division	-4834
ublique	-4835
▁extre	-4836
▁atta	-4837
▁iv	-4838
comes	-4839
▁tempér	-4840
▁quelle	-4841
▁utilise	-4842
erez	-4843
▁plutôt	-4844
▁extr	-4845
▁paix	-4846
▁sell	-4847
▁modifications	-4848
ection	-4849
▁gamme	-4850
▁believe	-4851
▁track	-4852
▁soir	-4853
▁publié	-4854
ging	-4855
▁potenti	-4856
▁assessment	-4857
▁employees	-4858
▁présentation	-4859
ened	-4860
▁proceed	-4861
▁medic	-4862
▁views	-4863
▁employés	-4864
ified	-4865
▁fen	-4866
▁expression	-4867
▁flu	-4868
▁hors	-4869
▁safe	-4870
▁tick	-4871
ias	-4872
▁rather	-4873
estre	-4874
▁choice	-4875
▁ya	-4876
ocol	-4877
▁aper	-4878
▁western	-4879
▁archives	-4880
rons	-4881
▁goods	-4882
▁organizations	-4883
▁conserv	-4884
ibre	-4885
iation	-4886
▁authority	-4887
▁respond	-4888
▁wed	-4889
▁opération	-4890
▁appropriate	-4891
▁conseils	-4892
▁japon	-4893
▁lequel	-4894
▁languages	-4895
▁broadcast	-4896
▁02	-4897
ché	-4898
ounts	-4899
▁consultation	-4900
▁65	-4901
▁desc	-4902
▁compl	-4903
,0	-4904
▁satell	-4905
▁ball	-4906
▁étern	-4907
▁seen	-4908
tant	-4909
▁celles	-4910
uth	-4911
▁ib	-4912
▁engagement	-4913
▁initiatives	-4914
uler	-4915
rug	-4916
▁47	-4917
▁sales	-4918
▁poste	-4919
rate	-4920
back	-4921
▁studio	-4922
▁république	-4923
▁distin	-4924
▁pratiques	-4925
▁semble	-4926
▁49	-4927
▁hospital	-4928
itures	-4929
▁authorities	-4930
▁glass	-4931
▁gauche	-4932
▁became	-4933
▁étudiants	-4934
▁exchange	-4935
▁commander	-4936
èse	-4937
▁07	-4938
orp	-4939
▁ideal	-4940
▁thre	-4941
▁dates	-4942
▁ox	-4943
▁status	-4944
▁login	-4945
▁movement	-4946
urb	-4947
▁libre	-4948
oit	-4949
▁combin	-4950
▁secrét	-4951
▁ouvrir	-4952
▁band	-4953
▁password	-4954
▁régime	-4955
▁wide	-4956
comm	-4957
atrice	-4958
▁stra	-4959
-200	-4960
▁immédi	-4961
agers	-4962
ball	-4963
▁focus	-4964
▁particularly	-4965
▁bad	-4966
▁conj	-4967
-8	-4968
▁percent	-4969
▁patri	-4970
▁freed	-4971
▁inclus	-4972
▁03	-4973
▁instrument	-4974
lands	-4975
▁sky	-4976
▁marie	-4977
▁grav	-4978
otidi	-4979
▁tab	-4980
▁hear	-4981
▁vice	-4982
▁furn	-4983
▁ms	-4984
▁somm	-4985
▁centres	-4986
▁mother	-4987
dra	-4988
▁engage	-4989
▁deep	-4990
bc	-4991
▁aspects	-4992
▁machines	-4993
▁pê	-4994
▁vent	-4995
ris	-4996
▁grant	-4997
lie	-4998
24	-4999
▁quotidi	-5000
▁pertin	-5001
▁arc	-5002
▁relationship	-5003
▁46	-5004
hol	-5005
▁sho	-5006
▁messages	-5007
▁weather	-5008
itaires	-5009
▁conception	-5010
acité	-5011
▁ath	-5012
▁outside	-5013
▁draw	-5014
estation	-5015
rieure	-5016
▁montant	-5017
▁span	-5018
▁roi	-5019
▁opinion	-5020
▁négo	-5021
▁possibilité	-5022
▁practice	-5023
▁dialogue	-5024
▁43	-5025
▁05	-5026
▁skin	-5027
▁military	-5028
▁mond	-5029
▁pet	-5030
▁vigueur	-5031
▁matériel	-5032
▁visité	-5033
itre	-5034
▁régions	-5035
ida	-5036
▁troisième	-5037
▁usage	-5038
▁prison	-5039
▁wine	-5040
▁throughout	-5041
▁rot	-5042
▁surveillance	-5043
▁mots	-5044
▁shows	-5045
▁pharm	-5046
▁étape	-5047
▁accueill	-5048
▁bate	-5049
▁supérie	-5050
▁1998	-5051
ètre	-5052
col	-5053
▁faible	-5054
itage	-5055
▁importante	-5056
▁ordinateur	-5057
▁holy	-5058
▁load	-5059
▁premières	-5060
▁proph	-5061
oral	-5062
▁feed	-5063
▁uniquement	-5064
▁compren	-5065
ew	-5066
ml	-5067
▁mechan	-5068
▁mini	-5069
yd	-5070
▁lower	-5071
onc	-5072
▁minor	-5073
inte	-5074
▁longue	-5075
▁thems	-5076
▁kilom	-5077
▁04	-5078
▁arrivée	-5079
▁aurait	-5080
▁whose	-5081
▁disposition	-5082
▁soins	-5083
▁meilleurs	-5084
▁liens	-5085
▁themselves	-5086
▁allemagne	-5087
▁exclusive	-5088
▁acquis	-5089
▁british	-5090
issons	-5091
▁finally	-5092
▁mel	-5093
▁mind	-5094
▁born	-5095
▁difficile	-5096
box	-5097
rome	-5098
▁influence	-5099
▁joint	-5100
▁links	-5101
iteur	-5102
▁measure	-5103
▁partnership	-5104
usse	-5105
▁reti	-5106
▁whe	-5107
▁dress	-5108
▁lignes	-5109
umb	-5110
▁uns	-5111
▁approche	-5112
▁commentaire	-5113
▁citiz	-5114
▁maintenance	-5115
-11	-5116
▁consum	-5117
▁pense	-5118
▁witness	-5119
▁oppos	-5120
▁gi	-5121
▁asked	-5122
▁animaux	-5123
▁multip	-5124
▁bibli	-5125
▁atmosph	-5126
▁forward	-5127
▁bit	-5128
▁ouverture	-5129
craft	-5130
ife	-5131
▁risques	-5132
▁cong	-5133
▁pul	-5134
ned	-5135
▁instructions	-5136
▁recevoir	-5137
fo	-5138
▁alex	-5139
▁travailler	-5140
▁agent	-5141
▁dossier	-5142
ground	-5143
▁swit	-5144
▁nécessaires	-5145
tively	-5146
▁operations	-5147
▁stop	-5148
▁ancien	-5149
▁nutri	-5150
▁déclaré	-5151
▁chance	-5152
75	-5153
▁vas	-5154
▁nour	-5155
yp	-5156
▁evaluation	-5157
▁formulaire	-5158
▁fres	-5159
▁dispose	-5160
▁paint	-5161
▁micros	-5162
▁changements	-5163
▁châte	-5164
▁dog	-5165
▁professionnels	-5166
▁bay	-5167
▁instruments	-5168
▁enseigne	-5169
▁acier	-5170
▁apartments	-5171
▁vertu	-5172
▁unité	-5173
▁rates	-5174
▁poursu	-5175
▁favoris	-5176
▁contrô	-5177
▁compati	-5178
▁pin	-5179
▁volont	-5180
▁race	-5181
▁simplement	-5182
▁voulez	-5183
▁culturel	-5184
▁dix	-5185
asons	-5186
▁manager	-5187
▁économie	-5188
▁effects	-5189
▁brought	-5190
oid	-5191
▁sang	-5192
▁carry	-5193
▁oeu	-5194
▁demandes	-5195
▁investment	-5196
▁compagnie	-5197
▁workers	-5198
▁éducation	-5199
▁mc	-5200
ras	-5201
inary	-5202
▁moyens	-5203
▁campagne	-5204
arian	-5205
▁jeune	-5206
ising	-5207
tements	-5208
▁assurance	-5209
iterran	-5210
▁fine	-5211
▁déta	-5212
▁quartier	-5213
▁profile	-5214
▁wid	-5215
seign	-5216
bour	-5217
▁district	-5218
,2	-5219
urance	-5220
lines	-5221
▁batter	-5222
▁operation	-5223
▁prepar	-5224
▁da	-5225
▁infos	-5226
▁accessible	-5227
▁prise	-5228
▁hope	-5229
▁foundation	-5230
▁inspe	-5231
▁colour	-5232
▁strate	-5233
▁durable	-5234
▁normal	-5235
▁colomb	-5236
▁amérique	-5237
med	-5238
▁atel	-5239
▁proximité	-5240
▁loin	-5241
▁jose	-5242
▁purchase	-5243
abled	-5244
dessus	-5245
▁statement	-5246
▁hair	-5247
▁île	-5248
▁fonctions	-5249
rées	-5250
▁assembly	-5251
▁utilisateur	-5252
bi	-5253
dé	-5254
▁voc	-5255
▁interprét	-5256
▁suivre	-5257
▁souh	-5258
▁enfin	-5259
▁equipped	-5260
▁réduire	-5261
▁adult	-5262
▁climate	-5263
▁sept	-5264
▁relevant	-5265
ility	-5266
▁deg	-5267
▁rout	-5268
▁ros	-5269
▁youth	-5270
▁modèles	-5271
dule	-5272
▁reb	-5273
▁prevent	-5274
▁annivers	-5275
▁london	-5276
▁rose	-5277
▁sle	-5278
▁suit	-5279
▁nice	-5280
jeun	-5281
▁ax	-5282
▁collabor	-5283
▁fid	-5284
▁complète	-5285
▁variety	-5286
▁dv	-5287
▁wien	-5288
▁propriét	-5289
▁quoi	-5290
▁update	-5291
▁boî	-5292
▁navigateur	-5293
▁ol	-5294
▁valeurs	-5295
▁strategy	-5296
▁fat	-5297
▁liberté	-5298
▁souhait	-5299
▁âge	-5300
▁freedom	-5301
▁higher	-5302
▁sociaux	-5303
▁wait	-5304
▁booking	-5305
▁screen	-5306
▁ajouté	-5307
ié	-5308
▁héber	-5309
board	-5310
▁fé	-5311
▁symbol	-5312
▁gene	-5313
▁tempor	-5314
▁médias	-5315
aud	-5316
▁coûts	-5317
▁benefit	-5318
▁gallery	-5319
▁prefer	-5320
▁adh	-5321
▁entièrement	-5322
▁fréqu	-5323
▁responsabilité	-5324
▁commiss	-5325
▁événement	-5326
▁beaut	-5327
▁étoiles	-5328
▁dépenses	-5329
bor	-5330
▁jouer	-5331
▁plais	-5332
▁relax	-5333
,8	-5334
▁sépar	-5335
▁prec	-5336
▁assez	-5337
▁bru	-5338
érieur	-5339
▁trou	-5340
▁compli	-5341
▁signif	-5342
▁economy	-5343
▁modifier	-5344
eté	-5345
▁requests	-5346
isée	-5347
▁publications	-5348
▁profit	-5349
▁demonst	-5350
▁nothing	-5351
▁sûr	-5352
▁marketing	-5353
▁mondial	-5354
▁himself	-5355
▁positive	-5356
▁motor	-5357
▁spain	-5358
▁indépend	-5359
▁aid	-5360
▁coming	-5361
▁normes	-5362
no	-5363
▁prêt	-5364
▁drug	-5365
▁reme	-5366
▁attach	-5367
ams	-5368
▁cris	-5369
▁islam	-5370
▁letter	-5371
▁ras	-5372
▁visual	-5373
▁fight	-5374
▁immig	-5375
▁euros	-5376
cement	-5377
dies	-5378
▁blood	-5379
▁commence	-5380
▁funding	-5381
▁laur	-5382
▁trouvé	-5383
▁larg	-5384
▁golf	-5385
▁soleil	-5386
▁famous	-5387
▁length	-5388
▁fant	-5389
▁cub	-5390
,4	-5391
▁libr	-5392
▁française	-5393
▁190	-5394
▁independent	-5395
▁medium	-5396
▁square	-5397
▁chron	-5398
▁internal	-5399
▁démar	-5400
▁avantages	-5401
▁règles	-5402
,6	-5403
▁gro	-5404
▁operating	-5405
ieur	-5406
▁facilement	-5407
eld	-5408
▁chann	-5409
▁egy	-5410
▁basic	-5411
ellow	-5412
mal	-5413
▁64	-5414
▁époque	-5415
▁avanc	-5416
▁fruit	-5417
▁lives	-5418
▁pièce	-5419
▁eg	-5420
tivité	-5421
▁partner	-5422
▁bol	-5423
▁droite	-5424
▁sorte	-5425
▁claire	-5426
▁evidence	-5427
▁unto	-5428
-10	-5429
▁selected	-5430
▁crédit	-5431
▁modifi	-5432
▁magaz	-5433
▁enough	-5434
▁espèces	-5435
▁story	-5436
▁presque	-5437
▁royaume	-5438
▁voie	-5439
▁horiz	-5440
▁mou	-5441
▁shop	-5442
▁premiers	-5443
ested	-5444
▁puissance	-5445
▁brit	-5446
▁fle	-5447
▁flash	-5448
▁etats	-5449
▁organismes	-5450
▁citoy	-5451
riel	-5452
▁stor	-5453
▁cycle	-5454
▁télévision	-5455
▁quickly	-5456
▁parfois	-5457
▁beauty	-5458
▁propres	-5459
▁oly	-5460
▁diagn	-5461
▁appré	-5462
zerland	-5463
▁41	-5464
▁democra	-5465
▁52	-5466
▁utilisant	-5467
▁remove	-5468
▁couple	-5469
▁esc	-5470
▁éti	-5471
▁ordonn	-5472
▁continuer	-5473
▁pou	-5474
▁boutique	-5475
▁villes	-5476
▁cartes	-5477
▁pouvons	-5478
▁importe	-5479
▁excl	-5480
-6	-5481
▁privé	-5482
▁permettre	-5483
▁mél	-5484
▁discussion	-5485
▁plain	-5486
anda	-5487
▁invent	-5488
▁switzerland	-5489
▁presence	-5490
▁wond	-5491
▁dedic	-5492
▁1997	-5493
▁serious	-5494
érés	-5495
▁completed	-5496
▁enh	-5497
▁extérieur	-5498
▁reflect	-5499
,3	-5500
▁coast	-5501
▁lettre	-5502
▁olymp	-5503
istan	-5504
ero	-5505
▁assemblée	-5506
▁chaî	-5507
▁créé	-5508
▁contains	-5509
▁installations	-5510
▁constant	-5511
▁suivants	-5512
▁institute	-5513
▁corporation	-5514
ker	-5515
▁suivi	-5516
▁surf	-5517
my	-5518
oft	-5519
▁opposition	-5520
▁documentation	-5521
amin	-5522
▁fins	-5523
▁behind	-5524
érée	-5525
▁rare	-5526
▁achat	-5527
▁genre	-5528
▁berlin	-5529
▁ow	-5530
▁ts	-5531
▁danger	-5532
▁contex	-5533
▁ru	-5534
▁increased	-5535
▁contient	-5536
▁kingdom	-5537
▁purs	-5538
isant	-5539
▁uni	-5540
▁présenter	-5541
▁offered	-5542
▁accus	-5543
▁dry	-5544
▁touris	-5545
▁greater	-5546
▁poursuiv	-5547
ologiques	-5548
oo	-5549
▁apport	-5550
▁chapitre	-5551
arning	-5552
▁dispositions	-5553
▁accordance	-5554
▁profil	-5555
▁essential	-5556
▁swim	-5557
▁banque	-5558
othèque	-5559
▁stratégie	-5560
off	-5561
▁satellite	-5562
▁usa	-5563
▁regarding	-5564
▁caus	-5565
light	-5566
nés	-5567
hi	-5568
▁institut	-5569
▁provinces	-5570
▁petites	-5571
▁fruits	-5572
▁target	-5573
▁pure	-5574
▁morning	-5575
▁saison	-5576
▁400	-5577
▁fol	-5578
▁agents	-5579
▁values	-5580
fa	-5581
▁coeur	-5582
▁fas	-5583
islation	-5584
▁vib	-5585
▁stations	-5586
▁starting	-5587
▁title	-5588
▁spanish	-5589
▁ready	-5590
▁middle	-5591
▁seems	-5592
▁gratuitement	-5593
▁device	-5594
▁expected	-5595
▁85	-5596
wan	-5597
rog	-5598
▁1010	-5599
▁cabin	-5600
▁burn	-5601
▁ami	-5602
▁utilisés	-5603
occ	-5604
▁consulter	-5605
tification	-5606
▁rang	-5607
▁deuts	-5608
▁généralement	-5609
▁peint	-5610
▁arab	-5611
termine	-5612
▁elements	-5613
22	-5614
▁creation	-5615
▁négoci	-5616
▁stress	-5617
▁pleine	-5618
ata	-5619
▁module	-5620
▁européen	-5621
▁leading	-5622
▁principaux	-5623
▁dimensions	-5624
▁découvrez	-5625
▁existence	-5626
dits	-5627
▁casino	-5628
▁aperçu	-5629
▁détaill	-5630
▁déterminer	-5631
▁motion	-5632
nam	-5633
▁sembl	-5634
▁easily	-5635
▁existing	-5636
▁intervention	-5637
▁winter	-5638
▁trust	-5639
estic	-5640
tified	-5641
▁vient	-5642
uge	-5643
▁mauv	-5644
berg	-5645
▁contrat	-5646
▁chine	-5647
▁mère	-5648
▁started	-5649
▁feature	-5650
▁barcelona	-5651
roll	-5652
▁chapter	-5653
▁android	-5654
▁physical	-5655
▁copyright	-5656
▁families	-5657
▁expli	-5658
▁café	-5659
▁hour	-5660
▁56	-5661
▁diagnos	-5662
▁réservation	-5663
gment	-5664
▁produced	-5665
▁satur	-5666
▁connection	-5667
rel	-5668
▁cry	-5669
▁financ	-5670
works	-5671
ora	-5672
irs	-5673
▁kg	-5674
▁approximately	-5675
▁supplémentaires	-5676
▁renouvel	-5677
▁thing	-5678
▁lamp	-5679
▁pleas	-5680
▁célè	-5681
▁changer	-5682
▁friday	-5683
▁effort	-5684
based	-5685
ato	-5686
ague	-5687
▁telle	-5688
érences	-5689
jou	-5690
▁desp	-5691
▁framework	-5692
▁architect	-5693
▁applicable	-5694
▁cancer	-5695
,7	-5696
jeuner	-5697
▁pun	-5698
▁simply	-5699
▁ouvert	-5700
▁consac	-5701
▁inj	-5702
▁flat	-5703
▁philos	-5704
▁reported	-5705
▁ways	-5706
▁jun	-5707
▁tourist	-5708
▁inh	-5709
▁thought	-5710
▁chauff	-5711
▁steps	-5712
▁whom	-5713
▁marine	-5714
tile	-5715
▁nov	-5716
las	-5717
▁honorable	-5718
▁parfa	-5719
ruction	-5720
▁window	-5721
▁wild	-5722
aign	-5723
▁adjust	-5724
▁artistes	-5725
▁expertise	-5726
▁canadians	-5727
▁catalogue	-5728
▁ign	-5729
▁restric	-5730
éraux	-5731
▁centrale	-5732
▁lev	-5733
ula	-5734
▁write	-5735
▁devraient	-5736
▁rs	-5737
▁rencontre	-5738
ortion	-5739
▁magnif	-5740
-13	-5741
▁urban	-5742
▁hi	-5743
▁guests	-5744
▁gives	-5745
▁sénateurs	-5746
▁tests	-5747
▁atteindre	-5748
▁autant	-5749
▁enquête	-5750
▁context	-5751
▁policies	-5752
▁error	-5753
▁dark	-5754
▁avenir	-5755
▁taxes	-5756
.201	-5757
▁undert	-5758
ènes	-5759
▁diss	-5760
▁modification	-5761
▁désign	-5762
▁renew	-5763
▁auteur	-5764
atement	-5765
▁gradu	-5766
▁santa	-5767
▁thom	-5768
agé	-5769
▁worksh	-5770
▁carried	-5771
▁martin	-5772
▁confir	-5773
▁flight	-5774
▁dead	-5775
▁transfert	-5776
ald	-5777
▁senate	-5778
----	-5779
pap	-5780
▁patient	-5781
▁colon	-5782
gi	-5783
eness	-5784
year	-5785
rière	-5786
coming	-5787
▁foi	-5788
▁artists	-5789
▁autorités	-5790
▁inscription	-5791
uls	-5792
▁transition	-5793
ori	-5794
▁index	-5795
▁mut	-5796
▁obligations	-5797
▁aircraft	-5798
▁située	-5799
▁statut	-5800
endra	-5801
▁espa	-5802
▁témoign	-5803
▁moteur	-5804
▁54	-5805
▁saw	-5806
▁participer	-5807
estin	-5808
▁introduction	-5809
21	-5810
isson	-5811
vis	-5812
list	-5813
▁filter	-5814
▁découver	-5815
▁méthode	-5816
▁remb	-5817
▁jew	-5818
▁dég	-5819
▁semaines	-5820
▁responsibility	-5821
▁devenir	-5822
▁mountain	-5823
▁collective	-5824
▁exac	-5825
▁dot	-5826
▁voix	-5827
▁99	-5828
▁mail	-5829
▁maisons	-5830
▁models	-5831
▁parler	-5832
loy	-5833
▁familles	-5834
▁bain	-5835
ny	-5836
▁suivantes	-5837
▁sainte	-5838
▁locations	-5839
active	-5840
▁ache	-5841
▁senators	-5842
ope	-5843
▁vehicle	-5844
▁niveaux	-5845
atri	-5846
nez	-5847
▁forms	-5848
▁nic	-5849
▁louis	-5850
▁iso	-5851
▁philipp	-5852
▁affairs	-5853
▁got	-5854
alem	-5855
han	-5856
▁privée	-5857
yth	-5858
23	-5859
▁isol	-5860
▁dimin	-5861
▁swe	-5862
▁mons	-5863
▁campaign	-5864
▁flam	-5865
▁tél	-5866
▁weeks	-5867
▁kar	-5868
▁seven	-5869
▁objets	-5870
▁stars	-5871
mas	-5872
▁écou	-5873
▁finish	-5874
▁needed	-5875
▁grie	-5876
▁physique	-5877
▁enseign	-5878
▁license	-5879
eries	-5880
▁remember	-5881
▁interprétation	-5882
▁château	-5883
▁certaine	-5884
lande	-5885
▁vivre	-5886
▁conflic	-5887
▁instance	-5888
▁aband	-5889
▁stim	-5890
ador	-5891
▁idéal	-5892
▁quant	-5893
▁supply	-5894
fr	-5895
▁tags	-5896
cious	-5897
▁animal	-5898
▁collè	-5899
▁nap	-5900
▁inqu	-5901
▁sacri	-5902
▁bos	-5903
burg	-5904
▁déch	-5905
▁accessoires	-5906
▁tap	-5907
▁wifi	-5908
▁paid	-5909
▁sometimes	-5910
acks	-5911
▁vendredi	-5912
▁neigh	-5913
inaire	-5914
▁ouest	-5915
agner	-5916
▁hd	-5917
▁juge	-5918
▁nar	-5919
▁celebr	-5920
▁cc	-5921
▁officer	-5922
▁démocra	-5923
▁principale	-5924
▁sunday	-5925
▁approved	-5926
▁lost	-5927
-19	-5928
▁chré	-5929
▁intention	-5930
▁permettant	-5931
▁entier	-5932
▁implementation	-5933
▁woman	-5934
▁matin	-5935
▁cheap	-5936
▁planning	-5937
▁opening	-5938
▁reserv	-5939
uments	-5940
▁appareil	-5941
▁audience	-5942
▁erreur	-5943
where	-5944
▁pension	-5945
▁hands	-5946
▁tenu	-5947
▁sustainable	-5948
▁platform	-5949
hood	-5950
▁efficacité	-5951
andis	-5952
wide	-5953
▁réserve	-5954
▁lines	-5955
▁won	-5956
▁1990	-5957
ella	-5958
▁nett	-5959
ask	-5960
▁joy	-5961
ographie	-5962
▁ok	-5963
▁swiss	-5964
▁précis	-5965
▁providing	-5966
▁chiff	-5967
oré	-5968
▁quite	-5969
▁campsite	-5970
head	-5971
▁égard	-5972
▁festivals	-5973
▁reduce	-5974
▁iii	-5975
▁began	-5976
▁forest	-5977
▁gh	-5978
vie	-5979
▁terrasse	-5980
▁passage	-5981
▁cities	-5982
▁absence	-5983
▁subsection	-5984
▁pick	-5985
▁élè	-5986
27	-5987
rants	-5988
▁édition	-5989
dy	-5990
▁chans	-5991
jan	-5992
▁champion	-5993
▁electronic	-5994
encies	-5995
▁moderne	-5996
▁fresh	-5997
▁numer	-5998
tu	-5999
crit	-6000
▁transports	-6001
activ	-6002
▁arbit	-6003
▁décisions	-6004
▁frequ	-6005
usalem	-6006
umn	-6007
▁northern	-6008
▁gree	-6009
▁situations	-6010
▁électronique	-6011
▁véritable	-6012
▁told	-6013
▁marchand	-6014
istic	-6015
▁imposs	-6016
▁1995	-6017
put	-6018
▁120	-6019
▁doctor	-6020
ogne	-6021
▁accessories	-6022
▁partage	-6023
▁provisions	-6024
▁inside	-6025
▁scul	-6026
▁veut	-6027
▁fondation	-6028
▁robert	-6029
▁gave	-6030
▁marchés	-6031
▁coll	-6032
▁revolution	-6033
▁gri	-6034
▁compt	-6035
▁transl	-6036
▁asc	-6037
▁connu	-6038
▁côte	-6039
▁overall	-6040
▁idée	-6041
▁autoch	-6042
▁emplacement	-6043
isez	-6044
▁espagn	-6045
estations	-6046
▁units	-6047
▁traduction	-6048
▁fabri	-6049
▁kit	-6050
▁59	-6051
▁panel	-6052
▁immediately	-6053
▁perte	-6054
▁composition	-6055
azz	-6056
▁alliance	-6057
▁cs	-6058
▁inspection	-6059
▁diverses	-6060
▁refus	-6061
▁allowed	-6062
▁idea	-6063
▁library	-6064
▁terrace	-6065
▁doing	-6066
▁extern	-6067
▁populations	-6068
▁possibil	-6069
▁chim	-6070
▁commerci	-6071
▁adm	-6072
zes	-6073
lav	-6074
▁pourrez	-6075
▁plants	-6076
▁opérations	-6077
▁contributions	-6078
▁fill	-6079
essions	-6080
▁53	-6081
▁lecture	-6082
▁bloc	-6083
▁venir	-6084
▁pourraient	-6085
▁conséquent	-6086
▁mast	-6087
▁registered	-6088
▁rating	-6089
▁laws	-6090
▁programm	-6091
▁hostel	-6092
▁yeux	-6093
yle	-6094
▁signifie	-6095
▁virus	-6096
▁storage	-6097
rès	-6098
▁executive	-6099
▁learning	-6100
▁submitted	-6101
anne	-6102
▁rig	-6103
▁individuals	-6104
▁tandis	-6105
▁législ	-6106
▁lis	-6107
▁alp	-6108
itif	-6109
▁regions	-6110
▁ministry	-6111
▁administrative	-6112
-7	-6113
▁proche	-6114
▁amaz	-6115
▁acade	-6116
▁instal	-6117
▁visant	-6118
▁usually	-6119
▁apost	-6120
▁maladie	-6121
▁student	-6122
▁250	-6123
▁importants	-6124
moire	-6125
▁houses	-6126
▁oce	-6127
▁refuge	-6128
▁situated	-6129
▁vul	-6130
▁approuv	-6131
▁orch	-6132
▁advanced	-6133
▁purposes	-6134
▁truth	-6135
▁bass	-6136
▁pauv	-6137
▁alumin	-6138
▁bot	-6139
▁spiritual	-6140
▁crois	-6141
▁fronti	-6142
▁lieux	-6143
▁forg	-6144
▁famili	-6145
▁profiter	-6146
▁personnalis	-6147
▁liter	-6148
▁fonctionn	-6149
▁vois	-6150
▁éternel	-6151
▁substances	-6152
▁talk	-6153
▁présenté	-6154
▁conduct	-6155
▁remains	-6156
lor	-6157
▁arrive	-6158
eless	-6159
▁hôte	-6160
▁accident	-6161
▁tâ	-6162
▁livres	-6163
▁player	-6164
▁understanding	-6165
▁scientific	-6166
▁chief	-6167
▁translation	-6168
▁territoire	-6169
▁metal	-6170
▁reasons	-6171
▁offering	-6172
▁fédéral	-6173
▁angle	-6174
▁telles	-6175
▁contexte	-6176
.000	-6177
▁completely	-6178
ael	-6179
▁sense	-6180
▁thousands	-6181
tead	-6182
▁joseph	-6183
▁certification	-6184
▁évent	-6185
▁likely	-6186
▁recommended	-6187
acles	-6188
▁sortie	-6189
▁superv	-6190
▁heritage	-6191
▁los	-6192
▁sociale	-6193
▁presentation	-6194
▁insurance	-6195
▁interpret	-6196
▁protéger	-6197
▁procédure	-6198
▁victor	-6199
▁highly	-6200
▁véhicule	-6201
▁réalité	-6202
▁advertis	-6203
ko	-6204
▁réuss	-6205
▁dete	-6206
▁parad	-6207
▁révolution	-6208
oure	-6209
65	-6210
▁religious	-6211
▁précédent	-6212
▁milliers	-6213
▁effectu	-6214
▁éviter	-6215
▁58	-6216
▁trial	-6217
▁spring	-6218
▁caractère	-6219
ège	-6220
▁structures	-6221
▁représente	-6222
▁methods	-6223
▁malgré	-6224
▁temple	-6225
uff	-6226
▁municipal	-6227
▁hund	-6228
atoires	-6229
▁income	-6230
▁voul	-6231
▁espagne	-6232
▁overview	-6233
kes	-6234
▁recently	-6235
28	-6236
▁videos	-6237
▁properties	-6238
ieuse	-6239
▁determined	-6240
▁raisons	-6241
▁vall	-6242
▁dimanche	-6243
▁exter	-6244
top	-6245
▁95	-6246
▁bé	-6247
▁sar	-6248
▁everyone	-6249
▁peter	-6250
▁demandé	-6251
▁vitesse	-6252
▁lack	-6253
▁philosoph	-6254
▁monday	-6255
▁decisions	-6256
dis	-6257
mettre	-6258
▁achieve	-6259
▁soulign	-6260
▁decided	-6261
▁basé	-6262
▁intens	-6263
▁advis	-6264
▁roll	-6265
▁connaissance	-6266
▁bey	-6267
▁cup	-6268
▁dirige	-6269
inst	-6270
▁deutsch	-6271
▁radi	-6272
▁linked	-6273
rand	-6274
press	-6275
mic	-6276
▁galerie	-6277
▁oub	-6278
▁mine	-6279
▁pressure	-6280
▁commencé	-6281
▁chf	-6282
goti	-6283
asts	-6284
▁ait	-6285
▁confiance	-6286
▁apprendre	-6287
200	-6288
▁expert	-6289
▁faisant	-6290
▁rule	-6291
▁ml	-6292
▁pm	-6293
▁actuelle	-6294
▁courses	-6295
▁citizens	-6296
▁concerne	-6297
▁confidential	-6298
▁récup	-6299
▁pow	-6300
▁concurr	-6301
▁connaître	-6302
▁hundred	-6303
▁obst	-6304
▁numérique	-6305
cteurs	-6306
▁crisis	-6307
▁financière	-6308
▁african	-6309
▁lutte	-6310
enda	-6311
▁aime	-6312
asser	-6313
▁crise	-6314
▁michel	-6315
▁issued	-6316
rite	-6317
▁ferme	-6318
▁heav	-6319
oking	-6320
▁identified	-6321
▁alg	-6322
▁slo	-6323
▁iden	-6324
diff	-6325
▁conservation	-6326
char	-6327
more	-6328
▁alco	-6329
▁disease	-6330
▁landsc	-6331
▁établir	-6332
▁exhibition	-6333
▁sug	-6334
▁goal	-6335
▁câ	-6336
lets	-6337
▁pêche	-6338
▁ability	-6339
▁picture	-6340
▁luc	-6341
▁mandat	-6342
▁coût	-6343
▁communautés	-6344
▁dedicated	-6345
▁programming	-6346
▁die	-6347
▁annexe	-6348
▁délai	-6349
etting	-6350
▁reading	-6351
▁increasing	-6352
▁bern	-6353
▁rati	-6354
▁amen	-6355
▁paci	-6356
▁components	-6357
ashion	-6358
wise	-6359
idi	-6360
▁tub	-6361
▁clar	-6362
▁publics	-6363
agram	-6364
▁vidéos	-6365
▁competition	-6366
▁atlan	-6367
ho	-6368
▁milli	-6369
ae	-6370
▁lance	-6371
▁équipement	-6372
▁assure	-6373
▁magazine	-6374
▁preuve	-6375
▁useful	-6376
▁suivante	-6377
liss	-6378
▁trouverez	-6379
▁retra	-6380
▁champs	-6381
▁transmission	-6382
▁secure	-6383
▁rand	-6384
▁college	-6385
▁musical	-6386
rices	-6387
▁arrange	-6388
▁réd	-6389
▁pont	-6390
26	-6391
▁circum	-6392
▁strategic	-6393
▁connaissances	-6394
ago	-6395
▁domaines	-6396
▁nettoy	-6397
▁historical	-6398
ruption	-6399
▁swimming	-6400
▁cool	-6401
▁birth	-6402
▁formats	-6403
▁réseaux	-6404
▁élim	-6405
▁devient	-6406
▁congr	-6407
▁religion	-6408
▁brid	-6409
▁entit	-6410
▁fantas	-6411
▁délé	-6412
▁garde	-6413
▁locaux	-6414
▁ém	-6415
▁cooperation	-6416
▁intérêts	-6417
▁tiers	-6418
fin	-6419
▁susp	-6420
▁économiques	-6421
▁dvd	-6422
▁organisme	-6423
▁coopération	-6424
▁57	-6425
▁cau	-6426
▁alternative	-6427
▁premium	-6428
▁encourage	-6429
enz	-6430
▁rappel	-6431
▁neg	-6432
▁fondament	-6433
▁negoti	-6434
▁external	-6435
identi	-6436
▁instead	-6437
▁autorité	-6438
▁davantage	-6439
occup	-6440
iano	-6441
▁relatives	-6442
▁combat	-6443
▁visitors	-6444
▁warm	-6445
▁méthodes	-6446
▁manger	-6447
▁contacts	-6448
▁parole	-6449
34	-6450
▁laisser	-6451
▁angel	-6452
▁balance	-6453
▁snow	-6454
▁posted	-6455
▁lundi	-6456
▁fonctionnement	-6457
tel	-6458
antill	-6459
▁sociétés	-6460
▁continent	-6461
▁marche	-6462
▁peau	-6463
rs	-6464
▁prepared	-6465
aments	-6466
▁volun	-6467
38	-6468
bar	-6469
▁consequ	-6470
▁assign	-6471
▁outdo	-6472
▁administr	-6473
▁sections	-6474
▁1994	-6475
▁extrême	-6476
▁majority	-6477
▁mam	-6478
ua	-6479
▁late	-6480
▁dos	-6481
▁etat	-6482
▁1992	-6483
▁élément	-6484
▁compil	-6485
▁remplac	-6486
▁applied	-6487
▁fif	-6488
rated	-6489
▁multiple	-6490
▁seed	-6491
▁saturday	-6492
▁eat	-6493
▁utilisez	-6494
▁réaliser	-6495
fice	-6496
▁seconde	-6497
▁corporate	-6498
▁books	-6499
▁crime	-6500
▁appeal	-6501
veur	-6502
▁principalement	-6503
▁capable	-6504
istics	-6505
▁couv	-6506
▁practices	-6507
▁fel	-6508
29	-6509
▁marques	-6510
▁empê	-6511
▁immobilier	-6512
▁leadership	-6513
▁voice	-6514
uck	-6515
▁souhaitez	-6516
▁soyez	-6517
▁sympt	-6518
▁papier	-6519
▁puisque	-6520
si	-6521
âtre	-6522
dire	-6523
vet	-6524
▁happy	-6525
▁rab	-6526
ded	-6527
▁dépar	-6528
outube	-6529
nd	-6530
▁hydro	-6531
ously	-6532
▁cock	-6533
▁determine	-6534
▁permettent	-6535
▁gagn	-6536
▁revenu	-6537
▁mariti	-6538
▁drink	-6539
anges	-6540
▁ze	-6541
▁célé	-6542
▁réduction	-6543
.10	-6544
▁bott	-6545
▁detail	-6546
▁vérité	-6547
▁stone	-6548
▁impossible	-6549
▁sénat	-6550
▁registration	-6551
▁cable	-6552
▁interested	-6553
▁fis	-6554
▁actualités	-6555
▁dispar	-6556
clos	-6557
▁ue	-6558
▁arrière	-6559
▁block	-6560
▁médec	-6561
anie	-6562
▁possède	-6563
▁choisissez	-6564
ancy	-6565
▁chat	-6566
▁correc	-6567
zed	-6568
▁élevé	-6569
▁tours	-6570
▁decor	-6571
izing	-6572
ani	-6573
▁fal	-6574
▁aliments	-6575
▁coin	-6576
▁configuration	-6577
▁pouss	-6578
quées	-6579
▁ones	-6580
▁appartements	-6581
▁datab	-6582
▁hôtes	-6583
▁fashion	-6584
▁véhicules	-6585
▁meetings	-6586
tiers	-6587
▁fly	-6588
▁déte	-6589
▁gran	-6590
▁emerg	-6591
▁wonder	-6592
▁cycl	-6593
▁markets	-6594
mination	-6595
itié	-6596
▁attack	-6597
▁tox	-6598
▁plaisir	-6599
▁profonde	-6600
▁bâtiment	-6601
▁crtc	-6602
▁contraire	-6603
anding	-6604
▁dépend	-6605
▁parent	-6606
▁positions	-6607
▁bil	-6608
ctors	-6609
▁actually	-6610
▁logement	-6611
▁door	-6612
▁repe	-6613
▁reality	-6614
▁accompan	-6615
rine	-6616
▁conçu	-6617
cd	-6618
▁arrêt	-6619
▁automatically	-6620
ellect	-6621
▁financiers	-6622
▁biens	-6623
▁shown	-6624
▁180	-6625
▁plug	-6626
▁forte	-6627
▁reve	-6628
▁longtemps	-6629
bourg	-6630
▁coordin	-6631
▁opportunities	-6632
▁manufacturer	-6633
▁interface	-6634
▁garantie	-6635
▁détail	-6636
▁zo	-6637
▁shared	-6638
▁followed	-6639
▁poor	-6640
▁billion	-6641
▁intellect	-6642
zy	-6643
▁label	-6644
▁alberta	-6645
▁bains	-6646
orig	-6647
▁challenge	-6648
▁logiciels	-6649
▁discussions	-6650
ériques	-6651
ura	-6652
▁comfortable	-6653
▁ship	-6654
▁numbers	-6655
▁fenêtre	-6656
▁classic	-6657
▁compens	-6658
37	-6659
▁professionnel	-6660
gas	-6661
95	-6662
▁ice	-6663
▁cloth	-6664
▁fiscal	-6665
▁coffe	-6666
▁initial	-6667
▁bible	-6668
▁fields	-6669
▁worked	-6670
▁compared	-6671
▁canadiennes	-6672
▁inten	-6673
36	-6674
▁échantill	-6675
▁canal	-6676
▁facilit	-6677
▁beauté	-6678
▁lie	-6679
▁etern	-6680
▁ethn	-6681
▁heat	-6682
▁formes	-6683
▁records	-6684
▁ti	-6685
▁dele	-6686
▁bleu	-6687
▁mains	-6688
-12	-6689
▁humains	-6690
oudre	-6691
▁enseignement	-6692
▁villages	-6693
tones	-6694
▁sugges	-6695
▁resort	-6696
ections	-6697
▁para	-6698
anches	-6699
▁huile	-6700
▁samedi	-6701
▁setting	-6702
▁tables	-6703
▁constitue	-6704
▁educ	-6705
▁valley	-6706
clé	-6707
▁augmentation	-6708
▁spor	-6709
▁standing	-6710
roy	-6711
ota	-6712
▁auber	-6713
ointed	-6714
▁players	-6715
umé	-6716
tent	-6717
▁visible	-6718
bé	-6719
▁tourisme	-6720
ocation	-6721
▁waste	-6722
oba	-6723
▁schools	-6724
▁developing	-6725
tailed	-6726
vin	-6727
▁challenges	-6728
▁bap	-6729
iency	-6730
▁eyes	-6731
▁announced	-6732
▁causes	-6733
▁recue	-6734
▁described	-6735
.-	-6736
otte	-6737
▁telev	-6738
▁stru	-6739
▁accéder	-6740
▁poll	-6741
erves	-6742
▁unf	-6743
▁matériaux	-6744
▁recommandations	-6745
▁panne	-6746
▁processes	-6747
▁automatiquement	-6748
▁ht	-6749
▁développer	-6750
▁conclusion	-6751
▁faits	-6752
iés	-6753
▁dang	-6754
▁largest	-6755
▁placed	-6756
annique	-6757
gés	-6758
▁travailleurs	-6759
veux	-6760
▁avoid	-6761
sw	-6762
▁soup	-6763
▁verre	-6764
▁temperature	-6765
▁consommation	-6766
▁reform	-6767
▁fabrication	-6768
▁démont	-6769
chant	-6770
ulé	-6771
isés	-6772
▁covered	-6773
▁employee	-6774
▁identification	-6775
▁entretien	-6776
▁package	-6777
▁bars	-6778
▁recommendations	-6779
▁conç	-6780
▁az	-6781
▁resolution	-6782
▁despite	-6783
▁supérieur	-6784
▁révé	-6785
▁engra	-6786
▁accro	-6787
▁madrid	-6788
▁vérification	-6789
▁croy	-6790
▁chale	-6791
▁retourn	-6792
▁faq	-6793
▁panor	-6794
▁importantes	-6795
▁usb	-6796
▁pression	-6797
▁cloud	-6798
▁éclair	-6799
▁saying	-6800
▁incorp	-6801
▁microsoft	-6802
▁minute	-6803
▁efficient	-6804
▁résolution	-6805
unic	-6806
▁critères	-6807
pm	-6808
▁indiqué	-6809
▁repos	-6810
▁hauteur	-6811
▁requires	-6812
▁décor	-6813
▁accompagn	-6814
tiss	-6815
endi	-6816
tences	-6817
▁coupe	-6818
▁armée	-6819
▁étend	-6820
▁immédiatement	-6821
▁heard	-6822
▁cars	-6823
▁server	-6824
nesday	-6825
don	-6826
▁wanted	-6827
▁occur	-6828
▁affir	-6829
▁liés	-6830
▁chauss	-6831
▁vanc	-6832
▁advantage	-6833
▁lay	-6834
▁supported	-6835
▁alexand	-6836
riez	-6837
▁mol	-6838
▁detailed	-6839
▁recru	-6840
cemment	-6841
▁indeed	-6842
▁disting	-6843
▁1993	-6844
▁mêmes	-6845
▁compétences	-6846
▁youtube	-6847
ken	-6848
▁température	-6849
▁ah	-6850
ertain	-6851
▁prochaine	-6852
▁dest	-6853
▁suffis	-6854
▁scène	-6855
▁deleg	-6856
▁rid	-6857
▁coffee	-6858
dia	-6859
▁coordonn	-6860
▁guarantee	-6861
▁generally	-6862
▁opened	-6863
▁mémoire	-6864
▁fille	-6865
▁neu	-6866
▁devices	-6867
▁continued	-6868
▁pieds	-6869
ita	-6870
▁recherches	-6871
▁facteurs	-6872
▁gross	-6873
▁échelle	-6874
▁skills	-6875
▁mary	-6876
▁avoc	-6877
ursday	-6878
▁criteria	-6879
▁observations	-6880
▁siège	-6881
▁marri	-6882
atch	-6883
85	-6884
del	-6885
long	-6886
▁désir	-6887
▁career	-6888
uesday	-6889
▁récemment	-6890
▁appuy	-6891
▁manque	-6892
▁enregistrement	-6893
sp	-6894
▁arth	-6895
▁catégories	-6896
▁ltd	-6897
▁recip	-6898
amb	-6899
▁numerous	-6900
▁button	-6901
▁600	-6902
▁clearly	-6903
rimé	-6904
▁pron	-6905
▁charges	-6906
▁branch	-6907
▁released	-6908
cts	-6909
ormais	-6910
▁else	-6911
well	-6912
ivez	-6913
▁ancienne	-6914
▁rechercher	-6915
appe	-6916
▁magasin	-6917
gues	-6918
▁proportion	-6919
▁desk	-6920
ado	-6921
▁quiet	-6922
agnes	-6923
▁yourself	-6924
▁imprimer	-6925
▁prince	-6926
▁hun	-6927
▁téléc	-6928
▁associés	-6929
▁dén	-6930
▁vancouver	-6931
▁concerning	-6932
▁served	-6933
▁mété	-6934
ulent	-6935
▁conducted	-6936
▁autochtones	-6937
▁ko	-6938
▁silver	-6939
▁beyond	-6940
▁orange	-6941
▁fou	-6942
ousse	-6943
▁monitoring	-6944
▁objective	-6945
▁compét	-6946
▁toi	-6947
▁residence	-6948
▁parfait	-6949
▁manage	-6950
▁procedures	-6951
▁tat	-6952
▁extrem	-6953
▁sab	-6954
▁quarter	-6955
▁viet	-6956
▁trait	-6957
▁appoint	-6958
▁balcon	-6959
▁devons	-6960
▁servir	-6961
▁permit	-6962
▁désormais	-6963
▁advance	-6964
▁employer	-6965
▁interne	-6966
ography	-6967
▁préoccup	-6968
▁militaire	-6969
aving	-6970
aliste	-6971
ôme	-6972
▁tarif	-6973
▁highest	-6974
illon	-6975
▁principales	-6976
▁dau	-6977
▁mme	-6978
▁affili	-6979
▁bedrooms	-6980
uni	-6981
▁produce	-6982
▁électrique	-6983
▁consol	-6984
▁vrai	-6985
▁appelé	-6986
▁supports	-6987
moine	-6988
▁explic	-6989
ring	-6990
▁rural	-6991
▁hong	-6992
▁lar	-6993
▁représentant	-6994
▁employment	-6995
▁charles	-6996
▁....	-6997
▁partout	-6998
▁1000	-6999
▁attemp	-7000
▁firm	-7001
▁gather	-7002
▁commencer	-7003
▁wednesday	-7004
cks	-7005
eral	-7006
▁suitable	-7007
▁television	-7008
▁washing	-7009
▁chinese	-7010
▁sauv	-7011
39	-7012
▁tradu	-7013
▁exercise	-7014
▁agre	-7015
aled	-7016
▁jack	-7017
▁hiver	-7018
▁identify	-7019
nant	-7020
▁sour	-7021
▁objectives	-7022
▁publicité	-7023
▁majorité	-7024
▁84	-7025
▁allemand	-7026
▁idées	-7027
▁luxury	-7028
▁internation	-7029
▁orders	-7030
▁alimentation	-7031
▁porter	-7032
▁factors	-7033
▁locale	-7034
▁concep	-7035
▁ambass	-7036
▁japanese	-7037
▁visiter	-7038
▁maria	-7039
▁secretary	-7040
-01	-7041
▁aéri	-7042
▁integrated	-7043
▁rester	-7044
▁applique	-7045
▁salv	-7046
▁funds	-7047
▁eleg	-7048
▁belong	-7049
▁meilleures	-7050
▁cabinet	-7051
▁champions	-7052
▁représentants	-7053
ellation	-7054
abilities	-7055
▁appareils	-7056
▁transformation	-7057
▁yellow	-7058
riques	-7059
ifor	-7060
▁commune	-7061
▁chal	-7062
▁commitment	-7063
▁principes	-7064
▁reco	-7065
▁depos	-7066
▁writing	-7067
tify	-7068
▁excellence	-7069
tiens	-7070
orde	-7071
▁éd	-7072
▁puiss	-7073
▁gift	-7074
▁croati	-7075
éma	-7076
▁pét	-7077
▁fail	-7078
▁manner	-7079
criptions	-7080
▁thursday	-7081
▁gast	-7082
▁insp	-7083
▁trouvez	-7084
▁logo	-7085
▁shower	-7086
▁kh	-7087
▁tuesday	-7088
▁internationales	-7089
▁dub	-7090
▁judge	-7091
▁longueur	-7092
▁trés	-7093
▁cine	-7094
▁clé	-7095
▁thème	-7096
▁meub	-7097
▁signed	-7098
jets	-7099
▁belgium	-7100
uré	-7101
▁tips	-7102
diction	-7103
▁oh	-7104
▁asia	-7105
▁montagne	-7106
▁rendement	-7107
▁alt	-7108
▁fees	-7109
uté	-7110
▁luxemb	-7111
▁disabled	-7112
▁utilisée	-7113
▁eye	-7114
▁villas	-7115
▁animals	-7116
▁élections	-7117
▁hen	-7118
▁transportation	-7119
wood	-7120
▁cade	-7121
place	-7122
▁portes	-7123
▁veget	-7124
▁sculpt	-7125
▁jer	-7126
▁degree	-7127
ycl	-7128
▁summary	-7129
▁functions	-7130
aug	-7131
▁coh	-7132
▁expé	-7133
▁téléph	-7134
▁transp	-7135
tible	-7136
▁telephone	-7137
▁categories	-7138
67	-7139
▁anything	-7140
▁rain	-7141
▁émissions	-7142
▁dirig	-7143
▁separate	-7144
▁advertising	-7145
▁résidence	-7146
▁outdoor	-7147
▁respec	-7148
iforn	-7149
▁favour	-7150
▁préparation	-7151
▁salles	-7152
▁sask	-7153
▁advice	-7154
▁admiss	-7155
▁fib	-7156
▁conscience	-7157
▁patrimoine	-7158
▁obligation	-7159
▁pourra	-7160
▁considé	-7161
▁clés	-7162
▁canc	-7163
31	-7164
▁tort	-7165
onge	-7166
illa	-7167
▁remer	-7168
▁russian	-7169
▁répert	-7170
▁math	-7171
▁nutrition	-7172
▁enable	-7173
▁ciel	-7174
▁noted	-7175
▁aware	-7176
has	-7177
▁célèbre	-7178
▁boat	-7179
▁principe	-7180
▁processing	-7181
▁jos	-7182
▁effectuer	-7183
▁lav	-7184
▁introdu	-7185
▁survey	-7186
▁rê	-7187
▁connected	-7188
▁vehicles	-7189
ek	-7190
▁circumst	-7191
▁advent	-7192
▁sessions	-7193
▁tc	-7194
▁68	-7195
▁réception	-7196
▁traffic	-7197
▁therm	-7198
▁trim	-7199
▁permettra	-7200
▁enterpr	-7201
▁apple	-7202
▁pom	-7203
▁parle	-7204
▁identifier	-7205
▁51	-7206
▁sauf	-7207
▁india	-7208
▁fournit	-7209
nis	-7210
aises	-7211
chet	-7212
aven	-7213
▁probablement	-7214
▁subscri	-7215
▁humaine	-7216
▁reduced	-7217
▁équipements	-7218
itées	-7219
▁métal	-7220
raine	-7221
▁connecter	-7222
▁listed	-7223
▁owner	-7224
▁allah	-7225
▁interests	-7226
erai	-7227
▁shape	-7228
ussels	-7229
▁belgique	-7230
▁labour	-7231
▁baby	-7232
▁mercredi	-7233
▁giving	-7234
▁palais	-7235
▁affaire	-7236
sites	-7237
▁circuit	-7238
▁spread	-7239
▁conversion	-7240
▁banc	-7241
▁classes	-7242
▁ideas	-7243
▁calme	-7244
▁agenda	-7245
▁indique	-7246
▁traite	-7247
▁entry	-7248
▁bullet	-7249
▁peine	-7250
▁téléchargement	-7251
▁pic	-7252
ania	-7253
▁evening	-7254
▁scen	-7255
erson	-7256
▁secrétaire	-7257
▁andre	-7258
▁relativement	-7259
▁procédures	-7260
▁promote	-7261
arde	-7262
▁meaning	-7263
▁magnifique	-7264
mann	-7265
vres	-7266
ered	-7267
▁successful	-7268
▁thomas	-7269
▁impress	-7270
▁climatis	-7271
▁actuel	-7272
▁eaux	-7273
▁chaîne	-7274
iting	-7275
▁bish	-7276
▁recovery	-7277
▁69	-7278
bert	-7279
▁populaire	-7280
▁dû	-7281
▁iran	-7282
oted	-7283
▁bande	-7284
▁1991	-7285
64	-7286
▁800	-7287
▁collections	-7288
▁lap	-7289
▁regulatory	-7290
▁conflict	-7291
▁doute	-7292
▁hébergement	-7293
▁names	-7294
▁97	-7295
▁acquisition	-7296
▁francoph	-7297
▁stated	-7298
reh	-7299
▁manual	-7300
▁seconds	-7301
este	-7302
▁chemical	-7303
▁cum	-7304
▁acts	-7305
▁hearing	-7306
enty	-7307
▁spots	-7308
▁buff	-7309
▁arrê	-7310
▁army	-7311
▁supérieure	-7312
▁fear	-7313
▁closed	-7314
▁évolution	-7315
▁équil	-7316
▁espagnol	-7317
▁entrer	-7318
▁reporting	-7319
▁vérifier	-7320
nov	-7321
▁ped	-7322
▁braz	-7323
▁na	-7324
gets	-7325
▁performances	-7326
▁cold	-7327
▁vont	-7328
▁figur	-7329
onds	-7330
▁cp	-7331
▁defence	-7332
▁palestin	-7333
ios	-7334
▁moments	-7335
▁dent	-7336
going	-7337
▁francis	-7338
▁reverse	-7339
▁doub	-7340
▁augmenter	-7341
▁honorables	-7342
▁juridique	-7343
▁limite	-7344
▁interesting	-7345
crivez	-7346
▁committed	-7347
▁procure	-7348
▁monte	-7349
▁investissement	-7350
▁bouton	-7351
ket	-7352
▁carrière	-7353
▁anciens	-7354
ulté	-7355
onses	-7356
▁industries	-7357
▁threat	-7358
▁radiodiff	-7359
this	-7360
là	-7361
▁becomes	-7362
irt	-7363
ify	-7364
▁complain	-7365
cha	-7366
▁rivière	-7367
rd	-7368
▁marc	-7369
▁arrival	-7370
▁spot	-7371
▁getting	-7372
▁harmon	-7373
▁urb	-7374
▁mental	-7375
▁hoc	-7376
original	-7377
▁gain	-7378
▁habitat	-7379
▁principles	-7380
▁dimension	-7381
▁emergency	-7382
▁generation	-7383
▁manit	-7384
▁critical	-7385
point	-7386
▁montrer	-7387
▁emball	-7388
▁terror	-7389
▁définition	-7390
▁provision	-7391
ford	-7392
▁wire	-7393
▁secteurs	-7394
▁mardi	-7395
▁venez	-7396
▁database	-7397
èche	-7398
▁depending	-7399
▁tun	-7400
▁procedure	-7401
▁invite	-7402
▁brie	-7403
▁tenir	-7404
▁filles	-7405
▁cord	-7406
▁sexual	-7407
▁linguis	-7408
▁except	-7409
▁extraord	-7410
▁atelier	-7411
▁george	-7412
bal	-7413
▁criminal	-7414
▁artiste	-7415
▁sémin	-7416
oms	-7417
▁repas	-7418
aco	-7419
▁goes	-7420
▁representatives	-7421
▁tran	-7422
▁compatible	-7423
▁règlements	-7424
sm	-7425
▁election	-7426
▁informed	-7427
▁bomb	-7428
▁jau	-7429
▁michael	-7430
▁solidar	-7431
▁concentration	-7432
▁legislation	-7433
▁rav	-7434
▁partenariat	-7435
▁personnels	-7436
▁primary	-7437
org	-7438
▁legisl	-7439
▁specified	-7440
▁élég	-7441
▁amateur	-7442
umption	-7443
ech	-7444
▁signature	-7445
▁chocol	-7446
▁interior	-7447
▁pad	-7448
▁guides	-7449
▁internationaux	-7450
elines	-7451
cing	-7452
▁prises	-7453
▁vietnam	-7454
bu	-7455
▁identifi	-7456
clear	-7457
eters	-7458
▁remplir	-7459
▁classique	-7460
▁unités	-7461
çons	-7462
▁doesn	-7463
▁supplémentaire	-7464
▁neuf	-7465
▁jeudi	-7466
▁orth	-7467
▁powerful	-7468
▁historic	-7469
▁courriel	-7470
▁aviation	-7471
alf	-7472
▁somme	-7473
sa	-7474
▁memory	-7475
▁marchandises	-7476
▁convient	-7477
▁propriétaire	-7478
▁provence	-7479
▁camera	-7480
ij	-7481
▁examin	-7482
ansion	-7483
▁senior	-7484
▁fleurs	-7485
hr	-7486
▁thy	-7487
tiver	-7488
ieuses	-7489
▁indicated	-7490
▁barcelone	-7491
▁réponses	-7492
▁perspective	-7493
▁fro	-7494
▁schedule	-7495
▁continues	-7496
iennes	-7497
▁worldwide	-7498
▁stic	-7499
▁probably	-7500
▁programmation	-7501
▁réalisé	-7502
▁soc	-7503
▁directive	-7504
▁scientifique	-7505
▁tarifs	-7506
▁brill	-7507
▁kne	-7508
▁californ	-7509
▁habitants	-7510
▁générales	-7511
▁innovative	-7512
▁titulaire	-7513
▁willi	-7514
▁évaluer	-7515
éros	-7516
▁sons	-7517
▁charm	-7518
▁67	-7519
▁sag	-7520
▁cach	-7521
▁iron	-7522
▁james	-7523
▁tomb	-7524
▁ingén	-7525
ii	-7526
onner	-7527
▁alimentaire	-7528
▁décrit	-7529
▁destro	-7530
▁expériences	-7531
iving	-7532
▁lan	-7533
▁divine	-7534
▁scol	-7535
çant	-7536
▁associations	-7537
▁circumstances	-7538
▁annuel	-7539
▁height	-7540
▁jeunesse	-7541
▁clair	-7542
▁mg	-7543
▁entour	-7544
lip	-7545
▁traiter	-7546
oise	-7547
▁complé	-7548
urg	-7549
▁treas	-7550
ainc	-7551
▁weak	-7552
▁task	-7553
▁semin	-7554
▁defined	-7555
▁referred	-7556
rian	-7557
▁volonté	-7558
▁hypoth	-7559
▁russia	-7560
▁atteint	-7561
▁theme	-7562
▁channel	-7563
rig	-7564
bel	-7565
▁pâ	-7566
▁frank	-7567
jac	-7568
▁plastic	-7569
ione	-7570
▁sir	-7571
arily	-7572
pal	-7573
▁territory	-7574
▁ultra	-7575
iteurs	-7576
▁representative	-7577
rap	-7578
▁explore	-7579
reté	-7580
ull	-7581
uten	-7582
▁didn	-7583
▁jér	-7584
▁difference	-7585
quette	-7586
▁adopted	-7587
▁deh	-7588
▁accur	-7589
▁souvenir	-7590
▁running	-7591
fc	-7592
▁dream	-7593
▁visites	-7594
89	-7595
▁fuel	-7596
▁core	-7597
▁écoles	-7598
▁vel	-7599
▁courant	-7600
-9	-7601
▁proposition	-7602
▁monsieur	-7603
▁portugal	-7604
▁diet	-7605
▁rapid	-7606
▁behav	-7607
▁offert	-7608
▁cards	-7609
▁métro	-7610
▁competi	-7611
▁bienven	-7612
▁accepted	-7613
▁handic	-7614
▁publiques	-7615
▁étranger	-7616
▁russie	-7617
▁maladies	-7618
▁allez	-7619
▁pip	-7620
▁juris	-7621
▁ast	-7622
▁reached	-7623
▁brazil	-7624
▁66	-7625
▁produire	-7626
▁propriétés	-7627
▁boîte	-7628
▁alone	-7629
▁tree	-7630
▁installed	-7631
▁engineering	-7632
▁acad	-7633
▁tickets	-7634
▁maître	-7635
▁hit	-7636
▁prévu	-7637
▁pilote	-7638
33	-7639
▁variété	-7640
▁spécifique	-7641
▁touristique	-7642
▁planned	-7643
▁tan	-7644
▁synth	-7645
oux	-7646
▁indig	-7647
▁vieux	-7648
-20	-7649
▁département	-7650
aci	-7651
▁accum	-7652
▁avent	-7653
▁brussels	-7654
▁conseill	-7655
onneur	-7656
road	-7657
▁intelligence	-7658
ulated	-7659
▁coordination	-7660
▁concours	-7661
▁adultes	-7662
▁border	-7663
▁upper	-7664
▁secondes	-7665
▁investigation	-7666
êtements	-7667
▁brother	-7668
▁frères	-7669
▁owners	-7670
▁obtenu	-7671
note	-7672
osen	-7673
▁travaille	-7674
sec	-7675
▁apporter	-7676
esses	-7677
▁présentés	-7678
known	-7679
▁vess	-7680
▁victimes	-7681
▁buildings	-7682
gl	-7683
▁mises	-7684
▁vital	-7685
▁gare	-7686
▁damage	-7687
▁beg	-7688
▁sheet	-7689
▁aurez	-7690
▁wrong	-7691
▁avenue	-7692
inter	-7693
▁bibliothèque	-7694
▁py	-7695
▁exige	-7696
▁piece	-7697
▁prochain	-7698
▁mexico	-7699
▁background	-7700
▁aimer	-7701
▁dish	-7702
▁bact	-7703
▁responsables	-7704
▁ouverte	-7705
▁domestic	-7706
▁motiv	-7707
▁automob	-7708
▁installer	-7709
▁creative	-7710
▁chamber	-7711
▁demeure	-7712
odi	-7713
▁autonom	-7714
▁slow	-7715
▁appliquer	-7716
▁diplom	-7717
▁clairement	-7718
▁déjeuner	-7719
▁gps	-7720
▁wife	-7721
cons	-7722
▁aluminium	-7723
▁alph	-7724
▁metres	-7725
▁amendments	-7726
▁jet	-7727
▁adoption	-7728
▁intim	-7729
▁dossiers	-7730
▁usd	-7731
▁bateau	-7732
▁adopt	-7733
▁coc	-7734
▁slight	-7735
▁protected	-7736
prés	-7737
▁mah	-7738
▁soph	-7739
▁participate	-7740
▁calls	-7741
▁broadcasting	-7742
▁hôp	-7743
▁jacques	-7744
▁faite	-7745
▁meters	-7746
▁eco	-7747
neur	-7748
▁dor	-7749
▁growing	-7750
▁calendrier	-7751
▁puisse	-7752
▁ingredi	-7753
▁pieces	-7754
otes	-7755
elling	-7756
▁dose	-7757
▁appui	-7758
▁impli	-7759
▁eight	-7760
ivalent	-7761
▁elections	-7762
▁pattern	-7763
▁capitale	-7764
▁creating	-7765
▁sleep	-7766
▁intended	-7767
▁coal	-7768
free	-7769
▁respective	-7770
▁locales	-7771
▁appointed	-7772
▁soutenir	-7773
▁perdu	-7774
▁routes	-7775
▁compilation	-7776
▁douche	-7777
▁od	-7778
▁liées	-7779
utation	-7780
▁feet	-7781
▁australia	-7782
▁successfully	-7783
▁governments	-7784
▁amélior	-7785
▁diffus	-7786
▁noter	-7787
▁stable	-7788
asses	-7789
▁otherwise	-7790
▁thou	-7791
▁cant	-7792
▁rendu	-7793
▁kr	-7794
▁employé	-7795
▁statistics	-7796
holders	-7797
▁interpretation	-7798
▁brown	-7799
▁essentiel	-7800
▁mens	-7801
▁avance	-7802
osec	-7803
▁congrès	-7804
▁contemporary	-7805
▁complexe	-7806
▁agréable	-7807
▁payer	-7808
▁étapes	-7809
uster	-7810
▁oli	-7811
▁fundament	-7812
▁experiences	-7813
▁manitoba	-7814
▁gab	-7815
▁practical	-7816
▁hill	-7817
▁elig	-7818
▁nearby	-7819
alle	-7820
oting	-7821
▁voil	-7822
aria	-7823
▁partis	-7824
▁voyages	-7825
▁sommet	-7826
▁tourism	-7827
till	-7828
▁portable	-7829
▁counter	-7830
▁décidé	-7831
▁chrome	-7832
▁catal	-7833
matic	-7834
▁utilisées	-7835
▁pér	-7836
▁decre	-7837
▁anton	-7838
▁duration	-7839
▁particuliers	-7840
▁fishing	-7841
isent	-7842
▁concerned	-7843
▁atti	-7844
▁worth	-7845
▁manuel	-7846
▁londres	-7847
▁peux	-7848
médi	-7849
▁organized	-7850
▁gor	-7851
▁citoyens	-7852
▁françois	-7853
▁leather	-7854
▁98	-7855
▁substit	-7856
▁toy	-7857
▁substance	-7858
▁calendar	-7859
▁spons	-7860
▁privil	-7861
▁différence	-7862
▁possibilités	-7863
▁établi	-7864
▁constat	-7865
pre	-7866
entic	-7867
▁maur	-7868
▁quit	-7869
▁gy	-7870
▁oeuvre	-7871
ius	-7872
▁lesquels	-7873
▁cultures	-7874
▁réserver	-7875
▁urgence	-7876
▁compliance	-7877
▁oise	-7878
▁rat	-7879
uty	-7880
▁healthy	-7881
▁changed	-7882
▁cere	-7883
▁théâtre	-7884
edia	-7885
▁milliards	-7886
ean	-7887
▁sujets	-7888
▁revenus	-7889
▁ours	-7890
arc	-7891
▁agencies	-7892
▁daniel	-7893
▁envers	-7894
▁lose	-7895
▁parl	-7896
▁chic	-7897
ètes	-7898
▁vise	-7899
▁explique	-7900
▁utile	-7901
▁cass	-7902
▁ken	-7903
istant	-7904
▁element	-7905
▁heureux	-7906
▁brace	-7907
▁échange	-7908
▁driver	-7909
▁réalisation	-7910
▁luxembourg	-7911
▁aig	-7912
▁anc	-7913
▁ride	-7914
▁moved	-7915
▁suites	-7916
▁syndic	-7917
▁maintenir	-7918
▁updated	-7919
▁derrière	-7920
▁taste	-7921
pour	-7922
wers	-7923
▁compter	-7924
▁guit	-7925
▁lesquelles	-7926
roph	-7927
jo	-7928
▁occident	-7929
▁délic	-7930
▁océ	-7931
▁crimes	-7932
▁stream	-7933
▁quotidien	-7934
▁discri	-7935
▁considéra	-7936
▁vaste	-7937
▁fournisseurs	-7938
▁matières	-7939
ala	-7940
isp	-7941
▁iphone	-7942
oker	-7943
▁suppli	-7944
▁condam	-7945
▁actes	-7946
érant	-7947
▁pointe	-7948
▁plantes	-7949
▁européens	-7950
▁linux	-7951
née	-7952
▁atmosphere	-7953
▁asie	-7954
urt	-7955
▁déliv	-7956
▁conclusions	-7957
▁entendu	-7958
▁risks	-7959
▁pit	-7960
▁chosen	-7961
illage	-7962
▁agreed	-7963
inger	-7964
▁ak	-7965
▁switch	-7966
çon	-7967
▁gérer	-7968
▁espèce	-7969
uil	-7970
gies	-7971
▁apprenti	-7972
▁voitures	-7973
▁exécution	-7974
▁totale	-7975
▁terres	-7976
▁steph	-7977
▁bow	-7978
▁réel	-7979
▁girl	-7980
osse	-7981
▁aboriginal	-7982
▁suivez	-7983
▁definition	-7984
,90	-7985
▁regulation	-7986
uded	-7987
▁serb	-7988
▁déten	-7989
▁fête	-7990
▁disque	-7991
▁règle	-7992
cte	-7993
▁universal	-7994
▁professeur	-7995
▁régl	-7996
mond	-7997
▁depart	-7998
▁tém	-7999
▁prayer	-8000
▁identity	-8001
rad	-8002
▁finances	-8003
▁journey	-8004
▁avais	-8005
▁radiodiffusion	-8006
zen	-8007
▁orientation	-8008
▁complètement	-8009
▁favorite	-8010
▁conduite	-8011
oe	-8012
▁quelqu	-8013
▁extremely	-8014
▁organic	-8015
standing	-8016
▁destinations	-8017
▁fémin	-8018
▁publish	-8019
▁scientifiques	-8020
▁wheel	-8021
▁74	-8022
▁honneur	-8023
▁named	-8024
▁recours	-8025
ône	-8026
▁proposé	-8027
uly	-8028
▁ancient	-8029
▁brief	-8030
▁compreh	-8031
▁vég	-8032
▁choisi	-8033
nat	-8034
▁étro	-8035
▁ouvre	-8036
▁vols	-8037
77	-8038
▁défaut	-8039
▁sd	-8040
▁complic	-8041
▁male	-8042
▁77	-8043
eneurs	-8044
▁catalog	-8045
▁recueill	-8046
▁amélioration	-8047
▁bac	-8048
▁chacune	-8049
▁110	-8050
aker	-8051
west	-8052
▁arriver	-8053
set	-8054
▁latin	-8055
▁189	-8056
▁débat	-8057
▁perdre	-8058
▁ultim	-8059
▁commissioner	-8060
▁spécifiques	-8061
▁affected	-8062
▁identité	-8063
▁deals	-8064
▁priority	-8065
▁fan	-8066
▁agricultural	-8067
▁compact	-8068
reci	-8069
▁expédition	-8070
brid	-8071
clam	-8072
▁bonnes	-8073
▁progrès	-8074
▁ll	-8075
▁civile	-8076
▁attractions	-8077
▁fournisseur	-8078
▁dépôt	-8079
▁mentioned	-8080
▁heaven	-8081
▁portée	-8082
pos	-8083
▁aer	-8084
onna	-8085
▁offices	-8086
▁stratégique	-8087
▁finale	-8088
▁nourrit	-8089
▁semi	-8090
▁stake	-8091
▁neut	-8092
▁compet	-8093
▁excess	-8094
▁raisonn	-8095
▁bang	-8096
▁supprimer	-8097
▁cultiv	-8098
▁statistiques	-8099
▁entente	-8100
▁eglise	-8101
▁rise	-8102
▁fermer	-8103
▁seat	-8104
▁profond	-8105
▁soumis	-8106
iant	-8107
ronom	-8108
▁trouvent	-8109
▁comparer	-8110
▁vues	-8111
▁pel	-8112
▁renforcer	-8113
▁cash	-8114
▁oubli	-8115
rets	-8116
▁paramètres	-8117
▁confirmation	-8118
life	-8119
▁figures	-8120
▁provenant	-8121
atively	-8122
▁cuir	-8123
gon	-8124
▁joueurs	-8125
▁végét	-8126
▁184	-8127
▁unies	-8128
▁exploit	-8129
▁devenu	-8130
▁maritime	-8131
▁offrent	-8132
énom	-8133
▁authentic	-8134
,99	-8135
rote	-8136
▁témoin	-8137
▁combined	-8138
ami	-8139
▁settings	-8140
▁diver	-8141
▁casa	-8142
▁inhab	-8143
charge	-8144
▁certificate	-8145
▁trail	-8146
▁colombie	-8147
▁ocean	-8148
▁ga	-8149
▁stain	-8150
▁gouvernements	-8151
▁intense	-8152
▁ring	-8153
▁transaction	-8154
tienne	-8155
▁peup	-8156
▁battle	-8157
▁médicaments	-8158
▁ss	-8159
▁equal	-8160
▁fonctionne	-8161
▁cheveux	-8162
▁amén	-8163
▁someone	-8164
▁playing	-8165
▁concerns	-8166
▁combination	-8167
heure	-8168
ativ	-8169
▁noms	-8170
▁portant	-8171
spe	-8172
band	-8173
▁girls	-8174
▁avantage	-8175
▁presents	-8176
fait	-8177
▁factor	-8178
▁catholic	-8179
uting	-8180
▁autorisation	-8181
▁communiquer	-8182
▁possibility	-8183
▁correction	-8184
▁officielle	-8185
▁transactions	-8186
▁fixed	-8187
68	-8188
cie	-8189
▁furent	-8190
▁détru	-8191
ji	-8192
canada	-8193
swick	-8194
run	-8195
▁tendance	-8196
▁mainly	-8197
▁ant	-8198
▁explorer	-8199
▁follows	-8200
▁palace	-8201
▁pav	-8202
▁flowers	-8203
▁trees	-8204
abol	-8205
▁talent	-8206
alisme	-8207
▁contribute	-8208
▁rach	-8209
▁circonst	-8210
▁cess	-8211
▁résistance	-8212
tiennent	-8213
▁tranqu	-8214
▁delivered	-8215
▁score	-8216
▁garan	-8217
▁exceed	-8218
▁rein	-8219
▁moitié	-8220
gers	-8221
▁desire	-8222
▁delic	-8223
▁financier	-8224
▁vast	-8225
motion	-8226
▁pouvait	-8227
oto	-8228
▁massage	-8229
▁workshop	-8230
▁classification	-8231
▁hond	-8232
▁rembour	-8233
▁gb	-8234
▁nommé	-8235
agon	-8236
▁goals	-8237
▁bron	-8238
▁bridge	-8239
▁teaching	-8240
▁vacation	-8241
▁limites	-8242
anes	-8243
▁caused	-8244
▁strugg	-8245
mans	-8246
oirs	-8247
▁yah	-8248
,1	-8249
▁caps	-8250
▁dj	-8251
fection	-8252
▁virtual	-8253
érées	-8254
inage	-8255
▁imprim	-8256
▁explain	-8257
cop	-8258
▁combien	-8259
▁correctement	-8260
▁edward	-8261
▁bright	-8262
▁recognized	-8263
rat	-8264
▁consultations	-8265
▁returned	-8266
▁étais	-8267
▁déplac	-8268
lette	-8269
▁jazz	-8270
▁appréci	-8271
▁employeur	-8272
fon	-8273
▁barb	-8274
▁adults	-8275
▁launched	-8276
▁anth	-8277
▁envoyé	-8278
▁bras	-8279
▁72	-8280
▁ade	-8281
mat	-8282
▁personnelles	-8283
▁ong	-8284
▁wars	-8285
ouvoir	-8286
▁dance	-8287
▁parfaitement	-8288
sur	-8289
▁complément	-8290
▁reten	-8291
▁riche	-8292
▁cond	-8293
▁responsabil	-8294
▁94	-8295
mc	-8296
▁colours	-8297
▁étage	-8298
▁constitu	-8299
alism	-8300
▁elegant	-8301
▁resol	-8302
▁tenue	-8303
▁chercheurs	-8304
▁réunions	-8305
▁heating	-8306
body	-8307
▁composants	-8308
▁évaluations	-8309
▁chercher	-8310
▁mélange	-8311
▁communes	-8312
alty	-8313
▁circulation	-8314
▁essai	-8315
▁objects	-8316
po	-8317
▁évol	-8318
▁replac	-8319
▁recev	-8320
▁réfug	-8321
▁humaines	-8322
▁efficiency	-8323
▁vint	-8324
gée	-8325
▁proposer	-8326
▁furniture	-8327
▁envis	-8328
▁remin	-8329
▁suffic	-8330
akes	-8331
▁huit	-8332
▁88	-8333
▁chefs	-8334
ovic	-8335
▁liquid	-8336
▁estime	-8337
ns	-8338
▁smo	-8339
riers	-8340
66	-8341
▁confidentialité	-8342
▁nig	-8343
▁partenaire	-8344
▁died	-8345
▁quelles	-8346
▁anniversaire	-8347
▁entered	-8348
fit	-8349
paper	-8350
▁masturb	-8351
itifs	-8352
▁reduction	-8353
ître	-8354
ums	-8355
▁directory	-8356
▁played	-8357
▁devait	-8358
▁harv	-8359
▁pump	-8360
▁désactiv	-8361
▁intermédi	-8362
▁terminal	-8363
▁trying	-8364
-18	-8365
▁distribu	-8366
▁founded	-8367
▁samp	-8368
ev	-8369
▁consiste	-8370
▁columb	-8371
acc	-8372
rin	-8373
▁pourtant	-8374
▁descend	-8375
▁visa	-8376
▁judici	-8377
▁renov	-8378
▁pouvant	-8379
▁tari	-8380
▁principle	-8381
-15	-8382
intes	-8383
▁democratic	-8384
▁passed	-8385
▁naissance	-8386
▁colors	-8387
criv	-8388
▁mariage	-8389
▁networks	-8390
▁flexible	-8391
aude	-8392
fri	-8393
▁servi	-8394
▁heavy	-8395
pte	-8396
▁ore	-8397
▁lour	-8398
iale	-8399
▁hiv	-8400
▁inspiration	-8401
▁raised	-8402
lang	-8403
▁portion	-8404
▁immigration	-8405
▁landscape	-8406
▁serveur	-8407
▁préparer	-8408
▁125	-8409
▁rét	-8410
▁spéciale	-8411
och	-8412
▁codes	-8413
minute	-8414
▁génération	-8415
▁destroy	-8416
▁approval	-8417
▁debate	-8418
▁chev	-8419
▁nuclear	-8420
▁gram	-8421
▁quels	-8422
▁helps	-8423
▁forgot	-8424
▁scale	-8425
ômes	-8426
▁showing	-8427
▁tam	-8428
▁annoncé	-8429
gements	-8430
▁elim	-8431
▁mediterran	-8432
uaire	-8433
▁exactly	-8434
▁sélectionnez	-8435
▁obtained	-8436
▁paroles	-8437
▁suspend	-8438
▁griev	-8439
▁mist	-8440
▁utilisons	-8441
▁costa	-8442
lec	-8443
▁tac	-8444
▁suggestions	-8445
▁reserve	-8446
▁brux	-8447
▁tunis	-8448
olas	-8449
▁aér	-8450
mun	-8451
▁sufficient	-8452
▁extent	-8453
▁queen	-8454
▁planification	-8455
▁prosec	-8456
▁bureaux	-8457
ghter	-8458
▁facult	-8459
▁hos	-8460
▁twe	-8461
▁composé	-8462
▁crée	-8463
▁réglementation	-8464
veille	-8465
gos	-8466
▁chauffage	-8467
▁dédi	-8468
▁diffusion	-8469
▁florence	-8470
ifier	-8471
▁acteurs	-8472
▁promouvoir	-8473
▁fu	-8474
▁expansion	-8475
amic	-8476
eto	-8477
rates	-8478
▁xvi	-8479
▁indian	-8480
▁teams	-8481
▁domm	-8482
▁enl	-8483
veness	-8484
ésil	-8485
▁straight	-8486
▁shops	-8487
▁ventes	-8488
▁1.1	-8489
ively	-8490
▁indépendant	-8491
▁lesb	-8492
▁veux	-8493
▁satisfaction	-8494
▁hockey	-8495
▁demi	-8496
▁fabricant	-8497
▁integration	-8498
▁fera	-8499
▁ving	-8500
▁humain	-8501
▁prepare	-8502
ographique	-8503
▁milan	-8504
▁perp	-8505
▁anticip	-8506
▁officiel	-8507
▁sweet	-8508
tv	-8509
oute	-8510
▁cav	-8511
▁équipes	-8512
▁définir	-8513
organ	-8514
▁votes	-8515
▁cinéma	-8516
seur	-8517
▁bear	-8518
▁188	-8519
cam	-8520
los	-8521
uste	-8522
▁seek	-8523
urre	-8524
sterdam	-8525
how	-8526
▁78	-8527
▁bound	-8528
▁enhance	-8529
▁bottom	-8530
▁entertain	-8531
stra	-8532
info	-8533
▁horse	-8534
▁1980	-8535
▁behalf	-8536
▁essayer	-8537
▁erreurs	-8538
eline	-8539
▁estimated	-8540
▁requis	-8541
agée	-8542
▁castle	-8543
▁élèves	-8544
▁hostels	-8545
▁deputy	-8546
utor	-8547
▁barre	-8548
▁appreci	-8549
chi	-8550
▁spl	-8551
umen	-8552
▁hop	-8553
▁requested	-8554
▁testing	-8555
tically	-8556
▁chanson	-8557
plus	-8558
▁regarder	-8559
▁solo	-8560
olo	-8561
▁dram	-8562
▁fourni	-8563
▁certainly	-8564
uries	-8565
▁fans	-8566
▁bonus	-8567
▁ster	-8568
▁brésil	-8569
▁female	-8570
▁enrich	-8571
▁signs	-8572
▁proposal	-8573
ignon	-8574
▁characteristics	-8575
▁tang	-8576
▁listen	-8577
▁agreements	-8578
▁shut	-8579
▁tube	-8580
ni	-8581
▁egypt	-8582
▁bourge	-8583
▁discours	-8584
▁specifically	-8585
▁intégration	-8586
▁facility	-8587
▁mit	-8588
▁79	-8589
▁islands	-8590
▁riding	-8591
agues	-8592
▁enregistrer	-8593
▁fee	-8594
▁lod	-8595
▁holidays	-8596
▁tail	-8597
▁debt	-8598
▁bn	-8599
▁professor	-8600
▁inaug	-8601
quettes	-8602
▁pill	-8603
▁douce	-8604
▁preparation	-8605
▁comprennent	-8606
tissement	-8607
▁retail	-8608
▁fulf	-8609
ortement	-8610
nu	-8611
tière	-8612
▁disciples	-8613
▁sélectionner	-8614
▁pray	-8615
▁establishment	-8616
yst	-8617
▁curr	-8618
▁commandes	-8619
▁dehors	-8620
▁incident	-8621
▁renault	-8622
avant	-8623
▁amsterdam	-8624
▁draft	-8625
▁chant	-8626
▁stainless	-8627
nées	-8628
▁sr	-8629
install	-8630
▁reservation	-8631
▁xx	-8632
▁yog	-8633
ésion	-8634
▁hect	-8635
down	-8636
▁fonctionnalités	-8637
▁ut	-8638
▁appears	-8639
▁naturelle	-8640
ondu	-8641
▁missions	-8642
▁medicine	-8643
.01	-8644
▁sociales	-8645
▁patent	-8646
onné	-8647
▁departments	-8648
▁registre	-8649
▁fisher	-8650
ourir	-8651
▁tonnes	-8652
▁faveur	-8653
▁managed	-8654
▁vallée	-8655
▁187	-8656
▁entitled	-8657
▁professionals	-8658
▁moving	-8659
▁feuille	-8660
chement	-8661
▁mountains	-8662
▁médecin	-8663
▁breath	-8664
▁biling	-8665
▁nationaux	-8666
▁fédérale	-8667
▁sauve	-8668
▁properly	-8669
▁avion	-8670
▁construit	-8671
▁comporte	-8672
▁enth	-8673
▁peoples	-8674
▁vêtements	-8675
tiveness	-8676
▁expériment	-8677
▁flights	-8678
ardi	-8679
▁fiche	-8680
▁engagements	-8681
▁reconst	-8682
▁charme	-8683
▁gagner	-8684
▁dal	-8685
▁resistance	-8686
▁matters	-8687
▁christmas	-8688
onia	-8689
yste	-8690
▁parcours	-8691
tered	-8692
ueux	-8693
▁consent	-8694
▁conce	-8695
▁frère	-8696
▁crown	-8697
▁wishlist	-8698
▁eli	-8699
▁graphique	-8700
▁prévoit	-8701
▁southern	-8702
▁directors	-8703
▁depend	-8704
▁factory	-8705
▁declar	-8706
▁elev	-8707
▁ingré	-8708
▁discount	-8709
bri	-8710
éder	-8711
▁horizont	-8712
▁régional	-8713
▁ingrédi	-8714
▁printemps	-8715
▁climat	-8716
▁explos	-8717
▁prolong	-8718
▁ran	-8719
▁comptes	-8720
▁inscrit	-8721
▁bc	-8722
▁excurs	-8723
▁peuples	-8724
▁promotions	-8725
▁ordonnance	-8726
▁communautaire	-8727
reen	-8728
▁interventions	-8729
uves	-8730
▁essais	-8731
▁turned	-8732
▁conflit	-8733
onique	-8734
▁protoc	-8735
▁lait	-8736
▁handicap	-8737
▁wik	-8738
▁exactement	-8739
win	-8740
▁victoria	-8741
▁volunte	-8742
▁monument	-8743
▁bienvenue	-8744
▁circonstances	-8745
agés	-8746
play	-8747
▁eastern	-8748
▁américain	-8749
▁virgin	-8750
▁rénov	-8751
▁cinema	-8752
▁brands	-8753
▁tower	-8754
▁suscep	-8755
▁organisé	-8756
▁basket	-8757
▁nuclé	-8758
▁voyageurs	-8759
▁represents	-8760
▁banks	-8761
▁bike	-8762
▁armes	-8763
▁sharing	-8764
▁assistant	-8765
▁drop	-8766
▁appelle	-8767
▁businesses	-8768
▁fundamental	-8769
▁guidelines	-8770
▁arthur	-8771
▁consists	-8772
▁consideration	-8773
esis	-8774
▁cens	-8775
entement	-8776
▁éth	-8777
▁expressed	-8778
esco	-8779
▁cib	-8780
▁certificat	-8781
▁trafic	-8782
▁extrêmement	-8783
▁resource	-8784
▁sait	-8785
▁rio	-8786
▁filed	-8787
▁conséquence	-8788
▁âme	-8789
▁verse	-8790
▁crochet	-8791
rete	-8792
▁bruxelles	-8793
▁theatre	-8794
▁examiner	-8795
▁walking	-8796
atche	-8797
▁scan	-8798
▁garder	-8799
▁professionnelle	-8800
aliser	-8801
▁similaires	-8802
▁capture	-8803
▁pétro	-8804
▁finalement	-8805
water	-8806
▁pne	-8807
riger	-8808
▁cout	-8809
▁pourcent	-8810
▁plaît	-8811
▁tch	-8812
▁réduit	-8813
▁agir	-8814
▁officielles	-8815
▁faute	-8816
▁futur	-8817
ulture	-8818
▁mouth	-8819
▁titres	-8820
▁160	-8821
▁apprentiss	-8822
▁simult	-8823
▁plastique	-8824
▁multim	-8825
▁awards	-8826
▁huge	-8827
▁respir	-8828
gage	-8829
▁claims	-8830
▁afford	-8831
▁nine	-8832
▁disclos	-8833
▁flower	-8834
card	-8835
▁acheté	-8836
mus	-8837
▁bosn	-8838
▁football	-8839
▁collectiv	-8840
ocks	-8841
▁confront	-8842
ducing	-8843
▁gren	-8844
▁housing	-8845
▁touche	-8846
▁revue	-8847
▁felt	-8848
▁régulièrement	-8849
ando	-8850
▁prenez	-8851
▁recover	-8852
▁mb	-8853
▁shar	-8854
▁afgh	-8855
moi	-8856
oured	-8857
engers	-8858
▁pret	-8859
érance	-8860
tims	-8861
▁nourriture	-8862
▁gel	-8863
▁dangere	-8864
▁énor	-8865
▁céléb	-8866
▁concerts	-8867
▁remise	-8868
▁transmit	-8869
ional	-8870
▁previously	-8871
▁introduced	-8872
gs	-8873
▁earlier	-8874
▁legislative	-8875
▁implic	-8876
idden	-8877
▁hung	-8878
▁officers	-8879
▁victims	-8880
▁bases	-8881
▁bons	-8882
▁performed	-8883
log	-8884
▁generic	-8885
ismes	-8886
▁financières	-8887
▁consumption	-8888
▁multiples	-8889
▁résumé	-8890
▁chi	-8891
▁procès	-8892
▁vingt	-8893
▁unless	-8894
▁dup	-8895
ervez	-8896
▁golden	-8897
▁thir	-8898
▁statements	-8899
▁destruction	-8900
▁critique	-8901
▁conformité	-8902
rob	-8903
▁payments	-8904
▁89	-8905
▁repair	-8906
▁supplement	-8907
▁basse	-8908
▁préal	-8909
▁défis	-8910
▁dens	-8911
uable	-8912
▁mér	-8913
▁duty	-8914
haus	-8915
▁consumer	-8916
▁sad	-8917
▁promen	-8918
▁simples	-8919
▁auxqu	-8920
▁edge	-8921
▁associé	-8922
itz	-8923
▁assets	-8924
fol	-8925
▁peinture	-8926
▁tension	-8927
▁championship	-8928
▁truc	-8929
▁identif	-8930
▁aliné	-8931
▁kilomètres	-8932
▁altitude	-8933
▁conditioning	-8934
itude	-8935
▁immun	-8936
▁artific	-8937
▁naturelles	-8938
▁2007-11	-8939
▁participé	-8940
▁61	-8941
▁reply	-8942
▁mediterranean	-8943
▁courts	-8944
▁flag	-8945
▁loy	-8946
▁ferm	-8947
▁nécessité	-8948
▁vine	-8949
▁62	-8950
▁expand	-8951
ova	-8952
▁copie	-8953
▁philippe	-8954
▁prière	-8955
▁comprom	-8956
▁monuments	-8957
▁yuk	-8958
▁operational	-8959
lle	-8960
▁spent	-8961
▁soi	-8962
▁thick	-8963
pc	-8964
yan	-8965
▁chinois	-8966
ulate	-8967
▁garantir	-8968
▁tennis	-8969
▁carbon	-8970
▁attitude	-8971
▁victoire	-8972
▁empire	-8973
▁inspect	-8974
▁possibles	-8975
▁william	-8976
▁notification	-8977
▁dessin	-8978
▁territorial	-8979
▁moreover	-8980
▁variable	-8981
▁friendly	-8982
69	-8983
▁examples	-8984
▁push	-8985
▁archive	-8986
bul	-8987
▁anté	-8988
▁kept	-8989
▁piano	-8990
▁thér	-8991
▁priest	-8992
▁convainc	-8993
▁hier	-8994
▁bouche	-8995
▁feuilles	-8996
▁vais	-8997
▁vivant	-8998
▁apprentissage	-8999
▁diversité	-9000
▁investissements	-9001
▁icon	-9002
idente	-9003
▁larger	-9004
▁expend	-9005
▁jump	-9006
izes	-9007
▁laser	-9008
▁camer	-9009
▁tea	-9010
▁lé	-9011
▁inscrire	-9012
▁retraite	-9013
▁1989	-9014
atchewan	-9015
▁coach	-9016
▁contenant	-9017
▁italien	-9018
▁dar	-9019
▁fusion	-9020
▁2007-11-13	-9021
unications	-9022
▁leaves	-9023
▁mén	-9024
gal	-9025
utés	-9026
ceptions	-9027
▁bread	-9028
▁endroits	-9029
▁rede	-9030
▁nas	-9031
▁bought	-9032
▁manufacturing	-9033
onte	-9034
field	-9035
▁applicant	-9036
▁smooth	-9037
▁railway	-9038
▁sets	-9039
▁entrance	-9040
▁considéré	-9041
▁stockage	-9042
▁interro	-9043
▁comprehensive	-9044
▁kill	-9045
▁aspir	-9046
▁fortement	-9047
▁debian	-9048
▁litt	-9049
▁défi	-9050
▁1985	-9051
▁potentiel	-9052
▁homes	-9053
▁infra	-9054
meub	-9055
▁respecter	-9056
▁wear	-9057
▁enne	-9058
▁rendez	-9059
▁bateaux	-9060
▁saskatchewan	-9061
haps	-9062
▁frontières	-9063
▁courage	-9064
▁sert	-9065
▁mauvais	-9066
chés	-9067
▁lecteur	-9068
▁cleaning	-9069
▁brothers	-9070
▁postes	-9071
▁masse	-9072
ovo	-9073
dium	-9074
▁couns	-9075
pression	-9076
▁traité	-9077
eler	-9078
▁domain	-9079
▁norme	-9080
.11	-9081
▁vary	-9082
▁garage	-9083
isses	-9084
▁suspension	-9085
▁danse	-9086
-03	-9087
umer	-9088
▁superior	-9089
▁joined	-9090
▁occurr	-9091
▁cancel	-9092
▁bille	-9093
▁painting	-9094
▁fourth	-9095
▁emphas	-9096
quis	-9097
▁nearly	-9098
▁écr	-9099
▁requêtes	-9100
▁column	-9101
▁portugu	-9102
▁wonderful	-9103
▁bic	-9104
agog	-9105
▁laboratoire	-9106
▁thousand	-9107
▁reserved	-9108
▁ingredients	-9109
▁recorded	-9110
▁bulletin	-9111
idité	-9112
any	-9113
▁dining	-9114
▁donnée	-9115
▁scr	-9116
mill	-9117
dh	-9118
▁étrangers	-9119
▁overs	-9120
know	-9121
▁planet	-9122
▁médical	-9123
▁construire	-9124
▁usine	-9125
▁observation	-9126
▁perhaps	-9127
▁prize	-9128
▁soin	-9129
▁extensions	-9130
▁ov	-9131
▁ukraine	-9132
▁collectivités	-9133
▁prêts	-9134
▁140	-9135
▁gastronom	-9136
▁établissements	-9137
▁accounts	-9138
▁decide	-9139
fran	-9140
▁particulière	-9141
orient	-9142
iro	-9143
gées	-9144
mor	-9145
aq	-9146
▁voit	-9147
▁supporting	-9148
▁remote	-9149
dent	-9150
▁england	-9151
▁animation	-9152
late	-9153
▁columbia	-9154
▁silence	-9155
▁directives	-9156
▁lits	-9157
ista	-9158
▁ire	-9159
▁simpli	-9160
▁conseiller	-9161
seurs	-9162
▁utiles	-9163
▁formule	-9164
▁tôt	-9165
▁confortable	-9166
▁bodies	-9167
isées	-9168
onnée	-9169
▁ticket	-9170
▁trésor	-9171
▁typical	-9172
▁expenses	-9173
▁experienced	-9174
▁deposit	-9175
▁prestig	-9176
▁calc	-9177
▁washington	-9178
▁jih	-9179
▁progressive	-9180
▁légales	-9181
▁commissaire	-9182
▁consistent	-9183
▁souhaite	-9184
inc	-9185
▁pursuant	-9186
areness	-9187
▁intit	-9188
▁tissu	-9189
▁gate	-9190
▁certainement	-9191
▁indisp	-9192
▁précise	-9193
réh	-9194
▁suppos	-9195
▁kb	-9196
▁substanti	-9197
▁sample	-9198
▁governor	-9199
▁câble	-9200
town	-9201
▁absor	-9202
▁mille	-9203
éries	-9204
▁revend	-9205
▁signe	-9206
▁infection	-9207
▁masturbation	-9208
émie	-9209
▁emplois	-9210
▁beds	-9211
formes	-9212
▁constituent	-9213
▁jon	-9214
▁approb	-9215
▁reconnaissance	-9216
▁traditions	-9217
▁manip	-9218
pres	-9219
▁offrant	-9220
▁infin	-9221
cée	-9222
▁stories	-9223
▁eligible	-9224
▁actif	-9225
▁fondée	-9226
▁diagnostic	-9227
▁hyper	-9228
▁vacc	-9229
▁essence	-9230
▁consolid	-9231
▁exemples	-9232
▁maps	-9233
▁tau	-9234
▁veulent	-9235
▁croix	-9236
▁espaces	-9237
▁seraient	-9238
▁capacités	-9239
▁racing	-9240
oter	-9241
▁prati	-9242
look	-9243
▁puzz	-9244
tibles	-9245
-02	-9246
made	-9247
▁responsabilités	-9248
▁dil	-9249
▁conséquences	-9250
▁chain	-9251
▁tient	-9252
▁anyone	-9253
▁inférie	-9254
▁modules	-9255
▁vins	-9256
▁enfor	-9257
▁87	-9258
▁researchers	-9259
▁élevée	-9260
▁découverte	-9261
▁cheval	-9262
▁énergé	-9263
olit	-9264
▁diversity	-9265
▁mosc	-9266
▁territoires	-9267
▁inox	-9268
▁équipée	-9269
▁maîtr	-9270
▁admir	-9271
▁congress	-9272
▁grave	-9273
▁eth	-9274
▁monaco	-9275
▁compréh	-9276
▁forth	-9277
▁milk	-9278
▁exceptional	-9279
▁turqu	-9280
▁700	-9281
▁séance	-9282
▁sortir	-9283
▁anniversary	-9284
▁wants	-9285
▁reconnu	-9286
▁dollar	-9287
▁rc	-9288
▁awareness	-9289
▁élaboration	-9290
▁consommateurs	-9291
▁represented	-9292
,50	-9293
▁serez	-9294
▁spéciales	-9295
journ	-9296
▁bracelet	-9297
▁acte	-9298
iliation	-9299
▁populaires	-9300
▁modes	-9301
iah	-9302
▁scores	-9303
▁supre	-9304
▁pleasure	-9305
▁kids	-9306
rera	-9307
▁méditerran	-9308
▁fell	-9309
▁ports	-9310
▁actifs	-9311
▁concurrence	-9312
agen	-9313
▁wrote	-9314
lité	-9315
▁nationales	-9316
▁ross	-9317
▁testim	-9318
▁lettres	-9319
▁aud	-9320
▁accél	-9321
▁déchets	-9322
▁corruption	-9323
aken	-9324
▁accom	-9325
▁poker	-9326
aling	-9327
▁spectac	-9328
▁poser	-9329
▁yukon	-9330
▁cream	-9331
▁metro	-9332
▁changing	-9333
▁charming	-9334
▁marked	-9335
▁indicate	-9336
sts	-9337
▁comportement	-9338
▁rejet	-9339
▁soud	-9340
▁auteurs	-9341
fié	-9342
▁swed	-9343
▁côt	-9344
tivity	-9345
▁granted	-9346
▁propositions	-9347
▁renv	-9348
terre	-9349
▁pair	-9350
▁reasonable	-9351
▁inhabit	-9352
▁infrastructures	-9353
▁soldi	-9354
▁designer	-9355
▁accent	-9356
▁contents	-9357
pay	-9358
▁richard	-9359
.99	-9360
▁rassemb	-9361
▁rod	-9362
▁fleur	-9363
▁auront	-9364
▁affiche	-9365
▁defend	-9366
▁converter	-9367
▁oe	-9368
▁certif	-9369
▁slightly	-9370
▁teacher	-9371
▁émer	-9372
▁ryth	-9373
▁chir	-9374
▁2020	-9375
▁contribuer	-9376
▁flav	-9377
▁apparten	-9378
▁protest	-9379
▁regr	-9380
tp	-9381
▁journalists	-9382
▁désactivé	-9383
61	-9384
chent	-9385
▁poster	-9386
▁sovi	-9387
▁lots	-9388
▁currency	-9389
▁1.2	-9390
▁présentée	-9391
▁accueillir	-9392
▁beaux	-9393
▁protocol	-9394
▁accepter	-9395
.50	-9396
étiques	-9397
▁relating	-9398
▁carb	-9399
-04	-9400
bra	-9401
ivre	-9402
▁jerusalem	-9403
▁dign	-9404
▁waters	-9405
▁educational	-9406
▁amar	-9407
▁wash	-9408
▁analyses	-9409
erto	-9410
▁australie	-9411
moins	-9412
▁displayed	-9413
▁jacob	-9414
▁participant	-9415
▁requirement	-9416
▁allons	-9417
▁itin	-9418
▁ongoing	-9419
arr	-9420
▁pp	-9421
▁63	-9422
-14	-9423
▁justif	-9424
▁specifications	-9425
▁sq	-9426
▁prévue	-9427
▁neither	-9428
▁magic	-9429
▁transparent	-9430
inaires	-9431
kin	-9432
enced	-9433
▁spend	-9434
▁impacts	-9435
▁brings	-9436
▁infect	-9437
ancing	-9438
▁poursuivre	-9439
▁enje	-9440
oster	-9441
▁doct	-9442
mental	-9443
▁louer	-9444
▁brû	-9445
▁blu	-9446
▁devra	-9447
▁remarqu	-9448
lés	-9449
▁étrangères	-9450
care	-9451
▁wil	-9452
▁hés	-9453
▁songs	-9454
▁compress	-9455
▁américains	-9456
▁ireland	-9457
▁cellules	-9458
▁apps	-9459
aza	-9460
▁agrand	-9461
▁tits	-9462
▁coff	-9463
▁proud	-9464
▁obvious	-9465
bing	-9466
▁lub	-9467
▁annex	-9468
▁cité	-9469
▁900	-9470
▁muslim	-9471
.12	-9472
▁temperatures	-9473
▁looks	-9474
▁flux	-9475
ulée	-9476
▁gî	-9477
▁grace	-9478
▁taxi	-9479
ographic	-9480
▁éché	-9481
▁certified	-9482
▁informatique	-9483
▁doors	-9484
▁terminé	-9485
▁spac	-9486
▁oxy	-9487
▁empty	-9488
▁registry	-9489
▁commitments	-9490
▁hus	-9491
▁informé	-9492
▁chaleur	-9493
▁motifs	-9494
▁développé	-9495
▁walls	-9496
▁revenue	-9497
▁climatisation	-9498
94	-9499
▁copies	-9500
▁analog	-9501
▁negative	-9502
▁ww	-9503
▁teachers	-9504
▁lancé	-9505
lacements	-9506
▁knew	-9507
pes	-9508
▁downloads	-9509
▁operate	-9510
▁brain	-9511
▁dynamique	-9512
▁avions	-9513
icon	-9514
▁filled	-9515
▁faciliter	-9516
▁couverture	-9517
--------	-9518
mêmes	-9519
▁incomp	-9520
enco	-9521
▁dév	-9522
▁surfaces	-9523
▁collected	-9524
▁driving	-9525
▁handling	-9526
▁360	-9527
▁statistique	-9528
63	-9529
▁packaging	-9530
unes	-9531
▁péd	-9532
▁bob	-9533
▁adapter	-9534
▁gour	-9535
▁écrire	-9536
oz	-9537
▁applies	-9538
otel	-9539
▁marse	-9540
delà	-9541
▁opinions	-9542
▁mt	-9543
▁emballage	-9544
▁entendre	-9545
▁toxic	-9546
▁controll	-9547
▁merveille	-9548
rick	-9549
▁édi	-9550
outs	-9551
▁dérou	-9552
▁militaires	-9553
▁hôpital	-9554
oh	-9555
▁judic	-9556
▁ele	-9557
ousness	-9558
▁pant	-9559
ibilities	-9560
▁highlight	-9561
▁130	-9562
▁supr	-9563
▁releases	-9564
▁ministères	-9565
uti	-9566
▁warrant	-9567
pectives	-9568
▁réfugiés	-9569
ye	-9570
▁cells	-9571
you	-9572
▁quote	-9573
veill	-9574
urent	-9575
▁controlled	-9576
▁pix	-9577
▁licences	-9578
▁effectué	-9579
▁oiseaux	-9580
▁ral	-9581
ématiques	-9582
▁réflex	-9583
▁résid	-9584
▁ri	-9585
▁sap	-9586
▁mentions	-9587
▁corner	-9588
▁lived	-9589
▁difficultés	-9590
▁atten	-9591
▁inspired	-9592
▁reliable	-9593
gary	-9594
écu	-9595
▁restrictions	-9596
▁priorités	-9597
heim	-9598
▁cott	-9599
▁ministers	-9600
fond	-9601
kh	-9602
▁sher	-9603
▁exempl	-9604
endix	-9605
▁scene	-9606
▁scope	-9607
▁paysage	-9608
▁truly	-9609
▁myster	-9610
▁conversation	-9611
▁dessus	-9612
▁spati	-9613
▁fermet	-9614
enger	-9615
▁pourront	-9616
▁bâtiments	-9617
▁visage	-9618
▁voilà	-9619
▁manifest	-9620
▁grain	-9621
▁nettoyage	-9622
▁agricole	-9623
▁approbation	-9624
fm	-9625
▁alert	-9626
▁italiano	-9627
▁residential	-9628
▁ig	-9629
▁musul	-9630
riv	-9631
▁toward	-9632
▁broch	-9633
▁affichage	-9634
▁achieved	-9635
▁automobile	-9636
▁vatic	-9637
▁enterprise	-9638
-17	-9639
team	-9640
▁interactive	-9641
▁hér	-9642
▁dynamic	-9643
▁extreme	-9644
tons	-9645
▁finished	-9646
▁vélo	-9647
▁communiqué	-9648
ceau	-9649
▁hub	-9650
▁perfection	-9651
▁candidats	-9652
▁savez	-9653
▁provo	-9654
▁71	-9655
▁légèrement	-9656
▁commerciale	-9657
▁wc	-9658
▁1970	-9659
ouest	-9660
▁stages	-9661
▁atlantic	-9662
ulte	-9663
world	-9664
rieures	-9665
▁rejoin	-9666
▁posté	-9667
▁authenti	-9668
atrième	-9669
▁quantit	-9670
like	-9671
▁confirmed	-9672
bro	-9673
▁manufactur	-9674
▁governance	-9675
▁recipient	-9676
▁improved	-9677
▁infections	-9678
▁pourcentage	-9679
▁invités	-9680
▁blanche	-9681
▁movie	-9682
iry	-9683
▁cotton	-9684
▁afghan	-9685
aped	-9686
▁consultez	-9687
▁proceedings	-9688
▁remboursement	-9689
gn	-9690
alt	-9691
star	-9692
▁declaration	-9693
▁ordered	-9694
▁financing	-9695
▁seem	-9696
▁gif	-9697
▁wet	-9698
▁élo	-9699
▁juridiques	-9700
▁monitor	-9701
uled	-9702
▁bishop	-9703
▁phr	-9704
ju	-9705
▁replaced	-9706
▁solar	-9707
▁secretariat	-9708
class	-9709
▁sul	-9710
▁appendix	-9711
▁médicament	-9712
▁billets	-9713
▁component	-9714
▁secrétariat	-9715
▁evolution	-9716
▁twenty	-9717
▁killed	-9718
▁acid	-9719
▁solide	-9720
▁gets	-9721
▁sugar	-9722
▁concrete	-9723
▁habituellement	-9724
▁midi	-9725
▁recommendation	-9726
▁speaker	-9727
▁kos	-9728
▁piste	-9729
▁spaces	-9730
▁limits	-9731
▁geneva	-9732
▁médecine	-9733
▁lyon	-9734
▁alinéa	-9735
▁powers	-9736
▁pes	-9737
▁dioc	-9738
▁adéqu	-9739
▁evil	-9740
▁gouvern	-9741
phones	-9742
▁sche	-9743
▁joue	-9744
▁dies	-9745
related	-9746
apy	-9747
iar	-9748
▁removed	-9749
▁dut	-9750
lava	-9751
▁genève	-9752
▁coalition	-9753
stre	-9754
▁haz	-9755
icians	-9756
▁examination	-9757
▁lock	-9758
▁bach	-9759
▁adaptation	-9760
▁missing	-9761
▁joie	-9762
▁hydra	-9763
enous	-9764
▁priorities	-9765
▁withdra	-9766
▁strategies	-9767
▁tire	-9768
▁cinqu	-9769
▁neighbour	-9770
▁conduit	-9771
▁gite	-9772
▁pose	-9773
oyer	-9774
mod	-9775
▁resid	-9776
▁nether	-9777
▁quatrième	-9778
▁quart	-9779
▁conférences	-9780
▁apart	-9781
▁indire	-9782
▁gosp	-9783
▁capt	-9784
▁invitation	-9785
▁compensation	-9786
▁kore	-9787
▁piz	-9788
▁spécialement	-9789
▁recycl	-9790
▁entertainment	-9791
▁turkey	-9792
▁toilet	-9793
▁formal	-9794
anmoins	-9795
▁malheure	-9796
▁salut	-9797
▁forêt	-9798
▁leaving	-9799
▁tariff	-9800
▁prévention	-9801
▁auberge	-9802
▁raf	-9803
▁opens	-9804
▁acceptable	-9805
▁incorpor	-9806
▁cooper	-9807
▁shoes	-9808
▁modified	-9809
itarian	-9810
▁pv	-9811
▁occasions	-9812
iales	-9813
▁awarded	-9814
▁diction	-9815
▁commerciales	-9816
▁nich	-9817
▁raw	-9818
▁lob	-9819
▁historiques	-9820
▁textes	-9821
▁speech	-9822
▁jaune	-9823
▁spok	-9824
▁contained	-9825
▁continuing	-9826
▁exposure	-9827
chr	-9828
▁editor	-9829
▁vite	-9830
▁installé	-9831
▁reproduction	-9832
▁feeling	-9833
inos	-9834
▁authorized	-9835
iera	-9836
62	-9837
▁connec	-9838
▁winn	-9839
▁personnelle	-9840
▁tva	-9841
▁pink	-9842
▁trend	-9843
▁migration	-9844
▁représentent	-9845
▁weap	-9846
éral	-9847
▁amor	-9848
▁answers	-9849
▁passengers	-9850
france	-9851
▁prestations	-9852
▁2.1	-9853
▁détaillée	-9854
▁thee	-9855
▁météo	-9856
▁frag	-9857
▁ash	-9858
▁bah	-9859
▁lig	-9860
▁failure	-9861
dp	-9862
▁soirée	-9863
▁stores	-9864
▁peur	-9865
ailles	-9866
▁calgary	-9867
▁lumine	-9868
▁forget	-9869
▁indiquer	-9870
▁prohib	-9871
▁meat	-9872
▁brass	-9873
▁racc	-9874
▁cherchez	-9875
▁supreme	-9876
▁directions	-9877
▁elected	-9878
▁impôt	-9879
▁européennes	-9880
▁invited	-9881
▁campus	-9882
ila	-9883
▁intermédiaire	-9884
▁width	-9885
▁venti	-9886
▁escal	-9887
▁composed	-9888
▁egg	-9889
▁russe	-9890
▁92	-9891
▁sacrific	-9892
▁sectors	-9893
yc	-9894
▁tip	-9895
ématique	-9896
▁nun	-9897
olis	-9898
bus	-9899
ounds	-9900
▁maximale	-9901
▁enem	-9902
▁bient	-9903
▁hang	-9904
▁îles	-9905
▁leads	-9906
▁appointment	-9907
▁combinaison	-9908
▁cv	-9909
▁baie	-9910
▁designated	-9911
▁températures	-9912
▁mouvements	-9913
▁sed	-9914
▁diab	-9915
▁limitée	-9916
ifié	-9917
▁wireless	-9918
▁ingrédients	-9919
esp	-9920
▁prevention	-9921
oct	-9922
▁paiements	-9923
▁automne	-9924
▁cuba	-9925
▁fonctionner	-9926
▁subscribe	-9927
▁laboratory	-9928
▁suffit	-9929
▁membership	-9930
▁guy	-9931
▁attendre	-9932
▁indispens	-9933
▁immediate	-9934
▁extended	-9935
▁stick	-9936
ieties	-9937
▁brut	-9938
▁nomination	-9939
▁adoles	-9940
▁affirm	-9941
▁gender	-9942
▁répertoire	-9943
▁plages	-9944
▁seins	-9945
▁speaking	-9946
▁enregistré	-9947
▁stephen	-9948
ints	-9949
▁quad	-9950
▁recommandation	-9951
▁néanmoins	-9952
▁recommandé	-9953
▁belles	-9954
▁évang	-9955
elled	-9956
▁pak	-9957
▁mature	-9958
▁offerts	-9959
▁liquide	-9960
rolog	-9961
▁flamenco	-9962
▁présents	-9963
▁priorité	-9964
▁intervenants	-9965
▁discrimination	-9966
▁behavi	-9967
ali	-9968
▁becoming	-9969
▁implemented	-9970
▁sexe	-9971
▁seuls	-9972
▁fitness	-9973
▁sv	-9974
▁moroc	-9975
▁myself	-9976
▁connais	-9977
▁jérusalem	-9978
▁maroc	-9979
orship	-9980
▁perspectives	-9981
▁quin	-9982
▁bourgeois	-9983
▁amended	-9984
.95	-9985
ierre	-9986
▁arbres	-9987
▁frequency	-9988
▁épre	-9989
▁portrait	-9990
▁lady	-9991
▁juifs	-9992
ignant	-9993
▁footnote	-9994
▁chiffres	-9995
▁soumettre	-9996
▁autrich	-9997
▁warning	-9998
ifications	-9999
▁convert	-10000
▁monthly	-10001
▁bénéfici	-10002
ventions	-10003
▁permission	-10004
▁explained	-10005
garde	-10006
▁mobiles	-10007
▁mandate	-10008
▁texas	-10009
▁contrast	-10010
▁netherlands	-10011
hl	-10012
▁fréquence	-10013
▁parall	-10014
▁approvision	-10015
▁travaillé	-10016
▁script	-10017
with	-10018
▁arrived	-10019
▁armed	-10020
▁boats	-10021
iciens	-10022
▁jord	-10023
▁ouvra	-10024
rors	-10025
▁appearance	-10026
mise	-10027
▁imagine	-10028
▁adopté	-10029
▁argument	-10030
▁duties	-10031
▁cod	-10032
▁immeub	-10033
▁ministres	-10034
▁oublié	-10035
▁acknow	-10036
▁depth	-10037
▁crist	-10038
▁tried	-10039
▁dirigeants	-10040
▁1.5	-10041
▁commerciaux	-10042
▁pleasant	-10043
▁helping	-10044
▁1988	-10045
▁traditionnelle	-10046
▁eb	-10047
▁excellente	-10048
▁waiting	-10049
▁facts	-10050
▁goût	-10051
see	-10052
▁incidence	-10053
eds	-10054
▁1986	-10055
aissent	-10056
▁résol	-10057
gest	-10058
▁ahead	-10059
irent	-10060
▁surprise	-10061
▁recognition	-10062
gard	-10063
▁350	-10064
▁totalement	-10065
▁photographie	-10066
▁delay	-10067
▁greek	-10068
▁corn	-10069
▁conclu	-10070
▁appels	-10071
▁bientôt	-10072
▁obstacles	-10073
▁brig	-10074
▁adventure	-10075
▁scén	-10076
zech	-10077
▁drugs	-10078
▁junior	-10079
▁thin	-10080
icks	-10081
conne	-10082
▁agricoles	-10083
ols	-10084
▁parcs	-10085
asp	-10086
▁115	-10087
▁passagers	-10088
▁américaine	-10089
▁electoral	-10090
-09	-10091
▁pope	-10092
▁investments	-10093
▁containing	-10094
▁addressed	-10095
▁tâches	-10096
▁plong	-10097
marily	-10098
▁ttc	-10099
▁britannique	-10100
ibas	-10101
▁cryst	-10102
44	-10103
▁chargé	-10104
▁signé	-10105
▁hire	-10106
▁lessons	-10107
▁prescri	-10108
lissement	-10109
▁examine	-10110
▁pig	-10111
▁contest	-10112
clés	-10113
otic	-10114
▁md	-10115
▁directed	-10116
▁remained	-10117
▁unesco	-10118
▁remaining	-10119
▁abandon	-10120
▁désire	-10121
▁html	-10122
▁parks	-10123
▁vatican	-10124
▁stratégies	-10125
▁modernes	-10126
▁fournis	-10127
▁formed	-10128
▁gm	-10129
▁nik	-10130
▁résoudre	-10131
▁trimestre	-10132
▁amazing	-10133
▁servant	-10134
▁native	-10135
usc	-10136
▁operator	-10137
▁expositions	-10138
▁aires	-10139
▁elimin	-10140
rale	-10141
▁perfectly	-10142
▁venu	-10143
▁montagnes	-10144
▁lancement	-10145
▁humanité	-10146
▁discipline	-10147
▁stret	-10148
▁concepts	-10149
▁stands	-10150
▁singap	-10151
▁actualité	-10152
▁magasins	-10153
▁cér	-10154
▁returns	-10155
▁stakeholders	-10156
▁characters	-10157
▁2.0	-10158
▁noire	-10159
▁cler	-10160
▁battery	-10161
▁journalistes	-10162
aste	-10163
▁recherchez	-10164
▁compréhension	-10165
▁logis	-10166
▁bau	-10167
▁raff	-10168
omo	-10169
▁naz	-10170
▁0.00	-10171
onnés	-10172
▁arom	-10173
▁oral	-10174
▁soil	-10175
▁starts	-10176
▁natur	-10177
▁négociations	-10178
▁regarde	-10179
▁confidence	-10180
▁entrepreneurs	-10181
▁possession	-10182
▁stade	-10183
▁propriétaires	-10184
▁vs	-10185
▁vih	-10186
▁phen	-10187
tt	-10188
▁rus	-10189
imes	-10190
lock	-10191
▁greece	-10192
▁experiment	-10193
▁oliv	-10194
▁shad	-10195
oncé	-10196
▁hur	-10197
▁incroy	-10198
eront	-10199
oni	-10200
lla	-10201
▁primarily	-10202
▁departure	-10203
▁default	-10204
▁bnp	-10205
▁thinking	-10206
▁activer	-10207
▁approuvé	-10208
▁précision	-10209
▁abra	-10210
▁profitez	-10211
▁outstanding	-10212
▁réservez	-10213
▁pir	-10214
-06	-10215
itent	-10216
rum	-10217
dible	-10218
▁tâche	-10219
▁artistic	-10220
▁ateliers	-10221
▁carn	-10222
▁chaud	-10223
▁représentation	-10224
étaire	-10225
▁letters	-10226
▁spectacle	-10227
▁sensibil	-10228
▁handle	-10229
iders	-10230
agent	-10231
fp	-10232
-05	-10233
▁bond	-10234
léch	-10235
▁coton	-10236
▁proposals	-10237
lamm	-10238
▁protocole	-10239
erm	-10240
friend	-10241
▁bébé	-10242
▁dun	-10243
folio	-10244
▁superfic	-10245
▁hat	-10246
érir	-10247
▁streets	-10248
▁amounts	-10249
omet	-10250
▁reçoit	-10251
ricité	-10252
▁comparison	-10253
▁anony	-10254
bilité	-10255
imp	-10256
▁décès	-10257
▁czech	-10258
▁apostol	-10259
lées	-10260
▁combine	-10261
▁formula	-10262
▁municipality	-10263
▁clientèle	-10264
▁prescription	-10265
▁ambiance	-10266
▁côtés	-10267
▁appren	-10268
cho	-10269
▁compétence	-10270
▁spacious	-10271
iring	-10272
▁loun	-10273
▁globale	-10274
▁novel	-10275
▁territories	-10276
▁viennent	-10277
aser	-10278
titudes	-10279
uish	-10280
▁vat	-10281
autés	-10282
▁obligatoire	-10283
▁invo	-10284
▁récomp	-10285
▁organiser	-10286
▁occupation	-10287
odox	-10288
▁privile	-10289
▁percentage	-10290
▁pover	-10291
▁réparation	-10292
aly	-10293
▁annuler	-10294
▁finding	-10295
▁bid	-10296
▁chasse	-10297
▁fs	-10298
▁sight	-10299
▁oak	-10300
▁vign	-10301
▁pouvoirs	-10302
mbh	-10303
▁instagram	-10304
▁inner	-10305
▁borders	-10306
aya	-10307
▁tin	-10308
anément	-10309
▁nau	-10310
▁observed	-10311
▁terroris	-10312
▁nick	-10313
▁phénom	-10314
▁stabil	-10315
▁instruction	-10316
▁incom	-10317
▁gardens	-10318
▁guidance	-10319
▁controls	-10320
lits	-10321
▁élarg	-10322
▁allowing	-10323
▁décide	-10324
▁rémun	-10325
▁dér	-10326
▁retrouver	-10327
▁éle	-10328
▁sitting	-10329
▁beaches	-10330
▁prévues	-10331
▁trains	-10332
▁réussi	-10333
▁tank	-10334
tian	-10335
▁regime	-10336
▁easier	-10337
▁websites	-10338
▁relatifs	-10339
agas	-10340
▁largement	-10341
▁1987	-10342
dict	-10343
▁vitam	-10344
▁profondeur	-10345
▁democracy	-10346
▁perd	-10347
crits	-10348
▁none	-10349
▁pape	-10350
▁empêcher	-10351
▁clinical	-10352
▁feedback	-10353
▁zoom	-10354
▁adequ	-10355
▁uniform	-10356
▁onto	-10357
▁penser	-10358
▁familiale	-10359
▁satisfait	-10360
▁revenir	-10361
▁bm	-10362
ende	-10363
▁alimentaires	-10364
▁parlé	-10365
▁vintage	-10366
▁tut	-10367
▁pleinement	-10368
▁parliamentary	-10369
48	-10370
▁inscrivez	-10371
▁officials	-10372
eller	-10373
▁utilisent	-10374
divers	-10375
▁récol	-10376
▁largeur	-10377
▁pleased	-10378
▁shot	-10379
itim	-10380
orith	-10381
▁myth	-10382
▁mexique	-10383
▁gmbh	-10384
▁rencontrer	-10385
▁générique	-10386
▁poverty	-10387
▁chers	-10388
▁output	-10389
▁doubt	-10390
▁suggest	-10391
▁catholique	-10392
▁pollution	-10393
▁surrounding	-10394
teau	-10395
▁bernard	-10396
franç	-10397
▁globe	-10398
▁false	-10399
▁menumen	-10400
▁supplier	-10401
aro	-10402
▁intérieure	-10403
▁discuter	-10404
▁suffisamment	-10405
▁170	-10406
▁hectares	-10407
dans	-10408
▁crédits	-10409
▁paribas	-10410
ela	-10411
▁industriels	-10412
100	-10413
rc	-10414
▁vendu	-10415
▁align	-10416
aki	-10417
▁older	-10418
▁marg	-10419
▁drawing	-10420
▁télécomm	-10421
▁retard	-10422
▁informer	-10423
▁reporters	-10424
▁mcc	-10425
deaux	-10426
▁parfaite	-10427
▁accords	-10428
▁learned	-10429
icile	-10430
once	-10431
iée	-10432
▁producteurs	-10433
▁algorith	-10434
▁smartphone	-10435
words	-10436
isms	-10437
oney	-10438
▁accompanied	-10439
▁blind	-10440
▁équilibre	-10441
▁declared	-10442
▁nul	-10443
▁ky	-10444
▁annuelle	-10445
▁kong	-10446
▁séminaire	-10447
▁zip	-10448
▁branches	-10449
▁fm	-10450
zing	-10451
▁olive	-10452
▁furthermore	-10453
estyle	-10454
▁contamin	-10455
▁lunch	-10456
▁faisait	-10457
▁souligné	-10458
▁rond	-10459
lent	-10460
▁abraham	-10461
▁linkedin	-10462
▁insert	-10463
▁evang	-10464
▁matern	-10465
orale	-10466
▁recettes	-10467
▁rétab	-10468
▁chaussures	-10469
▁divul	-10470
▁dear	-10471
▁amendment	-10472
▁baptis	-10473
▁roche	-10474
rieurs	-10475
▁sacrifice	-10476
zo	-10477
▁carib	-10478
▁provinci	-10479
▁blonde	-10480
vé	-10481
arium	-10482
▁mosa	-10483
▁lor	-10484
eux	-10485
▁énonc	-10486
▁transit	-10487
ener	-10488
▁surrounded	-10489
▁galax	-10490
▁reviewed	-10491
▁classement	-10492
▁beat	-10493
▁charter	-10494
▁resulting	-10495
aga	-10496
inity	-10497
jud	-10498
▁plateau	-10499
▁attaque	-10500
▁boulev	-10501
▁ie	-10502
▁rank	-10503
▁frequently	-10504
▁holl	-10505
atever	-10506
▁rues	-10507
▁sond	-10508
▁abroad	-10509
lers	-10510
teen	-10511
▁thèmes	-10512
▁diseases	-10513
▁licens	-10514
▁unfortun	-10515
▁arbre	-10516
▁licensee	-10517
▁styles	-10518
▁margin	-10519
techn	-10520
▁retourner	-10521
▁porn	-10522
asi	-10523
▁guaranteed	-10524
▁conserver	-10525
▁cérém	-10526
▁poursuit	-10527
▁dois	-10528
enth	-10529
▁utili	-10530
▁compagnies	-10531
▁competitive	-10532
▁témoins	-10533
▁fatig	-10534
▁clause	-10535
▁alcool	-10536
▁modifié	-10537
▁wooden	-10538
▁ist	-10539
▁alloc	-10540
▁shell	-10541
▁proches	-10542
▁gouvernance	-10543
▁smith	-10544
.30	-10545
▁artisan	-10546
▁kur	-10547
arts	-10548
wal	-10549
▁conduc	-10550
ataire	-10551
▁summit	-10552
▁resse	-10553
▁regularly	-10554
▁reject	-10555
▁gravure	-10556
oub	-10557
▁fonctionnaire	-10558
▁skyteam	-10559
▁oc	-10560
▁aler	-10561
▁salt	-10562
.02	-10563
▁eternel	-10564
▁voies	-10565
▁franch	-10566
ôts	-10567
emed	-10568
▁hay	-10569
▁expliquer	-10570
▁fier	-10571
▁dî	-10572
▁distinct	-10573
▁ressemb	-10574
▁helped	-10575
▁greatest	-10576
▁royale	-10577
▁hydraul	-10578
▁maje	-10579
▁cadeaux	-10580
▁reprodu	-10581
▁segment	-10582
▁sah	-10583
▁neck	-10584
apeu	-10585
▁eld	-10586
▁candidates	-10587
▁depends	-10588
▁managing	-10589
ipeg	-10590
▁dated	-10591
▁gris	-10592
▁laissez	-10593
▁hidden	-10594
▁96	-10595
▁relief	-10596
▁batt	-10597
▁ourselves	-10598
jection	-10599
mad	-10600
▁whatever	-10601
▁agg	-10602
▁von	-10603
▁propag	-10604
aceu	-10605
▁boute	-10606
▁discussed	-10607
▁det	-10608
▁crew	-10609
▁portfolio	-10610
▁dinner	-10611
▁106	-10612
▁unknown	-10613
▁plateforme	-10614
▁topic	-10615
▁mâ	-10616
▁winds	-10617
orti	-10618
▁graves	-10619
▁doux	-10620
▁gospel	-10621
▁serving	-10622
▁naples	-10623
▁1,5	-10624
▁findings	-10625
ield	-10626
47	-10627
▁menumenu	-10628
▁holding	-10629
asc	-10630
▁disappe	-10631
▁artistique	-10632
▁évê	-10633
▁temporary	-10634
ched	-10635
▁dommages	-10636
hou	-10637
▁ari	-10638
▁conflits	-10639
▁admission	-10640
utif	-10641
▁gear	-10642
▁fus	-10643
▁winnipeg	-10644
▁trading	-10645
▁multil	-10646
▁alcohol	-10647
▁discre	-10648
▁mov	-10649
▁federation	-10650
▁accueille	-10651
▁politics	-10652
▁vertical	-10653
mel	-10654
▁prague	-10655
▁rencontres	-10656
▁abus	-10657
▁complaint	-10658
▁libres	-10659
▁fédération	-10660
▁rss	-10661
▁cardi	-10662
▁orthodox	-10663
▁décoration	-10664
osis	-10665
▁mobilité	-10666
▁aventure	-10667
▁austria	-10668
▁sable	-10669
▁myst	-10670
▁increases	-10671
▁autorisé	-10672
▁bags	-10673
55	-10674
▁courte	-10675
▁electrical	-10676
▁drawn	-10677
▁bijou	-10678
▁negotiations	-10679
▁chimiques	-10680
▁tendances	-10681
▁stimul	-10682
din	-10683
▁spending	-10684
▁pensions	-10685
▁splend	-10686
▁latter	-10687
▁vien	-10688
▁intégré	-10689
▁pharmac	-10690
▁synd	-10691
▁wealth	-10692
▁violation	-10693
▁collège	-10694
▁compéti	-10695
iors	-10696
lon	-10697
▁forced	-10698
▁congé	-10699
▁jewish	-10700
▁struggle	-10701
ignée	-10702
▁happened	-10703
▁receiving	-10704
▁rup	-10705
▁orchest	-10706
▁individus	-10707
▁gon	-10708
▁cannab	-10709
▁congo	-10710
▁manus	-10711
▁arguments	-10712
▁planète	-10713
▁emm	-10714
▁rated	-10715
athers	-10716
▁égyp	-10717
ounder	-10718
▁loading	-10719
▁scheduled	-10720
▁atmosphère	-10721
▁shares	-10722
▁ratio	-10723
▁monter	-10724
▁appuyer	-10725
▁reception	-10726
main	-10727
▁covers	-10728
▁trouble	-10729
▁grey	-10730
▁weekend	-10731
▁veter	-10732
▁développe	-10733
▁rect	-10734
▁nouveautés	-10735
▁religieux	-10736
oline	-10737
oon	-10738
▁mener	-10739
▁jihlava	-10740
ôles	-10741
▁puisqu	-10742
ére	-10743
▁treated	-10744
▁souver	-10745
▁yoga	-10746
▁pomp	-10747
▁buffet	-10748
▁extensive	-10749
aisons	-10750
▁démocratique	-10751
▁bronze	-10752
▁fold	-10753
law	-10754
vere	-10755
▁entrepren	-10756
▁pensée	-10757
▁appeared	-10758
▁demands	-10759
▁simon	-10760
▁biggest	-10761
▁modalités	-10762
-2019	-10763
under	-10764
▁accused	-10765
uv	-10766
▁entraînement	-10767
▁frapp	-10768
▁conjoin	-10769
▁implant	-10770
▁saints	-10771
domin	-10772
▁tob	-10773
▁centaines	-10774
▁consequences	-10775
▁migrants	-10776
▁préalable	-10777
gam	-10778
▁sentiment	-10779
roir	-10780
▁450	-10781
▁canon	-10782
nik	-10783
▁inclure	-10784
▁harper	-10785
cat	-10786
▁electricity	-10787
▁marseille	-10788
oie	-10789
.90	-10790
▁blow	-10791
▁jol	-10792
▁biodivers	-10793
▁household	-10794
▁academic	-10795
▁comparaison	-10796
▁rédig	-10797
▁puerto	-10798
itations	-10799
▁judicial	-10800
▁2.2	-10801
▁cb	-10802
-00	-10803
▁bénév	-10804
▁happen	-10805
▁donnant	-10806
▁rally	-10807
▁superbe	-10808
▁suggested	-10809
▁clips	-10810
▁signes	-10811
esty	-10812
▁facing	-10813
▁aims	-10814
▁thor	-10815
▁brevet	-10816
êtres	-10817
▁dak	-10818
▁workshops	-10819
▁auquel	-10820
▁ambassade	-10821
▁volumes	-10822
pi	-10823
▁candidate	-10824
sk	-10825
▁irlande	-10826
▁électricité	-10827
▁dol	-10828
claim	-10829
ston	-10830
▁knows	-10831
▁kir	-10832
▁mixed	-10833
▁birds	-10834
▁dangerous	-10835
▁aupar	-10836
▁externe	-10837
.20	-10838
iber	-10839
▁arabe	-10840
▁observer	-10841
▁gun	-10842
▁indo	-10843
▁supplies	-10844
cession	-10845
▁inqui	-10846
▁93	-10847
▁suprême	-10848
▁laisse	-10849
▁augmenté	-10850
▁efficaces	-10851
▁ensuring	-10852
order	-10853
▁péché	-10854
▁compose	-10855
▁kid	-10856
issante	-10857
▁naturels	-10858
▁raise	-10859
▁sanct	-10860
▁channels	-10861
cedes	-10862
▁specialized	-10863
▁76	-10864
▁improvement	-10865
aca	-10866
▁ended	-10867
▁printing	-10868
▁autrement	-10869
▁tast	-10870
.19	-10871
▁itinéra	-10872
▁avancée	-10873
▁apporte	-10874
▁commen	-10875
▁calling	-10876
▁entirely	-10877
▁musées	-10878
ettre	-10879
▁poland	-10880
▁seg	-10881
▁movements	-10882
▁bénéficier	-10883
▁distributed	-10884
▁banques	-10885
▁avocat	-10886
▁poissons	-10887
▁auparavant	-10888
▁indigenous	-10889
▁wines	-10890
▁précisément	-10891
▁plainte	-10892
▁charged	-10893
▁generated	-10894
▁puissent	-10895
▁hes	-10896
▁lancer	-10897
▁pacific	-10898
▁fixe	-10899
èce	-10900
▁focused	-10901
▁lies	-10902
▁champagne	-10903
ît	-10904
▁nova	-10905
▁prévenir	-10906
▁86	-10907
▁cliquer	-10908
▁seeking	-10909
owned	-10910
▁précédente	-10911
▁visiting	-10912
▁auraient	-10913
ima	-10914
rating	-10915
▁kinds	-10916
▁rejoindre	-10917
oureux	-10918
▁coordonnées	-10919
▁tableaux	-10920
▁électriques	-10921
▁palm	-10922
▁nomin	-10923
▁longues	-10924
▁indication	-10925
▁effectively	-10926
▁nomm	-10927
cor	-10928
▁crucial	-10929
▁dh	-10930
▁provider	-10931
vey	-10932
▁daughter	-10933
▁sof	-10934
▁printed	-10935
▁magnific	-10936
▁mécanisme	-10937
▁sides	-10938
▁numéros	-10939
▁degré	-10940
lat	-10941
▁heads	-10942
unction	-10943
▁isa	-10944
▁references	-10945
▁residents	-10946
▁écriv	-10947
hand	-10948
▁conventions	-10949
▁han	-10950
▁voyez	-10951
▁adam	-10952
▁73	-10953
▁wa	-10954
▁énergétique	-10955
▁equivalent	-10956
▁démocratie	-10957
▁arrangements	-10958
▁cible	-10959
ésie	-10960
rém	-10961
▁input	-10962
▁trends	-10963
▁refugees	-10964
force	-10965
icide	-10966
theless	-10967
chen	-10968
▁plats	-10969
obe	-10970
▁banking	-10971
▁tellement	-10972
▁vii	-10973
▁isn	-10974
▁gouverneur	-10975
▁carp	-10976
▁dispositif	-10977
▁belgian	-10978
▁mathe	-10979
▁recall	-10980
▁afghanistan	-10981
isode	-10982
▁poisson	-10983
▁tig	-10984
▁enables	-10985
ilton	-10986
esti	-10987
▁murs	-10988
uage	-10989
▁renouvellement	-10990
▁exploration	-10991
▁combus	-10992
▁familiar	-10993
avis	-10994
▁étudier	-10995
▁pourriez	-10996
▁spécifications	-10997
▁schol	-10998
▁décenn	-10999
▁encoun	-11000
landais	-11001
fficient	-11002
iement	-11003
▁albums	-11004
▁olympic	-11005
▁suffering	-11006
▁munich	-11007
▁répondu	-11008
▁divided	-11009
▁littér	-11010
▁strict	-11011
▁dict	-11012
▁victory	-11013
▁communion	-11014
quets	-11015
▁motif	-11016
▁turquie	-11017
tech	-11018
▁pretty	-11019
▁recognize	-11020
▁jews	-11021
▁om	-11022
▁enregistre	-11023
abeth	-11024
▁lighting	-11025
▁lift	-11026
▁pauvres	-11027
▁océan	-11028
▁coverage	-11029
▁basée	-11030
▁stored	-11031
▁strengthen	-11032
49	-11033
▁farmers	-11034
▁révision	-11035
▁contenus	-11036
▁accompl	-11037
▁arrivé	-11038
▁prestation	-11039
akers	-11040
▁crow	-11041
▁replace	-11042
▁tromp	-11043
▁lever	-11044
▁anglaise	-11045
-25	-11046
vic	-11047
▁boutiques	-11048
▁trace	-11049
▁jugement	-11050
▁benefic	-11051
▁preferred	-11052
▁innoc	-11053
▁lend	-11054
▁directe	-11055
-16	-11056
▁attacks	-11057
▁aids	-11058
▁engraving	-11059
serv	-11060
▁prev	-11061
▁périph	-11062
▁electro	-11063
▁symptoms	-11064
▁keeping	-11065
▁privilég	-11066
heur	-11067
▁devoir	-11068
▁consumers	-11069
▁connue	-11070
job	-11071
▁jardins	-11072
▁theory	-11073
▁ajoute	-11074
▁adding	-11075
▁posts	-11076
▁lamb	-11077
▁ferro	-11078
▁devis	-11079
▁smaller	-11080
▁provis	-11081
▁gains	-11082
▁bét	-11083
exe	-11084
▁bordeaux	-11085
▁prima	-11086
▁cutting	-11087
ching	-11088
▁angleterre	-11089
▁www	-11090
▁spéciaux	-11091
urrection	-11092
▁upgra	-11093
87	-11094
▁internes	-11095
▁arms	-11096
▁bits	-11097
rac	-11098
▁ultimate	-11099
▁differences	-11100
▁topics	-11101
▁portail	-11102
▁chrétiens	-11103
▁indemn	-11104
▁ajoutez	-11105
lined	-11106
▁lights	-11107
▁réaction	-11108
-07	-11109
▁adhésion	-11110
▁trips	-11111
▁seeds	-11112
▁horizon	-11113
▁nevertheless	-11114
▁lion	-11115
▁soldiers	-11116
▁malheureusement	-11117
pierre	-11118
▁chart	-11119
▁2.5	-11120
▁meal	-11121
yon	-11122
ello	-11123
▁travaillent	-11124
map	-11125
▁barbec	-11126
▁difficulté	-11127
▁morts	-11128
▁différent	-11129
▁tweet	-11130
▁convertir	-11131
▁allég	-11132
ders	-11133
brit	-11134
▁veille	-11135
▁3.1	-11136
▁corpor	-11137
▁photography	-11138
▁joindre	-11139
▁affordable	-11140
▁prét	-11141
ôm	-11142
uters	-11143
lity	-11144
▁bin	-11145
▁extérieure	-11146
▁managers	-11147
▁incap	-11148
case	-11149
▁chansons	-11150
▁élection	-11151
▁oeuvres	-11152
▁kra	-11153
rég	-11154
▁packages	-11155
▁attached	-11156
▁sexy	-11157
▁climatiques	-11158
▁lei	-11159
itant	-11160
▁électroniques	-11161
apest	-11162
chez	-11163
▁cooking	-11164
edy	-11165
▁culturelle	-11166
▁navire	-11167
▁appliquent	-11168
ardo	-11169
▁troubles	-11170
▁counsel	-11171
▁déposer	-11172
urée	-11173
▁exhibit	-11174
▁remport	-11175
▁mobility	-11176
▁montage	-11177
upe	-11178
▁clinique	-11179
▁défic	-11180
▁postal	-11181
▁élégant	-11182
▁improving	-11183
▁carefully	-11184
▁layer	-11185
▁emprun	-11186
▁assass	-11187
▁pharmaceu	-11188
▁croire	-11189
▁calories	-11190
▁facteur	-11191
sen	-11192
▁gloss	-11193
▁vulner	-11194
▁appari	-11195
loc	-11196
▁continuous	-11197
▁crème	-11198
▁venue	-11199
▁revolutionary	-11200
tiles	-11201
▁sequ	-11202
▁pauvreté	-11203
▁mechanism	-11204
▁intellectual	-11205
▁entrées	-11206
▁discovered	-11207
▁unc	-11208
aches	-11209
▁roof	-11210
▁stability	-11211
▁idéale	-11212
▁tirer	-11213
▁présentes	-11214
▁portuguese	-11215
▁conforme	-11216
▁describe	-11217
▁allant	-11218
▁tons	-11219
,95	-11220
▁favoriser	-11221
▁grade	-11222
▁restauration	-11223
▁perce	-11224
▁achats	-11225
▁spoke	-11226
▁cardinal	-11227
pped	-11228
▁testament	-11229
dez	-11230
ettez	-11231
apie	-11232
quality	-11233
▁absolument	-11234
▁succeed	-11235
▁coins	-11236
▁lect	-11237
war	-11238
condition	-11239
astroph	-11240
▁attempt	-11241
▁amus	-11242
▁hausse	-11243
èques	-11244
▁pacifique	-11245
lights	-11246
oper	-11247
▁témoignage	-11248
▁apparaît	-11249
▁puissant	-11250
-08	-11251
▁proof	-11252
▁logique	-11253
▁châ	-11254
fts	-11255
▁themes	-11256
▁82	-11257
▁pent	-11258
▁moteurs	-11259
▁competit	-11260
▁participating	-11261
▁relatively	-11262
▁endomm	-11263
ppe	-11264
van	-11265
▁francisco	-11266
wing	-11267
▁satisfied	-11268
▁facilitate	-11269
▁threats	-11270
▁sèche	-11271
▁tropical	-11272
▁archiv	-11273
oma	-11274
▁tatto	-11275
▁coûte	-11276
▁sauna	-11277
▁yach	-11278
▁trucks	-11279
plan	-11280
▁vap	-11281
▁split	-11282
▁traitements	-11283
▁donnent	-11284
érateur	-11285
rime	-11286
▁talking	-11287
hu	-11288
lises	-11289
▁convenient	-11290
▁dutch	-11291
▁diameter	-11292
▁mercedes	-11293
▁émission	-11294
▁earn	-11295
▁functional	-11296
▁academy	-11297
▁pakistan	-11298
▁intéressant	-11299
▁enjeux	-11300
osa	-11301
medi	-11302
▁travelling	-11303
▁loisirs	-11304
▁1984	-11305
elli	-11306
-30	-11307
▁baign	-11308
▁neige	-11309
▁museums	-11310
▁contrôler	-11311
pass	-11312
▁médecins	-11313
▁lowest	-11314
▁sizes	-11315
▁séjourn	-11316
▁catastroph	-11317
▁téléchargements	-11318
▁iraq	-11319
rus	-11320
▁opc	-11321
▁opera	-11322
▁4.1	-11323
▁diamètre	-11324
▁comply	-11325
▁détente	-11326
▁boy	-11327
▁contrats	-11328
▁tai	-11329
▁entière	-11330
▁chan	-11331
▁eut	-11332
▁county	-11333
▁secondary	-11334
▁construct	-11335
▁accordingly	-11336
▁porté	-11337
▁roses	-11338
▁fibre	-11339
▁dump	-11340
fil	-11341
▁libération	-11342
▁exécutif	-11343
▁coucher	-11344
▁anten	-11345
gc	-11346
language	-11347
code	-11348
▁réfrig	-11349
▁reconnaître	-11350
▁aérone	-11351
▁riches	-11352
▁déplo	-11353
▁marin	-11354
▁complexes	-11355
▁fax	-11356
▁falls	-11357
▁guitar	-11358
▁evol	-11359
antages	-11360
▁inse	-11361
ander	-11362
▁extrém	-11363
▁toys	-11364
42	-11365
▁athle	-11366
▁carrying	-11367
▁stamp	-11368
▁joueur	-11369
▁clock	-11370
▁brunette	-11371
▁gent	-11372
▁passant	-11373
▁décider	-11374
▁pertinentes	-11375
▁marina	-11376
▁authors	-11377
▁appris	-11378
ocket	-11379
ulties	-11380
▁pénét	-11381
▁stras	-11382
cope	-11383
▁treaty	-11384
irus	-11385
what	-11386
▁lakes	-11387
▁legend	-11388
▁pilotes	-11389
venant	-11390
vas	-11391
néra	-11392
▁abond	-11393
quart	-11394
▁correspondant	-11395
▁créée	-11396
gb	-11397
▁rappelle	-11398
▁1960	-11399
▁budapest	-11400
su	-11401
uation	-11402
▁determination	-11403
olé	-11404
▁91	-11405
▁hundreds	-11406
▁foods	-11407
▁placement	-11408
inée	-11409
▁customs	-11410
▁excursions	-11411
▁menace	-11412
▁stabilité	-11413
▁jurisdiction	-11414
▁83	-11415
chang	-11416
▁gone	-11417
▁wave	-11418
ylon	-11419
▁reader	-11420
▁indépendante	-11421
▁tribunaux	-11422
▁rib	-11423
▁showed	-11424
▁vieille	-11425
▁soldats	-11426
▁rejo	-11427
▁gig	-11428
itate	-11429
▁guard	-11430
▁réalisée	-11431
88	-11432
▁inclut	-11433
▁manufacture	-11434
▁literature	-11435
▁essentiellement	-11436
▁refers	-11437
▁zur	-11438
▁contracts	-11439
▁vier	-11440
▁doctrine	-11441
▁sie	-11442
▁glor	-11443
▁dépass	-11444
▁cyber	-11445
▁universe	-11446
▁carbur	-11447
uras	-11448
▁porto	-11449
▁numériques	-11450
▁léger	-11451
▁sucre	-11452
▁essayez	-11453
▁judiciaire	-11454
▁accidents	-11455
esterday	-11456
▁directrice	-11457
▁étudiant	-11458
▁tested	-11459
▁robe	-11460
eding	-11461
▁résidenti	-11462
▁humanitarian	-11463
▁neder	-11464
▁pn	-11465
▁commons	-11466
▁maintained	-11467
▁unfortunately	-11468
▁tol	-11469
▁fondé	-11470
▁remark	-11471
▁occurred	-11472
▁adapté	-11473
▁significantly	-11474
▁delight	-11475
pare	-11476
dr	-11477
▁accroître	-11478
▁discovery	-11479
▁disant	-11480
▁begins	-11481
▁consens	-11482
▁rêve	-11483
▁1982	-11484
▁asian	-11485
osh	-11486
▁proposons	-11487
▁skate	-11488
▁rw	-11489
▁filtre	-11490
▁vulnéra	-11491
▁strip	-11492
▁pertinence	-11493
▁baisse	-11494
▁grec	-11495
▁lounge	-11496
▁lié	-11497
▁frontière	-11498
▁maybe	-11499
atric	-11500
▁savons	-11501
▁vessel	-11502
ifax	-11503
▁175	-11504
▁forums	-11505
▁designs	-11506
▁closely	-11507
▁treasury	-11508
èlement	-11509
loir	-11510
▁sph	-11511
issait	-11512
▁behold	-11513
▁plates	-11514
▁prud	-11515
▁variations	-11516
▁exportation	-11517
inding	-11518
▁churches	-11519
▁accepté	-11520
▁hero	-11521
▁innovations	-11522
▁manufacturers	-11523
sch	-11524
▁probable	-11525
▁yesterday	-11526
▁contrary	-11527
▁symptômes	-11528
▁présentent	-11529
berry	-11530
britannique	-11531
êtement	-11532
▁balcony	-11533
▁measurement	-11534
making	-11535
▁delete	-11536
▁immense	-11537
▁lith	-11538
ads	-11539
▁vivent	-11540
▁choisissant	-11541
tex	-11542
▁domicile	-11543
▁outcome	-11544
▁kel	-11545
▁batterie	-11546
▁intelligent	-11547
amer	-11548
▁emissions	-11549
▁difficulty	-11550
▁nicolas	-11551
unk	-11552
▁satan	-11553
▁intégrer	-11554
▁fascin	-11555
▁scand	-11556
▁leaf	-11557
jard	-11558
▁fonde	-11559
▁journaliste	-11560
▁prévus	-11561
chron	-11562
▁terrib	-11563
▁mechanical	-11564
▁connexes	-11565
astic	-11566
monton	-11567
▁marriage	-11568
▁vienne	-11569
mony	-11570
▁persist	-11571
▁glace	-11572
▁déposé	-11573
atz	-11574
▁grass	-11575
▁towns	-11576
▁plaf	-11577
▁carre	-11578
athan	-11579
▁déclarations	-11580
▁panneau	-11581
▁massive	-11582
▁arrêter	-11583
bonne	-11584
▁nights	-11585
▁caméra	-11586
▁éduc	-11587
inform	-11588
amination	-11589
▁camps	-11590
▁moham	-11591
▁strike	-11592
▁replacement	-11593
omét	-11594
▁auss	-11595
utely	-11596
▁ny	-11597
▁plaza	-11598
▁venus	-11599
▁situe	-11600
▁3.2	-11601
▁priests	-11602
▁charte	-11603
▁furnished	-11604
▁remplacement	-11605
▁stopp	-11606
▁string	-11607
▁légumes	-11608
▁effectue	-11609
▁sister	-11610
▁originale	-11611
▁toler	-11612
76	-11613
▁bringing	-11614
▁ethnic	-11615
▁privés	-11616
▁reh	-11617
▁moral	-11618
▁dette	-11619
ativement	-11620
▁mcg	-11621
▁vocab	-11622
▁suppliers	-11623
▁abuse	-11624
▁collecte	-11625
▁crystal	-11626
▁container	-11627
▁phenom	-11628
▁cannabis	-11629
▁rur	-11630
▁éditeur	-11631
▁representation	-11632
▁brunswick	-11633
▁prê	-11634
▁moz	-11635
▁expenditures	-11636
▁advoc	-11637
▁adolesc	-11638
▁entrepreneur	-11639
▁ja	-11640
▁chances	-11641
▁edmonton	-11642
orre	-11643
▁présidence	-11644
arti	-11645
anim	-11646
▁advisory	-11647
▁viney	-11648
▁joué	-11649
▁différente	-11650
▁webcam	-11651
43	-11652
▁lists	-11653
▁raisonnable	-11654
▁inclusive	-11655
▁understood	-11656
▁situés	-11657
▁réalisés	-11658
ache	-11659
ués	-11660
lem	-11661
erce	-11662
▁taxe	-11663
▁behaviour	-11664
▁basil	-11665
▁laval	-11666
▁andré	-11667
▁polar	-11668
▁remercie	-11669
▁industrielle	-11670
▁subvention	-11671
gent	-11672
▁cig	-11673
▁california	-11674
▁willing	-11675
▁lieuten	-11676
▁deploy	-11677
▁typique	-11678
xi	-11679
▁mines	-11680
▁montée	-11681
▁hans	-11682
ionn	-11683
▁forfait	-11684
▁normally	-11685
brun	-11686
▁adapted	-11687
▁nette	-11688
▁enabled	-11689
▁effectiveness	-11690
élis	-11691
dc	-11692
▁inoxyd	-11693
▁producers	-11694
érons	-11695
▁barbecue	-11696
▁panneaux	-11697
▁holds	-11698
▁rentals	-11699
▁peaceful	-11700
▁contributed	-11701
▁inher	-11702
▁rythme	-11703
▁removal	-11704
▁actors	-11705
▁logements	-11706
▁relationships	-11707
▁administrateur	-11708
▁retirer	-11709
▁turk	-11710
grad	-11711
86	-11712
▁explan	-11713
▁root	-11714
déjeuner	-11715
▁traditionnel	-11716
▁105	-11717
▁chalet	-11718
▁requête	-11719
▁appelée	-11720
▁ibid	-11721
▁optimal	-11722
ussions	-11723
▁fermeture	-11724
▁communautaires	-11725
▁3-	-11726
▁interaction	-11727
▁strasbourg	-11728
▁turb	-11729
▁indispensable	-11730
▁chargement	-11731
▁abstra	-11732
▁revealed	-11733
▁monna	-11734
▁collègues	-11735
▁commandant	-11736
▁gang	-11737
▁secrets	-11738
▁sensitive	-11739
▁slov	-11740
▁desktop	-11741
▁manifestations	-11742
▁sara	-11743
▁suspect	-11744
▁xp	-11745
▁consentement	-11746
▁vieill	-11747
▁descrip	-11748
▁acceler	-11749
▁adopter	-11750
▁gifts	-11751
▁clubs	-11752
▁venice	-11753
▁échanges	-11754
▁distinction	-11755
▁talents	-11756
▁explains	-11757
▁demandez	-11758
illé	-11759
▁paradis	-11760
▁periods	-11761
▁championnat	-11762
▁éclairage	-11763
▁0.0	-11764
▁atlantique	-11765
▁halifax	-11766
▁visitez	-11767
▁outlook	-11768
▁incidents	-11769
gasse	-11770
core	-11771
▁japonaise	-11772
marks	-11773
▁gras	-11774
▁reconstruction	-11775
▁meubles	-11776
▁filters	-11777
rupt	-11778
arios	-11779
▁quitter	-11780
▁ine	-11781
▁defic	-11782
▁4.2	-11783
oa	-11784
▁rear	-11785
gence	-11786
▁bataille	-11787
▁saved	-11788
▁inconn	-11789
▁rit	-11790
▁uv	-11791
▁judgment	-11792
▁ministéri	-11793
▁cyl	-11794
▁changé	-11795
▁titan	-11796
▁reducing	-11797
▁shel	-11798
▁interf	-11799
▁liée	-11800
agnetic	-11801
▁purchased	-11802
▁wis	-11803
▁vag	-11804
▁froid	-11805
▁cbs	-11806
▁narrow	-11807
▁illeg	-11808
▁bird	-11809
▁réussite	-11810
illing	-11811
▁faithful	-11812
▁colleagues	-11813
▁polyester	-11814
▁candidat	-11815
▁cathed	-11816
▁remplacer	-11817
▁amarill	-11818
▁ku	-11819
▁cow	-11820
▁syri	-11821
▁incluant	-11822
▁drivers	-11823
▁orgas	-11824
▁demain	-11825
▁délais	-11826
▁tremb	-11827
▁cookie	-11828
▁samples	-11829
▁gratuits	-11830
▁fonctionnaires	-11831
chair	-11832
▁indicates	-11833
▁perception	-11834
▁comités	-11835
minent	-11836
▁parlementaire	-11837
jean	-11838
béc	-11839
tw	-11840
▁arrêté	-11841
zation	-11842
▁difficiles	-11843
hour	-11844
▁réforme	-11845
▁caractères	-11846
▁scot	-11847
▁impose	-11848
▁sentence	-11849
▁inhabitants	-11850
▁glory	-11851
▁asset	-11852
▁faux	-11853
▁solidarity	-11854
▁cis	-11855
▁1.3	-11856
▁inoxydable	-11857
▁nit	-11858
▁agro	-11859
▁estimates	-11860
▁feat	-11861
▁chand	-11862
▁accommodations	-11863
▁pierres	-11864
vue	-11865
▁gay	-11866
▁liti	-11867
▁félic	-11868
▁manufactured	-11869
agerie	-11870
▁luck	-11871
▁douleur	-11872
▁ferrovi	-11873
▁buen	-11874
▁dévo	-11875
uée	-11876
inson	-11877
▁municipalité	-11878
41	-11879
rest	-11880
▁vio	-11881
▁nan	-11882
▁kenya	-11883
▁compétition	-11884
tés	-11885
▁cottage	-11886
▁husband	-11887
quarters	-11888
▁critiques	-11889
yau	-11890
▁dc	-11891
▁desired	-11892
enh	-11893
▁omb	-11894
▁médicale	-11895
▁législation	-11896
▁caisse	-11897
▁temporaire	-11898
▁équipé	-11899
▁préoccupations	-11900
▁proposées	-11901
▁tailles	-11902
enci	-11903
▁approprié	-11904
▁cic	-11905
iler	-11906
▁chrom	-11907
▁invité	-11908
▁élevés	-11909
▁immobili	-11910
ouc	-11911
▁moon	-11912
▁complement	-11913
▁remarque	-11914
▁operators	-11915
▁forêts	-11916
▁menaces	-11917
▁radical	-11918
iana	-11919
▁qualified	-11920
▁laid	-11921
ditation	-11922
érité	-11923
▁socio	-11924
▁mining	-11925
▁entraîner	-11926
▁plays	-11927
▁deemed	-11928
▁concluded	-11929
zone	-11930
▁échantillons	-11931
▁issu	-11932
▁ages	-11933
▁inclusion	-11934
▁toyota	-11935
▁épr	-11936
▁cruz	-11937
-2018	-11938
▁touristiques	-11939
▁decoration	-11940
ulsion	-11941
79	-11942
▁philosophy	-11943
▁comport	-11944
▁renewal	-11945
▁participe	-11946
▁transferred	-11947
▁jury	-11948
▁insuff	-11949
▁alexander	-11950
président	-11951
home	-11952
▁voyager	-11953
▁ignor	-11954
▁memor	-11955
▁solidarité	-11956
▁exercer	-11957
govern	-11958
▁trouvés	-11959
▁obtenez	-11960
▁fum	-11961
ignez	-11962
dictions	-11963
▁advisor	-11964
▁meets	-11965
appro	-11966
▁penet	-11967
▁exercices	-11968
46	-11969
▁interviews	-11970
83	-11971
▁harbour	-11972
▁communiqués	-11973
rix	-11974
▁croatia	-11975
▁jim	-11976
▁aient	-11977
▁salvador	-11978
▁accessibles	-11979
▁budg	-11980
▁productions	-11981
▁arrangement	-11982
▁amenities	-11983
▁henry	-11984
▁permanente	-11985
avar	-11986
▁races	-11987
▁sams	-11988
▁disposal	-11989
▁prescribed	-11990
▁incont	-11991
▁lieutenant	-11992
▁airlines	-11993
▁québéc	-11994
▁telecom	-11995
ersion	-11996
▁vraie	-11997
ouses	-11998
▁fame	-11999
lém	-12000
ication	-12001
▁constantly	-12002
▁tattoo	-12003
hz	-12004
▁théorie	-12005
vereign	-12006
▁assigned	-12007
▁syria	-12008
▁chiens	-12009
icing	-12010
▁hearts	-12011
ateral	-12012
▁accounting	-12013
▁cadeau	-12014
▁philosophie	-12015
▁deleted	-12016
▁wishes	-12017
▁heb	-12018
▁augmente	-12019
▁références	-12020
▁kam	-12021
▁admit	-12022
▁advers	-12023
▁infirm	-12024
▁mém	-12025
▁nest	-12026
but	-12027
▁siècles	-12028
▁traités	-12029
▁101	-12030
▁nuits	-12031
tein	-12032
lot	-12033
▁débit	-12034
▁répand	-12035
▁publiée	-12036
▁seats	-12037
▁updates	-12038
▁moses	-12039
▁cla	-12040
▁symbole	-12041
▁guided	-12042
▁unable	-12043
▁présentées	-12044
cht	-12045
▁gad	-12046
▁tasks	-12047
▁christop	-12048
ciplin	-12049
estine	-12050
▁preced	-12051
lage	-12052
▁imper	-12053
▁ker	-12054
▁nurs	-12055
▁céram	-12056
▁patrick	-12057
▁sovereign	-12058
▁gaza	-12059
▁sick	-12060
ails	-12061
▁gest	-12062
▁asi	-12063
▁lex	-12064
▁newspaper	-12065
▁notices	-12066
cour	-12067
▁effectuée	-12068
eta	-12069
▁stip	-12070
rison	-12071
▁holder	-12072
▁faculty	-12073
isters	-12074
▁severe	-12075
▁polish	-12076
agées	-12077
ographiques	-12078
▁chronic	-12079
▁mostly	-12080
▁recording	-12081
▁notion	-12082
▁folk	-12083
▁floors	-12084
▁voulons	-12085
▁princess	-12086
sten	-12087
▁billet	-12088
▁answered	-12089
▁colonne	-12090
▁déterminé	-12091
stream	-12092
▁aire	-12093
▁délégation	-12094
▁secondaire	-12095
bility	-12096
fam	-12097
▁étiquette	-12098
▁vern	-12099
▁grèce	-12100
▁conduire	-12101
▁autriche	-12102
▁rbc	-12103
▁committees	-12104
▁considers	-12105
▁81	-12106
▁diverse	-12107
▁réclam	-12108
umi	-12109
alisé	-12110
▁tracks	-12111
▁mécanismes	-12112
▁récente	-12113
▁exit	-12114
▁relevance	-12115
▁rappro	-12116
▁mentionné	-12117
▁ceremony	-12118
▁ecos	-12119
▁promenade	-12120
▁mys	-12121
▁répé	-12122
▁celebrate	-12123
isure	-12124
midi	-12125
▁warranty	-12126
▁rétro	-12127
▁viewed	-12128
▁ships	-12129
▁lands	-12130
▁médicaux	-12131
ito	-12132
▁spoken	-12133
▁concentrations	-12134
▁hr	-12135
▁refuse	-12136
-2013	-12137
▁analyser	-12138
blement	-12139
▁bottle	-12140
▁déclare	-12141
inery	-12142
▁toit	-12143
▁voudra	-12144
▁cave	-12145
ining	-12146
▁serves	-12147
▁preserv	-12148
▁looked	-12149
▁destroyed	-12150
▁contemporain	-12151
▁façons	-12152
▁matériau	-12153
▁magnificent	-12154
▁ence	-12155
▁chiffre	-12156
▁subventions	-12157
▁séqu	-12158
onnées	-12159
etary	-12160
▁lave	-12161
▁disclosure	-12162
▁souverain	-12163
ym	-12164
▁juan	-12165
▁allait	-12166
▁0,00	-12167
▁sco	-12168
▁savings	-12169
érale	-12170
▁amazon	-12171
chers	-12172
▁couche	-12173
▁wildlife	-12174
▁régionaux	-12175
angle	-12176
▁retrouve	-12177
érations	-12178
▁errors	-12179
▁prennent	-12180
▁épaisse	-12181
▁3.5	-12182
▁dual	-12183
▁seeing	-12184
▁ends	-12185
▁maintien	-12186
▁normalement	-12187
▁230	-12188
▁specialist	-12189
▁patron	-12190
▁accurate	-12191
▁220	-12192
▁notify	-12193
▁laissé	-12194
▁jordan	-12195
itely	-12196
▁procédé	-12197
▁sought	-12198
▁auberges	-12199
▁roule	-12200
▁régionale	-12201
▁auditor	-12202
▁japonais	-12203
▁livré	-12204
▁répartition	-12205
▁scar	-12206
▁nederlands	-12207
▁lingerie	-12208
▁reflè	-12209
▁détect	-12210
▁annulation	-12211
▁variables	-12212
▁submission	-12213
▁define	-12214
▁humanity	-12215
alie	-12216
orce	-12217
▁emotion	-12218
▁salari	-12219
ôtres	-12220
avier	-12221
▁batteries	-12222
▁espoir	-12223
▁observe	-12224
▁devenue	-12225
quin	-12226
▁arn	-12227
▁enseignants	-12228
▁plaque	-12229
▁réellement	-12230
▁applicables	-12231
▁importation	-12232
▁chanti	-12233
▁subscription	-12234
▁centuries	-12235
▁comprenant	-12236
omon	-12237
wear	-12238
acent	-12239
▁spécialisé	-12240
▁revenues	-12241
▁saisir	-12242
▁universities	-12243
ika	-12244
▁sudden	-12245
▁row	-12246
▁interdit	-12247
▁participated	-12248
rot	-12249
▁mentale	-12250
ierra	-12251
atrices	-12252
▁domes	-12253
▁rouges	-12254
▁témoignages	-12255
idemment	-12256
dem	-12257
▁broken	-12258
▁harvest	-12259
oints	-12260
▁bull	-12261
▁noct	-12262
▁écrite	-12263
▁ulté	-12264
▁cannes	-12265
▁providers	-12266
▁valent	-12267
▁lifestyle	-12268
▁échantillon	-12269
▁cheese	-12270
▁thermal	-12271
▁cbc	-12272
▁hath	-12273
▁fru	-12274
▁journaux	-12275
▁illustration	-12276
▁delegation	-12277
adel	-12278
▁paras	-12279
▁decorated	-12280
screen	-12281
▁hp	-12282
lesh	-12283
▁ceo	-12284
▁distinguish	-12285
▁vain	-12286
rions	-12287
▁réflexion	-12288
▁bassin	-12289
▁indications	-12290
▁highway	-12291
▁gloire	-12292
dd	-12293
▁ponti	-12294
▁totally	-12295
▁bourg	-12296
▁appartient	-12297
resse	-12298
▁representing	-12299
▁destiné	-12300
▁truck	-12301
▁carbone	-12302
▁renovated	-12303
fra	-12304
▁sensation	-12305
▁exposé	-12306
▁stratégiques	-12307
▁exhibitions	-12308
▁chien	-12309
▁christians	-12310
▁dîner	-12311
level	-12312
▁decrease	-12313
gram	-12314
▁acting	-12315
▁diamond	-12316
▁nucléaire	-12317
▁liaison	-12318
▁correctly	-12319
▁cruci	-12320
rees	-12321
▁argentina	-12322
▁syl	-12323
aron	-12324
▁consensus	-12325
▁ds	-12326
▁prochaines	-12327
▁directrices	-12328
▁spin	-12329
▁claude	-12330
▁plante	-12331
▁accepte	-12332
▁multitude	-12333
▁légère	-12334
▁butter	-12335
hai	-12336
▁aimed	-12337
▁exprimer	-12338
▁independence	-12339
▁épar	-12340
▁rsf	-12341
▁actuelles	-12342
▁carrier	-12343
▁pare	-12344
▁complaints	-12345
iries	-12346
▁amateurs	-12347
hop	-12348
▁écouter	-12349
▁undertaking	-12350
▁rembours	-12351
▁imperial	-12352
▁pensez	-12353
▁parameters	-12354
▁boliv	-12355
aks	-12356
ologies	-12357
▁demandeur	-12358
rov	-12359
▁couronne	-12360
▁advantages	-12361
▁normale	-12362
▁horaires	-12363
ceaux	-12364
▁forecast	-12365
▁rubber	-12366
▁immeuble	-12367
▁élaborer	-12368
▁alphab	-12369
▁erg	-12370
▁attractive	-12371
▁extend	-12372
▁diagram	-12373
▁liberal	-12374
▁lip	-12375
bio	-12376
alon	-12377
▁réelle	-12378
▁ale	-12379
▁weapons	-12380
▁privées	-12381
▁diesel	-12382
▁universitaire	-12383
▁blogs	-12384
▁fédéraux	-12385
▁strongly	-12386
bell	-12387
▁supervision	-12388
▁assu	-12389
▁minimale	-12390
▁1981	-12391
▁sensible	-12392
égal	-12393
▁usual	-12394
▁fighting	-12395
▁ascense	-12396
▁aussit	-12397
▁studios	-12398
▁sid	-12399
▁égalité	-12400
▁considérée	-12401
▁zero	-12402
▁pon	-12403
▁americ	-12404
▁conferences	-12405
▁agrandir	-12406
▁settlement	-12407
isons	-12408
▁classified	-12409
▁gestionnaire	-12410
▁quotidienne	-12411
▁clothing	-12412
-2012	-12413
▁langage	-12414
▁classiques	-12415
oble	-12416
master	-12417
▁shang	-12418
▁violations	-12419
▁universités	-12420
▁runs	-12421
mploy	-12422
▁chaînes	-12423
▁telecomm	-12424
▁fraî	-12425
▁cérémonie	-12426
▁besides	-12427
▁hide	-12428
asion	-12429
▁pt	-12430
▁samsung	-12431
bridge	-12432
▁bulgar	-12433
▁mathematic	-12434
▁appeler	-12435
▁transformer	-12436
ogen	-12437
▁era	-12438
▁fibres	-12439
▁généraux	-12440
looking	-12441
▁inflamm	-12442
gne	-12443
▁subsidi	-12444
▁madame	-12445
papers	-12446
ective	-12447
▁portal	-12448
▁culturelles	-12449
uine	-12450
▁dites	-12451
▁impressive	-12452
▁affirme	-12453
ataires	-12454
▁blessed	-12455
▁inex	-12456
▁aussitôt	-12457
▁noise	-12458
▁procéder	-12459
▁connaît	-12460
▁chairman	-12461
▁difficulties	-12462
▁brow	-12463
▁sri	-12464
▁boissons	-12465
▁1983	-12466
▁addresses	-12467
▁transparence	-12468
▁environs	-12469
▁originally	-12470
christ	-12471
▁clôt	-12472
▁absolutely	-12473
▁vaut	-12474
orrow	-12475
▁défend	-12476
▁maîtrise	-12477
▁mack	-12478
▁leisure	-12479
▁espère	-12480
▁exceptionnelle	-12481
▁rares	-12482
▁assum	-12483
gm	-12484
▁rul	-12485
ariats	-12486
▁penalty	-12487
▁simplic	-12488
▁reine	-12489
▁muscle	-12490
itis	-12491
lou	-12492
proof	-12493
▁zurich	-12494
kyo	-12495
▁honda	-12496
inement	-12497
▁inférieure	-12498
▁pairs	-12499
▁salaire	-12500
gia	-12501
▁jeh	-12502
▁gorge	-12503
▁physiques	-12504
▁horaire	-12505
▁alarm	-12506
enza	-12507
▁bref	-12508
ede	-12509
▁récupération	-12510
▁url	-12511
▁intermedi	-12512
▁1979	-12513
▁oubl	-12514
▁essentiels	-12515
▁torture	-12516
▁cathedral	-12517
▁différences	-12518
▁kay	-12519
▁vincent	-12520
▁acquired	-12521
gio	-12522
▁mauvaise	-12523
pie	-12524
▁nécessite	-12525
▁adjoint	-12526
▁till	-12527
▁climatique	-12528
veau	-12529
▁slee	-12530
▁périodes	-12531
▁proposés	-12532
▁gol	-12533
▁attente	-12534
éph	-12535
▁madagas	-12536
▁immigrants	-12537
▁transm	-12538
▁inac	-12539
▁hardware	-12540
▁dishes	-12541
cli	-12542
▁influenc	-12543
▁rim	-12544
▁ouverts	-12545
▁headquarters	-12546
▁navires	-12547
▁pétrole	-12548
▁avocats	-12549
aka	-12550
▁exposed	-12551
▁restent	-12552
dim	-12553
▁hospit	-12554
▁alf	-12555
▁mécanique	-12556
améric	-12557
▁married	-12558
▁parish	-12559
▁recommande	-12560
71	-12561
▁pear	-12562
▁atlas	-12563
titution	-12564
▁viande	-12565
▁doug	-12566
▁parfum	-12567
▁laurent	-12568
▁shapes	-12569
▁texture	-12570
ski	-12571
▁industriel	-12572
▁organised	-12573
▁sorti	-12574
oncer	-12575
▁acous	-12576
▁devront	-12577
▁indiquée	-12578
▁éliminer	-12579
▁sinc	-12580
▁horizontal	-12581
aining	-12582
▁exists	-12583
▁tomorrow	-12584
▁wedding	-12585
▁flesh	-12586
ommage	-12587
-2015	-12588
▁régler	-12589
▁inférieur	-12590
▁morocco	-12591
▁étiquettes	-12592
▁accompagner	-12593
bean	-12594
▁antonio	-12595
▁ric	-12596
▁tente	-12597
.15	-12598
▁volunt	-12599
▁subjects	-12600
▁automatis	-12601
▁contro	-12602
minist	-12603
▁inval	-12604
▁similaire	-12605
▁disabilities	-12606
▁devi	-12607
▁750	-12608
▁breast	-12609
▁calm	-12610
▁sièges	-12611
▁jewel	-12612
▁gathered	-12613
▁approfond	-12614
▁cathéd	-12615
▁grievor	-12616
▁ipad	-12617
▁pologne	-12618
▁équitation	-12619
str	-12620
▁outcomes	-12621
▁scolaire	-12622
▁manifestation	-12623
▁filt	-12624
▁réin	-12625
▁victim	-12626
lever	-12627
▁redu	-12628
▁bee	-12629
▁absolute	-12630
èdent	-12631
▁atom	-12632
▁preparing	-12633
▁soumission	-12634
ighte	-12635
▁antiv	-12636
▁mour	-12637
jardins	-12638
▁abonne	-12639
▁thread	-12640
▁volt	-12641
▁attentes	-12642
▁loan	-12643
▁murder	-12644
▁robust	-12645
▁cancellation	-12646
isible	-12647
▁mascul	-12648
▁traces	-12649
▁resc	-12650
▁4.5	-12651
▁revised	-12652
icale	-12653
▁lens	-12654
▁creates	-12655
fume	-12656
▁multic	-12657
▁grants	-12658
▁admissibles	-12659
▁occupe	-12660
sole	-12661
▁atté	-12662
▁countryside	-12663
▁widely	-12664
neau	-12665
▁texts	-12666
apeau	-12667
▁ford	-12668
onniers	-12669
▁firef	-12670
▁mart	-12671
▁twin	-12672
▁acceptez	-12673
▁enquêtes	-12674
▁assujet	-12675
▁believed	-12676
▁verte	-12677
▁completion	-12678
▁abou	-12679
▁enforcement	-12680
▁paralle	-12681
▁urgent	-12682
▁stan	-12683
▁détermination	-12684
▁compass	-12685
stes	-12686
nc	-12687
▁vienna	-12688
▁hills	-12689
-24	-12690
édé	-12691
ystem	-12692
▁pend	-12693
▁tubes	-12694
▁indoor	-12695
▁prest	-12696
▁opposite	-12697
▁graphic	-12698
▁obsc	-12699
▁minimal	-12700
▁armées	-12701
▁retrouv	-12702
▁tombe	-12703
▁crash	-12704
▁boss	-12705
▁bathrooms	-12706
▁damaged	-12707
▁biologique	-12708
▁architectural	-12709
rope	-12710
▁formations	-12711
▁aigu	-12712
▁loved	-12713
▁approaches	-12714
gate	-12715
▁fifth	-12716
▁naturellement	-12717
▁winning	-12718
▁colombia	-12719
▁suffer	-12720
▁captain	-12721
▁expectations	-12722
▁accusé	-12723
▁filtres	-12724
▁embar	-12725
▁sympath	-12726
▁efficacement	-12727
▁expir	-12728
▁couples	-12729
▁genti	-12730
tagne	-12731
▁departmental	-12732
72	-12733
▁réservations	-12734
▁afterno	-12735
▁encourager	-12736
▁corresponding	-12737
▁récupérer	-12738
▁cape	-12739
▁appell	-12740
▁bak	-12741
▁subsequent	-12742
▁tokyo	-12743
▁ouvrage	-12744
▁auxquels	-12745
▁panoram	-12746
▁designers	-12747
▁chrétien	-12748
night	-12749
▁1.0	-12750
▁weekly	-12751
▁ware	-12752
▁combatt	-12753
▁canap	-12754
▁tenant	-12755
▁dispositifs	-12756
▁reconnaiss	-12757
▁fré	-12758
▁labels	-12759
▁institutional	-12760
▁considering	-12761
ician	-12762
▁league	-12763
▁brush	-12764
▁expensive	-12765
▁intr	-12766
▁finds	-12767
▁placé	-12768
▁composée	-12769
▁satisfaire	-12770
▁madagascar	-12771
▁lau	-12772
▁wheels	-12773
▁complications	-12774
▁delicious	-12775
▁imagination	-12776
apping	-12777
▁philippines	-12778
▁credits	-12779
▁écart	-12780
▁révolutionnaire	-12781
▁sauce	-12782
▁recouv	-12783
▁exprim	-12784
▁recre	-12785
▁contribué	-12786
▁fiable	-12787
▁neutral	-12788
▁portefe	-12789
trans	-12790
regation	-12791
▁roads	-12792
▁leban	-12793
▁covering	-12794
▁libert	-12795
▁proposée	-12796
▁contribue	-12797
▁blogue	-12798
▁1950	-12799
▁rencontré	-12800
▁foss	-12801
rics	-12802
▁mené	-12803
lying	-12804
▁bagages	-12805
▁repose	-12806
▁organise	-12807
▁annuelles	-12808
▁2-	-12809
hamster	-12810
▁adri	-12811
▁rachel	-12812
▁éthique	-12813
shirt	-12814
▁grounds	-12815
▁indicateurs	-12816
▁transfers	-12817
▁xhamster	-12818
▁eric	-12819
▁négociation	-12820
contact	-12821
▁operated	-12822
▁demonstrate	-12823
ibly	-12824
▁majeure	-12825
▁contracting	-12826
▁refund	-12827
▁énorme	-12828
▁envoi	-12829
▁unity	-12830
▁pistes	-12831
▁constitutional	-12832
four	-12833
▁coopéra	-12834
▁disent	-12835
▁cbsa	-12836
▁pompe	-12837
▁tissus	-12838
▁grosse	-12839
▁exclusivement	-12840
▁phases	-12841
▁muscles	-12842
atie	-12843
-2014	-12844
▁studied	-12845
▁collectivité	-12846
▁couvert	-12847
▁pag	-12848
raire	-12849
▁placer	-12850
78	-12851
▁mirror	-12852
▁engaged	-12853
kt	-12854
▁météor	-12855
orf	-12856
▁écoute	-12857
▁euchar	-12858
▁lcd	-12859
mpu	-12860
▁kim	-12861
▁intitulé	-12862
▁cliniques	-12863
▁sculpture	-12864
▁connections	-12865
▁samuel	-12866
paul	-12867
▁fermé	-12868
▁promoting	-12869
▁involving	-12870
▁mechanisms	-12871
▁sierra	-12872
▁failed	-12873
▁francophone	-12874
▁enthus	-12875
▁extraordinary	-12876
▁garn	-12877
▁sharp	-12878
▁modify	-12879
▁asking	-12880
▁cree	-12881
urgie	-12882
▁bancaire	-12883
▁dogs	-12884
▁scoti	-12885
73	-12886
▁marks	-12887
▁équilib	-12888
▁desjardins	-12889
▁steam	-12890
▁legitim	-12891
▁diz	-12892
▁sevent	-12893
▁expressions	-12894
▁2.3	-12895
▁bourse	-12896
▁rubrique	-12897
▁provisoire	-12898
▁exclusion	-12899
▁enver	-12900
▁actuels	-12901
▁renforcement	-12902
▁destinés	-12903
▁élève	-12904
rust	-12905
▁disk	-12906
▁partition	-12907
tige	-12908
being	-12909
▁neighbor	-12910
▁violent	-12911
▁silic	-12912
▁indépendance	-12913
▁refriger	-12914
▁highlights	-12915
▁happens	-12916
▁investisseurs	-12917
▁admis	-12918
▁faculté	-12919
▁transparency	-12920
▁dust	-12921
▁journalist	-12922
▁hésitez	-12923
▁estimation	-12924
▁semblent	-12925
▁parlementaires	-12926
▁spécialistes	-12927
lles	-12928
cover	-12929
▁113	-12930
py	-12931
oty	-12932
▁réal	-12933
▁religions	-12934
▁sentir	-12935
▁parvenir	-12936
▁illness	-12937
orteur	-12938
▁procureur	-12939
▁faster	-12940
▁pond	-12941
▁assister	-12942
▁fantastic	-12943
▁hell	-12944
▁founder	-12945
ogram	-12946
▁ronde	-12947
▁receip	-12948
▁whereas	-12949
▁tow	-12950
▁fisheries	-12951
▁alternatives	-12952
ictions	-12953
▁plaintes	-12954
▁metrop	-12955
▁pert	-12956
▁4-	-12957
adi	-12958
▁bh	-12959
▁voudrais	-12960
▁souv	-12961
▁pneum	-12962
▁eternal	-12963
pack	-12964
▁allemande	-12965
▁precise	-12966
▁organisée	-12967
▁selling	-12968
▁integrity	-12969
.200	-12970
▁éche	-12971
▁winner	-12972
produ	-12973
▁whis	-12974
▁évidemment	-12975
urity	-12976
▁entity	-12977
▁soutenu	-12978
opol	-12979
▁statue	-12980
▁emerging	-12981
▁confirmer	-12982
▁intégrée	-12983
▁pist	-12984
▁tha	-12985
uds	-12986
▁fed	-12987
▁alter	-12988
▁kings	-12989
▁triple	-12990
▁faces	-12991
▁ordinateurs	-12992
▁examiné	-12993
iche	-12994
▁rotation	-12995
irts	-12996
.03	-12997
tici	-12998
▁vocation	-12999
ilé	-13000
▁moto	-13001
▁aéroports	-13002
▁cogn	-13003
▁chocolate	-13004
▁communicate	-13005
cio	-13006
▁bush	-13007
▁respectivement	-13008
▁busc	-13009
▁sommaire	-13010
▁juda	-13011
▁1.4	-13012
▁juges	-13013
▁dure	-13014
▁considère	-13015
▁souligne	-13016
▁externes	-13017
pn	-13018
▁requise	-13019
▁flood	-13020
aired	-13021
▁divin	-13022
éch	-13023
▁surviv	-13024
▁passenger	-13025
▁limiter	-13026
web	-13027
▁1.	-13028
▁leon	-13029
▁chaleure	-13030
▁clip	-13031
▁prospect	-13032
▁rug	-13033
▁ft	-13034
apped	-13035
▁announce	-13036
▁bruit	-13037
▁hauts	-13038
▁connaissez	-13039
erner	-13040
▁fondateur	-13041
▁exceptions	-13042
▁céré	-13043
▁atteinte	-13044
▁réfléch	-13045
▁extraordinaire	-13046
▁réperc	-13047
▁carburant	-13048
▁histoires	-13049
▁commonly	-13050
▁anavar	-13051
▁israeli	-13052
▁voulu	-13053
oca	-13054
▁futures	-13055
▁faisons	-13056
▁masses	-13057
aa	-13058
ups	-13059
▁composer	-13060
▁blancs	-13061
▁californie	-13062
▁gul	-13063
▁mgr	-13064
oivent	-13065
▁afternoon	-13066
84	-13067
▁sinon	-13068
▁stric	-13069
▁commod	-13070
lia	-13071
▁assume	-13072
▁susceptibles	-13073
▁soutient	-13074
▁synchron	-13075
▁downtown	-13076
books	-13077
▁rémunération	-13078
▁vegetables	-13079
etooth	-13080
▁guér	-13081
▁haw	-13082
▁exh	-13083
▁respectively	-13084
inf	-13085
▁pipe	-13086
▁dominic	-13087
▁roles	-13088
▁promp	-13089
▁indicators	-13090
▁trente	-13091
weight	-13092
▁meals	-13093
▁gîte	-13094
..	-13095
▁entreten	-13096
▁élu	-13097
▁react	-13098
▁argentine	-13099
ido	-13100
▁copper	-13101
▁conde	-13102
▁expliqué	-13103
▁montrent	-13104
▁servants	-13105
▁recommandons	-13106
phe	-13107
▁closer	-13108
▁decades	-13109
▁interval	-13110
▁kilomet	-13111
▁fidé	-13112
▁verd	-13113
▁increasingly	-13114
▁déroul	-13115
▁paysages	-13116
▁majeur	-13117
▁precis	-13118
▁chute	-13119
▁generate	-13120
▁établie	-13121
ertion	-13122
▁fini	-13123
▁azer	-13124
▁connecté	-13125
▁5-	-13126
▁consulting	-13127
▁fern	-13128
▁bog	-13129
▁deviennent	-13130
▁vista	-13131
▁nunav	-13132
▁blanch	-13133
▁exemption	-13134
bury	-13135
▁bug	-13136
esseurs	-13137
▁remis	-13138
▁cosm	-13139
▁accessibilité	-13140
▁materia	-13141
onnage	-13142
▁gly	-13143
▁dessins	-13144
▁pinter	-13145
▁ile	-13146
▁cathédrale	-13147
▁reaction	-13148
▁partnerships	-13149
▁dublin	-13150
▁apparent	-13151
▁regards	-13152
▁tong	-13153
uario	-13154
▁prelim	-13155
▁featuring	-13156
▁esth	-13157
ifying	-13158
▁technological	-13159
▁valuable	-13160
uan	-13161
▁jouets	-13162
uay	-13163
▁arche	-13164
saint	-13165
▁2,5	-13166
▁tos	-13167
▁teen	-13168
▁abd	-13169
▁smartphones	-13170
front	-13171
xy	-13172
▁angeles	-13173
▁chol	-13174
▁signaler	-13175
mens	-13176
▁realize	-13177
uela	-13178
▁eh	-13179
▁classical	-13180
▁turkish	-13181
▁hers	-13182
yers	-13183
▁179	-13184
▁sollic	-13185
▁adequate	-13186
▁superficie	-13187
▁présidente	-13188
▁acknowled	-13189
fono	-13190
▁anciennes	-13191
▁réservé	-13192
▁freder	-13193
▁naturally	-13194
▁attended	-13195
▁connus	-13196
quemment	-13197
▁ampli	-13198
▁escape	-13199
▁contribu	-13200
▁chris	-13201
▁agences	-13202
▁bluetooth	-13203
▁voire	-13204
▁closing	-13205
▁limité	-13206
▁imposition	-13207
▁onu	-13208
motions	-13209
▁paquet	-13210
▁disposent	-13211
hips	-13212
▁permitted	-13213
▁zeal	-13214
▁enhanced	-13215
eland	-13216
▁députés	-13217
▁circons	-13218
aret	-13219
après	-13220
▁preuves	-13221
▁solaire	-13222
fie	-13223
▁witnesses	-13224
▁optional	-13225
▁precious	-13226
oked	-13227
▁pse	-13228
▁mutual	-13229
▁souffle	-13230
▁drinking	-13231
▁uso	-13232
isa	-13233
▁buscando	-13234
link	-13235
▁putting	-13236
▁politici	-13237
▁neighbourhood	-13238
▁charger	-13239
▁doté	-13240
▁dakar	-13241
▁reprises	-13242
▁déplacement	-13243
▁mali	-13244
▁arrested	-13245
▁spirituelle	-13246
▁prosp	-13247
▁conçue	-13248
▁folder	-13249
▁liver	-13250
▁newly	-13251
▁accusation	-13252
xx	-13253
▁personnages	-13254
▁noctur	-13255
▁necessarily	-13256
▁syrie	-13257
▁monnaie	-13258
▁moist	-13259
▁hommage	-13260
▁sauver	-13261
▁rappeler	-13262
▁sig	-13263
82	-13264
fiez	-13265
▁officiellement	-13266
len	-13267
ènements	-13268
▁gn	-13269
▁maz	-13270
▁abb	-13271
▁matt	-13272
▁conçus	-13273
▁airports	-13274
▁interrog	-13275
fall	-13276
▁involvement	-13277
▁defense	-13278
▁adverti	-13279
▁convertis	-13280
▁convin	-13281
▁scrip	-13282
▁prévisions	-13283
▁ere	-13284
▁renaissance	-13285
▁fixer	-13286
akh	-13287
▁receives	-13288
▁indirect	-13289
itives	-13290
wich	-13291
▁bours	-13292
▁fc	-13293
▁sisters	-13294
▁lampe	-13295
oupes	-13296
ighten	-13297
▁apparition	-13298
▁unis	-13299
▁donde	-13300
▁mesurer	-13301
▁dispute	-13302
▁devoted	-13303
▁nose	-13304
▁détection	-13305
▁buenos	-13306
▁descriptions	-13307
▁1978	-13308
issage	-13309
▁découvert	-13310
▁promise	-13311
andes	-13312
▁producer	-13313
▁envie	-13314
▁thoughts	-13315
▁ais	-13316
ishing	-13317
ineau	-13318
▁trig	-13319
▁obl	-13320
▁buying	-13321
▁mcgill	-13322
▁guill	-13323
▁dragon	-13324
▁usuario	-13325
▁pod	-13326
▁pinterest	-13327
▁lisez	-13328
▁enlarge	-13329
▁precisely	-13330
▁confusion	-13331
▁demo	-13332
▁tum	-13333
▁correspondent	-13334
▁mandatory	-13335
ycle	-13336
pping	-13337
▁singapore	-13338
▁fleet	-13339
▁enviar	-13340
.05	-13341
▁simulation	-13342
▁cycling	-13343
▁économies	-13344
weh	-13345
▁estoy	-13346
▁revel	-13347
▁sofa	-13348
▁telé	-13349
▁uniques	-13350
▁machinery	-13351
▁transmettre	-13352
▁campsites	-13353
▁browse	-13354
▁capsules	-13355
▁santi	-13356
▁essentielle	-13357
▁presid	-13358
▁appropriée	-13359
▁vessels	-13360
▁producci	-13361
▁fatigue	-13362
orisation	-13363
▁indépendants	-13364
bab	-13365
▁chaude	-13366
▁inventory	-13367
tisme	-13368
▁twice	-13369
▁cache	-13370
▁constante	-13371
▁devriez	-13372
▁écriture	-13373
▁assis	-13374
▁citizen	-13375
rey	-13376
▁teléfono	-13377
▁nave	-13378
▁generations	-13379
▁opcional	-13380
▁lacs	-13381
▁revender	-13382
▁alla	-13383
▁conjug	-13384
▁graines	-13385
iseur	-13386
▁rogers	-13387
▁frat	-13388
▁inuit	-13389
▁owned	-13390
▁initiale	-13391
▁ron	-13392
▁tech	-13393
▁voud	-13394
▁kal	-13395
▁constamment	-13396
▁thirty	-13397
▁civils	-13398
onial	-13399
▁exceptionnel	-13400
acte	-13401
jaculation	-13402
▁stun	-13403
▁pia	-13404
▁étendue	-13405
▁spécialisés	-13406
▁aged	-13407
▁localisation	-13408
▁dorm	-13409
isations	-13410
yt	-13411
▁célébr	-13412
▁bilingual	-13413
ticed	-13414
▁doig	-13415
▁vierge	-13416
enon	-13417
▁circuits	-13418
▁unions	-13419
▁minib	-13420
def	-13421
▁random	-13422
▁cadres	-13423
dame	-13424
▁developments	-13425
esthe	-13426
▁rapides	-13427
▁og	-13428
▁len	-13429
▁subsid	-13430
disciplin	-13431
▁exclusively	-13432
▁boards	-13433
pin	-13434
▁conqu	-13435
▁warn	-13436
▁desert	-13437
cap	-13438
▁sweden	-13439
▁oven	-13440
▁collaborateurs	-13441
▁précieux	-13442
enser	-13443
zza	-13444
▁taught	-13445
▁dealing	-13446
▁opéra	-13447
▁cargo	-13448
abilitation	-13449
▁controvers	-13450
▁sic	-13451
apper	-13452
▁powder	-13453
▁sounds	-13454
ecd	-13455
▁validation	-13456
▁suppression	-13457
▁écos	-13458
▁revient	-13459
▁slot	-13460
vol	-13461
▁paintings	-13462
pol	-13463
▁fleuve	-13464
inks	-13465
general	-13466
▁envies	-13467
▁accessibility	-13468
▁hence	-13469
▁remplacé	-13470
▁variation	-13471
ovah	-13472
▁partenariats	-13473
▁régimes	-13474
▁secondaires	-13475
▁eventually	-13476
▁soulev	-13477
▁roues	-13478
▁gib	-13479
lad	-13480
▁asfc	-13481
▁qc	-13482
▁hospitality	-13483
▁preliminary	-13484
▁superb	-13485
étér	-13486
▁corro	-13487
▁ct	-13488
izer	-13489
dri	-13490
▁memorial	-13491
▁puzzle	-13492
▁biological	-13493
ousin	-13494
▁liability	-13495
▁abol	-13496
▁announcement	-13497
▁lawyer	-13498
found	-13499
▁fellow	-13500
▁panama	-13501
rane	-13502
▁réservés	-13503
▁absent	-13504
▁biais	-13505
▁worker	-13506
▁meant	-13507
▁regret	-13508
▁sanctions	-13509
ènement	-13510
▁chocolat	-13511
▁exciting	-13512
▁églises	-13513
▁textile	-13514
▁semblable	-13515
ignons	-13516
▁pvc	-13517
▁intégrité	-13518
laur	-13519
▁consciousness	-13520
▁boost	-13521
gène	-13522
▁investors	-13523
▁susc	-13524
▁ajoutée	-13525
▁mau	-13526
▁sacred	-13527
▁préparé	-13528
▁fabriqué	-13529
▁sortes	-13530
▁bb	-13531
▁bonheur	-13532
▁apostles	-13533
alised	-13534
▁offrons	-13535
▁reward	-13536
ee	-13537
▁helpful	-13538
▁guil	-13539
▁eating	-13540
▁minority	-13541
▁diplôme	-13542
urrent	-13543
▁repeated	-13544
hen	-13545
ht	-13546
▁screening	-13547
onomic	-13548
▁clothes	-13549
▁yahweh	-13550
▁symph	-13551
▁console	-13552
▁bing	-13553
entiel	-13554
▁alain	-13555
▁couvrir	-13556
▁excessive	-13557
▁api	-13558
worth	-13559
▁ceramic	-13560
▁circle	-13561
▁1-8	-13562
▁enthusias	-13563
▁autorisés	-13564
▁chile	-13565
▁ascenseur	-13566
▁therapy	-13567
▁fêtes	-13568
▁consacré	-13569
▁resident	-13570
inth	-13571
▁korea	-13572
▁constaté	-13573
▁pertes	-13574
▁photographs	-13575
▁targets	-13576
reb	-13577
▁precision	-13578
▁harmonie	-13579
▁annuels	-13580
▁raj	-13581
▁faibles	-13582
ôtre	-13583
▁intu	-13584
tica	-13585
▁italienne	-13586
▁flexibility	-13587
▁sensor	-13588
.04	-13589
▁lovely	-13590
▁restre	-13591
▁indiquant	-13592
▁douze	-13593
chau	-13594
▁chlor	-13595
▁ratings	-13596
▁protein	-13597
▁canton	-13598
▁liban	-13599
▁hybrid	-13600
▁malta	-13601
▁complainant	-13602
▁éventail	-13603
quants	-13604
urés	-13605
▁hin	-13606
▁effectivement	-13607
olitan	-13608
▁musulmans	-13609
▁listing	-13610
▁spécialiste	-13611
▁ethic	-13612
▁degrees	-13613
▁possibilities	-13614
▁medication	-13615
▁mall	-13616
▁olivier	-13617
▁4.3	-13618
▁marx	-13619
▁optique	-13620
▁possess	-13621
elve	-13622
▁indice	-13623
quement	-13624
▁regardless	-13625
▁formé	-13626
▁turning	-13627
▁conviv	-13628
▁détention	-13629
▁nou	-13630
rue	-13631
▁sexuelle	-13632
▁costume	-13633
▁réduite	-13634
▁dangereux	-13635
▁sending	-13636
▁boulevard	-13637
ulous	-13638
▁stones	-13639
▁measured	-13640
ocal	-13641
▁galaxy	-13642
▁relaxation	-13643
▁astr	-13644
utilis	-13645
▁injection	-13646
▁knowing	-13647
aneous	-13648
▁sculptures	-13649
▁egyp	-13650
▁catch	-13651
▁honey	-13652
▁rough	-13653
▁hack	-13654
▁listes	-13655
▁routine	-13656
cence	-13657
▁évidence	-13658
▁processed	-13659
▁portra	-13660
▁occurrence	-13661
▁lendem	-13662
▁extrait	-13663
▁remporté	-13664
▁attaques	-13665
▁cara	-13666
▁sév	-13667
▁cather	-13668
▁lesbian	-13669
▁islamic	-13670
érez	-13671
▁dame	-13672
erts	-13673
▁téléchargez	-13674
▁vive	-13675
▁incorre	-13676
▁nez	-13677
▁prophet	-13678
▁lind	-13679
èses	-13680
▁zen	-13681
▁consultant	-13682
conf	-13683
▁gentle	-13684
▁produite	-13685
▁alerte	-13686
▁adresses	-13687
▁régionales	-13688
▁contrairement	-13689
▁mans	-13690
▁qualifi	-13691
▁sentier	-13692
▁rivers	-13693
▁illus	-13694
itée	-13695
▁favorites	-13696
▁générations	-13697
atar	-13698
▁exigence	-13699
▁ordinaire	-13700
▁wisdom	-13701
▁êtres	-13702
▁crossing	-13703
▁forgotten	-13704
▁decline	-13705
▁religieuse	-13706
ighter	-13707
▁trin	-13708
▁céramique	-13709
▁cinquième	-13710
asy	-13711
▁bandes	-13712
etes	-13713
▁instances	-13714
▁géographique	-13715
▁interactions	-13716
▁lecteurs	-13717
▁apôtres	-13718
▁maman	-13719
▁écosyst	-13720
▁passing	-13721
▁10-	-13722
▁functionality	-13723
▁josé	-13724
▁laus	-13725
▁robin	-13726
▁aimerais	-13727
▁récentes	-13728
▁nato	-13729
▁emplacements	-13730
▁tablet	-13731
▁responses	-13732
▁cotis	-13733
▁limitations	-13734
liness	-13735
mph	-13736
market	-13737
▁targeted	-13738
▁courrier	-13739
osing	-13740
▁délég	-13741
▁agress	-13742
▁surroundings	-13743
▁adaptés	-13744
gery	-13745
▁relatif	-13746
▁budgets	-13747
power	-13748
▁déplacer	-13749
orique	-13750
▁sécurisé	-13751
▁administer	-13752
▁reserves	-13753
▁condemn	-13754
▁réserves	-13755
▁évalué	-13756
▁irak	-13757
▁luxur	-13758
▁commandement	-13759
▁tib	-13760
▁trials	-13761
▁lyn	-13762
▁salvation	-13763
▁regroup	-13764
▁inquiry	-13765
▁capitaine	-13766
mg	-13767
▁1975	-13768
▁fenêtres	-13769
▁keywords	-13770
▁norv	-13771
▁pères	-13772
▁refroid	-13773
rows	-13774
▁ambiti	-13775
81	-13776
▁ordinary	-13777
-21	-13778
▁miti	-13779
▁latine	-13780
▁considérer	-13781
-199	-13782
▁lendemain	-13783
▁shanghai	-13784
▁ench	-13785
▁omn	-13786
▁dwell	-13787
cre	-13788
étaires	-13789
▁spare	-13790
▁shore	-13791
▁arrond	-13792
▁shipment	-13793
ovis	-13794
▁sms	-13795
uxe	-13796
▁conviction	-13797
▁néglig	-13798
octo	-13799
▁menac	-13800
▁désert	-13801
▁entering	-13802
irie	-13803
▁135	-13804
▁everywhere	-13805
▁envelopp	-13806
▁elsewhere	-13807
▁achet	-13808
▁paradise	-13809
▁tunnel	-13810
iat	-13811
▁plur	-13812
igned	-13813
▁oublier	-13814
▁ensures	-13815
▁génie	-13816
▁tall	-13817
zzi	-13818
▁cors	-13819
▁concr	-13820
▁romantic	-13821
▁sustainability	-13822
▁incon	-13823
▁occurs	-13824
opes	-13825
date	-13826
inent	-13827
▁richesse	-13828
nt	-13829
▁renomm	-13830
▁veiller	-13831
▁relie	-13832
▁couvre	-13833
▁typically	-13834
▁charl	-13835
▁catherine	-13836
▁benj	-13837
▁recon	-13838
▁rédaction	-13839
▁pizza	-13840
▁établit	-13841
lication	-13842
▁scrut	-13843
grés	-13844
▁fathers	-13845
▁bench	-13846
▁preview	-13847
ativité	-13848
▁sheets	-13849
▁inad	-13850
▁commis	-13851
▁gliss	-13852
▁confirmé	-13853
▁particulières	-13854
▁presidency	-13855
▁vegas	-13856
pan	-13857
pg	-13858
▁stal	-13859
▁ending	-13860
▁volati	-13861
▁présentant	-13862
▁récip	-13863
▁plugin	-13864
▁preach	-13865
▁shock	-13866
ativity	-13867
▁physi	-13868
▁bachel	-13869
▁intéressé	-13870
▁magnetic	-13871
utée	-13872
▁legs	-13873
▁tells	-13874
▁venise	-13875
▁complémentaires	-13876
▁urbain	-13877
▁évo	-13878
▁palestinian	-13879
▁individually	-13880
▁défendre	-13881
▁alger	-13882
▁fragr	-13883
▁plane	-13884
▁entrez	-13885
▁louv	-13886
▁henri	-13887
▁plaques	-13888
▁abonnement	-13889
▁vén	-13890
lays	-13891
endront	-13892
▁adobe	-13893
alisée	-13894
▁modifiée	-13895
rapher	-13896
▁découl	-13897
marie	-13898
▁reconnaît	-13899
▁ka	-13900
cas	-13901
alistic	-13902
▁partagez	-13903
▁pois	-13904
▁encounter	-13905
tée	-13906
tone	-13907
▁compléter	-13908
rator	-13909
▁mayor	-13910
▁celeb	-13911
▁litres	-13912
▁suivent	-13913
▁soum	-13914
onome	-13915
▁fitted	-13916
▁smoking	-13917
▁incroyable	-13918
▁continental	-13919
utors	-13920
▁fabricants	-13921
▁homolog	-13922
dig	-13923
▁improvements	-13924
▁portent	-13925
▁dial	-13926
▁marsh	-13927
èvre	-13928
▁imposed	-13929
▁rams	-13930
▁désigné	-13931
▁admissible	-13932
▁seminar	-13933
▁terrible	-13934
▁musc	-13935
lettes	-13936
▁xbox	-13937
▁cylind	-13938
▁montres	-13939
▁powered	-13940
▁undertaken	-13941
▁yours	-13942
▁arrest	-13943
▁encad	-13944
▁éloign	-13945
▁hav	-13946
▁logistics	-13947
▁héritage	-13948
▁victime	-13949
▁scotia	-13950
▁fournies	-13951
▁menus	-13952
▁accompagné	-13953
▁troph	-13954
▁essentielles	-13955
▁prépare	-13956
▁applicants	-13957
▁coffre	-13958
▁israéli	-13959
anbul	-13960
▁entraîne	-13961
▁phénomène	-13962
▁mange	-13963
▁explor	-13964
▁rez	-13965
▁horm	-13966
▁hug	-13967
▁cumul	-13968
▁producing	-13969
▁patterns	-13970
▁itinéraire	-13971
▁kee	-13972
▁culturels	-13973
days	-13974
▁maintaining	-13975
▁grown	-13976
▁escl	-13977
▁payable	-13978
▁reinfor	-13979
▁laund	-13980
▁panels	-13981
▁littérature	-13982
▁marqué	-13983
▁moyennes	-13984
▁xix	-13985
▁watches	-13986
▁phrase	-13987
▁alleged	-13988
chester	-13989
▁testimony	-13990
rade	-13991
outch	-13992
▁kosovo	-13993
▁cerveau	-13994
▁claimed	-13995
▁chrétienne	-13996
▁proclam	-13997
▁résist	-13998
▁restore	-13999
lib	-14000
▁supplied	-14001
ographer	-14002
▁bav	-14003
▁retrait	-14004
▁specify	-14005
▁allocation	-14006
platz	-14007
▁mystery	-14008
▁measuring	-14009
encia	-14010
▁contamination	-14011
▁dys	-14012
arians	-14013
▁pull	-14014
▁123	-14015
▁tay	-14016
▁riviera	-14017
▁acide	-14018
▁ae	-14019
▁bénéd	-14020
▁souvenirs	-14021
print	-14022
▁sins	-14023
▁abund	-14024
▁séances	-14025
▁linguistique	-14026
▁portefeuille	-14027
▁taxation	-14028
uding	-14029
▁ward	-14030
▁arabic	-14031
▁démarche	-14032
tifications	-14033
▁reservations	-14034
casts	-14035
endum	-14036
▁shift	-14037
▁gagné	-14038
rooms	-14039
▁everyday	-14040
▁réag	-14041
▁biom	-14042
jug	-14043
▁corporations	-14044
▁voulait	-14045
▁considerable	-14046
▁construite	-14047
▁medal	-14048
▁scientists	-14049
▁parallel	-14050
▁recevez	-14051
liques	-14052
▁fédérales	-14053
▁botan	-14054
▁photothèque	-14055
tery	-14056
gel	-14057
▁spray	-14058
itary	-14059
▁lam	-14060
▁brochure	-14061
▁recrutement	-14062
▁trump	-14063
▁loyalty	-14064
lène	-14065
▁commissions	-14066
uma	-14067
▁forts	-14068
▁sagesse	-14069
▁apprécier	-14070
▁herb	-14071
74	-14072
stone	-14073
▁twelve	-14074
holm	-14075
▁donnez	-14076
▁240	-14077
lisher	-14078
▁prosper	-14079
▁reprise	-14080
▁mercy	-14081
▁hybri	-14082
▁vouloir	-14083
▁judges	-14084
ijing	-14085
▁échéant	-14086
gués	-14087
▁pets	-14088
▁africaine	-14089
▁entité	-14090
icking	-14091
▁employed	-14092
▁stad	-14093
etteur	-14094
▁lune	-14095
▁treatments	-14096
▁calculated	-14097
▁contiennent	-14098
▁caution	-14099
▁underground	-14100
gor	-14101
ographical	-14102
▁kw	-14103
▁smoke	-14104
▁featured	-14105
▁comprises	-14106
▁introduce	-14107
▁supérieurs	-14108
▁stocks	-14109
▁précip	-14110
▁avo	-14111
▁exped	-14112
▁petro	-14113
▁évident	-14114
▁interrup	-14115
▁religieuses	-14116
brunswick	-14117
amar	-14118
▁doubles	-14119
▁positif	-14120
▁hamilton	-14121
▁moindre	-14122
called	-14123
▁remarquable	-14124
▁acry	-14125
▁évènements	-14126
▁plongée	-14127
▁graisse	-14128
▁restruct	-14129
▁perpét	-14130
▁traditionnels	-14131
anth	-14132
▁fréquemment	-14133
▁scott	-14134
▁1976	-14135
-2011	-14136
▁bonn	-14137
▁prélim	-14138
▁beth	-14139
▁evangel	-14140
▁istanbul	-14141
▁helic	-14142
▁opportunité	-14143
hy	-14144
▁officially	-14145
▁symbols	-14146
▁progression	-14147
▁photographies	-14148
▁challeng	-14149
▁rive	-14150
▁holland	-14151
▁équivalent	-14152
▁mettant	-14153
▁computers	-14154
▁1973	-14155
▁jane	-14156
▁unus	-14157
▁tomber	-14158
▁pouvaient	-14159
▁franco	-14160
▁sb	-14161
▁saving	-14162
▁illegal	-14163
▁bert	-14164
▁lodge	-14165
▁prophète	-14166
▁finland	-14167
▁exécuter	-14168
▁peru	-14169
▁scholars	-14170
onic	-14171
ancer	-14172
▁ecological	-14173
▁séminaires	-14174
▁caribbean	-14175
▁appelés	-14176
▁jehovah	-14177
▁artificial	-14178
▁orchestre	-14179
▁austin	-14180
▁retro	-14181
▁préven	-14182
▁137	-14183
▁cesse	-14184
▁séries	-14185
▁épreuve	-14186
▁fréquent	-14187
shot	-14188
▁confirme	-14189
▁3000	-14190
▁référ	-14191
▁révélé	-14192
▁disciplines	-14193
▁symboles	-14194
cette	-14195
▁lawyers	-14196
▁assurez	-14197
▁publier	-14198
▁croatie	-14199
.25	-14200
▁fidélité	-14201
▁ownership	-14202
▁vacu	-14203
▁armen	-14204
▁sauvage	-14205
▁fratern	-14206
▁payé	-14207
▁detect	-14208
bach	-14209
▁degrés	-14210
▁adulte	-14211
▁divisions	-14212
▁tourner	-14213
mention	-14214
▁grains	-14215
▁sanction	-14216
▁php	-14217
▁gap	-14218
▁dériv	-14219
▁dealer	-14220
▁injury	-14221
▁méditerranée	-14222
▁répercussions	-14223
▁axe	-14224
▁thro	-14225
▁moscow	-14226
▁forests	-14227
▁flying	-14228
▁trag	-14229
▁restored	-14230
quently	-14231
▁consequently	-14232
anna	-14233
▁nr	-14234
while	-14235
▁récon	-14236
▁monaster	-14237
vable	-14238
▁disques	-14239
▁macro	-14240
▁centers	-14241
▁chairs	-14242
▁sard	-14243
▁hautes	-14244
▁représenter	-14245
▁organize	-14246
▁trained	-14247
▁commerces	-14248
▁équitable	-14249
▁prétend	-14250
▁contrôles	-14251
▁controller	-14252
▁quartiers	-14253
una	-14254
oule	-14255
▁panorama	-14256
▁lâ	-14257
▁appuyez	-14258
friendly	-14259
▁examined	-14260
▁réjou	-14261
▁equality	-14262
▁teneur	-14263
▁sélectionné	-14264
▁vétér	-14265
▁firefox	-14266
▁élabor	-14267
▁1945	-14268
▁enterprises	-14269
born	-14270
▁demonstrated	-14271
▁hob	-14272
▁marty	-14273
▁rico	-14274
▁fidèles	-14275
ieval	-14276
▁primaire	-14277
▁wordpress	-14278
▁ipod	-14279
▁ost	-14280
▁souris	-14281
▁drinks	-14282
▁involves	-14283
▁celebration	-14284
xion	-14285
▁turns	-14286
▁communs	-14287
▁robot	-14288
▁db	-14289
▁brigade	-14290
▁caoutch	-14291
▁nunavut	-14292
▁describes	-14293
▁bmw	-14294
▁toucher	-14295
▁apparence	-14296
▁colonial	-14297
▁resistant	-14298
▁insist	-14299
hem	-14300
leton	-14301
▁prestigious	-14302
▁volunteers	-14303
▁pluie	-14304
▁mène	-14305
timent	-14306
édie	-14307
▁greatly	-14308
▁cana	-14309
▁3.3	-14310
▁cfia	-14311
▁noble	-14312
▁constitué	-14313
ueuse	-14314
▁continuent	-14315
audi	-14316
▁organes	-14317
▁tchèque	-14318
▁resulted	-14319
▁ern	-14320
▁créateur	-14321
iconque	-14322
▁exhaus	-14323
▁discounts	-14324
▁fores	-14325
▁campings	-14326
▁tapis	-14327
▁kilometres	-14328
▁législatives	-14329
▁honduras	-14330
▁dominican	-14331
▁toul	-14332
▁électro	-14333
pas	-14334
opt	-14335
èvement	-14336
▁rupture	-14337
énie	-14338
chon	-14339
onter	-14340
▁clo	-14341
▁beijing	-14342
▁prêtres	-14343
▁ethics	-14344
▁remont	-14345
▁limitation	-14346
bis	-14347
▁amarillas	-14348
▁boys	-14349
▁pause	-14350
▁tatou	-14351
president	-14352
▁randonnée	-14353
aked	-14354
etti	-14355
▁devaient	-14356
umph	-14357
▁aaron	-14358
▁branche	-14359
▁améliorations	-14360
▁interim	-14361
▁étonn	-14362
iante	-14363
▁gil	-14364
tax	-14365
▁georges	-14366
ben	-14367
inés	-14368
▁accordé	-14369
▁kat	-14370
▁lobby	-14371
▁canapé	-14372
▁laundry	-14373
▁impéri	-14374
▁normand	-14375
▁individuelle	-14376
▁relais	-14377
▁incredible	-14378
▁wholes	-14379
▁écrits	-14380
icious	-14381
▁crises	-14382
▁pratiquement	-14383
▁loire	-14384
▁careers	-14385
▁binary	-14386
▁habitude	-14387
▁ferroviaire	-14388
▁suicide	-14389
▁toilette	-14390
sol	-14391
▁irrit	-14392
▁caractéristique	-14393
▁accomplir	-14394
▁1500	-14395
▁mineral	-14396
▁obviously	-14397
▁individu	-14398
▁obligatoires	-14399
▁logistique	-14400
▁dons	-14401
▁équipage	-14402
▁arché	-14403
▁génétique	-14404
▁aérienne	-14405
▁maurice	-14406
hist	-14407
idity	-14408
aye	-14409
▁vécu	-14410
▁inspec	-14411
▁douglas	-14412
▁volontaire	-14413
▁mile	-14414
nut	-14415
▁directs	-14416
▁vip	-14417
▁spectacles	-14418
▁greet	-14419
▁alpes	-14420
▁keys	-14421
▁encouraged	-14422
itas	-14423
▁foster	-14424
▁isab	-14425
▁cycles	-14426
▁légiti	-14427
▁fasc	-14428
tar	-14429
▁carré	-14430
▁engines	-14431
-22	-14432
▁préserver	-14433
▁reim	-14434
▁creator	-14435
via	-14436
▁realized	-14437
▁examens	-14438
ignent	-14439
▁matthe	-14440
▁quiconque	-14441
▁roots	-14442
▁kaz	-14443
▁vertic	-14444
▁nécessairement	-14445
▁associée	-14446
▁fraser	-14447
▁bijoux	-14448
▁colère	-14449
▁defe	-14450
▁décret	-14451
▁reçus	-14452
▁eliz	-14453
92	-14454
ements	-14455
▁publisher	-14456
▁souhaitent	-14457
cro	-14458
▁hamas	-14459
▁medieval	-14460
omme	-14461
▁attirer	-14462
holder	-14463
terr	-14464
.13	-14465
▁déploy	-14466
▁wan	-14467
▁favorable	-14468
▁campagnes	-14469
▁affron	-14470
▁buck	-14471
▁accorder	-14472
▁décrire	-14473
▁seemed	-14474
▁aérien	-14475
▁benjamin	-14476
▁sorry	-14477
▁salary	-14478
ielle	-14479
▁righte	-14480
▁sony	-14481
▁aa	-14482
▁gat	-14483
▁pestic	-14484
▁wolf	-14485
ficateur	-14486
▁équipées	-14487
▁goth	-14488
▁reset	-14489
▁lc	-14490
▁phosph	-14491
▁pédagog	-14492
▁aluminum	-14493
▁qualification	-14494
▁silicone	-14495
hyd	-14496
▁publishing	-14497
dian	-14498
▁triumph	-14499
▁enfance	-14500
▁cosme	-14501
▁careful	-14502
▁jar	-14503
othér	-14504
▁critic	-14505
loge	-14506
▁instruct	-14507
▁pasteur	-14508
▁aménagement	-14509
uy	-14510
▁definitely	-14511
.06	-14512
▁radiation	-14513
▁ukrain	-14514
▁chapelle	-14515
▁réfrigérateur	-14516
▁prenant	-14517
▁hosts	-14518
ouche	-14519
▁translated	-14520
▁leçons	-14521
▁étages	-14522
▁moulin	-14523
▁painted	-14524
▁hesitate	-14525
quait	-14526
▁wing	-14527
▁2.	-14528
▁graphiques	-14529
▁sida	-14530
▁autoc	-14531
▁alar	-14532
▁immo	-14533
▁provinciaux	-14534
▁célèbres	-14535
▁investigations	-14536
▁voter	-14537
▁tracking	-14538
▁antic	-14539
rador	-14540
▁medi	-14541
▁sf	-14542
▁remettre	-14543
▁corée	-14544
▁aus	-14545
▁spectacular	-14546
▁nok	-14547
▁ordres	-14548
▁farms	-14549
▁athlè	-14550
▁dédié	-14551
▁disney	-14552
▁recruit	-14553
▁estimate	-14554
▁autonomie	-14555
▁prove	-14556
▁lumineux	-14557
name	-14558
▁boxes	-14559
▁conventional	-14560
kok	-14561
▁1977	-14562
▁venant	-14563
▁prestige	-14564
▁printer	-14565
▁chicago	-14566
▁sérieux	-14567
▁marcel	-14568
▁médaille	-14569
émique	-14570
iki	-14571
▁exemplaires	-14572
▁pace	-14573
▁bent	-14574
▁specially	-14575
▁appuie	-14576
▁lee	-14577
kind	-14578
▁funded	-14579
▁egypte	-14580
▁storm	-14581
▁audiovis	-14582
▁autorisée	-14583
▁reçoivent	-14584
▁posséd	-14585
▁infraction	-14586
▁mare	-14587
▁antique	-14588
▁effectuées	-14589
▁humanitaire	-14590
rise	-14591
▁prévoy	-14592
▁java	-14593
▁drag	-14594
▁crop	-14595
▁porcel	-14596
▁élimination	-14597
▁protective	-14598
▁syd	-14599
▁illég	-14600
▁archived	-14601
▁ajus	-14602
▁blocks	-14603
▁profondément	-14604
▁hiking	-14605
▁favourite	-14606
▁anywhere	-14607
onau	-14608
▁obé	-14609
▁steve	-14610
▁boîtier	-14611
▁believes	-14612
▁vendeur	-14613
▁authorization	-14614
▁comté	-14615
▁humidité	-14616
▁dreams	-14617
▁adoptée	-14618
▁étoile	-14619
▁sauvegard	-14620
▁seal	-14621
▁faced	-14622
▁deck	-14623
[...]
