<pad>	0
<unk>	0
<MASK>	0
▁a	-0
▁t	-1
in	-2
er	-3
▁s	-4
▁c	-5
on	-6
▁d	-7
▁p	-8
re	-9
▁,	-10
he	-11
en	-12
at	-13
or	-14
an	-15
it	-16
▁m	-17
es	-18
▁l	-19
al	-20
▁f	-21
▁the	-22
is	-23
el	-24
▁in	-25
▁o	-26
ar	-27
ic	-28
▁b	-29
il	-30
ro	-31
▁e	-32
ion	-33
os	-34
▁di	-35
▁w	-36
▁n	-37
ent	-38
▁an	-39
un	-40
▁.	-41
▁g	-42
ol	-43
ot	-44
▁v	-45
ed	-46
▁of	-47
as	-48
om	-49
▁h	-50
qu	-51
et	-52
ra	-53
ing	-54
▁and	-55
ap	-56
am	-57
ut	-58
▁to	-59
ell	-60
▁con	-61
ri	-62
▁al	-63
us	-64
▁re	-65
to	-66
ur	-67
ti	-68
▁un	-69
▁i	-70
ia	-71
▁per	-72
ta	-73
▁&	-74
zion	-75
apos	-76
io	-77
▁la	-78
▁:	-79
ec	-80
▁th	-81
te	-82
le	-83
▁pro	-84
▁il	-85
ul	-86
▁1	-87
ac	-88
▁st	-89
ig	-90
▁com	-91
▁qu	-92
ess	-93
ere	-94
▁for	-95
▁2	-96
are	-97
ter	-98
▁y	-99
▁is	-100
id	-101
ag	-102
ve	-103
zione	-104
ato	-105
▁su	-106
▁dell	-107
ch	-108
▁che	-109
▁r	-110
li	-111
ment	-112
mp	-113
▁le	-114
▁on	-115
and	-116
ation	-117
▁yo	-118
▁de	-119
ver	-120
ce	-121
pp	-122
quot	-123
la	-124
▁it	-125
ale	-126
ith	-127
no	-128
▁(	-129
▁è	-130
ir	-131
res	-132
▁)	-133
▁del	-134
od	-135
ist	-136
zz	-137
▁se	-138
▁sp	-139
▁with	-140
cc	-141
ad	-142
▁ch	-143
▁da	-144
▁or	-145
ati	-146
ost	-147
ate	-148
ma	-149
▁as	-150
est	-151
og	-152
▁be	-153
ali	-154
ow	-155
▁par	-156
op	-157
im	-158
ly	-159
ono	-160
oc	-161
▁at	-162
rom	-163
um	-164
▁wh	-165
ers	-166
ab	-167
ie	-168
▁-	-169
ine	-170
end	-171
▁ne	-172
ore	-173
ano	-174
▁si	-175
▁k	-176
ica	-177
ff	-178
ib	-179
▁una	-180
ile	-181
ente	-182
▁della	-183
gg	-184
▁all	-185
ort	-186
▁ad	-187
▁pi	-188
▁are	-189
▁ar	-190
▁you	-191
▁ha	-192
▁20	-193
▁sc	-194
▁ma	-195
▁that	-196
ata	-197
ità	-198
ct	-199
▁pre	-200
iv	-201
▁comp	-202
ass	-203
if	-204
▁from	-205
ill	-206
▁j	-207
▁us	-208
ant	-209
ard	-210
va	-211
st	-212
▁ex	-213
▁3	-214
ity	-215
za	-216
▁non	-217
▁ri	-218
all	-219
se	-220
th	-221
▁ro	-222
ect	-223
ori	-224
▁we	-225
so	-226
ure	-227
▁by	-228
amp	-229
▁dis	-230
ci	-231
ond	-232
▁ques	-233
per	-234
enti	-235
che	-236
ran	-237
▁inter	-238
▁co	-239
ay	-240
▁;	-241
▁es	-242
ice	-243
▁sh	-244
zioni	-245
ud	-246
▁this	-247
ast	-248
vi	-249
▁col	-250
▁cont	-251
▁tra	-252
▁ab	-253
▁acc	-254
▁he	-255
ies	-256
for	-257
▁not	-258
▁app	-259
▁can	-260
00	-261
art	-262
▁prod	-263
▁pos	-264
azione	-265
ni	-266
▁ra	-267
ich	-268
mo	-269
▁gi	-270
ici	-271
▁ser	-272
ru	-273
ens	-274
ht	-275
▁your	-276
ino	-277
lo	-278
mb	-279
▁do	-280
ico	-281
ura	-282
▁sono	-283
ub	-284
ina	-285
co	-286
ito	-287
olo	-288
ug	-289
▁me	-290
▁nel	-291
ili	-292
one	-293
ione	-294
▁res	-295
▁imp	-296
uo	-297
ust	-298
▁dal	-299
▁car	-300
up	-301
▁so	-302
▁4	-303
▁off	-304
▁pres	-305
ord	-306
otel	-307
▁nell	-308
ite	-309
▁tut	-310
▁dei	-311
▁pri	-312
▁201	-313
ento	-314
▁man	-315
▁più	-316
▁mar	-317
enza	-318
▁te	-319
▁en	-320
zi	-321
▁hotel	-322
▁come	-323
ok	-324
ge	-325
▁ed	-326
rat	-327
▁5	-328
na	-329
▁sul	-330
ome	-331
▁lo	-332
ke	-333
▁mod	-334
era	-335
ue	-336
ini	-337
ita	-338
▁vis	-339
▁el	-340
ante	-341
▁des	-342
▁am	-343
di	-344
ca	-345
ari	-346
▁ag	-347
▁cl	-348
▁inc	-349
ren	-350
amo	-351
si	-352
▁cent	-353
▁part	-354
de	-355
ggi	-356
▁ver	-357
▁ter	-358
age	-359
▁no	-360
ett	-361
ide	-362
▁ev	-363
etto	-364
▁will	-365
▁cas	-366
▁ess	-367
amente	-368
ign	-369
▁wor	-370
▁reg	-371
av	-372
▁cons	-373
eri	-374
und	-375
ip	-376
ando	-377
▁ris	-378
ions	-379
▁pl	-380
▁alla	-381
ated	-382
▁ac	-383
ult	-384
use	-385
▁was	-386
▁0	-387
▁bo	-388
iti	-389
▁questo	-390
▁cor	-391
▁gu	-392
ight	-393
ze	-394
▁have	-395
▁new	-396
▁delle	-397
out	-398
ind	-399
ace	-400
gli	-401
ero	-402
▁pers	-403
ical	-404
gi	-405
vo	-406
▁produ	-407
amento	-408
▁pr	-409
mm	-410
▁go	-411
▁which	-412
her	-413
▁19	-414
ose	-415
▁po	-416
▁infor	-417
▁gli	-418
ys	-419
▁poss	-420
▁cre	-421
zza	-422
▁mon	-423
ole	-424
ene	-425
oro	-426
oli	-427
▁alt	-428
uro	-429
▁cam	-430
▁av	-431
▁aut	-432
▁sta	-433
ree	-434
▁6	-435
rit	-436
▁disp	-437
▁has	-438
▁..	-439
▁our	-440
▁!	-441
able	-442
ck	-443
▁fe	-444
ani	-445
ire	-446
iche	-447
▁anche	-448
int	-449
ron	-450
me	-451
▁amp	-452
mente	-453
anti	-454
▁cu	-455
etti	-456
▁att	-457
▁ind	-458
▁bu	-459
▁ass	-460
▁10	-461
chi	-462
pe	-463
ne	-464
▁val	-465
▁more	-466
▁ho	-467
gu	-468
▁?	-469
pt	-470
▁but	-471
ach	-472
ber	-473
▁spec	-474
▁pa	-475
ry	-476
ish	-477
▁...	-478
▁min	-479
▁ci	-480
▁cos	-481
▁met	-482
▁vi	-483
▁loc	-484
▁nella	-485
▁ric	-486
▁mat	-487
▁art	-488
anno	-489
gio	-490
▁cap	-491
▁rec	-492
▁one	-493
▁gen	-494
▁mo	-495
ello	-496
▁pe	-497
▁ap	-498
ack	-499
ase	-500
olog	-501
mi	-502
ak	-503
▁8	-504
ence	-505
▁prog	-506
▁sec	-507
esso	-508
▁li	-509
lic	-510
ition	-511
itt	-512
▁there	-513
ary	-514
▁qual	-515
▁tro	-516
ations	-517
fer	-518
▁gra	-519
▁sol	-520
ms	-521
▁7	-522
▁ut	-523
▁lu	-524
▁sa	-525
▁mol	-526
man	-527
▁nost	-528
▁comm	-529
ung	-530
ong	-531
unt	-532
▁med	-533
mento	-534
▁gr	-535
▁pot	-536
▁essere	-537
▁up	-538
iss	-539
vel	-540
▁pass	-541
▁fl	-542
igli	-543
zzo	-544
▁prop	-545
ther	-546
ld	-547
let	-548
ese	-549
ame	-550
▁200	-551
▁san	-552
▁gio	-553
bb	-554
ele	-555
ola	-556
▁cer	-557
ear	-558
▁fo	-559
▁product	-560
tiv	-561
ks	-562
▁ins	-563
ual	-564
▁its	-565
▁tim	-566
▁also	-567
der	-568
▁person	-569
▁num	-570
▁sal	-571
▁z	-572
▁out	-573
▁dec	-574
▁bar	-575
ario	-576
uto	-577
oci	-578
▁ai	-579
▁prov	-580
att	-581
ioni	-582
▁mag	-583
▁fac	-584
wn	-585
▁int	-586
▁tran	-587
hen	-588
▁chi	-589
▁most	-590
iew	-591
▁they	-592
▁tr	-593
▁his	-594
▁euro	-595
lio	-596
▁prodot	-597
ana	-598
▁add	-599
▁ph	-600
ress	-601
▁dire	-602
▁temp	-603
▁9	-604
▁vol	-605
▁bl	-606
ild	-607
▁u	-608
▁nuo	-609
▁fin	-610
▁op	-611
bi	-612
ings	-613
ors	-614
▁if	-615
zio	-616
ance	-617
uld	-618
edi	-619
▁ital	-620
ific	-621
itu	-622
▁their	-623
ble	-624
▁gre	-625
▁%	-626
ris	-627
▁nat	-628
eg	-629
▁pu	-630
ondo	-631
▁prof	-632
▁suo	-633
ick	-634
▁diff	-635
▁pol	-636
▁tre	-637
▁possib	-638
les	-639
▁fam	-640
▁serv	-641
▁inv	-642
▁about	-643
etta	-644
min	-645
ora	-646
cia	-647
▁who	-648
#9	-649
▁&#9	-650
▁room	-651
▁mil	-652
▁via	-653
ft	-654
vers	-655
ments	-656
cri	-657
▁fa	-658
▁dist	-659
▁grand	-660
▁fi	-661
go	-662
king	-663
▁inf	-664
▁year	-665
▁tec	-666
▁trans	-667
▁tutti	-668
▁loro	-669
▁questa	-670
▁camp	-671
▁gior	-672
▁cost	-673
tain	-674
▁file	-675
▁pub	-676
▁other	-677
ona	-678
do	-679
zia	-680
lia	-681
▁12	-682
▁tw	-683
▁lav	-684
▁ent	-685
ugh	-686
ces	-687
▁inform	-688
ont	-689
▁eff	-690
▁aff	-691
▁offer	-692
ory	-693
▁dur	-694
anza	-695
▁ca	-696
▁intern	-697
ced	-698
ade	-699
▁rep	-700
▁inst	-701
ilità	-702
▁gro	-703
ath	-704
▁af	-705
▁fran	-706
very	-707
▁cond	-708
▁form	-709
▁incl	-710
ities	-711
ista	-712
▁imm	-713
▁free	-714
▁15	-715
que	-716
ete	-717
▁er	-718
▁ot	-719
ang	-720
▁br	-721
bo	-722
▁fir	-723
ph	-724
▁supp	-725
▁x	-726
▁time	-727
orto	-728
▁dalla	-729
▁conc	-730
▁cal	-731
▁exp	-732
ally	-733
▁ven	-734
▁rel	-735
ents	-736
utt	-737
elli	-738
▁ta	-739
atto	-740
vail	-741
▁comun	-742
▁when	-743
line	-744
▁alle	-745
▁esp	-746
▁design	-747
con	-748
▁bas	-749
▁only	-750
igh	-751
▁due	-752
▁org	-753
▁km	-754
▁bre	-755
▁servi	-756
▁può	-757
▁acqu	-758
▁vers	-759
iste	-760
▁speci	-761
ility	-762
ulti	-763
ggio	-764
atori	-765
▁than	-766
ater	-767
▁web	-768
▁stato	-769
▁utili	-770
▁far	-771
▁18	-772
▁est	-773
peri	-774
onib	-775
▁og	-776
▁avail	-777
oll	-778
ven	-779
▁gener	-780
▁conf	-781
ella	-782
▁itali	-783
▁tuo	-784
oto	-785
alizz	-786
▁os	-787
▁visit	-788
▁wo	-789
▁contro	-790
▁soci	-791
urn	-792
▁disponib	-793
oni	-794
als	-795
lay	-796
▁propri	-797
▁cir	-798
endo	-799
▁cui	-800
hi	-801
ans	-802
ll	-803
▁peop	-804
osi	-805
▁bet	-806
▁import	-807
▁semp	-808
we	-809
com	-810
▁sua	-811
urs	-812
▁bec	-813
▁stud	-814
▁world	-815
▁oper	-816
ices	-817
▁priv	-818
own	-819
▁use	-820
▁my	-821
▁any	-822
way	-823
▁solo	-824
ric	-825
app	-826
ain	-827
▁_	-828
tre	-829
par	-830
▁liv	-831
▁degli	-832
menti	-833
▁fil	-834
ons	-835
▁sulla	-836
ely	-837
uti	-838
ua	-839
▁mus	-840
hed	-841
elle	-842
▁home	-843
▁people	-844
anto	-845
▁what	-846
▁det	-847
cun	-848
▁informa	-849
▁air	-850
▁first	-851
▁jo	-852
land	-853
▁pren	-854
ily	-855
▁may	-856
▁fun	-857
▁cli	-858
▁leg	-859
▁aggi	-860
aggio	-861
▁tras	-862
cip	-863
ness	-864
▁over	-865
▁vost	-866
▁ogni	-867
▁str	-868
ates	-869
▁ide	-870
ane	-871
▁parte	-872
▁pic	-873
▁pop	-874
▁lib	-875
▁them	-876
▁progra	-877
▁how	-878
▁pag	-879
ative	-880
▁information	-881
ette	-882
▁sho	-883
▁see	-884
arch	-885
▁hol	-886
ection	-887
▁complet	-888
▁mi	-889
▁prima	-890
vent	-891
orn	-892
ena	-893
▁sub	-894
▁uno	-895
▁molto	-896
ating	-897
ute	-898
▁hanno	-899
▁mer	-900
atore	-901
rib	-902
▁been	-903
ures	-904
omm	-905
▁some	-906
▁book	-907
ction	-908
▁30	-909
erg	-910
▁anni	-911
vis	-912
ott	-913
▁sm	-914
▁contin	-915
▁area	-916
▁dom	-917
▁god	-918
du	-919
oria	-920
ational	-921
ware	-922
ful	-923
▁work	-924
▁every	-925
▁16	-926
ret	-927
▁tot	-928
▁present	-929
▁11	-930
iare	-931
▁bed	-932
ets	-933
▁very	-934
▁sar	-935
▁bi	-936
amb	-937
▁im	-938
▁tip	-939
▁quando	-940
▁were	-941
▁these	-942
▁class	-943
ower	-944
ved	-945
▁two	-946
red	-947
▁sto	-948
tare	-949
▁port	-950
▁rich	-951
ria	-952
▁proc	-953
▁tutto	-954
▁char	-955
▁data	-956
▁rom	-957
▁pal	-958
atti	-959
day	-960
▁includ	-961
xt	-962
▁well	-963
bl	-964
▁high	-965
▁casa	-966
▁grat	-967
▁mot	-968
▁centro	-969
▁real	-970
opo	-971
▁sin	-972
▁where	-973
ga	-974
ght	-975
▁citt	-976
fi	-977
▁europe	-978
ows	-979
▁sign	-980
▁kno	-981
esi	-982
▁men	-983
▁prin	-984
port	-985
cl	-986
vol	-987
▁bro	-988
ious	-989
yste	-990
atter	-991
▁down	-992
▁vic	-993
▁differ	-994
▁città	-995
▁her	-996
-1	-997
▁grande	-998
mber	-999
▁eng	-1000
▁14	-1001
ismo	-1002
▁super	-1003
▁situ	-1004
▁access	-1005
▁nec	-1006
ss	-1007
▁check	-1008
ten	-1009
▁after	-1010
▁like	-1011
▁view	-1012
▁24	-1013
ject	-1014
ché	-1015
ider	-1016
ivo	-1017
▁lif	-1018
▁ben	-1019
▁city	-1020
▁uni	-1021
▁informazioni	-1022
▁requ	-1023
isc	-1024
▁syste	-1025
▁bus	-1026
▁terra	-1027
▁now	-1028
▁alcun	-1029
▁ste	-1030
▁altri	-1031
hn	-1032
asi	-1033
▁cro	-1034
esti	-1035
amenti	-1036
▁thro	-1037
▁into	-1038
ppo	-1039
▁find	-1040
ption	-1041
ular	-1042
▁por	-1043
mail	-1044
zzi	-1045
▁partic	-1046
ise	-1047
▁fu	-1048
ather	-1049
gn	-1050
ital	-1051
ural	-1052
imo	-1053
▁siste	-1054
ins	-1055
▁orig	-1056
▁sk	-1057
▁ren	-1058
000	-1059
▁prodotti	-1060
▁coll	-1061
▁sw	-1062
▁sur	-1063
ern	-1064
▁many	-1065
▁need	-1066
▁diver	-1067
▁occ	-1068
▁apart	-1069
ink	-1070
▁bel	-1071
▁materi	-1072
▁dep	-1073
da	-1074
▁ant	-1075
▁don	-1076
▁13	-1077
▁pun	-1078
▁dall	-1079
▁mess	-1080
▁back	-1081
▁senza	-1082
osa	-1083
▁arch	-1084
tive	-1085
bbe	-1086
erv	-1087
▁mass	-1088
▁just	-1089
illa	-1090
act	-1091
fore	-1092
otto	-1093
▁tempo	-1094
▁sito	-1095
round	-1096
1;	-1097
▁&#91;	-1098
zionale	-1099
▁ty	-1100
▁artic	-1101
▁era	-1102
▁sch	-1103
▁news	-1104
▁descri	-1105
view	-1106
▁through	-1107
▁sel	-1108
▁online	-1109
ifica	-1110
ho	-1111
▁tur	-1112
▁resp	-1113
▁even	-1114
▁appart	-1115
▁modo	-1116
▁equ	-1117
▁ext	-1118
▁necess	-1119
▁cult	-1120
▁best	-1121
▁risp	-1122
▁fri	-1123
▁she	-1124
▁him	-1125
room	-1126
▁conta	-1127
▁prodotto	-1128
▁et	-1129
▁id	-1130
▁dopo	-1131
▁25	-1132
▁day	-1133
▁products	-1134
▁good	-1135
▁opp	-1136
▁italy	-1137
▁had	-1138
▁soft	-1139
els	-1140
▁nei	-1141
▁ele	-1142
20	-1143
▁foll	-1144
▁lar	-1145
ner	-1146
▁arri	-1147
▁ob	-1148
oso	-1149
▁made	-1150
▁colle	-1151
▁vide	-1152
▁bag	-1153
▁princip	-1154
▁tri	-1155
▁spir	-1156
▁way	-1157
▁mondo	-1158
▁available	-1159
llo	-1160
▁def	-1161
▁play	-1162
▁house	-1163
urch	-1164
istor	-1165
▁vita	-1166
▁count	-1167
▁attra	-1168
▁ord	-1169
▁anc	-1170
▁trat	-1171
uc	-1172
▁sic	-1173
▁years	-1174
▁17	-1175
its	-1176
▁then	-1177
▁qui	-1178
▁cook	-1179
▁italia	-1180
▁doc	-1181
▁read	-1182
aria	-1183
ateg	-1184
▁cat	-1185
▁dove	-1186
▁open	-1187
▁dest	-1188
▁succ	-1189
fic	-1190
▁mal	-1191
ede	-1192
osc	-1193
▁fer	-1194
▁vo	-1195
▁proble	-1196
▁ti	-1197
▁line	-1198
▁offers	-1199
zie	-1200
col	-1201
▁ini	-1202
▁gar	-1203
▁make	-1204
▁nostro	-1205
▁great	-1206
ves	-1207
▁numero	-1208
▁trov	-1209
▁na	-1210
▁nelle	-1211
▁sia	-1212
▁così	-1213
ics	-1214
ty	-1215
▁special	-1216
cy	-1217
ogra	-1218
▁pan	-1219
▁sim	-1220
▁tutte	-1221
▁pia	-1222
▁ricer	-1223
less	-1224
▁here	-1225
▁mac	-1226
ween	-1227
▁anno	-1228
mon	-1229
iglia	-1230
▁perf	-1231
▁between	-1232
▁segu	-1233
▁vill	-1234
orno	-1235
ines	-1236
▁life	-1237
▁child	-1238
form	-1239
ida	-1240
▁stand	-1241
▁utilizz	-1242
▁dio	-1243
▁econ	-1244
▁internet	-1245
▁econom	-1246
▁cur	-1247
omet	-1248
ep	-1249
zo	-1250
▁tecn	-1251
▁ann	-1252
▁amb	-1253
▁stra	-1254
3;	-1255
▁&#93;	-1256
▁ke	-1257
▁stru	-1258
▁prenot	-1259
▁know	-1260
▁get	-1261
▁vac	-1262
oth	-1263
ants	-1264
▁pra	-1265
▁tour	-1266
▁resid	-1267
▁rooms	-1268
▁mark	-1269
▁compan	-1270
▁place	-1271
▁indi	-1272
oggi	-1273
▁ing	-1274
ive	-1275
▁such	-1276
▁contact	-1277
▁ecc	-1278
▁em	-1279
▁fra	-1280
età	-1281
▁order	-1282
▁sempre	-1283
▁spa	-1284
oss	-1285
▁organi	-1286
ange	-1287
old	-1288
cell	-1289
▁appro	-1290
▁mom	-1291
▁ful	-1292
isti	-1293
▁chies	-1294
bor	-1295
po	-1296
▁system	-1297
▁fino	-1298
▁vend	-1299
▁hel	-1300
van	-1301
▁start	-1302
▁origin	-1303
▁cop	-1304
▁parti	-1305
uch	-1306
▁fare	-1307
▁ulti	-1308
▁right	-1309
▁possono	-1310
▁follow	-1311
ister	-1312
enze	-1313
bile	-1314
▁program	-1315
ession	-1316
▁perché	-1317
▁migli	-1318
▁hand	-1319
▁would	-1320
ts	-1321
ogli	-1322
▁direct	-1323
▁alber	-1324
▁search	-1325
▁sat	-1326
ution	-1327
▁long	-1328
uta	-1329
ral	-1330
iglio	-1331
▁22	-1332
▁abb	-1333
▁cris	-1334
▁second	-1335
▁last	-1336
▁ment	-1337
▁sistema	-1338
emp	-1339
vil	-1340
▁tor	-1341
▁service	-1342
▁ora	-1343
▁ple	-1344
▁ancora	-1345
▁dim	-1346
▁muse	-1347
ghi	-1348
▁regist	-1349
▁cast	-1350
load	-1351
▁picc	-1352
▁show	-1353
▁used	-1354
ards	-1355
rist	-1356
▁persone	-1357
▁build	-1358
▁lung	-1359
▁own	-1360
tern	-1361
ail	-1362
▁price	-1363
▁list	-1364
▁ban	-1365
▁gl	-1366
eria	-1367
▁sing	-1368
.1	-1369
▁number	-1370
▁servizi	-1371
aut	-1372
▁break	-1373
▁um	-1374
50	-1375
asc	-1376
iness	-1377
ivid	-1378
ited	-1379
▁gratu	-1380
▁prot	-1381
▁hotels	-1382
▁software	-1383
icazione	-1384
ommod	-1385
▁accommod	-1386
▁ger	-1387
gra	-1388
▁experi	-1389
ogo	-1390
alità	-1391
ests	-1392
abile	-1393
▁condi	-1394
▁gard	-1395
▁case	-1396
▁again	-1397
▁those	-1398
izione	-1399
ps	-1400
itions	-1401
ature	-1402
pping	-1403
ws	-1404
▁water	-1405
▁prezzo	-1406
isce	-1407
▁quest	-1408
▁light	-1409
▁aggiun	-1410
▁wind	-1411
▁ricerca	-1412
▁found	-1413
ustom	-1414
ous	-1415
▁cart	-1416
mbre	-1417
▁100	-1418
▁immag	-1419
▁nuovo	-1420
▁main	-1421
▁nor	-1422
▁tv	-1423
ause	-1424
velop	-1425
▁camere	-1426
▁conn	-1427
▁take	-1428
▁ol	-1429
▁review	-1430
zed	-1431
▁tag	-1432
▁indust	-1433
▁lan	-1434
▁cle	-1435
▁camera	-1436
▁custom	-1437
pa	-1438
anze	-1439
▁cod	-1440
▁dati	-1441
▁bene	-1442
▁prom	-1443
▁possibile	-1444
▁21	-1445
ning	-1446
▁sy	-1447
▁because	-1448
ving	-1449
▁bamb	-1450
uale	-1451
▁attiv	-1452
olare	-1453
▁uom	-1454
lish	-1455
▁questi	-1456
▁pens	-1457
ai	-1458
▁located	-1459
▁auto	-1460
▁amer	-1461
▁under	-1462
▁stati	-1463
▁sl	-1464
▁sac	-1465
▁rapp	-1466
▁end	-1467
▁ref	-1468
▁set	-1469
▁site	-1470
▁perio	-1471
▁osp	-1472
ars	-1473
bili	-1474
▁beaut	-1475
▁sop	-1476
ages	-1477
▁fre	-1478
▁stat	-1479
resent	-1480
▁same	-1481
▁techn	-1482
etro	-1483
▁primo	-1484
▁video	-1485
▁look	-1486
get	-1487
▁small	-1488
▁mor	-1489
the	-1490
uth	-1491
▁circa	-1492
▁group	-1493
▁sci	-1494
uss	-1495
▁develop	-1496
elf	-1497
ism	-1498
▁commun	-1499
▁altro	-1500
▁top	-1501
▁bal	-1502
▁mas	-1503
▁strutt	-1504
agn	-1505
▁eas	-1506
▁different	-1507
▁process	-1508
▁during	-1509
atta	-1510
▁base	-1511
▁giorno	-1512
▁applic	-1513
ected	-1514
▁ist	-1515
arsi	-1516
▁50	-1517
chio	-1518
be	-1519
eno	-1520
▁rip	-1521
▁dov	-1522
▁disco	-1523
▁ten	-1524
elo	-1525
ator	-1526
▁tele	-1527
jo	-1528
▁each	-1529
▁noi	-1530
azioni	-1531
▁energ	-1532
ability	-1533
▁must	-1534
▁call	-1535
cio	-1536
▁resta	-1537
▁without	-1538
▁dri	-1539
▁villa	-1540
▁abbi	-1541
utto	-1542
hes	-1543
▁lavoro	-1544
tà	-1545
▁download	-1546
▁trova	-1547
ork	-1548
▁power	-1549
vilu	-1550
fast	-1551
▁ge	-1552
▁services	-1553
▁scar	-1554
▁stor	-1555
▁anal	-1556
uzione	-1557
▁pes	-1558
▁diret	-1559
osto	-1560
▁svilu	-1561
▁gam	-1562
edere	-1563
▁ang	-1564
▁term	-1565
▁bra	-1566
▁offre	-1567
▁children	-1568
▁aver	-1569
▁train	-1570
ara	-1571
▁autom	-1572
▁servizio	-1573
▁nostra	-1574
ury	-1575
▁viene	-1576
▁map	-1577
almente	-1578
gono	-1579
▁asp	-1580
▁dev	-1581
▁before	-1582
▁church	-1583
▁support	-1584
▁gru	-1585
▁want	-1586
▁quello	-1587
▁ret	-1588
atura	-1589
▁foto	-1590
▁email	-1591
▁perm	-1592
atic	-1593
▁wi	-1594
▁log	-1595
▁install	-1596
▁point	-1597
▁detail	-1598
uri	-1599
▁help	-1600
▁cho	-1601
▁lim	-1602
▁let	-1603
▁00	-1604
ash	-1605
ido	-1606
▁fatto	-1607
▁vari	-1608
▁dai	-1609
sh	-1610
▁univers	-1611
▁hum	-1612
▁anim	-1613
led	-1614
▁rit	-1615
idi	-1616
vano	-1617
▁activ	-1618
▁rela	-1619
▁quant	-1620
▁perc	-1621
ands	-1622
ished	-1623
▁mis	-1624
▁comb	-1625
▁sarà	-1626
▁rece	-1627
▁fond	-1628
uoi	-1629
▁trad	-1630
.0	-1631
▁international	-1632
urg	-1633
▁scop	-1634
▁cosa	-1635
▁esemp	-1636
ziend	-1637
▁sf	-1638
▁consider	-1639
erci	-1640
▁chiesa	-1641
aggi	-1642
▁interess	-1643
▁old	-1644
iday	-1645
ible	-1646
▁circ	-1647
▁profession	-1648
▁pen	-1649
▁aziend	-1650
▁quali	-1651
,00	-1652
▁breakfast	-1653
ways	-1654
▁abbiamo	-1655
▁costru	-1656
read	-1657
▁ros	-1658
ites	-1659
▁state	-1660
▁fine	-1661
▁durante	-1662
cato	-1663
▁secondo	-1664
▁pad	-1665
▁should	-1666
▁tutta	-1667
▁199	-1668
▁aper	-1669
vere	-1670
▁accord	-1671
▁qualità	-1672
▁cour	-1673
▁facil	-1674
rebbe	-1675
▁pat	-1676
▁racc	-1677
ists	-1678
rello	-1679
▁success	-1680
▁letto	-1681
osta	-1682
▁vostro	-1683
em	-1684
erà	-1685
▁holiday	-1686
▁disc	-1687
▁attività	-1688
rà	-1689
▁ear	-1690
enzi	-1691
▁mare	-1692
ote	-1693
▁oggi	-1694
▁stay	-1695
.00	-1696
▁quality	-1697
▁mic	-1698
▁miss	-1699
ensione	-1700
ensioni	-1701
▁ore	-1702
pend	-1703
▁richies	-1704
▁does	-1705
edic	-1706
▁family	-1707
▁grazie	-1708
▁volta	-1709
iva	-1710
▁caratter	-1711
▁business	-1712
▁fav	-1713
▁sap	-1714
▁center	-1715
▁lead	-1716
rare	-1717
▁confer	-1718
▁23	-1719
▁town	-1720
verso	-1721
ock	-1722
▁legg	-1723
▁polit	-1724
▁project	-1725
▁bath	-1726
▁interna	-1727
▁war	-1728
▁las	-1729
▁suoi	-1730
▁mach	-1731
dere	-1732
▁docu	-1733
ters	-1734
▁stesso	-1735
▁tua	-1736
▁otti	-1737
▁airport	-1738
iore	-1739
▁sotto	-1740
word	-1741
▁quin	-1742
▁post	-1743
▁tak	-1744
▁net	-1745
▁nuova	-1746
▁sea	-1747
▁forn	-1748
▁sor	-1749
▁centre	-1750
▁host	-1751
▁altre	-1752
▁restaur	-1753
▁vin	-1754
ivi	-1755
▁spe	-1756
▁tren	-1757
▁name	-1758
▁act	-1759
▁result	-1760
▁night	-1761
▁sil	-1762
▁three	-1763
site	-1764
eld	-1765
ides	-1766
▁say	-1767
ats	-1768
▁fr	-1769
▁2016	-1770
▁pul	-1771
▁risult	-1772
mar	-1773
▁siamo	-1774
▁disponibilità	-1775
val	-1776
▁comput	-1777
▁archit	-1778
uali	-1779
teg	-1780
vole	-1781
iente	-1782
ece	-1783
itare	-1784
utes	-1785
▁sport	-1786
ativa	-1787
▁giorni	-1788
▁ling	-1789
esto	-1790
▁italiano	-1791
▁proper	-1792
▁quanto	-1793
▁oltre	-1794
hing	-1795
▁live	-1796
▁vir	-1797
pl	-1798
▁fron	-1799
nov	-1800
▁poi	-1801
▁dalle	-1802
▁important	-1803
▁aer	-1804
▁nostri	-1805
ativo	-1806
ody	-1807
ibile	-1808
▁days	-1809
ery	-1810
▁categ	-1811
▁near	-1812
▁italian	-1813
▁flo	-1814
▁being	-1815
▁phot	-1816
ann	-1817
▁wee	-1818
▁music	-1819
▁sele	-1820
usa	-1821
▁english	-1822
uf	-1823
▁mad	-1824
▁big	-1825
▁raggi	-1826
▁word	-1827
▁company	-1828
▁const	-1829
▁alcuni	-1830
▁natural	-1831
▁piano	-1832
▁page	-1833
▁2015	-1834
▁red	-1835
▁vista	-1836
▁fes	-1837
razione	-1838
▁simp	-1839
▁rif	-1840
▁using	-1841
ught	-1842
▁accommodation	-1843
▁40	-1844
istica	-1845
ritur	-1846
▁apartment	-1847
ches	-1848
▁while	-1849
▁friend	-1850
▁disponibile	-1851
ament	-1852
ues	-1853
▁ristor	-1854
▁provin	-1855
icip	-1856
▁tipo	-1857
▁media	-1858
▁2018	-1859
▁sens	-1860
▁seg	-1861
una	-1862
▁soggi	-1863
▁agritur	-1864
▁maggi	-1865
▁dello	-1866
▁kit	-1867
▁gover	-1868
aro	-1869
▁micro	-1870
▁squ	-1871
▁month	-1872
ety	-1873
▁press	-1874
▁doub	-1875
temp	-1876
▁rad	-1877
▁total	-1878
▁german	-1879
▁cuc	-1880
▁oc	-1881
▁always	-1882
rica	-1883
▁prefer	-1884
▁tit	-1885
▁carrello	-1886
▁acqua	-1887
ifi	-1888
▁giv	-1889
.5	-1890
▁offerte	-1891
▁dav	-1892
▁nome	-1893
▁realizz	-1894
▁pay	-1895
▁esempio	-1896
ert	-1897
▁forma	-1898
▁stata	-1899
omp	-1900
▁dra	-1901
▁conten	-1902
▁ru	-1903
istiche	-1904
rato	-1905
▁fact	-1906
▁possible	-1907
agli	-1908
▁fut	-1909
cept	-1910
▁cred	-1911
▁pubbl	-1912
▁meet	-1913
▁full	-1914
ume	-1915
▁sig	-1916
.2	-1917
▁esperi	-1918
▁heart	-1919
ech	-1920
▁lat	-1921
ada	-1922
▁market	-1923
▁memb	-1924
▁private	-1925
ined	-1926
▁bis	-1927
▁wal	-1928
▁rice	-1929
▁mentre	-1930
aces	-1931
▁within	-1932
▁availability	-1933
▁molti	-1934
iful	-1935
▁farm	-1936
10	-1937
▁wood	-1938
▁experience	-1939
tag	-1940
ided	-1941
▁emp	-1942
ories	-1943
usc	-1944
ology	-1945
▁detta	-1946
cel	-1947
▁diffic	-1948
▁quindi	-1949
▁both	-1950
teri	-1951
▁totale	-1952
fe	-1953
▁relig	-1954
other	-1955
▁card	-1956
▁inol	-1957
▁apr	-1958
▁proprio	-1959
▁caso	-1960
▁au	-1961
▁attraverso	-1962
▁stess	-1963
▁today	-1964
▁mem	-1965
▁color	-1966
▁associ	-1967
▁elect	-1968
▁dedic	-1969
ense	-1970
▁individ	-1971
▁stre	-1972
▁alb	-1973
▁respons	-1974
▁social	-1975
ries	-1976
▁appartamento	-1977
rid	-1978
▁computer	-1979
▁van	-1980
▁gt	-1981
▁ciò	-1982
▁christ	-1983
▁love	-1984
eni	-1985
▁could	-1986
ave	-1987
ols	-1988
▁sost	-1989
▁28	-1990
▁ave	-1991
▁share	-1992
▁estate	-1993
▁posizione	-1994
30	-1995
▁standard	-1996
pi	-1997
▁minuti	-1998
▁said	-1999
▁win	-2000
▁destin	-2001
▁macch	-2002
bre	-2003
rodu	-2004
ograf	-2005
vert	-2006
▁nav	-2007
▁password	-2008
▁please	-2009
ffici	-2010
ger	-2011
▁large	-2012
▁beautiful	-2013
▁programma	-2014
▁since	-2015
▁beg	-2016
▁events	-2017
▁mio	-2018
▁travel	-2019
▁conse	-2020
▁sugg	-2021
ape	-2022
▁lot	-2023
▁agriturismo	-2024
▁gall	-2025
▁reviews	-2026
▁div	-2027
▁26	-2028
▁multi	-2029
▁curren	-2030
ually	-2031
ration	-2032
▁inoltre	-2033
▁elett	-2034
▁queste	-2035
hip	-2036
▁aerop	-2037
▁bass	-2038
▁enter	-2039
osit	-2040
rire	-2041
cis	-2042
▁tratt	-2043
▁cm	-2044
▁comune	-2045
▁public	-2046
▁stamp	-2047
▁sempl	-2048
orso	-2049
ritto	-2050
ilt	-2051
itional	-2052
▁27	-2053
▁tow	-2054
omb	-2055
lex	-2056
▁voi	-2057
▁jes	-2058
une	-2059
eli	-2060
▁bambini	-2061
▁sale	-2062
ample	-2063
▁rest	-2064
glio	-2065
anda	-2066
▁anti	-2067
▁event	-2068
▁natur	-2069
▁black	-2070
▁bian	-2071
▁appl	-2072
▁test	-2073
▁già	-2074
▁human	-2075
▁care	-2076
ired	-2077
ardo	-2078
▁quale	-2079
ela	-2080
▁charac	-2081
▁uomo	-2082
ogle	-2083
▁viaggio	-2084
▁works	-2085
▁max	-2086
▁aust	-2087
▁acco	-2088
▁2014	-2089
▁much	-2090
ient	-2091
urb	-2092
▁face	-2093
▁interest	-2094
ird	-2095
▁following	-2096
▁enjo	-2097
▁control	-2098
▁dig	-2099
▁santa	-2100
▁level	-2101
▁click	-2102
ason	-2103
acy	-2104
▁storia	-2105
▁lavor	-2106
▁bisog	-2107
clus	-2108
▁spirit	-2109
▁clienti	-2110
ortun	-2111
▁ident	-2112
▁dice	-2113
▁ill	-2114
▁mill	-2115
▁ness	-2116
▁few	-2117
▁roma	-2118
▁sui	-2119
kes	-2120
▁otten	-2121
ologia	-2122
▁next	-2123
blic	-2124
tim	-2125
▁io	-2126
▁living	-2127
▁tru	-2128
▁deli	-2129
ically	-2130
umin	-2131
▁beach	-2132
▁verso	-2133
▁annun	-2134
▁aud	-2135
▁alberghi	-2136
orti	-2137
▁momento	-2138
ams	-2139
▁bagno	-2140
▁struttura	-2141
▁langu	-2142
▁google	-2143
▁colla	-2144
eto	-2145
▁agli	-2146
▁ec	-2147
▁ep	-2148
▁dem	-2149
▁still	-2150
▁region	-2151
tamente	-2152
▁indic	-2153
▁did	-2154
via	-2155
▁park	-2156
▁past	-2157
▁porta	-2158
▁2019	-2159
▁incre	-2160
ama	-2161
▁sett	-2162
▁uso	-2163
▁type	-2164
rop	-2165
ggia	-2166
▁size	-2167
▁local	-2168
▁windows	-2169
▁vicino	-2170
aren	-2171
▁website	-2172
▁date	-2173
▁double	-2174
▁lord	-2175
▁hai	-2176
▁around	-2177
▁2013	-2178
▁low	-2179
▁interno	-2180
▁gruppo	-2181
▁among	-2182
▁sulle	-2183
▁tho	-2184
▁tas	-2185
▁maggio	-2186
▁dol	-2187
▁immo	-2188
rete	-2189
▁request	-2190
▁grandi	-2191
osizione	-2192
▁setti	-2193
▁another	-2194
▁cele	-2195
agna	-2196
▁integ	-2197
▁lin	-2198
bil	-2199
▁mm	-2200
▁details	-2201
▁spia	-2202
▁2012	-2203
▁alm	-2204
▁2017	-2205
osp	-2206
moni	-2207
▁enjoy	-2208
▁rim	-2209
▁eleg	-2210
▁hard	-2211
▁extra	-2212
▁alta	-2213
▁note	-2214
▁je	-2215
▁zona	-2216
▁son	-2217
ming	-2218
▁guard	-2219
care	-2220
▁account	-2221
arie	-2222
eci	-2223
▁nove	-2224
▁eventi	-2225
chen	-2226
▁ges	-2227
▁pubblic	-2228
▁tal	-2229
▁compet	-2230
cing	-2231
atures	-2232
▁location	-2233
▁giorn	-2234
▁presso	-2235
▁colleg	-2236
▁divent	-2237
▁fot	-2238
▁close	-2239
▁pagina	-2240
▁31	-2241
▁distrib	-2242
▁quella	-2243
▁deve	-2244
▁sty	-2245
▁fur	-2246
work	-2247
ungere	-2248
ccia	-2249
iamo	-2250
zzazione	-2251
allo	-2252
▁wom	-2253
▁viv	-2254
▁typ	-2255
nore	-2256
▁mai	-2257
▁avere	-2258
▁food	-2259
▁game	-2260
▁dr	-2261
▁paese	-2262
▁plan	-2263
ever	-2264
▁rin	-2265
60	-2266
ences	-2267
zionali	-2268
▁rid	-2269
▁soggiorno	-2270
book	-2271
▁pap	-2272
▁country	-2273
ania	-2274
▁miglior	-2275
▁ve	-2276
▁rappresent	-2277
air	-2278
isi	-2279
▁tradi	-2280
▁guests	-2281
▁punto	-2282
▁incont	-2283
▁cucina	-2284
▁hist	-2285
▁puoi	-2286
iter	-2287
arn	-2288
▁buy	-2289
▁giochi	-2290
▁mostra	-2291
rati	-2292
▁conditions	-2293
▁2007	-2294
▁link	-2295
itud	-2296
▁prev	-2297
▁arte	-2298
▁prote	-2299
zation	-2300
▁sud	-2301
▁ul	-2302
▁commerci	-2303
itori	-2304
ights	-2305
▁scho	-2306
ential	-2307
ala	-2308
ension	-2309
istic	-2310
▁gran	-2311
oco	-2312
▁tax	-2313
▁bathroom	-2314
▁condizioni	-2315
▁example	-2316
ha	-2317
▁ir	-2318
ieme	-2319
▁cuore	-2320
▁trovare	-2321
▁ricord	-2322
▁presid	-2323
▁week	-2324
▁capac	-2325
80	-2326
▁signore	-2327
▁29	-2328
▁sue	-2329
▁body	-2330
▁inizi	-2331
▁luogo	-2332
rale	-2333
▁settiman	-2334
▁able	-2335
▁cin	-2336
▁pur	-2337
▁scel	-2338
▁tab	-2339
appa	-2340
eng	-2341
▁personal	-2342
▁und	-2343
▁cookies	-2344
▁continu	-2345
▁arm	-2346
▁ordine	-2347
▁60	-2348
▁tick	-2349
▁quar	-2350
▁allow	-2351
▁jesus	-2352
-0	-2353
▁try	-2354
eo	-2355
▁white	-2356
▁celeb	-2357
orth	-2358
▁dan	-2359
cci	-2360
▁veg	-2361
▁compon	-2362
enzione	-2363
▁din	-2364
▁sun	-2365
▁auth	-2366
pped	-2367
▁treno	-2368
▁fab	-2369
▁text	-2370
▁national	-2371
▁har	-2372
▁semplice	-2373
▁museum	-2374
▁lui	-2375
ah	-2376
▁esperienza	-2377
-2	-2378
▁king	-2379
ulation	-2380
▁island	-2381
▁trasp	-2382
▁wall	-2383
▁fig	-2384
▁magn	-2385
▁give	-2386
▁miles	-2387
▁particular	-2388
▁head	-2389
▁cres	-2390
siasi	-2391
▁prepar	-2392
ects	-2393
untain	-2394
▁european	-2395
▁qualsiasi	-2396
▁selezion	-2397
▁gioco	-2398
au	-2399
▁deter	-2400
▁vostra	-2401
▁produzione	-2402
dis	-2403
hib	-2404
▁perfect	-2405
ton	-2406
▁temper	-2407
▁vene	-2408
▁collabor	-2409
ka	-2410
.3	-2411
▁history	-2412
our	-2413
▁transl	-2414
▁clic	-2415
▁photo	-2416
ichi	-2417
▁ali	-2418
▁games	-2419
▁livello	-2420
▁land	-2421
▁dettagli	-2422
▁shi	-2423
▁apartments	-2424
▁building	-2425
▁mont	-2426
▁colore	-2427
▁famiglia	-2428
.4	-2429
▁minutes	-2430
▁vendita	-2431
▁aeroporto	-2432
ecip	-2433
▁contrib	-2434
▁sce	-2435
▁gesù	-2436
▁description	-2437
▁norm	-2438
▁moder	-2439
90	-2440
uses	-2441
usto	-2442
▁fed	-2443
esta	-2444
abili	-2445
▁aria	-2446
,5	-2447
uts	-2448
▁giard	-2449
▁funzion	-2450
▁pack	-2451
▁away	-2452
▁partecip	-2453
▁assist	-2454
▁chris	-2455
ativi	-2456
▁team	-2457
ward	-2458
▁industri	-2459
fort	-2460
▁decis	-2461
▁based	-2462
▁cav	-2463
osci	-2464
esco	-2465
▁litt	-2466
▁pisc	-2467
▁mond	-2468
oren	-2469
▁progetto	-2470
▁according	-2471
▁ip	-2472
▁cit	-2473
urezza	-2474
▁against	-2475
ective	-2476
ling	-2477
▁glo	-2478
▁machine	-2479
▁scegli	-2480
itore	-2481
▁arg	-2482
▁atta	-2483
ready	-2484
vir	-2485
▁ber	-2486
▁nature	-2487
▁2011	-2488
▁less	-2489
▁contemp	-2490
▁sent	-2491
▁hours	-2492
▁fres	-2493
▁vedere	-2494
▁little	-2495
▁restaurant	-2496
▁pict	-2497
▁ester	-2498
minist	-2499
zing	-2500
▁bigli	-2501
▁ii	-2502
▁contain	-2503
▁modern	-2504
▁opportun	-2505
▁appartamenti	-2506
▁pool	-2507
▁organ	-2508
▁sex	-2509
▁prezzi	-2510
▁cy	-2511
alth	-2512
ately	-2513
▁alto	-2514
▁porto	-2515
▁meno	-2516
▁excell	-2517
thers	-2518
▁civ	-2519
▁dot	-2520
▁garden	-2521
▁rent	-2522
▁film	-2523
chet	-2524
▁oil	-2525
bia	-2526
▁somet	-2527
▁posto	-2528
▁gest	-2529
▁medi	-2530
▁happ	-2531
rate	-2532
▁run	-2533
▁inser	-2534
▁panor	-2535
itto	-2536
▁young	-2537
▁occas	-2538
▁liber	-2539
▁general	-2540
▁however	-2541
osed	-2542
ordin	-2543
cco	-2544
▁booking	-2545
▁partire	-2546
▁fore	-2547
▁insieme	-2548
▁already	-2549
▁isra	-2550
ged	-2551
▁società	-2552
▁thanks	-2553
▁relax	-2554
▁production	-2555
gether	-2556
fo	-2557
▁rap	-2558
▁times	-2559
▁condition	-2560
▁richiesta	-2561
▁vario	-2562
▁giov	-2563
▁territ	-2564
▁turn	-2565
▁richi	-2566
▁shall	-2567
▁decor	-2568
▁mia	-2569
▁conosc	-2570
▁legno	-2571
▁period	-2572
ffe	-2573
▁address	-2574
▁sei	-2575
▁mobile	-2576
▁pala	-2577
ba	-2578
▁diverse	-2579
ency	-2580
▁europa	-2581
orio	-2582
▁separ	-2583
▁diversi	-2584
▁descrizione	-2585
▁wine	-2586
▁summ	-2587
▁brows	-2588
▁kitchen	-2589
▁wel	-2590
▁allog	-2591
rezz	-2592
▁lungo	-2593
12	-2594
▁verifica	-2595
▁internazionale	-2596
▁chiam	-2597
▁road	-2598
▁catal	-2599
▁corso	-2600
▁transfer	-2601
▁migliori	-2602
▁programm	-2603
▁campo	-2604
▁impro	-2605
▁histor	-2606
▁oli	-2607
▁apost	-2608
▁south	-2609
eta	-2610
▁specific	-2611
▁spl	-2612
▁whe	-2613
▁35	-2614
▁cann	-2615
▁americ	-2616
eti	-2617
▁sull	-2618
▁vengono	-2619
▁studio	-2620
▁mappa	-2621
▁pas	-2622
▁importante	-2623
▁features	-2624
▁rome	-2625
▁preced	-2626
icy	-2627
table	-2628
edizione	-2629
▁maria	-2630
▁current	-2631
▁green	-2632
▁nessun	-2633
▁together	-2634
▁united	-2635
▁den	-2636
resso	-2637
lin	-2638
▁remo	-2639
lu	-2640
esa	-2641
▁saint	-2642
▁finan	-2643
▁activities	-2644
▁field	-2645
▁perfor	-2646
thing	-2647
▁send	-2648
▁immagini	-2649
▁persona	-2650
▁sched	-2651
ering	-2652
▁return	-2653
▁notte	-2654
▁privacy	-2655
▁mountain	-2656
come	-2657
▁four	-2658
▁content	-2659
▁comfort	-2660
▁envir	-2661
▁america	-2662
▁riv	-2663
of	-2664
▁original	-2665
anz	-2666
ots	-2667
ased	-2668
▁occup	-2669
▁sever	-2670
▁corre	-2671
▁manage	-2672
▁particolare	-2673
▁prat	-2674
▁clean	-2675
▁ospiti	-2676
▁environ	-2677
▁svilupp	-2678
▁ristorante	-2679
▁cristo	-2680
▁defin	-2681
lement	-2682
▁asse	-2683
▁including	-2684
▁du	-2685
▁easy	-2686
mat	-2687
ared	-2688
cca	-2689
▁opera	-2690
▁wat	-2691
▁salv	-2692
▁situato	-2693
▁struct	-2694
▁various	-2695
▁shopping	-2696
▁resist	-2697
▁vu	-2698
rice	-2699
▁sette	-2700
▁giud	-2701
▁cookie	-2702
iglie	-2703
entire	-2704
▁piscina	-2705
icazioni	-2706
70	-2707
▁side	-2708
▁sicurezza	-2709
▁festiv	-2710
usi	-2711
▁course	-2712
▁possibilità	-2713
pte	-2714
▁prob	-2715
▁photos	-2716
ently	-2717
▁kind	-2718
▁inde	-2719
▁govern	-2720
▁testi	-2721
▁80	-2722
til	-2723
40	-2724
▁rese	-2725
▁floor	-2726
eter	-2727
▁gratis	-2728
▁scu	-2729
▁hy	-2730
▁cong	-2731
▁bell	-2732
▁certi	-2733
▁create	-2734
▁miglio	-2735
▁key	-2736
ettore	-2737
▁immedi	-2738
▁central	-2739
▁educ	-2740
▁short	-2741
▁pc	-2742
▁innov	-2743
▁bor	-2744
▁parl	-2745
▁contr	-2746
onti	-2747
cer	-2748
▁guide	-2749
mos	-2750
▁determin	-2751
▁christi	-2752
▁refer	-2753
sa	-2754
▁too	-2755
▁capit	-2756
▁bisogno	-2757
▁allo	-2758
▁articolo	-2759
▁built	-2760
▁ama	-2761
▁rispetto	-2762
▁valle	-2763
by	-2764
ex	-2765
▁milano	-2766
itor	-2767
chia	-2768
ems	-2769
▁club	-2770
rong	-2771
letter	-2772
▁nap	-2773
▁advan	-2774
▁bud	-2775
ander	-2776
▁better	-2777
▁nego	-2778
▁tu	-2779
▁space	-2780
▁monte	-2781
▁migliore	-2782
▁maggior	-2783
▁sare	-2784
▁exhib	-2785
▁metri	-2786
▁become	-2787
▁things	-2788
enso	-2789
▁vas	-2790
▁sant	-2791
imum	-2792
▁sopra	-2793
▁catt	-2794
▁fru	-2795
unque	-2796
▁negli	-2797
▁sed	-2798
▁recensioni	-2799
▁lei	-2800
▁vacanza	-2801
zze	-2802
▁quantità	-2803
▁veget	-2804
▁france	-2805
.000	-2806
▁rot	-2807
▁signific	-2808
▁2010	-2809
▁volte	-2810
ove	-2811
▁scri	-2812
icato	-2813
erimento	-2814
▁grado	-2815
▁frequ	-2816
▁along	-2817
▁azienda	-2818
▁cerca	-2819
▁quot	-2820
▁cul	-2821
▁q	-2822
▁manuf	-2823
idd	-2824
▁century	-2825
▁dopp	-2826
▁telef	-2827
▁bab	-2828
▁saranno	-2829
▁sviluppo	-2830
▁atti	-2831
erst	-2832
▁shipping	-2833
▁ril	-2834
▁corpo	-2835
▁serie	-2836
▁mart	-2837
▁mercato	-2838
▁necessario	-2839
▁record	-2840
arlo	-2841
▁discover	-2842
▁indiri	-2843
icare	-2844
▁single	-2845
ratt	-2846
▁ask	-2847
▁application	-2848
▁move	-2849
▁crit	-2850
▁bri	-2851
ghe	-2852
▁performan	-2853
▁fis	-2854
▁confron	-2855
orre	-2856
▁pract	-2857
▁print	-2858
▁property	-2859
odo	-2860
▁numer	-2861
▁viol	-2862
▁village	-2863
▁sab	-2864
imi	-2865
utions	-2866
ima	-2867
ualizz	-2868
▁ago	-2869
▁cover	-2870
▁express	-2871
▁cell	-2872
▁benef	-2873
▁development	-2874
▁spazio	-2875
▁quad	-2876
▁newsletter	-2877
▁strateg	-2878
▁vel	-2879
▁faith	-2880
▁abit	-2881
▁prices	-2882
▁luce	-2883
▁surround	-2884
▁ce	-2885
ror	-2886
▁front	-2887
▁excellent	-2888
▁accesso	-2889
▁never	-2890
▁vit	-2891
▁average	-2892
▁items	-2893
▁stock	-2894
▁language	-2895
ettere	-2896
phone	-2897
ended	-2898
▁guida	-2899
▁peace	-2900
▁sott	-2901
▁natura	-2902
▁until	-2903
▁erano	-2904
▁ov	-2905
▁nord	-2906
▁dar	-2907
▁cose	-2908
▁satell	-2909
▁author	-2910
onte	-2911
▁controll	-2912
ured	-2913
▁gold	-2914
▁aggiorn	-2915
▁called	-2916
▁cheap	-2917
▁tav	-2918
▁trip	-2919
▁ps	-2920
▁oss	-2921
▁character	-2922
▁instru	-2923
▁customer	-2924
▁periodo	-2925
▁otto	-2926
▁altra	-2927
▁bedroom	-2928
▁egli	-2929
▁once	-2930
▁manufact	-2931
▁facilities	-2932
zer	-2933
▁nov	-2934
▁glob	-2935
▁alcune	-2936
orta	-2937
usso	-2938
urre	-2939
▁pec	-2940
▁famil	-2941
▁bio	-2942
▁rele	-2943
▁info	-2944
▁linea	-2945
self	-2946
▁conven	-2947
201	-2948
uso	-2949
▁bon	-2950
▁furn	-2951
erm	-2952
▁value	-2953
▁strada	-2954
▁disponibili	-2955
asse	-2956
▁spiaggia	-2957
▁keep	-2958
▁report	-2959
dom	-2960
▁above	-2961
uli	-2962
▁energy	-2963
▁guar	-2964
▁198	-2965
▁piazza	-2966
▁spesso	-2967
aco	-2968
▁environment	-2969
▁means	-2970
▁material	-2971
iscono	-2972
▁compren	-2973
▁choose	-2974
▁desid	-2975
ograph	-2976
▁acquis	-2977
▁jan	-2978
▁therefore	-2979
▁collection	-2980
▁working	-2981
▁blo	-2982
sp	-2983
usti	-2984
▁added	-2985
cle	-2986
▁ricon	-2987
▁intell	-2988
▁ideale	-2989
▁square	-2990
ring	-2991
rutt	-2992
▁places	-2993
▁eur	-2994
▁nuovi	-2995
ilomet	-2996
cita	-2997
uly	-2998
ald	-2999
alla	-3000
onia	-3001
▁common	-3002
▁spedizione	-3003
▁venezia	-3004
ki	-3005
oney	-3006
▁interp	-3007
▁range	-3008
▁network	-3009
▁writ	-3010
▁idea	-3011
▁promot	-3012
▁sog	-3013
▁32	-3014
itive	-3015
▁prevent	-3016
ners	-3017
ised	-3018
▁lamp	-3019
.6	-3020
▁feel	-3021
▁pian	-3022
▁browser	-3023
▁amore	-3024
▁equip	-3025
▁shop	-3026
▁change	-3027
▁style	-3028
▁nuove	-3029
▁elev	-3030
pro	-3031
▁visualizz	-3032
▁70	-3033
tore	-3034
99	-3035
▁chang	-3036
▁tourist	-3037
▁stile	-3038
▁giovan	-3039
▁holy	-3040
▁consum	-3041
▁redu	-3042
▁left	-3043
▁health	-3044
▁sell	-3045
▁mini	-3046
▁lond	-3047
▁brand	-3048
▁quick	-3049
▁zo	-3050
▁vec	-3051
▁45	-3052
igi	-3053
▁ogg	-3054
▁aug	-3055
▁possi	-3056
▁rema	-3057
olic	-3058
▁utenti	-3059
▁specif	-3060
▁studi	-3061
▁semb	-3062
▁whole	-3063
▁alloggio	-3064
▁giardino	-3065
▁gratuita	-3066
▁mano	-3067
▁often	-3068
▁certain	-3069
▁register	-3070
ched	-3071
ctions	-3072
▁several	-3073
▁coun	-3074
▁andro	-3075
▁star	-3076
▁father	-3077
▁africa	-3078
ye	-3079
rata	-3080
▁esc	-3081
▁tend	-3082
▁aiut	-3083
▁model	-3084
▁parche	-3085
ami	-3086
sima	-3087
▁weather	-3088
ieve	-3089
▁parking	-3090
abil	-3091
▁results	-3092
▁contempor	-3093
▁sole	-3094
▁led	-3095
ying	-3096
75	-3097
▁complete	-3098
▁applicazione	-3099
▁wish	-3100
▁display	-3101
▁versione	-3102
gna	-3103
▁movi	-3104
▁stessa	-3105
med	-3106
tion	-3107
▁raff	-3108
▁inse	-3109
▁eccell	-3110
▁contra	-3111
▁manif	-3112
▁age	-3113
▁surf	-3114
ula	-3115
▁sod	-3116
▁abs	-3117
▁gir	-3118
▁padre	-3119
▁upd	-3120
▁caratteristiche	-3121
▁paesi	-3122
▁box	-3123
▁ordin	-3124
ime	-3125
▁premi	-3126
gione	-3127
▁macchina	-3128
▁effici	-3129
▁pagamento	-3130
▁select	-3131
▁gri	-3132
▁inizio	-3133
▁document	-3134
ological	-3135
▁generale	-3136
▁acquista	-3137
▁gas	-3138
▁stelle	-3139
▁resort	-3140
ranno	-3141
sc	-3142
▁steel	-3143
▁walk	-3144
otti	-3145
▁annunci	-3146
▁museo	-3147
▁tale	-3148
▁lux	-3149
italia	-3150
▁version	-3151
tic	-3152
▁gol	-3153
▁fotograf	-3154
▁station	-3155
▁giug	-3156
▁law	-3157
▁potrebbe	-3158
▁guest	-3159
▁arti	-3160
▁immagine	-3161
onto	-3162
▁bib	-3163
▁ottenere	-3164
▁clear	-3165
▁percent	-3166
▁research	-3167
▁aveva	-3168
▁states	-3169
▁manag	-3170
▁der	-3171
pond	-3172
▁oppure	-3173
▁raga	-3174
▁fire	-3175
▁put	-3176
▁position	-3177
ones	-3178
▁why	-3179
▁others	-3180
guard	-3181
▁later	-3182
bbero	-3183
▁transport	-3184
▁dece	-3185
tura	-3186
▁scre	-3187
▁files	-3188
▁principale	-3189
ettura	-3190
▁table	-3191
ney	-3192
▁thous	-3193
tanto	-3194
ough	-3195
astic	-3196
▁school	-3197
▁meeting	-3198
▁articoli	-3199
▁begin	-3200
aster	-3201
▁ambiente	-3202
▁2009	-3203
cchi	-3204
itato	-3205
▁allora	-3206
▁molte	-3207
▁included	-3208
▁festival	-3209
▁sav	-3210
▁inn	-3211
▁performance	-3212
▁june	-3213
asso	-3214
▁tram	-3215
▁risultati	-3216
▁include	-3217
▁39	-3218
▁ideal	-3219
sw	-3220
zzato	-3221
▁third	-3222
▁android	-3223
▁belle	-3224
▁mese	-3225
▁accomp	-3226
▁inver	-3227
▁recomm	-3228
▁iss	-3229
ettu	-3230
▁assic	-3231
▁navig	-3232
▁quatt	-3233
▁tratta	-3234
▁fant	-3235
▁#	-3236
▁fel	-3237
▁mun	-3238
▁parco	-3239
▁cristi	-3240
uring	-3241
enn	-3242
rai	-3243
▁introdu	-3244
istico	-3245
▁maj	-3246
▁meglio	-3247
▁cross	-3248
▁image	-3249
▁svol	-3250
ipped	-3251
▁sus	-3252
▁domin	-3253
▁further	-3254
▁stri	-3255
▁future	-3256
▁dial	-3257
ality	-3258
▁prem	-3259
▁grow	-3260
ule	-3261
▁really	-3262
alf	-3263
▁rig	-3264
▁frat	-3265
house	-3266
cere	-3267
▁treat	-3268
▁arriv	-3269
▁given	-3270
▁elen	-3271
▁sound	-3272
▁forte	-3273
▁pil	-3274
▁giugno	-3275
▁technology	-3276
▁modello	-3277
oper	-3278
▁tub	-3279
▁women	-3280
▁milan	-3281
▁months	-3282
▁leggi	-3283
omi	-3284
▁sn	-3285
▁cab	-3286
amous	-3287
ections	-3288
▁mesi	-3289
▁ic	-3290
olari	-3291
▁beh	-3292
▁provide	-3293
rest	-3294
▁sti	-3295
▁drive	-3296
▁matri	-3297
ecially	-3298
▁amo	-3299
▁palazzo	-3300
vero	-3301
▁splend	-3302
olar	-3303
ids	-3304
▁code	-3305
▁cra	-3306
▁deb	-3307
▁represent	-3308
▁quelli	-3309
▁indirizzo	-3310
▁having	-3311
▁combin	-3312
▁companies	-3313
▁naturale	-3314
▁piedi	-3315
ian	-3316
▁learn	-3317
▁qualche	-3318
▁master	-3319
▁profil	-3320
ope	-3321
▁paint	-3322
ibili	-3323
hod	-3324
▁thus	-3325
iale	-3326
▁atmos	-3327
ille	-3328
amic	-3329
▁colori	-3330
▁pochi	-3331
▁contatto	-3332
egu	-3333
▁particip	-3334
▁management	-3335
▁series	-3336
▁especially	-3337
▁musica	-3338
▁purch	-3339
ieg	-3340
vin	-3341
iazione	-3342
▁ba	-3343
▁gioc	-3344
ppi	-3345
▁tosc	-3346
▁areas	-3347
▁previous	-3348
▁rem	-3349
▁letter	-3350
▁punti	-3351
amin	-3352
▁communic	-3353
▁direttamente	-3354
▁commiss	-3355
▁frances	-3356
▁proprietà	-3357
erd	-3358
▁favor	-3359
▁foc	-3360
▁accogli	-3361
▁costitu	-3362
issimo	-3363
▁blog	-3364
▁2008	-3365
▁sopratt	-3366
▁problemi	-3367
▁quattro	-3368
▁altern	-3369
▁ara	-3370
▁terms	-3371
▁lista	-3372
ffic	-3373
forma	-3374
uary	-3375
▁dub	-3376
▁depart	-3377
▁neg	-3378
▁soprattutto	-3379
elves	-3380
tad	-3381
▁barb	-3382
▁regione	-3383
egn	-3384
▁message	-3385
▁fuori	-3386
▁think	-3387
▁terre	-3388
enziale	-3389
▁culture	-3390
▁meas	-3391
▁piccolo	-3392
ogn	-3393
▁engine	-3394
▁milioni	-3395
▁voli	-3396
ande	-3397
▁parcheggio	-3398
,000	-3399
▁known	-3400
.8	-3401
▁ads	-3402
▁rub	-3403
▁concl	-3404
▁mission	-3405
▁infatti	-3406
▁figli	-3407
▁spirito	-3408
▁tar	-3409
▁suite	-3410
▁cr	-3411
▁cass	-3412
aci	-3413
▁invece	-3414
▁famous	-3415
▁detto	-3416
▁reach	-3417
▁guer	-3418
▁lingua	-3419
▁settore	-3420
▁animali	-3421
▁quasi	-3422
▁venice	-3423
▁visita	-3424
ges	-3425
▁server	-3426
▁evid	-3427
▁upon	-3428
▁accept	-3429
voli	-3430
▁effettu	-3431
▁assoc	-3432
▁centrale	-3433
▁conness	-3434
▁swim	-3435
▁equipped	-3436
▁nazionale	-3437
▁amm	-3438
otta	-3439
bs	-3440
▁earth	-3441
▁controllo	-3442
▁simple	-3443
ritti	-3444
▁countries	-3445
▁allows	-3446
▁stazione	-3447
mer	-3448
▁unique	-3449
▁tranqu	-3450
ux	-3451
▁wa	-3452
▁copy	-3453
▁virt	-3454
▁materiale	-3455
▁seconda	-3456
▁daily	-3457
▁speciali	-3458
▁advert	-3459
▁gal	-3460
▁batt	-3461
▁architect	-3462
▁million	-3463
▁bord	-3464
▁function	-3465
▁etc	-3466
▁pin	-3467
▁designed	-3468
ciare	-3469
▁segn	-3470
▁board	-3471
▁street	-3472
▁settimana	-3473
ising	-3474
▁created	-3475
cil	-3476
▁consigli	-3477
▁fit	-3478
▁rivol	-3479
any	-3480
▁prenota	-3481
▁informazione	-3482
▁90	-3483
▁speak	-3484
▁rete	-3485
▁offerta	-3486
ding	-3487
▁nostre	-3488
▁repub	-3489
▁posti	-3490
▁carta	-3491
▁esclus	-3492
▁technical	-3493
▁policy	-3494
itter	-3495
▁uomini	-3496
▁precis	-3497
▁systems	-3498
▁user	-3499
▁mant	-3500
▁lug	-3501
▁secolo	-3502
▁december	-3503
▁01	-3504
▁ulteri	-3505
▁john	-3506
▁tuttavia	-3507
fa	-3508
▁everything	-3509
▁underst	-3510
pri	-3511
▁perform	-3512
▁risc	-3513
▁alloggi	-3514
▁hig	-3515
▁costa	-3516
orse	-3517
▁pac	-3518
▁emb	-3519
.7	-3520
oca	-3521
▁professional	-3522
oti	-3523
ersi	-3524
▁fren	-3525
umi	-3526
▁francia	-3527
▁locali	-3528
▁menu	-3529
▁parole	-3530
▁paris	-3531
▁automat	-3532
▁vacanze	-3533
rated	-3534
▁processo	-3535
▁aggiungi	-3536
▁sala	-3537
▁glass	-3538
▁instit	-3539
▁stampa	-3540
▁individual	-3541
▁making	-3542
▁reso	-3543
ptember	-3544
▁strong	-3545
▁floren	-3546
top	-3547
urity	-3548
▁accia	-3549
ances	-3550
▁pace	-3551
▁april	-3552
▁north	-3553
▁might	-3554
▁settembre	-3555
▁ens	-3556
aring	-3557
▁iscri	-3558
▁viaggi	-3559
▁vanta	-3560
▁welcome	-3561
▁causa	-3562
▁necessary	-3563
▁propos	-3564
▁lic	-3565
▁store	-3566
▁fish	-3567
▁ved	-3568
▁personale	-3569
ko	-3570
▁usa	-3571
renze	-3572
ison	-3573
▁colazione	-3574
▁sand	-3575
▁blue	-3576
▁feb	-3577
ector	-3578
▁33	-3579
▁giovanni	-3580
itted	-3581
▁vedi	-3582
▁que	-3583
▁carri	-3584
▁continua	-3585
▁uffici	-3586
▁barcel	-3587
▁pray	-3588
erto	-3589
▁hom	-3590
▁nasc	-3591
▁reco	-3592
▁privato	-3593
▁isola	-3594
▁september	-3595
rano	-3596
zzare	-3597
side	-3598
▁money	-3599
▁uniti	-3600
▁china	-3601
▁words	-3602
uper	-3603
vazione	-3604
▁wond	-3605
▁additional	-3606
▁diam	-3607
lor	-3608
itable	-3609
▁noti	-3610
▁constru	-3611
ift	-3612
can	-3613
▁messaggio	-3614
ified	-3615
bus	-3616
▁summer	-3617
▁users	-3618
yn	-3619
ler	-3620
▁province	-3621
▁understand	-3622
▁proced	-3623
▁diritto	-3624
▁permette	-3625
▁valore	-3626
▁effetti	-3627
▁radio	-3628
wh	-3629
▁attenzione	-3630
▁sour	-3631
▁aperto	-3632
omin	-3633
▁save	-3634
▁500	-3635
▁influ	-3636
amica	-3637
erie	-3638
▁true	-3639
▁essi	-3640
▁materiali	-3641
rict	-3642
▁batter	-3643
▁community	-3644
ules	-3645
ui	-3646
▁storico	-3647
isa	-3648
▁36	-3649
▁trattamento	-3650
▁firenze	-3651
▁continue	-3652
▁stran	-3653
urazione	-3654
▁attrezz	-3655
▁completamente	-3656
▁facebook	-3657
▁method	-3658
▁principali	-3659
ualmente	-3660
▁visitatori	-3661
erc	-3662
▁reserv	-3663
▁coin	-3664
ds	-3665
▁mand	-3666
▁tess	-3667
▁makes	-3668
▁pom	-3669
▁provided	-3670
▁mie	-3671
ficie	-3672
▁sosten	-3673
ker	-3674
▁scelta	-3675
▁tel	-3676
▁points	-3677
▁utilizzare	-3678
▁march	-3679
▁propria	-3680
▁compless	-3681
ived	-3682
tiene	-3683
▁lago	-3684
▁perd	-3685
cial	-3686
ificare	-3687
,2	-3688
▁presente	-3689
▁members	-3690
▁guid	-3691
▁quel	-3692
ony	-3693
▁condizion	-3694
olazione	-3695
▁fede	-3696
▁prim	-3697
icial	-3698
▁purp	-3699
▁aliment	-3700
▁reme	-3701
ames	-3702
▁raggiungere	-3703
▁sure	-3704
▁prenotazione	-3705
▁cic	-3706
▁soddis	-3707
▁piace	-3708
▁amount	-3709
orm	-3710
▁christian	-3711
▁partner	-3712
entemente	-3713
ills	-3714
▁track	-3715
▁foot	-3716
▁something	-3717
.9	-3718
11	-3719
tober	-3720
▁nero	-3721
▁needs	-3722
▁dicembre	-3723
▁elim	-3724
mark	-3725
▁jud	-3726
▁orient	-3727
▁entire	-3728
▁impi	-3729
▁corret	-3730
▁realtà	-3731
▁comes	-3732
▁cambi	-3733
▁tickets	-3734
▁audio	-3735
▁obi	-3736
▁avv	-3737
por	-3738
row	-3739
▁images	-3740
▁codice	-3741
ables	-3742
▁relations	-3743
▁utilizzo	-3744
▁testo	-3745
used	-3746
▁possiamo	-3747
iture	-3748
▁costruzione	-3749
naio	-3750
▁unico	-3751
▁verde	-3752
▁seguito	-3753
▁tell	-3754
▁ball	-3755
▁piet	-3756
▁guarante	-3757
▁exc	-3758
▁importanti	-3759
▁subject	-3760
▁adv	-3761
ppe	-3762
▁mix	-3763
▁hot	-3764
rem	-3765
reg	-3766
esse	-3767
▁comunità	-3768
iting	-3769
▁ever	-3770
▁facile	-3771
▁valut	-3772
▁looking	-3773
ardi	-3774
pper	-3775
▁terrace	-3776
▁quantity	-3777
▁ultimo	-3778
▁syn	-3779
oghi	-3780
forte	-3781
▁saf	-3782
onde	-3783
raio	-3784
▁wifi	-3785
▁item	-3786
▁lun	-3787
▁cla	-3788
sive	-3789
▁swit	-3790
▁buona	-3791
▁flow	-3792
▁gratuito	-3793
▁superficie	-3794
▁trenitalia	-3795
cent	-3796
▁34	-3797
iterran	-3798
ending	-3799
▁directly	-3800
▁unità	-3801
▁spazi	-3802
▁soff	-3803
▁materials	-3804
▁obietti	-3805
ention	-3806
▁january	-3807
▁bott	-3808
▁appear	-3809
▁came	-3810
▁gennaio	-3811
cient	-3812
▁lasci	-3813
▁yet	-3814
▁october	-3815
▁subito	-3816
ivamente	-3817
ende	-3818
▁bul	-3819
▁300	-3820
▁pleas	-3821
▁addition	-3822
oses	-3823
▁dato	-3824
arono	-3825
▁shower	-3826
▁bad	-3827
ila	-3828
▁login	-3829
ush	-3830
fully	-3831
▁cancell	-3832
icamente	-3833
▁customers	-3834
▁question	-3835
abilità	-3836
▁mani	-3837
▁deuts	-3838
▁deg	-3839
▁residence	-3840
az	-3841
▁andare	-3842
▁option	-3843
▁invest	-3844
▁condivid	-3845
▁cine	-3846
▁evol	-3847
vely	-3848
▁opt	-3849
▁tramite	-3850
▁capacità	-3851
▁swimming	-3852
▁parts	-3853
▁parola	-3854
▁miglia	-3855
▁flights	-3856
gue	-3857
▁fruit	-3858
▁rock	-3859
▁utente	-3860
▁distanza	-3861
▁self	-3862
af	-3863
▁security	-3864
▁major	-3865
▁quelle	-3866
▁pla	-3867
▁ground	-3868
▁interv	-3869
▁buildings	-3870
▁libro	-3871
▁personali	-3872
▁ottobre	-3873
▁amici	-3874
▁eg	-3875
▁problems	-3876
▁scient	-3877
▁famiglie	-3878
▁wander	-3879
▁38	-3880
▁supporto	-3881
▁bella	-3882
▁imb	-3883
▁santo	-3884
▁barcelona	-3885
▁mean	-3886
arm	-3887
▁maggiore	-3888
▁hall	-3889
▁speciale	-3890
ashion	-3891
▁acciaio	-3892
▁starting	-3893
dy	-3894
▁aggiunto	-3895
▁chia	-3896
▁medio	-3897
▁196	-3898
▁presenti	-3899
utti	-3900
▁florence	-3901
▁ultima	-3902
32	-3903
alo	-3904
▁disposit	-3905
▁massimo	-3906
▁mediterran	-3907
iling	-3908
mate	-3909
▁disposizione	-3910
▁48	-3911
▁easily	-3912
▁ultimi	-3913
▁bianco	-3914
▁accessori	-3915
▁comfor	-3916
▁office	-3917
▁dic	-3918
▁bir	-3919
▁assemb	-3920
▁gestione	-3921
▁receive	-3922
▁remember	-3923
▁path	-3924
▁mezzo	-3925
▁creare	-3926
▁strumento	-3927
▁dimensioni	-3928
ties	-3929
ccio	-3930
▁solid	-3931
-11	-3932
▁cultura	-3933
▁answ	-3934
▁estensione	-3935
▁pross	-3936
▁cultural	-3937
eth	-3938
▁reason	-3939
▁fort	-3940
▁fast	-3941
▁cad	-3942
essi	-3943
▁alte	-3944
▁config	-3945
▁dagli	-3946
atrice	-3947
▁amminist	-3948
▁traditional	-3949
▁popular	-3950
▁vino	-3951
▁leave	-3952
orie	-3953
▁paul	-3954
▁born	-3955
▁watch	-3956
▁vib	-3957
bility	-3958
▁età	-3959
▁sard	-3960
edì	-3961
ither	-3962
redi	-3963
▁heav	-3964
▁meteo	-3965
▁soddisf	-3966
▁prendere	-3967
▁esist	-3968
odi	-3969
▁austral	-3970
▁cultur	-3971
▁desider	-3972
▁opere	-3973
istics	-3974
▁08	-3975
▁structure	-3976
▁mel	-3977
ils	-3978
▁tuoi	-3979
ifici	-3980
ceed	-3981
ground	-3982
iner	-3983
▁figlio	-3984
▁lands	-3985
▁bring	-3986
▁elenco	-3987
▁vent	-3988
▁agric	-3989
▁urb	-3990
▁ski	-3991
▁giovani	-3992
▁poter	-3993
▁capital	-3994
▁termin	-3995
▁boat	-3996
▁pubblico	-3997
▁staff	-3998
▁les	-3999
ermo	-4000
▁biglietti	-4001
▁half	-4002
▁entra	-4003
▁ancient	-4004
▁termini	-4005
▁febb	-4006
▁caff	-4007
▁problema	-4008
15	-4009
azz	-4010
▁fashion	-4011
▁sistemi	-4012
tiere	-4013
▁concern	-4014
▁esta	-4015
▁inside	-4016
▁exist	-4017
▁takes	-4018
▁obs	-4019
▁ost	-4020
▁initi	-4021
▁australia	-4022
▁font	-4023
▁misura	-4024
▁poco	-4025
▁itself	-4026
▁pare	-4027
itti	-4028
▁soluzione	-4029
▁wanderio	-4030
▁buon	-4031
▁lake	-4032
▁wide	-4033
▁french	-4034
▁toscana	-4035
▁impres	-4036
▁motor	-4037
ted	-4038
▁simil	-4039
▁camb	-4040
ky	-4041
▁article	-4042
uzioni	-4043
▁university	-4044
▁convers	-4045
▁va	-4046
45	-4047
▁perman	-4048
▁avete	-4049
▁immobili	-4050
je	-4051
▁cannot	-4052
▁digital	-4053
▁tusc	-4054
▁pictures	-4055
▁invol	-4056
▁coffe	-4057
▁deutsch	-4058
▁09	-4059
▁scheda	-4060
now	-4061
ais	-4062
▁historical	-4063
▁nas	-4064
orni	-4065
▁cittad	-4066
ota	-4067
▁cura	-4068
▁marco	-4069
▁provincia	-4070
▁july	-4071
▁beauty	-4072
▁agree	-4073
▁energia	-4074
ago	-4075
▁vog	-4076
▁distance	-4077
▁matt	-4078
met	-4079
▁cand	-4080
issima	-4081
apan	-4082
▁smart	-4083
▁ach	-4084
▁donna	-4085
cosa	-4086
▁beds	-4087
uno	-4088
▁regno	-4089
▁views	-4090
▁hair	-4091
▁maggiori	-4092
▁nello	-4093
▁eccellente	-4094
▁ulteriori	-4095
▁197	-4096
abit	-4097
▁doccia	-4098
▁cort	-4099
▁consent	-4100
▁cru	-4101
▁promo	-4102
▁emplo	-4103
▁equipment	-4104
▁almost	-4105
▁agen	-4106
▁fat	-4107
▁round	-4108
▁fal	-4109
▁donne	-4110
▁protection	-4111
▁intellig	-4112
ases	-4113
ishop	-4114
▁york	-4115
▁cri	-4116
▁fall	-4117
▁passe	-4118
▁situated	-4119
▁esso	-4120
egno	-4121
▁albergo	-4122
▁recuper	-4123
▁tool	-4124
▁houses	-4125
atamente	-4126
▁girl	-4127
vizz	-4128
▁femm	-4129
▁reali	-4130
ny	-4131
▁fol	-4132
▁luglio	-4133
▁going	-4134
▁cub	-4135
▁related	-4136
▁condizionata	-4137
▁tanto	-4138
▁orgas	-4139
▁publ	-4140
▁mind	-4141
,0	-4142
▁deal	-4143
▁concent	-4144
▁pet	-4145
▁coup	-4146
gest	-4147
▁successo	-4148
▁sede	-4149
▁dare	-4150
▁teat	-4151
▁dog	-4152
▁deep	-4153
▁least	-4154
ativ	-4155
br	-4156
▁scuola	-4157
gia	-4158
▁insp	-4159
▁sarebbe	-4160
▁diment	-4161
▁insegn	-4162
▁extension	-4163
▁monu	-4164
▁sembra	-4165
▁delivery	-4166
▁stret	-4167
▁season	-4168
▁febbraio	-4169
ators	-4170
▁sess	-4171
▁establ	-4172
▁svizz	-4173
ronom	-4174
▁05	-4175
mas	-4176
▁usare	-4177
▁coffee	-4178
▁elimin	-4179
este	-4180
▁aziende	-4181
▁cant	-4182
glia	-4183
uttore	-4184
▁riman	-4185
▁connessione	-4186
tage	-4187
▁society	-4188
▁esig	-4189
aches	-4190
▁150	-4191
▁ji	-4192
ably	-4193
ident	-4194
▁classic	-4195
▁friends	-4196
wor	-4197
rebbero	-4198
▁august	-4199
▁required	-4200
lese	-4201
ump	-4202
▁vero	-4203
▁contatta	-4204
ilia	-4205
▁dichi	-4206
▁feder	-4207
▁visto	-4208
▁hi	-4209
▁facilmente	-4210
▁arrivo	-4211
▁ur	-4212
▁rapporto	-4213
▁japan	-4214
,8	-4215
▁aument	-4216
▁caratteri	-4217
cript	-4218
▁calend	-4219
ruary	-4220
▁zoom	-4221
▁ast	-4222
ledge	-4223
▁dam	-4224
fia	-4225
▁fund	-4226
ualizza	-4227
▁trasporto	-4228
iché	-4229
▁superiore	-4230
▁action	-4231
▁object	-4232
▁calc	-4233
▁novembre	-4234
▁require	-4235
▁registrati	-4236
attere	-4237
▁legge	-4238
▁patri	-4239
▁edific	-4240
▁extre	-4241
▁appena	-4242
▁labor	-4243
▁death	-4244
▁families	-4245
▁november	-4246
▁seguenti	-4247
rono	-4248
▁castello	-4249
▁towards	-4250
▁opin	-4251
▁february	-4252
-13	-4253
▁weight	-4254
ibility	-4255
uge	-4256
▁paolo	-4257
▁speed	-4258
▁comfortable	-4259
▁ub	-4260
▁suggest	-4261
▁uses	-4262
,3	-4263
▁exclus	-4264
▁franc	-4265
▁band	-4266
adem	-4267
ya	-4268
▁rights	-4269
▁fos	-4270
▁wonder	-4271
▁contatti	-4272
▁party	-4273
▁qualcosa	-4274
▁vostri	-4275
▁pure	-4276
▁soli	-4277
▁step	-4278
▁fill	-4279
bon	-4280
▁five	-4281
▁riguard	-4282
▁sports	-4283
▁archiv	-4284
ulla	-4285
▁....	-4286
yl	-4287
▁outdo	-4288
▁comment	-4289
▁ga	-4290
▁ricev	-4291
▁ascol	-4292
▁potete	-4293
-3	-4294
ify	-4295
▁veloc	-4296
▁exhibition	-4297
▁37	-4298
fied	-4299
▁asia	-4300
▁ped	-4301
▁municip	-4302
▁consente	-4303
onda	-4304
▁similar	-4305
▁jour	-4306
▁durata	-4307
▁boats	-4308
▁ottimo	-4309
▁2000	-4310
▁presenza	-4311
▁plat	-4312
▁colour	-4313
▁regard	-4314
▁desk	-4315
▁torn	-4316
▁pok	-4317
verse	-4318
▁occhi	-4319
▁luoghi	-4320
▁moment	-4321
▁ruolo	-4322
▁componenti	-4323
▁latest	-4324
▁gh	-4325
▁safe	-4326
ggiare	-4327
▁chap	-4328
▁foreign	-4329
▁scen	-4330
▁dedicated	-4331
▁arred	-4332
▁trasc	-4333
▁fair	-4334
▁indipend	-4335
▁role	-4336
ster	-4337
▁sle	-4338
▁poli	-4339
▁gardena	-4340
ior	-4341
▁satellite	-4342
▁aprile	-4343
▁thousands	-4344
▁migliaia	-4345
▁teach	-4346
▁lay	-4347
▁germany	-4348
agra	-4349
zes	-4350
▁riferimento	-4351
right	-4352
▁utilizza	-4353
▁italiana	-4354
▁investi	-4355
▁ni	-4356
▁senti	-4357
▁emerg	-4358
itude	-4359
▁solution	-4360
▁clos	-4361
,6	-4362
esc	-4363
▁american	-4364
▁occasione	-4365
▁flight	-4366
bed	-4367
▁provides	-4368
▁pelle	-4369
▁certific	-4370
▁problem	-4371
▁installa	-4372
miss	-4373
ening	-4374
▁basso	-4375
▁piccola	-4376
▁lit	-4377
▁roman	-4378
▁preghi	-4379
▁golf	-4380
▁tun	-4381
▁acquistare	-4382
▁popolo	-4383
▁mondiale	-4384
▁typical	-4385
▁ferro	-4386
▁thought	-4387
ibilità	-4388
▁bos	-4389
▁confir	-4390
▁unit	-4391
▁cinque	-4392
▁nice	-4393
cep	-4394
▁mother	-4395
▁dovrebbe	-4396
▁forza	-4397
▁locale	-4398
▁training	-4399
▁trib	-4400
▁consiglio	-4401
▁temperature	-4402
▁2006	-4403
rome	-4404
▁compos	-4405
▁42	-4406
gge	-4407
▁alp	-4408
▁aim	-4409
▁fid	-4410
▁improve	-4411
▁guerra	-4412
▁payment	-4413
▁industry	-4414
ml	-4415
▁intens	-4416
ank	-4417
▁inglese	-4418
▁flat	-4419
▁quotidi	-4420
▁peso	-4421
▁raccol	-4422
▁maximum	-4423
▁tech	-4424
▁medic	-4425
▁discount	-4426
▁manten	-4427
oglie	-4428
▁accessories	-4429
▁dif	-4430
ctive	-4431
▁giornata	-4432
▁choice	-4433
▁luxury	-4434
▁vig	-4435
▁compati	-4436
▁propriet	-4437
▁turistica	-4438
▁azione	-4439
▁taken	-4440
13	-4441
▁conosci	-4442
▁06	-4443
▁meters	-4444
▁garant	-4445
▁fix	-4446
▁prep	-4447
▁blu	-4448
▁obb	-4449
▁però	-4450
▁models	-4451
▁discuss	-4452
▁scegliere	-4453
▁volume	-4454
▁protezione	-4455
▁gamma	-4456
▁doct	-4457
▁israel	-4458
▁divis	-4459
▁49	-4460
▁senso	-4461
▁tipi	-4462
▁took	-4463
▁tecnologia	-4464
▁montag	-4465
gin	-4466
▁leav	-4467
ros	-4468
▁tecnolog	-4469
▁fronte	-4470
▁surface	-4471
▁cio	-4472
▁cott	-4473
back	-4474
▁risol	-4475
▁council	-4476
▁feed	-4477
olarmente	-4478
rel	-4479
▁completa	-4480
▁includes	-4481
▁contenuto	-4482
▁fatt	-4483
▁parad	-4484
▁invi	-4485
rore	-4486
▁west	-4487
▁strutture	-4488
▁campe	-4489
time	-4490
▁primi	-4491
▁merc	-4492
▁conserv	-4493
▁dipend	-4494
▁doppia	-4495
▁siete	-4496
ends	-4497
▁varie	-4498
▁limit	-4499
▁cerc	-4500
▁matrimoni	-4501
▁himself	-4502
▁multip	-4503
▁terrazza	-4504
▁metal	-4505
▁activity	-4506
▁evento	-4507
▁cath	-4508
▁smo	-4509
▁mir	-4510
▁devono	-4511
▁monitor	-4512
▁coast	-4513
▁forse	-4514
▁complex	-4515
rite	-4516
▁solutions	-4517
onom	-4518
▁fully	-4519
▁population	-4520
ja	-4521
▁gallery	-4522
▁dre	-4523
▁aqu	-4524
unto	-4525
▁modul	-4526
df	-4527
▁vuole	-4528
▁compare	-4529
▁canada	-4530
▁dat	-4531
▁conto	-4532
,4	-4533
board	-4534
enda	-4535
▁spain	-4536
pre	-4537
erve	-4538
pris	-4539
16	-4540
org	-4541
lava	-4542
▁partners	-4543
▁giudi	-4544
utta	-4545
▁plac	-4546
▁landsc	-4547
▁2005	-4548
▁instant	-4549
▁electric	-4550
▁government	-4551
▁morte	-4552
▁uk	-4553
▁elementi	-4554
▁risultato	-4555
▁ton	-4556
ternal	-4557
▁thank	-4558
▁olio	-4559
▁lunghe	-4560
accia	-4561
▁avanz	-4562
▁ecco	-4563
▁ring	-4564
▁compres	-4565
▁località	-4566
▁formato	-4567
iac	-4568
des	-4569
▁wed	-4570
▁visits	-4571
▁termine	-4572
▁mys	-4573
estra	-4574
ressione	-4575
▁prec	-4576
▁dispone	-4577
▁repl	-4578
▁03	-4579
24	-4580
▁piccoli	-4581
▁comments	-4582
imento	-4583
▁presidente	-4584
▁desideri	-4585
▁espa	-4586
▁om	-4587
▁phys	-4588
▁yes	-4589
▁winter	-4590
▁symb	-4591
▁recent	-4592
18	-4593
▁types	-4594
▁cities	-4595
▁55	-4596
▁rather	-4597
▁london	-4598
▁tecnica	-4599
itari	-4600
▁load	-4601
▁oro	-4602
▁suitable	-4603
▁plus	-4604
▁difficult	-4605
ude	-4606
▁07	-4607
▁dry	-4608
▁progetti	-4609
▁fum	-4610
▁correct	-4611
▁tom	-4612
▁join	-4613
▁held	-4614
▁truth	-4615
▁suppli	-4616
ras	-4617
▁avuto	-4618
▁east	-4619
▁spiritual	-4620
▁collezione	-4621
bu	-4622
▁edifici	-4623
▁male	-4624
▁autore	-4625
▁bil	-4626
▁published	-4627
▁asc	-4628
▁clicca	-4629
▁done	-4630
▁verità	-4631
▁rating	-4632
bian	-4633
▁cooper	-4634
▁outdoor	-4635
▁formazione	-4636
▁visualizza	-4637
▁rates	-4638
▁amazing	-4639
▁pros	-4640
▁televis	-4641
▁rosso	-4642
usta	-4643
rico	-4644
▁gift	-4645
▁vatic	-4646
▁sociale	-4647
▁pair	-4648
new	-4649
▁copp	-4650
▁telefono	-4651
▁progett	-4652
hop	-4653
▁dent	-4654
▁russ	-4655
▁cut	-4656
▁resour	-4657
▁stren	-4658
▁ted	-4659
▁aggiungere	-4660
▁suffici	-4661
▁essa	-4662
▁futuro	-4663
▁forg	-4664
light	-4665
erved	-4666
▁doll	-4667
▁marzo	-4668
▁simb	-4669
fici	-4670
▁river	-4671
▁below	-4672
▁velocità	-4673
▁siti	-4674
▁adj	-4675
eranno	-4676
▁ones	-4677
▁six	-4678
▁draw	-4679
biliare	-4680
▁comin	-4681
▁delic	-4682
yal	-4683
▁court	-4684
▁clo	-4685
▁bol	-4686
anea	-4687
▁inizia	-4688
usione	-4689
▁interesse	-4690
▁bur	-4691
▁wes	-4692
▁nole	-4693
▁minister	-4694
19	-4695
▁escurs	-4696
hern	-4697
▁marina	-4698
▁costo	-4699
▁stop	-4700
▁villas	-4701
▁designer	-4702
ley	-4703
▁becom	-4704
viti	-4705
▁trade	-4706
▁44	-4707
▁strumenti	-4708
ef	-4709
,9	-4710
amm	-4711
▁asci	-4712
▁costi	-4713
▁illust	-4714
▁breve	-4715
▁zone	-4716
iso	-4717
▁modelli	-4718
▁automatic	-4719
▁conditioning	-4720
box	-4721
▁cd	-4722
▁knowledge	-4723
▁almeno	-4724
▁edificio	-4725
▁rispar	-4726
▁album	-4727
▁final	-4728
▁eter	-4729
▁deals	-4730
yed	-4731
rio	-4732
▁diritti	-4733
▁tempi	-4734
cast	-4735
gh	-4736
▁kingdom	-4737
▁movimento	-4738
▁giapp	-4739
▁divers	-4740
isci	-4741
▁linee	-4742
burg	-4743
▁industrial	-4744
▁commit	-4745
,7	-4746
▁accommodations	-4747
ened	-4748
▁suff	-4749
net	-4750
▁casino	-4751
▁ship	-4752
ife	-4753
▁beginning	-4754
▁vicin	-4755
▁forum	-4756
▁mos	-4757
▁prova	-4758
ered	-4759
▁sos	-4760
pap	-4761
▁seen	-4762
▁balcon	-4763
▁conver	-4764
▁velo	-4765
▁coloro	-4766
▁davvero	-4767
▁dates	-4768
▁consist	-4769
▁nic	-4770
▁cord	-4771
▁fanno	-4772
▁significa	-4773
onna	-4774
▁domen	-4775
▁increase	-4776
▁superi	-4777
▁credit	-4778
▁bolog	-4779
▁negozio	-4780
14	-4781
▁wid	-4782
▁president	-4783
▁incor	-4784
ciato	-4785
guardo	-4786
▁leader	-4787
▁stone	-4788
▁poiché	-4789
25	-4790
duzione	-4791
▁bambino	-4792
▁fondament	-4793
▁forni	-4794
ieri	-4795
▁lab	-4796
▁sky	-4797
▁riscald	-4798
▁nut	-4799
▁chat	-4800
▁illumin	-4801
cuno	-4802
▁madre	-4803
▁serve	-4804
▁partenza	-4805
▁immobiliare	-4806
urato	-4807
▁allowed	-4808
▁economic	-4809
erta	-4810
▁tent	-4811
▁fib	-4812
▁ingresso	-4813
▁semin	-4814
▁aiuto	-4815
▁cias	-4816
▁né	-4817
▁esegu	-4818
▁caffè	-4819
▁disse	-4820
aries	-4821
▁vivere	-4822
tra	-4823
▁nar	-4824
▁streng	-4825
▁affid	-4826
▁stars	-4827
▁spagna	-4828
asti	-4829
▁vuoi	-4830
▁construction	-4831
erva	-4832
▁section	-4833
▁digit	-4834
▁connection	-4835
▁cattol	-4836
▁unica	-4837
olit	-4838
▁assol	-4839
▁swe	-4840
▁mec	-4841
ression	-4842
▁advanced	-4843
▁study	-4844
▁finanzi	-4845
▁02	-4846
▁manufactur	-4847
▁fondo	-4848
▁links	-4849
▁hope	-4850
yes	-4851
orità	-4852
▁testimoni	-4853
▁rob	-4854
▁infer	-4855
gen	-4856
pert	-4857
▁obtain	-4858
▁taste	-4859
atico	-4860
▁od	-4861
list	-4862
▁jih	-4863
▁feature	-4864
▁voc	-4865
▁fan	-4866
▁fla	-4867
▁mira	-4868
▁passo	-4869
▁presenta	-4870
▁soon	-4871
aps	-4872
▁phone	-4873
▁gente	-4874
▁presta	-4875
▁personalizz	-4876
▁04	-4877
▁regol	-4878
▁paes	-4879
▁taking	-4880
▁compil	-4881
▁trover	-4882
▁tema	-4883
▁tools	-4884
▁aw	-4885
▁religi	-4886
hood	-4887
▁produce	-4888
▁bank	-4889
essa	-4890
etting	-4891
▁effic	-4892
▁spetta	-4893
▁fresh	-4894
▁rate	-4895
rente	-4896
bilità	-4897
▁safety	-4898
unge	-4899
▁span	-4900
▁liqu	-4901
▁titolo	-4902
▁cause	-4903
▁percorso	-4904
▁restaurants	-4905
▁domanda	-4906
▁workers	-4907
▁siano	-4908
rance	-4909
▁politica	-4910
▁cup	-4911
occ	-4912
▁scopri	-4913
▁enco	-4914
▁precedente	-4915
▁camping	-4916
▁whom	-4917
▁hosp	-4918
▁risposta	-4919
▁ingredi	-4920
▁refl	-4921
▁champ	-4922
▁giusti	-4923
▁oce	-4924
anta	-4925
▁thems	-4926
▁capo	-4927
▁member	-4928
▁commenti	-4929
▁francesco	-4930
▁adult	-4931
▁agg	-4932
▁classe	-4933
▁dimost	-4934
▁rapid	-4935
▁subs	-4936
▁gruppi	-4937
▁themselves	-4938
hotel	-4939
▁incontro	-4940
▁originale	-4941
▁outside	-4942
▁democ	-4943
▁purchase	-4944
▁roll	-4945
▁says	-4946
▁miei	-4947
▁notizie	-4948
▁medie	-4949
▁membri	-4950
▁stim	-4951
ube	-4952
▁rile	-4953
▁circu	-4954
▁profilo	-4955
▁projects	-4956
▁sinist	-4957
▁global	-4958
▁bic	-4959
▁germania	-4960
▁skin	-4961
▁cry	-4962
▁territorio	-4963
▁plant	-4964
▁lomb	-4965
▁entro	-4966
▁categoria	-4967
▁mur	-4968
▁preferiti	-4969
▁194	-4970
▁story	-4971
▁bike	-4972
▁amico	-4973
▁funzione	-4974
▁46	-4975
▁political	-4976
▁pred	-4977
▁flash	-4978
giare	-4979
▁maest	-4980
▁agosto	-4981
▁bit	-4982
▁ristoranti	-4983
▁pietro	-4984
▁bishop	-4985
▁concept	-4986
▁utilizzando	-4987
▁consul	-4988
▁varia	-4989
arci	-4990
▁fasc	-4991
▁association	-4992
▁early	-4993
▁comunicazione	-4994
▁43	-4995
▁errore	-4996
▁arom	-4997
▁groups	-4998
ength	-4999
▁sb	-5000
▁consegu	-5001
ification	-5002
▁poker	-5003
▁chilomet	-5004
▁quote	-5005
usale	-5006
▁valori	-5007
asing	-5008
▁acquisto	-5009
▁carte	-5010
▁chall	-5011
atory	-5012
lam	-5013
enz	-5014
▁completely	-5015
▁hostel	-5016
▁ticket	-5017
▁treatment	-5018
▁brun	-5019
▁kg	-5020
inter	-5021
▁attention	-5022
monio	-5023
arvi	-5024
itura	-5025
▁india	-5026
▁soluzioni	-5027
rol	-5028
▁cliente	-5029
▁campagna	-5030
▁deliver	-5031
▁appar	-5032
▁err	-5033
etica	-5034
▁economico	-5035
▁consegna	-5036
ging	-5037
▁inh	-5038
▁journey	-5039
▁immers	-5040
▁phen	-5041
▁selection	-5042
iding	-5043
▁bac	-5044
▁governo	-5045
▁minute	-5046
▁edition	-5047
illo	-5048
▁mast	-5049
▁corris	-5050
▁source	-5051
look	-5052
▁trovato	-5053
icolo	-5054
▁presence	-5055
▁effect	-5056
ostante	-5057
▁cinema	-5058
▁elegant	-5059
bour	-5060
▁dichiar	-5061
▁--	-5062
▁verrà	-5063
▁analys	-5064
▁secret	-5065
▁relationship	-5066
▁minist	-5067
oph	-5068
▁offri	-5069
minute	-5070
▁troppo	-5071
▁shows	-5072
▁whether	-5073
▁scarica	-5074
▁economici	-5075
rod	-5076
asto	-5077
▁associazione	-5078
▁religious	-5079
▁mult	-5080
▁campi	-5081
teriore	-5082
▁nota	-5083
▁sapere	-5084
otec	-5085
▁2007-11	-5086
▁cib	-5087
atorio	-5088
▁western	-5089
▁mera	-5090
mal	-5091
▁eu	-5092
▁jav	-5093
▁arc	-5094
▁compar	-5095
▁frame	-5096
het	-5097
▁nu	-5098
▁2007-11-13	-5099
▁vinc	-5100
ional	-5101
▁gent	-5102
▁lines	-5103
erire	-5104
tead	-5105
▁reservation	-5106
vd	-5107
▁pran	-5108
▁crist	-5109
▁went	-5110
▁itiner	-5111
▁pope	-5112
▁libero	-5113
▁whose	-5114
▁scoprire	-5115
▁reale	-5116
uted	-5117
▁tradition	-5118
assi	-5119
▁valutazione	-5120
▁profile	-5121
▁forme	-5122
illi	-5123
▁capp	-5124
▁scrit	-5125
▁picture	-5126
▁job	-5127
▁quiet	-5128
▁dark	-5129
▁tue	-5130
▁università	-5131
▁riun	-5132
▁sper	-5133
▁resto	-5134
▁tali	-5135
▁é	-5136
▁bologna	-5137
astronom	-5138
ificazione	-5139
▁preventivo	-5140
ques	-5141
▁pari	-5142
▁ht	-5143
▁visitare	-5144
▁iscriviti	-5145
▁interf	-5146
▁andre	-5147
▁swiss	-5148
▁autori	-5149
▁jihlava	-5150
▁discip	-5151
▁official	-5152
▁midd	-5153
▁europea	-5154
▁valley	-5155
▁sint	-5156
▁convert	-5157
▁120	-5158
▁veloce	-5159
▁questions	-5160
▁75	-5161
▁iva	-5162
ns	-5163
▁prenotazioni	-5164
▁holidays	-5165
▁offering	-5166
▁ripar	-5167
ruzione	-5168
▁active	-5169
▁soltanto	-5170
▁assistenza	-5171
▁installation	-5172
▁students	-5173
▁motore	-5174
▁basil	-5175
▁miche	-5176
▁got	-5177
▁risorse	-5178
eremo	-5179
▁button	-5180
ross	-5181
▁fiori	-5182
▁torre	-5183
▁scopo	-5184
▁merav	-5185
rici	-5186
ascript	-5187
▁developed	-5188
ball	-5189
▁cock	-5190
oste	-5191
▁chair	-5192
▁genere	-5193
▁device	-5194
▁ready	-5195
lim	-5196
▁comunque	-5197
▁javascript	-5198
▁vegetables	-5199
▁aere	-5200
abilmente	-5201
▁persons	-5202
▁teatro	-5203
▁svizzera	-5204
▁compagn	-5205
▁longer	-5206
▁isol	-5207
pr	-5208
▁cf	-5209
▁satis	-5210
▁approx	-5211
▁inno	-5212
zzata	-5213
▁wire	-5214
▁operating	-5215
▁tradizione	-5216
▁situazione	-5217
▁corrispond	-5218
▁presti	-5219
▁rilass	-5220
▁potere	-5221
▁vitt	-5222
put	-5223
anzia	-5224
▁barcell	-5225
abled	-5226
▁lives	-5227
▁volont	-5228
▁copyright	-5229
▁hour	-5230
▁lato	-5231
angelo	-5232
▁jack	-5233
▁entramb	-5234
▁anton	-5235
ridge	-5236
▁firm	-5237
▁sund	-5238
itting	-5239
▁carattere	-5240
▁though	-5241
astica	-5242
▁commer	-5243
ov	-5244
▁basic	-5245
ode	-5246
▁conference	-5247
ratto	-5248
estre	-5249
▁match	-5250
▁touch	-5251
17	-5252
▁pell	-5253
▁currently	-5254
▁expl	-5255
▁oggetti	-5256
--	-5257
▁davanti	-5258
▁storage	-5259
▁campeggio	-5260
▁barcellona	-5261
▁finale	-5262
▁previs	-5263
▁intorno	-5264
▁salute	-5265
▁independ	-5266
▁gives	-5267
▁2004	-5268
▁twitter	-5269
itudine	-5270
▁installazione	-5271
▁sov	-5272
car	-5273
▁ucc	-5274
▁mig	-5275
▁length	-5276
▁dimensione	-5277
▁terreno	-5278
▁category	-5279
▁middle	-5280
▁throughout	-5281
▁finally	-5282
▁sche	-5283
▁migliorare	-5284
wo	-5285
▁effetto	-5286
▁sort	-5287
▁sales	-5288
▁villaggio	-5289
▁nothing	-5290
▁altezza	-5291
imes	-5292
▁player	-5293
▁thing	-5294
▁libr	-5295
▁vera	-5296
▁amate	-5297
▁rivel	-5298
▁error	-5299
ussi	-5300
▁barca	-5301
▁interesting	-5302
fl	-5303
egna	-5304
men	-5305
▁sogg	-5306
▁cot	-5307
ogue	-5308
▁avo	-5309
lig	-5310
▁dip	-5311
▁conoscenza	-5312
tro	-5313
▁vetro	-5314
▁cogn	-5315
▁palace	-5316
▁certo	-5317
▁union	-5318
▁exch	-5319
▁kn	-5320
▁rental	-5321
eces	-5322
essere	-5323
▁orolog	-5324
▁rist	-5325
dam	-5326
▁tatto	-5327
▁compl	-5328
▁buono	-5329
▁depos	-5330
▁memori	-5331
▁instead	-5332
▁applicazioni	-5333
▁bru	-5334
▁sicuro	-5335
▁lt	-5336
▁mediterrane	-5337
▁movement	-5338
▁posi	-5339
▁paren	-5340
▁woman	-5341
▁sezione	-5342
▁utilizzato	-5343
▁istitu	-5344
▁stagione	-5345
▁frag	-5346
▁passato	-5347
▁connect	-5348
▁lusso	-5349
▁citi	-5350
▁gia	-5351
▁produced	-5352
▁195	-5353
▁naturali	-5354
nes	-5355
▁simply	-5356
▁dura	-5357
▁biglietto	-5358
▁pubblicato	-5359
▁contenuti	-5360
▁analisi	-5361
▁garanti	-5362
ception	-5363
▁lont	-5364
dll	-5365
▁route	-5366
▁resources	-5367
▁steps	-5368
hic	-5369
▁videos	-5370
▁potenza	-5371
▁sector	-5372
▁intero	-5373
▁unto	-5374
cone	-5375
▁pati	-5376
▁riserv	-5377
▁spanish	-5378
▁papa	-5379
▁catholic	-5380
▁taxi	-5381
▁electron	-5382
▁neigh	-5383
▁recommend	-5384
ham	-5385
▁elements	-5386
▁collaborazione	-5387
▁wonderful	-5388
▁options	-5389
▁quite	-5390
▁applications	-5391
etter	-5392
▁impar	-5393
stra	-5394
▁format	-5395
▁constant	-5396
▁coming	-5397
▁destination	-5398
▁brit	-5399
cam	-5400
▁cards	-5401
▁esterno	-5402
▁profess	-5403
▁district	-5404
▁fores	-5405
▁buff	-5406
▁treni	-5407
▁orto	-5408
▁colors	-5409
lands	-5410
▁communication	-5411
▁snow	-5412
etic	-5413
▁jew	-5414
▁65	-5415
▁selezione	-5416
▁charge	-5417
inese	-5418
▁coordin	-5419
▁mid	-5420
▁anima	-5421
▁obiettivo	-5422
udi	-5423
▁spar	-5424
▁believe	-5425
eso	-5426
▁crescita	-5427
▁fornire	-5428
▁sesso	-5429
▁artist	-5430
▁premium	-5431
gor	-5432
▁everyone	-5433
▁citiz	-5434
ciano	-5435
▁vesco	-5436
hol	-5437
-201	-5438
▁elettron	-5439
▁award	-5440
▁mount	-5441
▁phil	-5442
▁paper	-5443
▁eb	-5444
▁either	-5445
▁novità	-5446
▁became	-5447
▁changes	-5448
zzati	-5449
▁casi	-5450
▁400	-5451
▁direzione	-5452
▁properties	-5453
▁soul	-5454
▁abitanti	-5455
phere	-5456
inal	-5457
▁driver	-5458
▁director	-5459
▁screen	-5460
▁xvi	-5461
atives	-5462
▁pietra	-5463
▁architecture	-5464
▁silver	-5465
▁opportunity	-5466
▁aspetto	-5467
▁passi	-5468
▁title	-5469
▁stessi	-5470
▁aree	-5471
▁domande	-5472
▁potrete	-5473
▁rende	-5474
▁hands	-5475
▁warm	-5476
▁situation	-5477
▁negozi	-5478
itamente	-5479
▁fili	-5480
aging	-5481
ettare	-5482
▁marketing	-5483
bers	-5484
▁ug	-5485
▁received	-5486
▁completo	-5487
▁fiss	-5488
▁chrome	-5489
▁enough	-5490
▁trovano	-5491
vell	-5492
▁programmi	-5493
▁napoli	-5494
▁reception	-5495
▁bellezza	-5496
▁offrire	-5497
▁costs	-5498
▁modalità	-5499
▁castle	-5500
▁esper	-5501
▁core	-5502
-4	-5503
▁memoria	-5504
▁cali	-5505
iono	-5506
▁schi	-5507
▁ideas	-5508
▁ensure	-5509
▁opening	-5510
▁iron	-5511
▁benessere	-5512
▁expla	-5513
▁bedrooms	-5514
▁basis	-5515
otte	-5516
▁administ	-5517
▁musical	-5518
▁francese	-5519
▁angolo	-5520
▁vehic	-5521
▁seleziona	-5522
▁letti	-5523
▁rend	-5524
▁barche	-5525
rov	-5526
▁tuscany	-5527
chè	-5528
▁arrival	-5529
▁architettura	-5530
occup	-5531
▁appare	-5532
▁respect	-5533
ached	-5534
▁leggere	-5535
▁giuse	-5536
▁kilomet	-5537
▁tavolo	-5538
rere	-5539
▁financial	-5540
▁faq	-5541
▁israele	-5542
▁pdf	-5543
▁evang	-5544
▁dint	-5545
▁cina	-5546
timento	-5547
▁prime	-5548
▁vini	-5549
▁ponte	-5550
▁numerosi	-5551
▁mech	-5552
▁libertà	-5553
nis	-5554
▁arrivare	-5555
▁sacra	-5556
▁internazionali	-5557
▁asciug	-5558
▁implement	-5559
osing	-5560
▁antica	-5561
▁sites	-5562
▁incred	-5563
▁guarantee	-5564
▁started	-5565
▁sola	-5566
▁baby	-5567
▁difficile	-5568
▁analysis	-5569
▁41	-5570
▁considered	-5571
male	-5572
osso	-5573
▁prenotare	-5574
▁scor	-5575
▁contract	-5576
edia	-5577
▁progress	-5578
▁2003	-5579
▁destra	-5580
ken	-5581
▁alth	-5582
▁largest	-5583
▁maps	-5584
▁condu	-5585
colare	-5586
▁programs	-5587
▁lombard	-5588
oltà	-5589
▁freed	-5590
▁specie	-5591
▁weeks	-5592
▁47	-5593
▁risparm	-5594
▁metres	-5595
▁osserv	-5596
▁sinistra	-5597
▁subst	-5598
▁pacchet	-5599
▁luc	-5600
▁education	-5601
▁relative	-5602
▁monaco	-5603
berg	-5604
ellow	-5605
▁reference	-5606
▁minimum	-5607
▁pover	-5608
oint	-5609
▁belie	-5610
-5	-5611
▁posit	-5612
▁dintorni	-5613
▁mary	-5614
▁connected	-5615
▁sicura	-5616
▁semplicemente	-5617
▁malatti	-5618
▁voce	-5619
▁apps	-5620
▁revol	-5621
▁plug	-5622
▁comuni	-5623
▁pranzo	-5624
▁presented	-5625
▁ville	-5626
▁although	-5627
uous	-5628
▁russia	-5629
▁riconosci	-5630
▁eserci	-5631
oline	-5632
razioni	-5633
▁esigenze	-5634
ored	-5635
▁vostre	-5636
ev	-5637
▁credito	-5638
▁spiritu	-5639
▁historic	-5640
▁cloud	-5641
▁offered	-5642
▁vict	-5643
▁conte	-5644
alli	-5645
▁blood	-5646
▁wild	-5647
▁masturb	-5648
▁spagn	-5649
asons	-5650
▁fosse	-5651
▁graph	-5652
▁highly	-5653
fficio	-5654
▁appli	-5655
▁decl	-5656
▁useful	-5657
▁belong	-5658
usion	-5659
▁heating	-5660
soft	-5661
▁valid	-5662
rant	-5663
nown	-5664
▁motivo	-5665
▁sense	-5666
▁race	-5667
endere	-5668
▁transform	-5669
▁lumin	-5670
▁sacri	-5671
▁spac	-5672
▁accett	-5673
▁scritto	-5674
▁legal	-5675
▁xi	-5676
28	-5677
▁quartiere	-5678
▁sunday	-5679
▁hd	-5680
▁sleep	-5681
▁giuseppe	-5682
▁remain	-5683
▁medium	-5684
▁advance	-5685
▁convin	-5686
▁carne	-5687
▁apertura	-5688
▁lavori	-5689
▁romant	-5690
undred	-5691
▁livelli	-5692
▁pubblicità	-5693
ensions	-5694
▁particolarmente	-5695
action	-5696
▁sometimes	-5697
▁organizzazione	-5698
▁graf	-5699
▁aless	-5700
▁reality	-5701
ship	-5702
▁behind	-5703
▁song	-5704
▁lower	-5705
▁particularly	-5706
▁plants	-5707
▁studenti	-5708
ova	-5709
segu	-5710
▁flowers	-5711
cin	-5712
▁ways	-5713
ionale	-5714
▁figure	-5715
▁focus	-5716
osti	-5717
▁flu	-5718
den	-5719
▁manager	-5720
▁cielo	-5721
▁meccan	-5722
▁oggetto	-5723
▁ott	-5724
▁distin	-5725
▁ecce	-5726
▁exclusive	-5727
▁morn	-5728
▁commission	-5729
▁massima	-5730
▁trasform	-5731
▁54	-5732
rim	-5733
▁written	-5734
▁bonus	-5735
zerland	-5736
ises	-5737
ox	-5738
▁rose	-5739
▁elegante	-5740
▁opzione	-5741
abor	-5742
▁ufficio	-5743
▁photograph	-5744
colo	-5745
zip	-5746
▁madrid	-5747
▁extrem	-5748
itation	-5749
▁foundation	-5750
▁berlin	-5751
▁switzerland	-5752
▁finish	-5753
▁amateur	-5754
irt	-5755
orsa	-5756
▁peter	-5757
ival	-5758
▁prayer	-5759
▁rappresenta	-5760
km	-5761
▁rosa	-5762
rast	-5763
▁mechan	-5764
▁bat	-5765
▁fase	-5766
▁usually	-5767
▁exact	-5768
hest	-5769
▁balcony	-5770
isation	-5771
▁fitness	-5772
▁sacerd	-5773
▁protect	-5774
ogni	-5775
▁ko	-5776
▁lunga	-5777
▁dise	-5778
▁actually	-5779
▁attack	-5780
▁maintain	-5781
▁domest	-5782
rent	-5783
▁conv	-5784
▁chilometri	-5785
▁scult	-5786
▁instrument	-5787
uttosto	-5788
▁regular	-5789
▁christmas	-5790
▁setting	-5791
lie	-5792
▁satur	-5793
▁defini	-5794
▁leather	-5795
▁players	-5796
▁proceed	-5797
▁seems	-5798
▁favore	-5799
▁aprire	-5800
▁origine	-5801
▁piuttosto	-5802
▁thin	-5803
▁civil	-5804
▁unione	-5805
▁contribu	-5806
etico	-5807
▁popolazione	-5808
▁quickly	-5809
▁numerous	-5810
▁lost	-5811
▁barbec	-5812
▁ponti	-5813
▁usato	-5814
▁stage	-5815
inare	-5816
▁macchine	-5817
▁sconto	-5818
▁hostels	-5819
▁capacity	-5820
▁vecchio	-5821
▁aware	-5822
▁innovative	-5823
▁250	-5824
▁antico	-5825
▁techni	-5826
▁matter	-5827
▁chann	-5828
enna	-5829
▁update	-5830
▁infin	-5831
▁ampia	-5832
▁selected	-5833
▁poly	-5834
▁sì	-5835
▁desc	-5836
▁prossimo	-5837
22	-5838
▁immobiliari	-5839
▁washing	-5840
▁olive	-5841
▁corte	-5842
▁musicale	-5843
▁components	-5844
rone	-5845
▁bay	-5846
arti	-5847
▁mail	-5848
▁estrem	-5849
▁parigi	-5850
▁commerciale	-5851
▁levels	-5852
bar	-5853
tagon	-5854
vamente	-5855
ket	-5856
▁vivo	-5857
▁chiese	-5858
pren	-5859
mony	-5860
▁pezzi	-5861
▁piccole	-5862
cted	-5863
▁consult	-5864
▁magaz	-5865
▁metodo	-5866
alt	-5867
▁agenzia	-5868
▁lavorare	-5869
▁manc	-5870
▁preghiera	-5871
▁lunghezza	-5872
▁manifesta	-5873
▁matrimoniale	-5874
▁riscaldamento	-5875
▁gab	-5876
pes	-5877
▁ju	-5878
▁prestazioni	-5879
▁rat	-5880
▁edizione	-5881
▁david	-5882
▁fields	-5883
▁austria	-5884
mes	-5885
▁tattoo	-5886
▁shape	-5887
▁languages	-5888
rig	-5889
▁barbecue	-5890
▁bran	-5891
ifiche	-5892
▁collegamenti	-5893
▁forms	-5894
▁fabric	-5895
▁possa	-5896
▁cel	-5897
▁gm	-5898
▁schools	-5899
▁spring	-5900
▁visualizzare	-5901
▁autorità	-5902
gar	-5903
▁furniture	-5904
▁som	-5905
▁slot	-5906
▁landscape	-5907
▁write	-5908
▁tari	-5909
▁complesso	-5910
▁advent	-5911
▁coinvol	-5912
▁siena	-5913
▁supplement	-5914
▁noleggio	-5915
fera	-5916
▁domenica	-5917
rot	-5918
▁hospital	-5919
irà	-5920
▁freedom	-5921
▁galleria	-5922
▁processing	-5923
rali	-5924
▁force	-5925
▁colo	-5926
▁scaricare	-5927
▁dll	-5928
▁pret	-5929
▁supply	-5930
▁tempor	-5931
▁flex	-5932
▁mobili	-5933
▁caus	-5934
▁commercial	-5935
▁dvd	-5936
▁eat	-5937
▁attrib	-5938
▁affron	-5939
▁uman	-5940
ener	-5941
▁pazi	-5942
▁residential	-5943
▁creative	-5944
▁wit	-5945
anding	-5946
▁carry	-5947
▁ly	-5948
▁pensi	-5949
▁mention	-5950
▁rendere	-5951
▁mt	-5952
▁morning	-5953
▁interior	-5954
key	-5955
▁joy	-5956
▁door	-5957
▁immediately	-5958
over	-5959
▁books	-5960
▁essential	-5961
▁realizzato	-5962
▁visitors	-5963
▁appropri	-5964
▁measure	-5965
▁happy	-5966
ull	-5967
▁lec	-5968
▁fondazione	-5969
▁pastor	-5970
▁inhabit	-5971
▁cable	-5972
▁francis	-5973
▁practice	-5974
▁slo	-5975
▁utilizzati	-5976
▁accedi	-5977
▁piatta	-5978
▁opportunità	-5979
▁chur	-5980
▁hundred	-5981
▁tecniche	-5982
▁possibility	-5983
▁analy	-5984
▁alex	-5985
▁bright	-5986
▁contains	-5987
erti	-5988
▁growth	-5989
35	-5990
▁spin	-5991
▁jer	-5992
▁higher	-5993
fit	-5994
▁variety	-5995
▁ult	-5996
▁argent	-5997
▁lingue	-5998
▁condiv	-5999
▁pets	-6000
▁aggiunti	-6001
▁tours	-6002
▁scuole	-6003
etri	-6004
-10	-6005
▁separate	-6006
▁avvi	-6007
eric	-6008
ives	-6009
iles	-6010
▁sco	-6011
▁contiene	-6012
▁wishlist	-6013
▁volo	-6014
▁limited	-6015
▁citizens	-6016
▁avven	-6017
▁atmosphere	-6018
65	-6019
▁festa	-6020
▁rober	-6021
aug	-6022
▁territory	-6023
▁eserc	-6024
▁advertising	-6025
▁imposs	-6026
▁eth	-6027
▁abbia	-6028
▁medical	-6029
anc	-6030
▁physical	-6031
▁pieno	-6032
▁brought	-6033
▁piani	-6034
▁stream	-6035
▁destinazione	-6036
▁corn	-6037
▁enor	-6038
alizzazione	-6039
▁testa	-6040
▁surrounded	-6041
▁registrazione	-6042
▁contemporary	-6043
▁angel	-6044
▁metrop	-6045
▁evitare	-6046
▁speri	-6047
▁ib	-6048
▁ferm	-6049
▁ze	-6050
▁metà	-6051
landa	-6052
▁ambient	-6053
▁exec	-6054
▁japanese	-6055
▁dolom	-6056
▁trasm	-6057
▁meravigli	-6058
▁perfetto	-6059
▁probabilmente	-6060
▁funzioni	-6061
▁laun	-6062
ignano	-6063
▁chiave	-6064
ial	-6065
▁percor	-6066
▁balcone	-6067
▁temperatura	-6068
esimo	-6069
ira	-6070
istici	-6071
▁travell	-6072
▁kar	-6073
▁corpor	-6074
▁notice	-6075
▁recommended	-6076
ires	-6077
free	-6078
▁effects	-6079
▁rail	-6080
▁manufacturer	-6081
▁hyd	-6082
▁puls	-6083
▁malta	-6084
▁client	-6085
apt	-6086
▁workshop	-6087
▁costante	-6088
▁memory	-6089
▁imposta	-6090
▁stanno	-6091
▁consol	-6092
▁elabor	-6093
▁rilev	-6094
▁bill	-6095
oglia	-6096
▁cassa	-6097
▁sam	-6098
▁wines	-6099
▁garantire	-6100
▁sabato	-6101
▁cibo	-6102
▁contacts	-6103
itazione	-6104
▁fred	-6105
▁absol	-6106
▁sé	-6107
▁republic	-6108
▁giocare	-6109
▁friendly	-6110
▁veneto	-6111
▁convent	-6112
▁vacation	-6113
atica	-6114
asci	-6115
▁birth	-6116
▁pavi	-6117
ou	-6118
▁lap	-6119
▁scul	-6120
isp	-6121
▁follows	-6122
▁pav	-6123
▁churches	-6124
▁obblig	-6125
▁positive	-6126
▁shown	-6127
▁portare	-6128
onc	-6129
▁ye	-6130
▁trasf	-6131
▁rispond	-6132
▁assicur	-6133
▁getting	-6134
▁natale	-6135
▁responsabile	-6136
▁59	-6137
▁ross	-6138
▁tower	-6139
andon	-6140
ologico	-6141
▁torna	-6142
eness	-6143
▁highest	-6144
mine	-6145
▁attualmente	-6146
▁unito	-6147
▁relazione	-6148
▁52	-6149
ray	-6150
▁release	-6151
▁yourself	-6152
34	-6153
itary	-6154
uovere	-6155
▁cases	-6156
▁panorama	-6157
▁mr	-6158
▁giovane	-6159
pol	-6160
▁culturale	-6161
▁ampio	-6162
▁destro	-6163
▁pick	-6164
▁translate	-6165
arli	-6166
▁operation	-6167
▁trovi	-6168
▁santi	-6169
▁wellness	-6170
▁tast	-6171
lines	-6172
▁across	-6173
▁moda	-6174
▁composto	-6175
▁fing	-6176
▁remove	-6177
shot	-6178
ensive	-6179
▁eyes	-6180
▁stain	-6181
mit	-6182
▁valuta	-6183
▁effort	-6184
▁leaves	-6185
▁announ	-6186
▁penet	-6187
▁sostitu	-6188
▁bin	-6189
▁capitale	-6190
▁dress	-6191
works	-6192
▁recip	-6193
lino	-6194
▁machines	-6195
▁dunque	-6196
zy	-6197
▁bless	-6198
▁sustain	-6199
▁navigazione	-6200
▁tags	-6201
▁stress	-6202
▁mountains	-6203
cher	-6204
izia	-6205
▁sold	-6206
▁visiting	-6207
▁ufficiale	-6208
▁hold	-6209
▁diventa	-6210
▁accompagn	-6211
respond	-6212
▁dott	-6213
▁royal	-6214
▁fiume	-6215
▁adesso	-6216
▁pieces	-6217
▁pisa	-6218
▁pann	-6219
▁56	-6220
▁exchange	-6221
▁datab	-6222
mme	-6223
▁won	-6224
▁leading	-6225
play	-6226
▁pressure	-6227
▁loss	-6228
▁forward	-6229
▁miner	-6230
▁verona	-6231
▁sv	-6232
▁prior	-6233
▁uscita	-6234
▁garanzia	-6235
yle	-6236
▁entrance	-6237
▁percentuale	-6238
▁bern	-6239
▁nulla	-6240
▁creazione	-6241
▁enh	-6242
acht	-6243
▁toil	-6244
▁nessuno	-6245
▁accordo	-6246
ologies	-6247
ilib	-6248
▁subscri	-6249
fin	-6250
atia	-6251
▁premio	-6252
▁dyn	-6253
oma	-6254
▁categories	-6255
▁inhabitants	-6256
tail	-6257
▁risul	-6258
where	-6259
▁height	-6260
▁interpret	-6261
▁raggiung	-6262
ppa	-6263
osità	-6264
alle	-6265
gian	-6266
astanza	-6267
cra	-6268
▁audi	-6269
▁posta	-6270
▁dispositivo	-6271
▁burn	-6272
▁nam	-6273
▁stranieri	-6274
▁affin	-6275
▁scat	-6276
▁richieste	-6277
▁animals	-6278
▁produttore	-6279
27	-6280
▁leon	-6281
▁adulti	-6282
▁abbastanza	-6283
▁stabili	-6284
▁lingu	-6285
▁1000	-6286
▁categorie	-6287
▁simili	-6288
▁emot	-6289
▁cool	-6290
orge	-6291
▁vantaggi	-6292
▁param	-6293
▁pagine	-6294
▁articles	-6295
▁guarda	-6296
▁characteristics	-6297
▁gave	-6298
blica	-6299
▁commento	-6300
▁parlare	-6301
▁status	-6302
▁gb	-6303
▁virgin	-6304
▁attuale	-6305
▁correspond	-6306
place	-6307
▁dream	-6308
▁pratica	-6309
▁needed	-6310
▁necessità	-6311
▁carried	-6312
▁contatt	-6313
▁atmosfera	-6314
▁gel	-6315
▁bes	-6316
▁bras	-6317
▁lady	-6318
▁nort	-6319
▁vision	-6320
▁ritorno	-6321
▁comod	-6322
▁covered	-6323
▁dining	-6324
ificati	-6325
▁gros	-6326
▁filter	-6327
▁mq	-6328
icol	-6329
▁satisf	-6330
more	-6331
▁appe	-6332
onese	-6333
▁fuoco	-6334
▁significant	-6335
head	-6336
▁ottimi	-6337
▁generali	-6338
▁tradizionale	-6339
ettazione	-6340
ae	-6341
▁risk	-6342
▁mut	-6343
▁avoid	-6344
onta	-6345
▁disabled	-6346
▁imper	-6347
▁ambito	-6348
▁schermo	-6349
▁microsoft	-6350
rian	-6351
fond	-6352
▁seguire	-6353
▁terzo	-6354
▁croce	-6355
▁impianti	-6356
ingu	-6357
eder	-6358
▁settimane	-6359
▁alessand	-6360
▁mu	-6361
▁doesn	-6362
▁suggeri	-6363
▁tennis	-6364
▁asked	-6365
▁piacere	-6366
▁umana	-6367
▁traffic	-6368
▁began	-6369
graph	-6370
▁reve	-6371
▁visite	-6372
▁giornali	-6373
▁gosp	-6374
▁dioc	-6375
acc	-6376
▁wireless	-6377
▁antici	-6378
▁moderno	-6379
▁mente	-6380
mma	-6381
▁installed	-6382
▁artists	-6383
▁panoramica	-6384
▁becomes	-6385
▁worth	-6386
▁pier	-6387
▁tecnologie	-6388
▁occasion	-6389
zzate	-6390
▁cars	-6391
▁ferr	-6392
▁profond	-6393
▁segue	-6394
▁nato	-6395
▁voice	-6396
▁saturday	-6397
▁camm	-6398
▁prend	-6399
▁forno	-6400
▁professionale	-6401
▁formula	-6402
▁gastronom	-6403
▁preved	-6404
ilities	-6405
▁straordin	-6406
▁58	-6407
▁basato	-6408
▁creato	-6409
▁opzioni	-6410
▁desp	-6411
ggere	-6412
▁jun	-6413
▁potrai	-6414
▁virus	-6415
▁mp	-6416
▁window	-6417
urare	-6418
▁hen	-6419
▁stup	-6420
▁thre	-6421
▁repubblica	-6422
▁broad	-6423
▁cercare	-6424
▁heat	-6425
▁saw	-6426
▁ragione	-6427
▁avanti	-6428
ucle	-6429
▁recover	-6430
▁conoscere	-6431
▁sauna	-6432
▁theat	-6433
▁tessuto	-6434
▁benefit	-6435
▁rinnov	-6436
▁spieg	-6437
▁circond	-6438
▁presentazione	-6439
ades	-6440
enced	-6441
▁eye	-6442
▁comprende	-6443
▁600	-6444
▁devices	-6445
▁conqu	-6446
▁sfor	-6447
▁cioè	-6448
▁squad	-6449
▁platform	-6450
▁nearby	-6451
▁dro	-6452
▁walls	-6453
▁duration	-6454
▁artisti	-6455
▁presto	-6456
▁bened	-6457
▁placed	-6458
▁invent	-6459
▁buffet	-6460
▁condividi	-6461
▁deleg	-6462
unti	-6463
▁probably	-6464
▁artista	-6465
▁rein	-6466
▁registered	-6467
▁dolce	-6468
▁infrast	-6469
▁direction	-6470
▁impegn	-6471
▁soldi	-6472
▁apply	-6473
▁heaven	-6474
las	-6475
▁talk	-6476
▁spread	-6477
▁fratelli	-6478
▁reading	-6479
▁recogni	-6480
▁stainless	-6481
▁istit	-6482
ige	-6483
▁walking	-6484
.201	-6485
hold	-6486
▁trees	-6487
fri	-6488
▁departure	-6489
▁climate	-6490
bit	-6491
viso	-6492
▁dani	-6493
astro	-6494
utting	-6495
▁theme	-6496
arla	-6497
▁answer	-6498
▁followed	-6499
▁dotato	-6500
▁inqu	-6501
▁conforte	-6502
▁currency	-6503
▁forest	-6504
tery	-6505
▁montagna	-6506
made	-6507
▁deposit	-6508
▁names	-6509
omo	-6510
rand	-6511
ficazione	-6512
▁pages	-6513
21	-6514
idere	-6515
▁residenziale	-6516
▁impact	-6517
▁stanza	-6518
▁definit	-6519
▁missione	-6520
oted	-6521
▁epoca	-6522
▁utile	-6523
▁giusto	-6524
xy	-6525
▁marchio	-6526
▁distribuzione	-6527
inato	-6528
son	-6529
▁spons	-6530
▁approach	-6531
▁greater	-6532
erne	-6533
▁recensione	-6534
pres	-6535
▁ambi	-6536
38	-6537
▁interni	-6538
▁giving	-6539
▁cold	-6540
▁telefon	-6541
▁varietà	-6542
▁purpose	-6543
▁command	-6544
nia	-6545
▁scala	-6546
▁recently	-6547
▁owner	-6548
▁usb	-6549
▁fabb	-6550
▁grad	-6551
▁evening	-6552
▁annuncio	-6553
▁kill	-6554
▁html	-6555
▁pend	-6556
▁prosp	-6557
▁shoes	-6558
▁mettere	-6559
ichet	-6560
▁riusc	-6561
▁libri	-6562
olato	-6563
▁inaug	-6564
▁modulo	-6565
▁lombardia	-6566
cies	-6567
▁dietro	-6568
ishes	-6569
▁documenti	-6570
▁invia	-6571
▁effective	-6572
▁ability	-6573
▁xx	-6574
▁associated	-6575
itate	-6576
▁imag	-6577
▁scaric	-6578
▁recovery	-6579
▁industria	-6580
inazioni	-6581
▁russi	-6582
▁therm	-6583
▁ristrutt	-6584
▁pressione	-6585
osen	-6586
▁render	-6587
▁amster	-6588
▁obj	-6589
▁2001	-6590
▁custo	-6591
itar	-6592
▁annivers	-6593
▁ces	-6594
▁regul	-6595
▁dir	-6596
▁mediante	-6597
▁responsible	-6598
▁commerciali	-6599
▁lik	-6600
ifico	-6601
▁londra	-6602
▁garage	-6603
▁passion	-6604
ongono	-6605
▁usd	-6606
▁femmin	-6607
▁acquist	-6608
▁bey	-6609
▁dobb	-6610
▁europeo	-6611
▁alternative	-6612
▁translation	-6613
how	-6614
▁devi	-6615
▁dedicato	-6616
▁cere	-6617
▁autobus	-6618
▁cryst	-6619
▁centri	-6620
▁beaches	-6621
▁carbon	-6622
▁confirm	-6623
▁anticipo	-6624
▁dens	-6625
▁benven	-6626
▁giustizia	-6627
▁external	-6628
gioni	-6629
wide	-6630
▁dead	-6631
▁amsterdam	-6632
▁stabil	-6633
▁pod	-6634
▁nucle	-6635
▁tits	-6636
retto	-6637
▁selezionare	-6638
▁sweet	-6639
▁poor	-6640
▁chapter	-6641
▁ricevuto	-6642
▁goes	-6643
▁taglia	-6644
▁plastic	-6645
▁urban	-6646
reto	-6647
▁berg	-6648
▁database	-6649
▁doing	-6650
▁giro	-6651
ciò	-6652
▁intense	-6653
▁ok	-6654
▁situata	-6655
apest	-6656
▁requirements	-6657
▁protagon	-6658
ervi	-6659
▁antonio	-6660
▁internal	-6661
▁sag	-6662
ismi	-6663
▁giocatori	-6664
▁appre	-6665
▁concord	-6666
▁sq	-6667
▁former	-6668
▁farmhouse	-6669
▁veramente	-6670
▁islands	-6671
▁gospel	-6672
▁radi	-6673
▁marg	-6674
▁piatti	-6675
▁naples	-6676
alu	-6677
paper	-6678
▁herit	-6679
▁carlo	-6680
▁eterno	-6681
▁marc	-6682
▁riguarda	-6683
▁independent	-6684
▁57	-6685
cond	-6686
bio	-6687
▁hit	-6688
bur	-6689
▁meaning	-6690
26	-6691
▁species	-6692
▁hill	-6693
▁resistenza	-6694
▁extremely	-6695
▁resol	-6696
▁vine	-6697
▁distribution	-6698
▁180	-6699
▁lis	-6700
▁lett	-6701
▁remains	-6702
▁science	-6703
▁fonte	-6704
▁infine	-6705
tac	-6706
▁inferiore	-6707
this	-6708
▁sera	-6709
▁numerose	-6710
▁iphone	-6711
▁famili	-6712
▁escursioni	-6713
▁trust	-6714
▁element	-6715
▁basilica	-6716
▁parties	-6717
▁documents	-6718
iro	-6719
▁ster	-6720
ambi	-6721
▁reasons	-6722
▁curi	-6723
▁190	-6724
▁guad	-6725
▁ml	-6726
▁bagni	-6727
▁adults	-6728
▁intera	-6729
▁scal	-6730
▁strength	-6731
ettono	-6732
▁isp	-6733
▁moto	-6734
▁messaggi	-6735
enty	-6736
▁patter	-6737
▁egy	-6738
▁afric	-6739
▁heritage	-6740
urses	-6741
▁pulizia	-6742
▁yellow	-6743
▁goods	-6744
▁tette	-6745
wise	-6746
▁background	-6747
▁thou	-6748
▁800	-6749
isse	-6750
▁forti	-6751
▁enc	-6752
▁nonostante	-6753
iclet	-6754
▁capitolo	-6755
enni	-6756
▁accur	-6757
▁orgasm	-6758
▁spaces	-6759
▁massa	-6760
▁chic	-6761
▁paid	-6762
▁confronta	-6763
▁shops	-6764
▁revolution	-6765
▁funzionalità	-6766
wood	-6767
▁snap	-6768
rys	-6769
▁desktop	-6770
▁cazzo	-6771
▁offrono	-6772
▁posso	-6773
▁colp	-6774
▁fless	-6775
▁opened	-6776
▁poll	-6777
uel	-6778
▁piante	-6779
lla	-6780
▁capire	-6781
▁53	-6782
▁ign	-6783
▁gain	-6784
▁sporti	-6785
ratore	-6786
▁chem	-6787
▁perfetta	-6788
▁rifer	-6789
▁idee	-6790
ching	-6791
▁difficoltà	-6792
▁compared	-6793
▁scont	-6794
▁gather	-6795
star	-6796
▁terme	-6797
uttori	-6798
▁welcom	-6799
▁decided	-6800
▁creation	-6801
▁powerful	-6802
▁chinese	-6803
▁verd	-6804
▁possibili	-6805
▁budget	-6806
▁promotions	-6807
▁commercio	-6808
▁jose	-6809
▁spirituale	-6810
▁spend	-6811
▁mediterranean	-6812
▁cercando	-6813
▁wc	-6814
▁raccom	-6815
acco	-6816
▁responsabilità	-6817
▁posted	-6818
▁porte	-6819
▁semi	-6820
▁cittadini	-6821
▁metro	-6822
▁diagn	-6823
▁avvent	-6824
▁collegamento	-6825
▁witness	-6826
▁diventare	-6827
press	-6828
▁dentro	-6829
issimi	-6830
erno	-6831
▁acts	-6832
▁relia	-6833
▁emo	-6834
▁fight	-6835
▁apprezz	-6836
▁cuis	-6837
▁clima	-6838
mitted	-6839
▁interested	-6840
▁gioia	-6841
▁late	-6842
rical	-6843
▁turismo	-6844
▁dispositivi	-6845
▁friday	-6846
.30	-6847
urance	-6848
rupt	-6849
▁mes	-6850
▁preoccup	-6851
▁capelli	-6852
▁borgo	-6853
▁certainly	-6854
▁values	-6855
dio	-6856
▁furono	-6857
▁dimenticato	-6858
▁direttore	-6859
▁reduced	-6860
▁mister	-6861
▁issue	-6862
▁residenti	-6863
▁pesca	-6864
tegra	-6865
▁contemporane	-6866
▁rifi	-6867
▁dut	-6868
▁spiagge	-6869
▁serious	-6870
▁mantenere	-6871
▁dallo	-6872
▁chosen	-6873
▁established	-6874
▁realizzazione	-6875
▁spacious	-6876
▁arran	-6877
▁ammessi	-6878
▁propone	-6879
▁inviare	-6880
▁pie	-6881
▁beyond	-6882
roll	-6883
▁desidera	-6884
▁85	-6885
▁sr	-6886
▁nessuna	-6887
▁principi	-6888
▁weekend	-6889
▁punta	-6890
arian	-6891
▁priest	-6892
▁fishing	-6893
▁vienna	-6894
▁seguente	-6895
ava	-6896
▁electronic	-6897
▁impegno	-6898
▁yacht	-6899
▁tanti	-6900
remo	-6901
▁ricevere	-6902
▁hon	-6903
▁var	-6904
▁spok	-6905
▁potrebbero	-6906
▁issues	-6907
▁traduzione	-6908
urt	-6909
87	-6910
▁piacevole	-6911
▁64	-6912
▁lev	-6913
85	-6914
▁trying	-6915
▁speriment	-6916
▁iv	-6917
▁affitto	-6918
▁surpris	-6919
▁equilib	-6920
▁facci	-6921
▁kb	-6922
▁stef	-6923
▁dista	-6924
▁ottima	-6925
▁corsi	-6926
▁rare	-6927
▁dear	-6928
▁entertain	-6929
▁flor	-6930
▁bridge	-6931
▁accedere	-6932
fs	-6933
▁units	-6934
ugia	-6935
▁renew	-6936
▁export	-6937
▁rum	-6938
▁pasta	-6939
▁agreement	-6940
23	-6941
▁telephone	-6942
▁thy	-6943
▁domain	-6944
▁wife	-6945
▁clin	-6946
▁dobbiamo	-6947
▁impianto	-6948
▁advantage	-6949
▁constit	-6950
▁fatti	-6951
▁facendo	-6952
▁vul	-6953
▁thick	-6954
gere	-6955
▁legis	-6956
▁told	-6957
enziali	-6958
▁laure	-6959
asp	-6960
unter	-6961
▁proveni	-6962
▁autonom	-6963
▁aperta	-6964
29	-6965
▁reverse	-6966
▁aiutare	-6967
▁cleaning	-6968
acci	-6969
▁vicinanze	-6970
▁morb	-6971
gno	-6972
cor	-6973
ram	-6974
▁appoint	-6975
assion	-6976
▁braz	-6977
▁pubblica	-6978
ulazione	-6979
▁trains	-6980
▁seven	-6981
▁tat	-6982
▁repair	-6983
▁pern	-6984
▁2002	-6985
▁gmt	-6986
▁cuisine	-6987
▁fly	-6988
▁ham	-6989
▁scene	-6990
▁entrambi	-6991
orb	-6992
arning	-6993
▁secure	-6994
▁etichet	-6995
tazione	-6996
▁ss	-6997
▁piatto	-6998
▁seat	-6999
anzi	-7000
▁lod	-7001
▁fif	-7002
▁objects	-7003
rin	-7004
▁expert	-7005
▁pio	-7006
ossa	-7007
▁prezi	-7008
▁catalogo	-7009
ilio	-7010
rog	-7011
▁sheet	-7012
▁sculpt	-7013
su	-7014
haps	-7015
▁rib	-7016
▁consists	-7017
▁piece	-7018
▁northern	-7019
▁360	-7020
▁nonché	-7021
rut	-7022
▁decide	-7023
▁importanza	-7024
pot	-7025
▁zip	-7026
▁richiedi	-7027
▁visual	-7028
oche	-7029
▁gree	-7030
into	-7031
▁pant	-7032
▁skip	-7033
▁frutta	-7034
▁chim	-7035
▁wooden	-7036
▁leaders	-7037
kl	-7038
▁cum	-7039
▁manifest	-7040
▁sicuramente	-7041
▁mezzi	-7042
▁isole	-7043
▁achieve	-7044
▁fen	-7045
▁vign	-7046
ettiva	-7047
64	-7048
▁rischio	-7049
ively	-7050
▁nomin	-7051
▁increasing	-7052
▁climb	-7053
▁biciclet	-7054
cati	-7055
inia	-7056
▁approxim	-7057
idden	-7058
▁automatically	-7059
▁artistic	-7060
▁ampli	-7061
▁sen	-7062
▁easi	-7063
▁conferma	-7064
▁ire	-7065
ruct	-7066
chie	-7067
▁affer	-7068
▁cycl	-7069
selves	-7070
▁student	-7071
▁practical	-7072
ulare	-7073
▁tes	-7074
▁tap	-7075
▁arche	-7076
▁efficace	-7077
▁pix	-7078
▁chiamato	-7079
volta	-7080
▁collaboration	-7081
▁accepted	-7082
▁marri	-7083
▁integra	-7084
▁forgot	-7085
▁scon	-7086
assa	-7087
rug	-7088
cm	-7089
▁organization	-7090
▁tips	-7091
iano	-7092
▁involved	-7093
▁monaster	-7094
▁pit	-7095
▁couple	-7096
ancio	-7097
▁founded	-7098
ulate	-7099
▁running	-7100
▁99	-7101
▁istant	-7102
▁tasse	-7103
▁package	-7104
ender	-7105
▁unf	-7106
▁academ	-7107
▁proven	-7108
▁indipendente	-7109
▁azioni	-7110
▁misure	-7111
▁passeggi	-7112
▁saying	-7113
▁mich	-7114
▁relaxing	-7115
▁diven	-7116
arent	-7117
▁presentation	-7118
▁tagli	-7119
mpt	-7120
▁anzi	-7121
▁qualcuno	-7122
▁divert	-7123
▁recente	-7124
▁sem	-7125
▁fiera	-7126
▁cottura	-7127
▁vai	-7128
ound	-7129
▁cil	-7130
▁furnished	-7131
▁interessanti	-7132
▁adatto	-7133
▁demon	-7134
▁torino	-7135
atte	-7136
▁cavo	-7137
▁pitt	-7138
▁painting	-7139
▁verg	-7140
▁ice	-7141
▁despite	-7142
▁pleasant	-7143
▁deriv	-7144
▁slow	-7145
▁aus	-7146
▁else	-7147
▁perhaps	-7148
▁anything	-7149
▁cattolica	-7150
zzazioni	-7151
▁showing	-7152
▁specifiche	-7153
▁budapest	-7154
▁playing	-7155
▁classico	-7156
▁aspetti	-7157
itaria	-7158
▁stanze	-7159
▁cristiani	-7160
terra	-7161
otic	-7162
▁produc	-7163
atici	-7164
sk	-7165
▁vert	-7166
▁proprie	-7167
▁tourism	-7168
▁linux	-7169
▁addetti	-7170
▁collect	-7171
▁ragazze	-7172
▁conve	-7173
▁crochet	-7174
▁dor	-7175
▁rapidamente	-7176
qua	-7177
▁flower	-7178
▁adri	-7179
▁visione	-7180
▁sangue	-7181
▁sister	-7182
▁punt	-7183
▁lontano	-7184
▁fail	-7185
▁cec	-7186
▁cerchi	-7187
▁basket	-7188
▁lc	-7189
▁pump	-7190
▁telec	-7191
▁aggiornamento	-7192
▁claim	-7193
▁metropolit	-7194
▁godere	-7195
▁differenti	-7196
▁caf	-7197
▁fai	-7198
▁argom	-7199
roni	-7200
medi	-7201
▁vive	-7202
▁scorso	-7203
oglio	-7204
▁valent	-7205
▁drink	-7206
▁psy	-7207
▁shared	-7208
▁relativi	-7209
▁los	-7210
roc	-7211
▁chain	-7212
▁successfully	-7213
▁gusto	-7214
▁chied	-7215
▁canc	-7216
▁commissione	-7217
▁connections	-7218
oter	-7219
▁indietro	-7220
▁wanted	-7221
▁sd	-7222
▁gratuiti	-7223
ym	-7224
oteca	-7225
road	-7226
▁hear	-7227
point	-7228
▁corner	-7229
ezione	-7230
▁maniera	-7231
arium	-7232
aw	-7233
▁tecnici	-7234
▁colours	-7235
▁effettuare	-7236
▁manuale	-7237
▁là	-7238
▁divine	-7239
▁umano	-7240
▁loren	-7241
▁grace	-7242
vera	-7243
▁benefits	-7244
▁promozioni	-7245
▁dà	-7246
▁archivio	-7247
▁pain	-7248
▁numbers	-7249
▁fornisce	-7250
86	-7251
36	-7252
▁planet	-7253
▁democrat	-7254
▁golden	-7255
ortare	-7256
▁bracci	-7257
▁technologies	-7258
inst	-7259
▁ogn	-7260
▁expect	-7261
set	-7262
▁deposito	-7263
▁agency	-7264
▁reached	-7265
▁osc	-7266
▁concrete	-7267
▁pref	-7268
▁hills	-7269
nel	-7270
▁denaro	-7271
▁colon	-7272
comp	-7273
▁rev	-7274
▁dign	-7275
▁ireland	-7276
▁esec	-7277
▁hung	-7278
▁modificare	-7279
▁operatori	-7280
▁umani	-7281
▁realizzare	-7282
jug	-7283
▁geograf	-7284
▁rh	-7285
▁obl	-7286
▁environmental	-7287
▁divano	-7288
▁monta	-7289
▁sla	-7290
▁floors	-7291
▁rules	-7292
cre	-7293
▁necessari	-7294
▁spot	-7295
▁magazz	-7296
▁costruito	-7297
▁apple	-7298
▁ios	-7299
▁pm	-7300
▁gamb	-7301
▁ax	-7302
mai	-7303
ologica	-7304
▁venerd	-7305
▁inclusa	-7306
▁exception	-7307
▁logo	-7308
▁minimo	-7309
▁esperienze	-7310
▁renov	-7311
▁privata	-7312
▁vasca	-7313
▁superior	-7314
▁contattaci	-7315
▁ira	-7316
eva	-7317
▁economia	-7318
▁avrebbe	-7319
▁ther	-7320
tively	-7321
▁closed	-7322
▁removed	-7323
▁shap	-7324
▁phili	-7325
▁minor	-7326
▁magazine	-7327
▁riti	-7328
▁multiple	-7329
adi	-7330
▁notes	-7331
▁economy	-7332
▁dettaglio	-7333
quet	-7334
rine	-7335
▁gesti	-7336
▁bouti	-7337
▁madonna	-7338
uma	-7339
teria	-7340
▁moglie	-7341
amental	-7342
ruzioni	-7343
▁vangelo	-7344
uni	-7345
▁jac	-7346
umen	-7347
▁comport	-7348
rante	-7349
▁noto	-7350
▁methods	-7351
▁tree	-7352
▁indo	-7353
▁traff	-7354
teggi	-7355
▁autent	-7356
aling	-7357
▁parla	-7358
▁establish	-7359
▁capri	-7360
,1	-7361
▁suites	-7362
erous	-7363
▁za	-7364
▁dorm	-7365
uries	-7366
ildo	-7367
▁functions	-7368
▁castel	-7369
▁escl	-7370
▁ringra	-7371
▁translated	-7372
pal	-7373
▁gom	-7374
cont	-7375
▁courses	-7376
eler	-7377
▁organized	-7378
▁rain	-7379
▁kids	-7380
▁finestra	-7381
▁iii	-7382
▁giapponese	-7383
▁mit	-7384
▁andrea	-7385
▁catalog	-7386
▁transp	-7387
▁51	-7388
▁mout	-7389
▁charming	-7390
37	-7391
▁overall	-7392
▁liter	-7393
▁condizione	-7394
▁tablet	-7395
▁bot	-7396
▁cambio	-7397
▁affari	-7398
▁amen	-7399
amma	-7400
▁bow	-7401
zano	-7402
▁brother	-7403
▁dish	-7404
▁portata	-7405
▁directory	-7406
▁venerdì	-7407
▁perdita	-7408
mann	-7409
▁rul	-7410
lies	-7411
mont	-7412
▁prest	-7413
ulated	-7414
▁orologio	-7415
ectiv	-7416
kers	-7417
▁sosp	-7418
▁studies	-7419
▁speranza	-7420
95	-7421
▁umb	-7422
▁avevano	-7423
▁dang	-7424
▁desire	-7425
▁icon	-7426
▁thousand	-7427
▁racing	-7428
gl	-7429
▁passare	-7430
▁bianca	-7431
▁portug	-7432
▁ts	-7433
▁afford	-7434
asts	-7435
▁digitale	-7436
uminio	-7437
▁barri	-7438
▁conveniente	-7439
▁fotoc	-7440
▁justice	-7441
urage	-7442
▁bron	-7443
▁grazia	-7444
▁potential	-7445
aged	-7446
▁simile	-7447
▁automo	-7448
enta	-7449
ting	-7450
▁ero	-7451
ilmente	-7452
▁volontà	-7453
▁culturali	-7454
▁culo	-7455
icata	-7456
▁universal	-7457
iz	-7458
ado	-7459
▁cn	-7460
▁regarding	-7461
▁block	-7462
▁nations	-7463
▁youth	-7464
▁scan	-7465
▁lack	-7466
▁lascia	-7467
▁giudizi	-7468
▁candid	-7469
▁corsa	-7470
▁linked	-7471
▁maestro	-7472
▁medici	-7473
▁orari	-7474
▁surroundings	-7475
▁colum	-7476
▁adjust	-7477
▁ultra	-7478
▁diss	-7479
▁perugia	-7480
▁dishes	-7481
anna	-7482
▁nazioni	-7483
mous	-7484
▁tedesco	-7485
▁calendar	-7486
andosi	-7487
▁balance	-7488
▁purposes	-7489
rich	-7490
▁singolo	-7491
▁department	-7492
▁privile	-7493
▁estremamente	-7494
▁materia	-7495
erial	-7496
▁appreci	-7497
▁updated	-7498
enance	-7499
▁disegno	-7500
▁mouth	-7501
attare	-7502
known	-7503
▁alluminio	-7504
▁95	-7505
▁specializz	-7506
▁ll	-7507
▁alone	-7508
▁seller	-7509
▁naturalmente	-7510
▁calendario	-7511
▁interpre	-7512
▁eccles	-7513
▁grav	-7514
▁chance	-7515
▁merced	-7516
▁plate	-7517
▁banks	-7518
▁context	-7519
vv	-7520
▁ms	-7521
▁assum	-7522
▁served	-7523
▁civili	-7524
▁backup	-7525
▁fantas	-7526
ador	-7527
▁argento	-7528
▁detailed	-7529
nam	-7530
▁elettrico	-7531
▁normal	-7532
▁vatican	-7533
▁esercizio	-7534
▁romania	-7535
▁stripte	-7536
▁huge	-7537
▁tables	-7538
▁striptease	-7539
▁breath	-7540
▁registration	-7541
istan	-7542
▁piattaforma	-7543
▁attravers	-7544
ael	-7545
▁edit	-7546
▁lucca	-7547
▁elemento	-7548
▁iso	-7549
ettamente	-7550
ificato	-7551
▁adegu	-7552
31	-7553
▁congreg	-7554
▁ordini	-7555
.50	-7556
viera	-7557
▁pis	-7558
▁campsite	-7559
▁reserved	-7560
▁umanità	-7561
▁creating	-7562
body	-7563
vas	-7564
▁perdere	-7565
▁adop	-7566
▁programme	-7567
▁favorites	-7568
▁esplor	-7569
▁integrated	-7570
▁sequ	-7571
▁wheel	-7572
▁coppia	-7573
▁esiste	-7574
▁marine	-7575
▁scientific	-7576
▁sociali	-7577
▁acque	-7578
▁sottoline	-7579
▁messa	-7580
▁temple	-7581
▁riport	-7582
▁moderna	-7583
icità	-7584
-6	-7585
▁medico	-7586
lip	-7587
▁solar	-7588
▁accadem	-7589
▁maybe	-7590
▁funziona	-7591
▁concerning	-7592
39	-7593
▁lettera	-7594
▁explor	-7595
▁bisogna	-7596
▁relativo	-7597
apore	-7598
▁occur	-7599
▁dildo	-7600
▁parli	-7601
utamente	-7602
▁paesaggio	-7603
▁preso	-7604
ache	-7605
▁rica	-7606
▁adatt	-7607
▁script	-7608
bel	-7609
ture	-7610
▁decision	-7611
▁potrà	-7612
▁lavora	-7613
▁pow	-7614
▁importance	-7615
▁outlet	-7616
▁bordo	-7617
▁indeed	-7618
▁archi	-7619
▁differenza	-7620
▁chius	-7621
▁peccato	-7622
▁recenti	-7623
▁ue	-7624
▁rifug	-7625
▁sout	-7626
▁pulsante	-7627
ued	-7628
▁craft	-7629
▁gross	-7630
▁panel	-7631
▁russian	-7632
▁trattamenti	-7633
azia	-7634
▁webcam	-7635
▁chiamata	-7636
well	-7637
▁piena	-7638
▁fresco	-7639
▁canz	-7640
▁compi	-7641
▁sofa	-7642
▁monday	-7643
▁segno	-7644
uv	-7645
▁municipality	-7646
▁bari	-7647
unta	-7648
▁successivo	-7649
▁amministrazione	-7650
▁comand	-7651
▁occident	-7652
zare	-7653
▁riconosc	-7654
▁imprese	-7655
▁gioi	-7656
▁trasparen	-7657
▁vuoto	-7658
ressi	-7659
▁richiede	-7660
ief	-7661
▁foss	-7662
▁perchè	-7663
▁geograph	-7664
rum	-7665
▁respon	-7666
▁cathed	-7667
▁niente	-7668
▁mercedes	-7669
▁arts	-7670
▁greek	-7671
▁raccolta	-7672
▁vecchia	-7673
▁orgasmo	-7674
▁diretti	-7675
▁asi	-7676
▁emiss	-7677
▁dedicata	-7678
▁lettura	-7679
▁philos	-7680
▁combination	-7681
▁bread	-7682
▁vest	-7683
▁preg	-7684
▁venne	-7685
▁someone	-7686
aign	-7687
▁pertanto	-7688
▁patrimonio	-7689
▁fotografia	-7690
▁aumento	-7691
▁ferrovi	-7692
▁inverno	-7693
▁meta	-7694
▁corrente	-7695
mati	-7696
▁fidu	-7697
hof	-7698
▁passione	-7699
▁competition	-7700
ocks	-7701
▁brothers	-7702
▁procedure	-7703
▁worldwide	-7704
▁calcio	-7705
astico	-7706
▁consequ	-7707
amster	-7708
rina	-7709
▁ud	-7710
▁cagli	-7711
riger	-7712
▁entr	-7713
▁blow	-7714
▁dipl	-7715
▁raccogli	-7716
▁ciascun	-7717
▁interessante	-7718
▁ride	-7719
▁troverete	-7720
laim	-7721
▁dil	-7722
▁experiences	-7723
▁portato	-7724
▁consolid	-7725
▁risulta	-7726
▁esposizione	-7727
▁drop	-7728
▁istituto	-7729
▁vehicle	-7730
▁xh	-7731
▁crystal	-7732
▁vice	-7733
▁greece	-7734
friend	-7735
▁questione	-7736
▁salt	-7737
▁packaging	-7738
▁inserisci	-7739
ek	-7740
▁rust	-7741
▁upper	-7742
▁hardware	-7743
▁canon	-7744
lan	-7745
▁camer	-7746
▁military	-7747
▁trasforma	-7748
▁neighbor	-7749
▁scelto	-7750
▁sugli	-7751
enge	-7752
inale	-7753
▁azz	-7754
riche	-7755
▁motori	-7756
▁progettazione	-7757
▁amatori	-7758
terà	-7759
▁liturg	-7760
▁maint	-7761
▁minib	-7762
▁inserire	-7763
esia	-7764
▁dancing	-7765
▁fle	-7766
wards	-7767
▁roof	-7768
▁vern	-7769
▁panoramic	-7770
▁viaggiare	-7771
▁ricca	-7772
▁controllare	-7773
▁chiaro	-7774
▁splendida	-7775
▁filoso	-7776
▁innovation	-7777
agne	-7778
▁die	-7779
▁popolare	-7780
▁regional	-7781
▁affasc	-7782
arge	-7783
▁manut	-7784
ilo	-7785
▁library	-7786
cles	-7787
▁calab	-7788
din	-7789
▁cancel	-7790
▁tol	-7791
▁diretto	-7792
▁vale	-7793
▁factory	-7794
▁riguardo	-7795
▁pesce	-7796
▁lig	-7797
▁target	-7798
▁learning	-7799
▁costruire	-7800
rar	-7801
▁excl	-7802
▁mc	-7803
▁spor	-7804
▁pagare	-7805
▁heard	-7806
▁dinner	-7807
▁ante	-7808
▁bond	-7809
▁doppio	-7810
▁preparazione	-7811
▁taxes	-7812
▁inverti	-7813
▁prepared	-7814
ji	-7815
▁tatu	-7816
▁comprens	-7817
▁dotate	-7818
▁diretta	-7819
▁pall	-7820
▁inge	-7821
▁mons	-7822
▁compli	-7823
▁vasta	-7824
▁modi	-7825
▁calda	-7826
▁membro	-7827
card	-7828
▁danne	-7829
▁spagnolo	-7830
▁symbol	-7831
▁shel	-7832
▁bod	-7833
▁schia	-7834
aled	-7835
▁mode	-7836
▁conce	-7837
▁organic	-7838
umption	-7839
▁revis	-7840
ey	-7841
▁ormai	-7842
▁copert	-7843
▁allen	-7844
▁orche	-7845
▁pensioni	-7846
▁caused	-7847
▁recupero	-7848
part	-7849
▁cloth	-7850
▁authority	-7851
▁chf	-7852
▁apre	-7853
acia	-7854
▁mainly	-7855
enth	-7856
▁insta	-7857
coli	-7858
▁funzionamento	-7859
▁lì	-7860
▁bible	-7861
▁appunt	-7862
▁viet	-7863
zon	-7864
▁fatta	-7865
▁refriger	-7866
▁anyone	-7867
▁campaign	-7868
▁interessi	-7869
▁scale	-7870
▁continuous	-7871
egni	-7872
▁favorite	-7873
▁sardegna	-7874
▁partecipazione	-7875
▁numeri	-7876
▁garda	-7877
▁compagnia	-7878
▁fondamentale	-7879
▁avanzata	-7880
▁provenienti	-7881
▁teaching	-7882
-12	-7883
▁zero	-7884
▁errori	-7885
▁soddisfare	-7886
▁repres	-7887
▁trieste	-7888
▁sosteg	-7889
kh	-7890
▁employe	-7891
▁xhamster	-7892
▁sullo	-7893
orje	-7894
▁demonst	-7895
▁unif	-7896
▁maintenance	-7897
▁authen	-7898
▁atl	-7899
▁dieci	-7900
▁standards	-7901
eted	-7902
▁tempio	-7903
▁alcuna	-7904
▁prosegu	-7905
rus	-7906
▁documento	-7907
▁journ	-7908
▁feet	-7909
▁faithful	-7910
▁cammino	-7911
▁optim	-7912
▁polic	-7913
▁requests	-7914
▁bla	-7915
▁incluso	-7916
▁manual	-7917
▁protected	-7918
icoli	-7919
▁masch	-7920
89	-7921
rad	-7922
▁vag	-7923
▁queen	-7924
▁determined	-7925
cire	-7926
▁cotton	-7927
vamo	-7928
▁carico	-7929
▁sacco	-7930
bal	-7931
▁pensione	-7932
▁tela	-7933
▁muo	-7934
▁bathrooms	-7935
arity	-7936
▁aspett	-7937
osce	-7938
▁ridurre	-7939
,50	-7940
▁evalu	-7941
▁ricordati	-7942
▁bomb	-7943
▁residenza	-7944
▁partecipanti	-7945
▁ascens	-7946
▁bars	-7947
▁compress	-7948
▁mens	-7949
375	-7950
▁insert	-7951
▁lotta	-7952
▁fotografie	-7953
▁owners	-7954
▁empty	-7955
▁fundamental	-7956
▁anale	-7957
▁mangiare	-7958
▁debian	-7959
olate	-7960
84	-7961
▁seem	-7962
rooms	-7963
▁truly	-7964
▁posizion	-7965
▁cher	-7966
▁riemp	-7967
▁camel	-7968
▁bocca	-7969
▁tin	-7970
▁eco	-7971
wa	-7972
▁characteri	-7973
▁checkout	-7974
▁vall	-7975
▁girls	-7976
eds	-7977
active	-7978
▁gardens	-7979
▁contesto	-7980
▁understanding	-7981
▁repe	-7982
▁concor	-7983
▁pensare	-7984
▁straight	-7985
▁prove	-7986
leg	-7987
▁chianti	-7988
▁trail	-7989
▁industriali	-7990
▁college	-7991
▁disease	-7992
▁supported	-7993
▁permanent	-7994
▁1999	-7995
▁magic	-7996
▁cena	-7997
▁tante	-7998
▁piast	-7999
idità	-8000
▁british	-8001
▁privati	-8002
▁lounge	-8003
▁distingu	-8004
▁legisl	-8005
▁vot	-8006
▁solito	-8007
▁cathedral	-8008
▁deciso	-8009
▁creativ	-8010
▁remote	-8011
▁diet	-8012
itario	-8013
▁oppos	-8014
▁quotidiano	-8015
▁flag	-8016
▁conferenza	-8017
▁processi	-8018
▁institute	-8019
▁strade	-8020
▁tranquilla	-8021
▁terminal	-8022
▁scarpe	-8023
▁tir	-8024
▁approfond	-8025
fun	-8026
ambio	-8027
▁sear	-8028
▁perfettamente	-8029
graf	-8030
atevi	-8031
▁cagliari	-8032
▁fear	-8033
▁prega	-8034
▁providing	-8035
▁industriale	-8036
sites	-8037
uris	-8038
cente	-8039
▁yout	-8040
▁musei	-8041
olino	-8042
▁mappe	-8043
▁argentina	-8044
▁ricco	-8045
▁countrys	-8046
atile	-8047
▁bello	-8048
▁goal	-8049
▁tenuta	-8050
tes	-8051
▁worked	-8052
▁generazione	-8053
▁responsibility	-8054
▁segnal	-8055
usalem	-8056
▁mov	-8057
▁accanto	-8058
▁inspired	-8059
▁lighting	-8060
▁settings	-8061
▁caldo	-8062
▁misc	-8063
▁sharing	-8064
▁franco	-8065
▁authentic	-8066
armac	-8067
▁pomp	-8068
▁110	-8069
▁snapshot	-8070
▁farlo	-8071
▁tagged	-8072
▁bulg	-8073
▁countryside	-8074
79	-8075
▁pear	-8076
▁daugh	-8077
ursday	-8078
▁semplici	-8079
▁permesso	-8080
nesday	-8081
▁pubblici	-8082
▁diverso	-8083
▁cosci	-8084
▁evil	-8085
cipe	-8086
osizioni	-8087
▁stella	-8088
rations	-8089
▁lie	-8090
▁challenge	-8091
rend	-8092
▁raccomand	-8093
▁sostegno	-8094
▁registro	-8095
erai	-8096
▁cream	-8097
▁nazionali	-8098
▁sardinia	-8099
▁esperti	-8100
▁condividere	-8101
▁feedback	-8102
▁proto	-8103
mission	-8104
▁dovuto	-8105
ned	-8106
▁leonardo	-8107
▁mosa	-8108
▁particolari	-8109
▁apparten	-8110
▁gla	-8111
▁agenda	-8112
ville	-8113
▁bags	-8114
▁youtube	-8115
▁toilet	-8116
▁sind	-8117
▁maschi	-8118
▁assembly	-8119
▁jerusalem	-8120
▁easier	-8121
▁generation	-8122
▁appropriate	-8123
▁mex	-8124
▁boutique	-8125
▁cooking	-8126
aca	-8127
▁frequent	-8128
▁wants	-8129
▁centuries	-8130
▁aumentare	-8131
▁accogliente	-8132
▁depending	-8133
▁christians	-8134
▁markets	-8135
▁chiusura	-8136
▁bird	-8137
▁hidden	-8138
▁theatre	-8139
urale	-8140
▁retro	-8141
▁arriva	-8142
nd	-8143
▁represents	-8144
▁69	-8145
amples	-8146
▁overlook	-8147
▁parete	-8148
ficio	-8149
▁libera	-8150
▁italiani	-8151
▁consape	-8152
▁mercol	-8153
▁metallo	-8154
lle	-8155
▁thursday	-8156
▁approximately	-8157
▁regalo	-8158
▁meetings	-8159
▁impression	-8160
oms	-8161
▁cz	-8162
uff	-8163
▁demand	-8164
▁160	-8165
▁produttori	-8166
▁tenere	-8167
▁richiesto	-8168
▁bang	-8169
▁pent	-8170
▁surrounding	-8171
▁famoso	-8172
▁devo	-8173
▁difference	-8174
▁bev	-8175
▁banca	-8176
cce	-8177
▁wednesday	-8178
▁frigor	-8179
▁joint	-8180
then	-8181
inaia	-8182
▁doctor	-8183
▁pink	-8184
▁supports	-8185
▁usc	-8186
▁adm	-8187
▁imparare	-8188
cks	-8189
▁uns	-8190
▁ispir	-8191
▁agricult	-8192
▁entrare	-8193
acher	-8194
agen	-8195
▁laser	-8196
▁ori	-8197
▁botti	-8198
▁qualunque	-8199
ossi	-8200
ls	-8201
▁sup	-8202
▁writing	-8203
▁giardini	-8204
mato	-8205
▁scultura	-8206
▁dimin	-8207
erson	-8208
▁afferm	-8209
▁manutenzione	-8210
▁castell	-8211
▁trascor	-8212
▁passaggio	-8213
▁perfectly	-8214
avano	-8215
▁quei	-8216
▁frigorif	-8217
▁fumatori	-8218
▁vie	-8219
aso	-8220
▁anch	-8221
▁obiettivi	-8222
▁prende	-8223
▁pressi	-8224
uration	-8225
▁manner	-8226
▁ricever	-8227
▁accum	-8228
▁traffico	-8229
▁offic	-8230
▁chiedere	-8231
▁convenient	-8232
▁genu	-8233
▁crisi	-8234
▁resistance	-8235
▁gate	-8236
▁parall	-8237
ix	-8238
anced	-8239
▁pane	-8240
isco	-8241
▁completed	-8242
▁mort	-8243
▁evangeli	-8244
▁filt	-8245
▁pill	-8246
▁slight	-8247
▁task	-8248
▁distribut	-8249
▁espresso	-8250
▁meat	-8251
▁budd	-8252
▁champions	-8253
▁cambiare	-8254
▁plastica	-8255
-20	-8256
▁az	-8257
▁acceler	-8258
▁magazzino	-8259
▁tan	-8260
rendo	-8261
▁planning	-8262
▁introd	-8263
▁automatico	-8264
▁magnific	-8265
▁frank	-8266
▁efficiency	-8267
▁ultime	-8268
▁orders	-8269
▁vanno	-8270
▁verificare	-8271
▁psych	-8272
▁reti	-8273
▁listing	-8274
my	-8275
pic	-8276
irsi	-8277
usalemme	-8278
▁bassa	-8279
82	-8280
▁vede	-8281
▁croatia	-8282
▁brown	-8283
▁exactly	-8284
arne	-8285
▁wear	-8286
▁clicc	-8287
▁capace	-8288
▁bishops	-8289
▁lorenzo	-8290
▁dance	-8291
ining	-8292
▁edge	-8293
ennale	-8294
▁scena	-8295
▁afferma	-8296
▁pleasure	-8297
▁excurs	-8298
▁corretta	-8299
oster	-8300
▁crom	-8301
▁alter	-8302
▁ottenuto	-8303
▁globale	-8304
▁fold	-8305
▁gerusalemme	-8306
▁arrive	-8307
▁dominio	-8308
▁faccia	-8309
▁appassion	-8310
▁leads	-8311
▁impatto	-8312
▁mari	-8313
▁indoss	-8314
▁normale	-8315
▁ingredients	-8316
▁bear	-8317
▁gratuitamente	-8318
▁mercoledì	-8319
▁felt	-8320
▁istantanea	-8321
▁confronto	-8322
▁philosoph	-8323
▁medjug	-8324
▁grot	-8325
itz	-8326
▁avrà	-8327
▁taglio	-8328
▁pensiero	-8329
▁suono	-8330
etton	-8331
▁aven	-8332
▁vittoria	-8333
▁piu	-8334
▁riserva	-8335
alto	-8336
▁likely	-8337
▁rena	-8338
▁stories	-8339
▁entertainment	-8340
▁bibli	-8341
encia	-8342
ded	-8343
▁fides	-8344
▁dialogo	-8345
▁priests	-8346
jan	-8347
▁motivi	-8348
▁venire	-8349
▁response	-8350
▁rolex	-8351
.10	-8352
▁committe	-8353
▁canale	-8354
▁ingegn	-8355
▁metodi	-8356
▁bottom	-8357
▁jean	-8358
▁shar	-8359
▁modifiche	-8360
▁esatt	-8361
▁reserve	-8362
essore	-8363
▁sexy	-8364
▁singola	-8365
▁mette	-8366
▁dod	-8367
▁raw	-8368
▁characters	-8369
▁guardare	-8370
itazioni	-8371
▁satellitare	-8372
isione	-8373
▁atto	-8374
▁mixed	-8375
▁sad	-8376
▁martin	-8377
smo	-8378
pool	-8379
▁processes	-8380
▁economica	-8381
ualità	-8382
▁navigation	-8383
▁130	-8384
condition	-8385
33	-8386
reen	-8387
▁helps	-8388
▁geomet	-8389
▁signs	-8390
▁interview	-8391
▁pacchetto	-8392
▁inner	-8393
▁sorge	-8394
▁crea	-8395
▁esattamente	-8396
▁challeng	-8397
▁divertimento	-8398
▁malattia	-8399
▁fax	-8400
cams	-8401
▁passegg	-8402
vs	-8403
▁indisp	-8404
▁classificati	-8405
▁rifless	-8406
zzano	-8407
▁messo	-8408
▁observ	-8409
off	-8410
hel	-8411
▁relev	-8412
▁gn	-8413
rator	-8414
▁ragazzi	-8415
▁urg	-8416
mare	-8417
▁angelo	-8418
itati	-8419
▁except	-8420
▁palest	-8421
▁resorts	-8422
▁fornito	-8423
rates	-8424
▁caps	-8425
▁trin	-8426
▁medjugorje	-8427
▁hori	-8428
▁brunette	-8429
utive	-8430
▁entry	-8431
▁adatta	-8432
▁villaggi	-8433
grade	-8434
▁ak	-8435
▁confid	-8436
itano	-8437
▁ghia	-8438
▁artigian	-8439
▁heavy	-8440
▁immediate	-8441
▁extraordin	-8442
▁alimentazione	-8443
gon	-8444
▁scand	-8445
▁familiare	-8446
▁tea	-8447
▁automaticamente	-8448
▁mb	-8449
▁salva	-8450
▁arco	-8451
▁viney	-8452
▁alf	-8453
▁mentioned	-8454
▁immediatamente	-8455
▁enterpris	-8456
▁smartphone	-8457
▁journal	-8458
▁terror	-8459
▁distribu	-8460
▁cash	-8461
▁drug	-8462
▁ran	-8463
▁listen	-8464
timi	-8465
▁combinazione	-8466
uls	-8467
▁rod	-8468
▁transf	-8469
▁doors	-8470
▁advis	-8471
▁presentato	-8472
▁metall	-8473
▁albero	-8474
▁malware	-8475
ishing	-8476
▁lavorazione	-8477
▁converter	-8478
▁composed	-8479
itta	-8480
▁adventure	-8481
▁bb	-8482
▁medieval	-8483
▁lip	-8484
heim	-8485
▁disabili	-8486
▁cycle	-8487
▁recogn	-8488
▁900	-8489
▁starts	-8490
▁explore	-8491
▁measures	-8492
▁milk	-8493
equ	-8494
▁sight	-8495
ghet	-8496
▁airports	-8497
▁existing	-8498
▁virtual	-8499
▁proprietario	-8500
▁relazioni	-8501
▁gara	-8502
▁nasce	-8503
▁flav	-8504
▁momenti	-8505
icks	-8506
▁width	-8507
▁contratto	-8508
▁reduce	-8509
▁incorpor	-8510
▁iniziato	-8511
down	-8512
▁latin	-8513
udo	-8514
opes	-8515
▁aggiunta	-8516
▁males	-8517
▁continent	-8518
▁romano	-8519
▁attemp	-8520
▁dh	-8521
▁figura	-8522
liono	-8523
▁ambienti	-8524
▁formati	-8525
▁interamente	-8526
76	-8527
▁respond	-8528
▁partecipare	-8529
pet	-8530
▁football	-8531
▁persist	-8532
osamente	-8533
▁ammi	-8534
▁oblig	-8535
▁growing	-8536
▁trent	-8537
zionario	-8538
▁intra	-8539
atiche	-8540
▁finalmente	-8541
iega	-8542
▁exerc	-8543
▁ricche	-8544
▁partnership	-8545
eries	-8546
▁gets	-8547
▁palermo	-8548
▁impieg	-8549
▁arab	-8550
▁sicilia	-8551
▁tuning	-8552
▁fixed	-8553
▁marino	-8554
▁ministry	-8555
▁kr	-8556
▁vogliono	-8557
▁oh	-8558
▁motiv	-8559
▁applied	-8560
▁forze	-8561
▁reprodu	-8562
▁affascin	-8563
▁osped	-8564
▁rimb	-8565
▁visualizzazione	-8566
▁spese	-8567
▁enable	-8568
alled	-8569
▁berlino	-8570
▁organiz	-8571
job	-8572
▁perciò	-8573
▁iniziare	-8574
▁appearance	-8575
band	-8576
▁requis	-8577
▁conclud	-8578
▁potranno	-8579
▁140	-8580
▁lived	-8581
▁scoperta	-8582
▁risultano	-8583
▁sabbia	-8584
▁gian	-8585
▁62	-8586
▁simbolo	-8587
issime	-8588
▁increased	-8589
▁michael	-8590
▁changed	-8591
▁forecast	-8592
▁femminile	-8593
▁television	-8594
▁indispens	-8595
▁tariffe	-8596
▁pug	-8597
males	-8598
▁licenza	-8599
▁thee	-8600
44	-8601
▁lad	-8602
▁degree	-8603
agg	-8604
▁000	-8605
▁damage	-8606
▁bim	-8607
▁massage	-8608
▁giudizio	-8609
▁grant	-8610
▁russo	-8611
▁bagagli	-8612
▁cristiana	-8613
▁ox	-8614
▁strugg	-8615
▁egypt	-8616
▁hang	-8617
▁mili	-8618
▁gabri	-8619
▁offrir	-8620
▁handle	-8621
uled	-8622
▁vento	-8623
▁boll	-8624
▁moderni	-8625
vale	-8626
▁insurance	-8627
▁concetto	-8628
▁modifica	-8629
vious	-8630
▁routes	-8631
ops	-8632
▁villages	-8633
▁recitare	-8634
icl	-8635
▁managed	-8636
▁consiglia	-8637
▁exercise	-8638
lev	-8639
▁chief	-8640
▁indoor	-8641
▁ascensore	-8642
▁1998	-8643
▁sapp	-8644
▁borsa	-8645
▁dipende	-8646
▁horse	-8647
▁partito	-8648
▁chiar	-8649
▁contattare	-8650
▁clearly	-8651
izioni	-8652
▁riprodu	-8653
▁salone	-8654
enne	-8655
glie	-8656
▁ocean	-8657
▁assemble	-8658
▁canali	-8659
▁fio	-8660
▁plaza	-8661
▁gon	-8662
▁comando	-8663
▁fini	-8664
▁tradizionali	-8665
▁66	-8666
▁imped	-8667
using	-8668
acap	-8669
▁desiderio	-8670
▁essendo	-8671
▁restitu	-8672
▁gala	-8673
▁chemical	-8674
▁primavera	-8675
▁ripet	-8676
▁genitori	-8677
▁capi	-8678
▁authorities	-8679
▁generally	-8680
▁output	-8681
▁attend	-8682
▁museums	-8683
▁brazil	-8684
▁tecnico	-8685
▁favour	-8686
ensa	-8687
▁streets	-8688
▁ourselves	-8689
▁participants	-8690
▁turned	-8691
-19	-8692
▁lavand	-8693
▁homes	-8694
▁feeling	-8695
los	-8696
▁destinations	-8697
▁achie	-8698
▁performer	-8699
▁aiuta	-8700
▁portale	-8701
▁dimension	-8702
▁distill	-8703
▁evolution	-8704
▁potente	-8705
▁shoah	-8706
▁airlines	-8707
▁nem	-8708
▁pel	-8709
▁significato	-8710
73	-8711
▁rivend	-8712
▁adap	-8713
▁squadra	-8714
▁devoted	-8715
▁islam	-8716
▁secoli	-8717
▁sof	-8718
ativamente	-8719
ervazione	-8720
▁mattina	-8721
▁apostoli	-8722
▁attacco	-8723
▁dialogue	-8724
▁performed	-8725
▁montagne	-8726
▁ciascuno	-8727
▁trasfer	-8728
▁72	-8729
▁cinese	-8730
▁affordable	-8731
ressive	-8732
▁istruzioni	-8733
▁registrato	-8734
▁ciclo	-8735
▁sloven	-8736
▁gus	-8737
ault	-8738
▁elettronica	-8739
▁incontri	-8740
gr	-8741
▁anna	-8742
▁originali	-8743
▁informativa	-8744
▁lasciare	-8745
▁tapp	-8746
inder	-8747
▁punte	-8748
▁supre	-8749
▁institutions	-8750
toe	-8751
▁euros	-8752
▁vast	-8753
▁batta	-8754
▁cicl	-8755
▁comodo	-8756
▁ascolt	-8757
▁intervento	-8758
olf	-8759
▁vat	-8760
▁southern	-8761
▁protocol	-8762
▁rimane	-8763
▁singoli	-8764
▁vescovo	-8765
▁battery	-8766
▁continues	-8767
▁investig	-8768
▁monument	-8769
▁certamente	-8770
100	-8771
▁parents	-8772
▁larghe	-8773
▁investment	-8774
▁efficienza	-8775
▁produtti	-8776
,90	-8777
▁irlanda	-8778
▁lub	-8779
bro	-8780
▁avrai	-8781
▁wro	-8782
▁cotone	-8783
ford	-8784
▁combined	-8785
▁eseguire	-8786
▁basta	-8787
▁riviera	-8788
▁romantic	-8789
▁administration	-8790
▁lunedì	-8791
▁orange	-8792
▁england	-8793
▁corse	-8794
▁assolutamente	-8795
▁procedi	-8796
▁mediterraneo	-8797
usse	-8798
▁disk	-8799
▁professionisti	-8800
▁encounter	-8801
ologici	-8802
▁clients	-8803
▁twe	-8804
▁pianta	-8805
▁frigorifero	-8806
▁assegn	-8807
▁delivered	-8808
ratti	-8809
raul	-8810
▁cron	-8811
▁ari	-8812
▁installare	-8813
lights	-8814
▁bicy	-8815
▁vital	-8816
▁700	-8817
▁happen	-8818
▁laund	-8819
zen	-8820
▁edili	-8821
▁famosa	-8822
▁chiama	-8823
▁corporate	-8824
▁rise	-8825
▁nation	-8826
▁aspects	-8827
▁alco	-8828
▁felice	-8829
▁extraordinary	-8830
▁sexual	-8831
▁railway	-8832
▁license	-8833
▁scienza	-8834
▁ceramica	-8835
▁amatoriale	-8836
▁pelleg	-8837
▁obtained	-8838
▁kept	-8839
▁rapido	-8840
▁anticip	-8841
..	-8842
▁attrezzature	-8843
▁sve	-8844
▁gestire	-8845
▁epis	-8846
▁calore	-8847
fil	-8848
▁cutting	-8849
iazioni	-8850
▁prepare	-8851
▁femmine	-8852
iry	-8853
▁humanity	-8854
▁played	-8855
mod	-8856
▁lag	-8857
▁nights	-8858
▁reply	-8859
asa	-8860
uttle	-8861
▁eternal	-8862
▁principalmente	-8863
▁rapporti	-8864
▁vaticano	-8865
▁conform	-8866
uria	-8867
esh	-8868
▁consumo	-8869
▁surve	-8870
▁pronto	-8871
▁colline	-8872
▁elevata	-8873
▁successful	-8874
▁iran	-8875
▁sguardo	-8876
▁salve	-8877
▁calabria	-8878
▁scrivere	-8879
▁marche	-8880
▁danno	-8881
gimento	-8882
▁tail	-8883
▁battle	-8884
▁saperne	-8885
▁container	-8886
▁eventuali	-8887
▁benefici	-8888
▁correl	-8889
▁visible	-8890
▁fas	-8891
▁drivers	-8892
▁highlight	-8893
▁cip	-8894
▁ostelli	-8895
▁apostles	-8896
▁preserv	-8897
▁moreover	-8898
▁affinché	-8899
▁crisis	-8900
▁caric	-8901
iw	-8902
▁ortof	-8903
▁continuare	-8904
▁jazz	-8905
▁phase	-8906
▁wrong	-8907
▁banche	-8908
▁thir	-8909
▁nin	-8910
▁waiting	-8911
▁females	-8912
vest	-8913
▁popolari	-8914
▁fantastic	-8915
▁casin	-8916
▁grosso	-8917
▁oven	-8918
▁apri	-8919
▁laboratorio	-8920
▁communities	-8921
zzle	-8922
▁catted	-8923
▁sfrut	-8924
ays	-8925
bby	-8926
▁rio	-8927
▁identità	-8928
▁shad	-8929
▁ministero	-8930
based	-8931
▁lift	-8932
standing	-8933
▁techniques	-8934
▁casc	-8935
▁tardi	-8936
▁clot	-8937
▁moon	-8938
media	-8939
▁fiducia	-8940
▁opportunities	-8941
▁nether	-8942
▁hat	-8943
▁engineering	-8944
▁bug	-8945
48	-8946
▁bosco	-8947
▁animal	-8948
▁mono	-8949
▁antichi	-8950
▁cater	-8951
▁sviluppato	-8952
▁thom	-8953
▁avvic	-8954
▁ram	-8955
▁definizione	-8956
▁tipici	-8957
▁composizione	-8958
▁suggesti	-8959
▁supple	-8960
renti	-8961
▁expression	-8962
▁pezzo	-8963
▁stesse	-8964
▁petro	-8965
▁female	-8966
▁gbp	-8967
▁bassi	-8968
▁beni	-8969
▁lies	-8970
▁contrad	-8971
▁affrontare	-8972
▁intu	-8973
▁prestigio	-8974
▁sfruttare	-8975
▁suffering	-8976
estimento	-8977
▁prevede	-8978
▁thermal	-8979
▁giorgio	-8980
▁obvious	-8981
▁committee	-8982
▁venditore	-8983
iving	-8984
▁nascita	-8985
▁minibar	-8986
▁skills	-8987
▁ognuno	-8988
▁correttamente	-8989
▁ricost	-8990
▁compatible	-8991
▁equal	-8992
▁inspir	-8993
▁innovazione	-8994
▁aro	-8995
▁visited	-8996
▁copia	-8997
berry	-8998
▁didn	-8999
▁rubber	-9000
▁mouse	-9001
▁bid	-9002
smoking	-9003
▁cercato	-9004
ulia	-9005
▁soggetti	-9006
▁intim	-9007
▁cameltoe	-9008
tages	-9009
erte	-9010
▁principio	-9011
▁ispi	-9012
▁drin	-9013
▁gin	-9014
▁congress	-9015
▁minim	-9016
tel	-9017
▁polo	-9018
▁structures	-9019
▁68	-9020
▁instructions	-9021
▁trap	-9022
▁introduzione	-9023
▁fee	-9024
▁depth	-9025
▁cheapest	-9026
▁illuminazione	-9027
▁accom	-9028
eless	-9029
agon	-9030
▁stefano	-9031
fran	-9032
▁dimensions	-9033
▁stands	-9034
▁identity	-9035
icola	-9036
▁denomin	-9037
▁assistance	-9038
▁died	-9039
▁alessandro	-9040
▁precious	-9041
▁police	-9042
volmente	-9043
uk	-9044
ostare	-9045
▁vintage	-9046
▁pizz	-9047
▁cognomi	-9048
abol	-9049
▁pig	-9050
ier	-9051
▁alberi	-9052
▁decorated	-9053
▁requires	-9054
▁spr	-9055
▁potuto	-9056
ffa	-9057
▁collections	-9058
gro	-9059
▁channel	-9060
▁ubicato	-9061
▁marked	-9062
▁fate	-9063
▁prize	-9064
▁cammin	-9065
▁recuperare	-9066
▁universale	-9067
77	-9068
▁settori	-9069
▁cari	-9070
▁dispos	-9071
▁joseph	-9072
▁dollari	-9073
▁rispondere	-9074
▁warrant	-9075
▁session	-9076
▁selv	-9077
▁larger	-9078
▁attrazioni	-9079
▁terze	-9080
▁metropolitana	-9081
▁archive	-9082
▁operations	-9083
▁conseguenza	-9084
▁decre	-9085
▁mature	-9086
▁grappa	-9087
▁wait	-9088
icians	-9089
▁sbor	-9090
▁looks	-9091
▁registry	-9092
esca	-9093
▁crow	-9094
▁eiac	-9095
▁sacred	-9096
disp	-9097
▁batteria	-9098
ansione	-9099
▁actions	-9100
▁bracel	-9101
▁percentual	-9102
▁ridu	-9103
▁verranno	-9104
retta	-9105
▁seo	-9106
▁optimi	-9107
hr	-9108
▁gig	-9109
▁elettrica	-9110
▁replace	-9111
49	-9112
gente	-9113
redo	-9114
▁neighborhood	-9115
▁consec	-9116
▁proposte	-9117
▁veicolo	-9118
▁compilation	-9119
▁commitment	-9120
▁operativo	-9121
▁confortevole	-9122
▁giallo	-9123
▁rifl	-9124
▁enorme	-9125
▁ceramic	-9126
▁healthy	-9127
▁kilometers	-9128
▁religion	-9129
▁ebre	-9130
▁compact	-9131
▁politiche	-9132
han	-9133
amera	-9134
▁prese	-9135
▁advice	-9136
▁statistiche	-9137
▁egg	-9138
usias	-9139
▁alberto	-9140
▁changing	-9141
▁riduzione	-9142
▁lido	-9143
▁aeroporti	-9144
▁matte	-9145
▁sensi	-9146
▁offices	-9147
▁sentire	-9148
catori	-9149
▁paradiso	-9150
▁contrass	-9151
▁trento	-9152
▁orizz	-9153
▁dubai	-9154
▁spoglia	-9155
▁tipico	-9156
▁statistics	-9157
▁ramb	-9158
▁quarto	-9159
▁tranquill	-9160
▁tuscan	-9161
▁comprare	-9162
matic	-9163
cano	-9164
▁avvis	-9165
▁cambiamento	-9166
▁determinare	-9167
▁5-	-9168
▁compagnie	-9169
▁preparation	-9170
▁gene	-9171
▁superfici	-9172
▁statistica	-9173
ectively	-9174
▁ospita	-9175
orf	-9176
▁frutto	-9177
▁mul	-9178
cious	-9179
▁storica	-9180
▁contrast	-9181
▁spent	-9182
▁finished	-9183
▁espressione	-9184
▁caratteristica	-9185
▁danneggi	-9186
▁precedenti	-9187
xx	-9188
▁waste	-9189
▁beat	-9190
▁piazz	-9191
igen	-9192
▁operazioni	-9193
▁pompe	-9194
tein	-9195
▁sources	-9196
▁1.5	-9197
▁crimin	-9198
viglie	-9199
▁sons	-9200
▁abbandon	-9201
▁released	-9202
▁otherwise	-9203
▁attractions	-9204
▁consumption	-9205
▁inj	-9206
▁ka	-9207
▁colt	-9208
▁indica	-9209
▁hearts	-9210
▁string	-9211
▁instruments	-9212
▁reports	-9213
▁strategy	-9214
▁luna	-9215
rative	-9216
▁negative	-9217
▁enem	-9218
grafia	-9219
▁actual	-9220
▁lovely	-9221
▁soggiorn	-9222
you	-9223
,99	-9224
ied	-9225
▁filled	-9226
▁latina	-9227
▁accompani	-9228
▁turin	-9229
▁tornare	-9230
▁brands	-9231
▁specifico	-9232
▁inox	-9233
▁delete	-9234
▁nutri	-9235
▁associate	-9236
▁regole	-9237
oration	-9238
ancy	-9239
▁hor	-9240
▁grave	-9241
▁counter	-9242
▁tavola	-9243
dra	-9244
▁luca	-9245
▁treas	-9246
▁gioved	-9247
▁progettato	-9248
▁demands	-9249
▁credo	-9250
▁indicato	-9251
▁electrical	-9252
see	-9253
aglia	-9254
▁esistenza	-9255
▁laundry	-9256
fication	-9257
▁duomo	-9258
▁smooth	-9259
forme	-9260
zar	-9261
spe	-9262
uesday	-9263
▁rispetti	-9264
▁esti	-9265
▁bottle	-9266
umini	-9267
▁corri	-9268
▁passa	-9269
▁provis	-9270
▁divided	-9271
▁somm	-9272
▁nave	-9273
▁ragazza	-9274
▁habit	-9275
tier	-9276
▁tib	-9277
▁chef	-9278
▁moving	-9279
▁competit	-9280
ortazione	-9281
▁trasmiss	-9282
▁davide	-9283
▁realizzati	-9284
▁paura	-9285
monia	-9286
▁consid	-9287
▁125	-9288
▁scheduled	-9289
▁risolvere	-9290
acapelli	-9291
▁websites	-9292
▁tum	-9293
96	-9294
log	-9295
pher	-9296
▁evoluzione	-9297
▁trasporti	-9298
▁inclusi	-9299
▁spettacolo	-9300
▁bibbia	-9301
▁interprete	-9302
▁forces	-9303
▁chiara	-9304
▁netherlands	-9305
rating	-9306
▁0,00	-9307
loc	-9308
▁tomb	-9309
▁giovedì	-9310
iah	-9311
▁vergine	-9312
osis	-9313
▁croazia	-9314
▁comparison	-9315
▁stiamo	-9316
▁entered	-9317
▁realizzata	-9318
▁overview	-9319
▁primary	-9320
▁renovated	-9321
▁spost	-9322
▁sore	-9323
attiv	-9324
▁vescovi	-9325
iction	-9326
▁outlook	-9327
▁impresa	-9328
▁rossi	-9329
fy	-9330
▁mario	-9331
▁democra	-9332
inata	-9333
▁grade	-9334
▁disegn	-9335
▁fedeli	-9336
▁105	-9337
▁proteggere	-9338
erts	-9339
▁quarter	-9340
▁usando	-9341
▁diameter	-9342
▁europei	-9343
▁thinking	-9344
words	-9345
igned	-9346
▁moved	-9347
▁tube	-9348
▁provato	-9349
▁testimonianza	-9350
▁provider	-9351
▁fert	-9352
▁vogli	-9353
▁esse	-9354
▁preven	-9355
▁dono	-9356
▁eight	-9357
▁depends	-9358
▁recentemente	-9359
▁songs	-9360
▁sviluppare	-9361
▁bak	-9362
▁sali	-9363
illed	-9364
▁feat	-9365
▁waters	-9366
▁tourn	-9367
▁orchestra	-9368
▁score	-9369
▁religione	-9370
▁garantisce	-9371
▁voglio	-9372
apy	-9373
▁tuesday	-9374
▁annual	-9375
▁conosciuto	-9376
▁rede	-9377
▁custod	-9378
▁relevant	-9379
anche	-9380
▁estim	-9381
▁masturbation	-9382
▁nomi	-9383
▁assess	-9384
▁cultiv	-9385
bla	-9386
▁benedetto	-9387
▁riten	-9388
▁weak	-9389
▁tradu	-9390
▁ay	-9391
▁provare	-9392
▁tort	-9393
ologie	-9394
▁avventura	-9395
water	-9396
▁promote	-9397
▁puri	-9398
bes	-9399
▁efficient	-9400
▁jos	-9401
▁ah	-9402
▁lou	-9403
reno	-9404
▁quanti	-9405
bra	-9406
▁vacu	-9407
▁fornitore	-9408
▁vite	-9409
▁ath	-9410
▁messages	-9411
▁described	-9412
▁scol	-9413
lier	-9414
▁wien	-9415
▁wedding	-9416
aux	-9417
▁notti	-9418
▁versions	-9419
ints	-9420
▁sistemazioni	-9421
▁latte	-9422
▁rule	-9423
▁concert	-9424
▁terza	-9425
▁mercati	-9426
▁ovvi	-9427
▁diametro	-9428
▁tiles	-9429
▁cancellation	-9430
▁extreme	-9431
run	-9432
▁chir	-9433
like	-9434
ague	-9435
▁brill	-9436
▁ingredienti	-9437
▁risal	-9438
▁sogno	-9439
▁newspaper	-9440
proof	-9441
▁baro	-9442
▁vary	-9443
▁calls	-9444
▁sistemazione	-9445
▁saints	-9446
▁eliminare	-9447
▁smoking	-9448
▁strad	-9449
▁swed	-9450
zionisti	-9451
▁consegn	-9452
pm	-9453
▁parliament	-9454
▁forget	-9455
▁manufacturing	-9456
▁py	-9457
▁experiment	-9458
▁minima	-9459
▁lights	-9460
▁surn	-9461
ombo	-9462
▁cham	-9463
▁legale	-9464
▁besides	-9465
▁matrimonio	-9466
▁umbria	-9467
▁comunione	-9468
▁fingering	-9469
▁riva	-9470
▁strengthen	-9471
▁essenziale	-9472
▁mezz	-9473
▁neither	-9474
▁collezioni	-9475
▁esclusivamente	-9476
▁bion	-9477
▁sass	-9478
▁entering	-9479
▁ricerche	-9480
arca	-9481
fice	-9482
▁eastern	-9483
-8	-9484
▁raffor	-9485
aneous	-9486
▁knows	-9487
▁contemporanea	-9488
atrici	-9489
▁hire	-9490
78	-9491
▁army	-9492
▁enth	-9493
▁regolare	-9494
▁kart	-9495
▁gloria	-9496
nell	-9497
ented	-9498
▁asciugacapelli	-9499
▁profondità	-9500
▁ries	-9501
▁delicious	-9502
▁allar	-9503
▁introduced	-9504
▁esecuzione	-9505
umb	-9506
▁indicated	-9507
ei	-9508
▁martedì	-9509
▁genova	-9510
▁raggiunto	-9511
▁dolore	-9512
▁1997	-9513
▁sacerdoti	-9514
▁popoli	-9515
cts	-9516
▁versioni	-9517
bol	-9518
▁difesa	-9519
▁reliable	-9520
▁ltd	-9521
tur	-9522
irs	-9523
▁ballare	-9524
agno	-9525
▁ded	-9526
▁carn	-9527
▁abroad	-9528
▁individu	-9529
▁marchi	-9530
▁sufficiente	-9531
zu	-9532
▁quell	-9533
enzio	-9534
▁circum	-9535
▁spogliarello	-9536
▁cento	-9537
▁fece	-9538
▁passed	-9539
▁posizioni	-9540
▁gomma	-9541
versi	-9542
▁editor	-9543
▁mars	-9544
▁conflic	-9545
▁profum	-9546
▁rentals	-9547
▁feste	-9548
rd	-9549
▁refined	-9550
▁perce	-9551
ppure	-9552
class	-9553
▁considerato	-9554
▁antepri	-9555
▁trasferimento	-9556
igliamento	-9557
▁lavatrice	-9558
▁wav	-9559
entr	-9560
▁thread	-9561
▁spiega	-9562
▁temi	-9563
occhi	-9564
eur	-9565
▁edilizia	-9566
▁entirely	-9567
▁soph	-9568
▁enhance	-9569
▁chiunque	-9570
▁participation	-9571
▁penis	-9572
case	-9573
▁luci	-9574
gram	-9575
▁brief	-9576
▁fascin	-9577
71	-9578
▁neut	-9579
▁opinion	-9580
▁approccio	-9581
lick	-9582
▁medicine	-9583
icati	-9584
▁statement	-9585
▁brings	-9586
asis	-9587
▁gear	-9588
▁apparecchi	-9589
umes	-9590
▁sit	-9591
▁organizz	-9592
retti	-9593
uga	-9594
orial	-9595
▁proposta	-9596
ij	-9597
▁exhibitions	-9598
▁egitto	-9599
▁incro	-9600
▁label	-9601
▁antiche	-9602
▁transfers	-9603
aff	-9604
▁rossa	-9605
▁refers	-9606
▁named	-9607
▁customi	-9608
▁ritrov	-9609
▁raccogliere	-9610
arest	-9611
iera	-9612
▁sped	-9613
▁occidentale	-9614
resti	-9615
▁pilg	-9616
▁ovviamente	-9617
▁formation	-9618
▁civile	-9619
▁pension	-9620
▁policies	-9621
▁hp	-9622
▁functional	-9623
▁cabin	-9624
▁apostolic	-9625
▁volete	-9626
athers	-9627
▁pattern	-9628
▁chiuso	-9629
▁ferroviaria	-9630
▁convention	-9631
▁laws	-9632
▁fenom	-9633
dim	-9634
▁hack	-9635
▁percorsi	-9636
▁fornitori	-9637
▁complic	-9638
rehen	-9639
▁romani	-9640
▁xii	-9641
▁wis	-9642
town	-9643
▁350	-9644
▁permanente	-9645
▁quadro	-9646
▁grecia	-9647
oles	-9648
▁miseric	-9649
▁viss	-9650
icino	-9651
▁luigi	-9652
viene	-9653
▁terzi	-9654
▁pretty	-9655
▁84	-9656
▁campion	-9657
▁poche	-9658
▁zuc	-9659
74	-9660
▁magnificent	-9661
▁istituzioni	-9662
▁guided	-9663
▁coscienza	-9664
▁misericord	-9665
bul	-9666
▁confirmation	-9667
▁impostazioni	-9668
urata	-9669
▁cosm	-9670
▁abbigliamento	-9671
▁utilizzata	-9672
▁euc	-9673
▁czech	-9674
▁rear	-9675
ront	-9676
▁pannello	-9677
▁hus	-9678
▁previously	-9679
ziare	-9680
▁figliu	-9681
▁aggiung	-9682
▁precisione	-9683
▁giusta	-9684
map	-9685
▁acid	-9686
▁confl	-9687
▁contents	-9688
▁expected	-9689
▁highlights	-9690
bbene	-9691
▁buoni	-9692
▁stations	-9693
▁employees	-9694
▁eman	-9695
▁patients	-9696
▁chiesto	-9697
▁bellissimo	-9698
▁risoluzione	-9699
▁intelligence	-9700
▁salvation	-9701
▁accessible	-9702
▁fabbrica	-9703
▁79	-9704
▁socc	-9705
vello	-9706
▁amenities	-9707
▁characterized	-9708
▁collo	-9709
▁arric	-9710
ple	-9711
▁warranty	-9712
▁militare	-9713
▁circost	-9714
▁purs	-9715
ruction	-9716
▁contributo	-9717
▁78	-9718
▁estero	-9719
▁dotata	-9720
▁indicazioni	-9721
cho	-9722
▁twin	-9723
▁mystery	-9724
▁bast	-9725
▁salvezza	-9726
▁risparmiare	-9727
▁shuttle	-9728
▁89	-9729
▁kay	-9730
▁gif	-9731
▁larghezza	-9732
▁cheese	-9733
▁grafico	-9734
▁bapt	-9735
▁existence	-9736
▁switch	-9737
▁exper	-9738
▁pacchetti	-9739
▁ulteriore	-9740
inetto	-9741
▁listed	-9742
▁vivono	-9743
▁leaving	-9744
mentazione	-9745
▁pista	-9746
▁mirror	-9747
▁3-	-9748
▁choosing	-9749
▁dynamic	-9750
▁richied	-9751
▁vacuum	-9752
▁abbond	-9753
▁archae	-9754
▁portal	-9755
▁unesco	-9756
▁reli	-9757
▁grey	-9758
▁bruss	-9759
aga	-9760
idente	-9761
iscop	-9762
▁lunch	-9763
ettaglio	-9764
▁legend	-9765
▁trend	-9766
ager	-9767
▁emph	-9768
▁ingrand	-9769
▁traccia	-9770
▁refuge	-9771
▁turistiche	-9772
▁fior	-9773
▁factor	-9774
▁bob	-9775
▁erot	-9776
ccare	-9777
▁iniziativa	-9778
▁dos	-9779
▁rov	-9780
▁choc	-9781
▁evangel	-9782
▁complessivo	-9783
▁cams	-9784
▁fisica	-9785
▁stai	-9786
▁troub	-9787
▁4-	-9788
▁ratio	-9789
▁attrezzata	-9790
cs	-9791
▁gradu	-9792
inti	-9793
▁michel	-9794
mor	-9795
▁malattie	-9796
és	-9797
▁rimanere	-9798
ompar	-9799
▁lezioni	-9800
▁esterna	-9801
agi	-9802
▁defined	-9803
▁loading	-9804
▁teacher	-9805
▁cooperation	-9806
▁climati	-9807
▁formats	-9808
▁bound	-9809
inc	-9810
▁carr	-9811
▁abra	-9812
▁compito	-9813
▁boy	-9814
▁figures	-9815
▁pernott	-9816
▁promuovere	-9817
▁granada	-9818
▁utens	-9819
▁incar	-9820
▁clar	-9821
▁lcd	-9822
▁teen	-9823
▁hospitality	-9824
▁driving	-9825
▁spare	-9826
nik	-9827
▁fiore	-9828
▁vorre	-9829
▁regions	-9830
▁montaggio	-9831
▁eccezionale	-9832
▁merid	-9833
▁codes	-9834
▁influence	-9835
▁ovest	-9836
nic	-9837
▁successivamente	-9838
▁becoming	-9839
▁greatest	-9840
▁accompanied	-9841
▁61	-9842
iego	-9843
▁mura	-9844
▁capable	-9845
▁76	-9846
▁promozione	-9847
rando	-9848
▁chip	-9849
▁tabella	-9850
▁presents	-9851
▁retail	-9852
▁errors	-9853
uda	-9854
▁individuals	-9855
▁offriamo	-9856
▁prison	-9857
▁sugger	-9858
elling	-9859
rac	-9860
▁onto	-9861
▁cardinal	-9862
▁dolomiti	-9863
rie	-9864
▁exceptional	-9865
▁ado	-9866
▁organizzazioni	-9867
▁progid	-9868
papers	-9869
▁attivo	-9870
▁sorpren	-9871
olis	-9872
▁catena	-9873
▁forth	-9874
▁dovrebbero	-9875
▁quota	-9876
▁soc	-9877
▁traditions	-9878
most	-9879
▁rimini	-9880
▁suggerimenti	-9881
▁blessed	-9882
▁sedie	-9883
▁occupa	-9884
▁ww	-9885
erge	-9886
▁destinazioni	-9887
▁missing	-9888
▁96	-9889
▁risposte	-9890
▁wrote	-9891
eral	-9892
▁vantaggio	-9893
unte	-9894
▁fortun	-9895
▁organizzato	-9896
▁haird	-9897
▁myself	-9898
▁necessaria	-9899
▁wars	-9900
▁ripres	-9901
▁califor	-9902
▁fonti	-9903
▁1990	-9904
▁channels	-9905
▁vole	-9906
▁vs	-9907
▁semplic	-9908
▁ages	-9909
▁depend	-9910
▁fratello	-9911
▁profonda	-9912
▁cattedrale	-9913
olazioni	-9914
▁86	-9915
utely	-9916
▁kinds	-9917
igo	-9918
▁sg	-9919
▁diventato	-9920
▁compens	-9921
▁attorno	-9922
unci	-9923
▁communion	-9924
▁sizes	-9925
▁colloc	-9926
▁trial	-9927
ivano	-9928
indettaglio	-9929
▁giappone	-9930
▁border	-9931
▁bracelet	-9932
▁1996	-9933
▁anniversary	-9934
▁drawing	-9935
▁tranquillo	-9936
▁elevator	-9937
▁aggiuntivo	-9938
▁oak	-9939
anco	-9940
▁pazienti	-9941
▁impl	-9942
▁configurazione	-9943
nt	-9944
elles	-9945
▁interface	-9946
▁jump	-9947
ctor	-9948
▁produrre	-9949
▁continued	-9950
▁unfortun	-9951
▁discep	-9952
▁trascorrere	-9953
inian	-9954
wing	-9955
▁lose	-9956
▁romana	-9957
▁pitto	-9958
▁regime	-9959
▁requisiti	-9960
▁assemblea	-9961
▁searching	-9962
.01	-9963
▁alpine	-9964
▁invern	-9965
▁danni	-9966
▁delizi	-9967
▁espress	-9968
▁rendono	-9969
▁pist	-9970
▁appears	-9971
▁biblioteca	-9972
▁anten	-9973
▁circuit	-9974
opedia	-9975
▁ignor	-9976
▁experts	-9977
▁buying	-9978
▁formed	-9979
orter	-9980
▁exit	-9981
▁oriente	-9982
▁decisione	-9983
▁advertise	-9984
neum	-9985
▁mete	-9986
▁plans	-9987
▁fell	-9988
▁featuring	-9989
▁comprom	-9990
burgo	-9991
-15	-9992
▁prato	-9993
▁usuf	-9994
chair	-9995
imp	-9996
▁packages	-9997
▁sicili	-9998
▁mexico	-9999
▁pock	-10000
▁regina	-10001
ondi	-10002
yd	-10003
▁monti	-10004
olto	-10005
cheria	-10006
▁educational	-10007
▁voci	-10008
▁valencia	-10009
fica	-10010
▁1995	-10011
▁inserito	-10012
euro	-10013
▁centinaia	-10014
apia	-10015
▁exam	-10016
▁mah	-10017
▁circuito	-10018
▁james	-10019
▁unders	-10020
▁records	-10021
etevi	-10022
▁tatuaggio	-10023
▁genera	-10024
▁clicking	-10025
▁vet	-10026
72	-10027
▁cambiamenti	-10028
▁sudd	-10029
▁holl	-10030
▁chal	-10031
▁employ	-10032
▁conferenze	-10033
▁cuba	-10034
▁default	-10035
▁technique	-10036
wear	-10037
▁prague	-10038
▁luck	-10039
▁grass	-10040
▁bookings	-10041
▁tè	-10042
▁avviene	-10043
▁rural	-10044
▁patient	-10045
▁concerto	-10046
▁paintings	-10047
▁liquid	-10048
▁remind	-10049
▁costruita	-10050
▁brussels	-10051
▁finland	-10052
▁possano	-10053
▁pull	-10054
▁orn	-10055
ettivo	-10056
▁locations	-10057
▁stick	-10058
▁mista	-10059
▁municipal	-10060
▁shoot	-10061
▁riprist	-10062
ariato	-10063
▁returned	-10064
arily	-10065
▁offrirti	-10066
▁individui	-10067
ucci	-10068
▁220	-10069
▁compreso	-10070
▁verdi	-10071
core	-10072
▁arezzo	-10073
▁experienced	-10074
▁shell	-10075
▁certa	-10076
oa	-10077
▁utilizzi	-10078
▁flexible	-10079
year	-10080
▁cassaforte	-10081
▁sides	-10082
▁michele	-10083
▁toward	-10084
dimento	-10085
▁unity	-10086
▁stare	-10087
▁conversion	-10088
▁bought	-10089
▁fung	-10090
▁twenty	-10091
▁presa	-10092
▁redd	-10093
▁usufru	-10094
rada	-10095
▁accademia	-10096
rò	-10097
produ	-10098
▁daughter	-10099
▁recon	-10100
▁ja	-10101
▁alti	-10102
▁false	-10103
.20	-10104
▁provoc	-10105
▁lots	-10106
▁segni	-10107
▁sfondo	-10108
uminium	-10109
▁coltiv	-10110
46	-10111
arle	-10112
▁billion	-10113
ezion	-10114
▁hong	-10115
▁montec	-10116
▁contrassegn	-10117
▁conversione	-10118
▁sostenere	-10119
▁giocatore	-10120
▁wash	-10121
▁strategia	-10122
▁conscious	-10123
▁butt	-10124
▁superiori	-10125
▁vor	-10126
▁snack	-10127
▁colui	-10128
▁absolute	-10129
▁greco	-10130
▁benvenuto	-10131
▁accoglienza	-10132
▁previsto	-10133
▁analyt	-10134
▁comprehen	-10135
▁salvare	-10136
haus	-10137
▁seek	-10138
▁croci	-10139
▁stores	-10140
▁interactive	-10141
▁index	-10142
▁coloni	-10143
▁costume	-10144
▁soffer	-10145
edizioni	-10146
▁scatola	-10147
▁ricorda	-10148
▁farà	-10149
▁specialmente	-10150
▁kore	-10151
▁apostol	-10152
▁fisico	-10153
▁partita	-10154
▁academy	-10155
dem	-10156
▁publish	-10157
▁designers	-10158
ulous	-10159
▁cells	-10160
▁fuck	-10161
▁unite	-10162
▁initiative	-10163
▁vogliamo	-10164
istical	-10165
▁estre	-10166
▁charter	-10167
▁battaglia	-10168
▁pubblicazione	-10169
▁autun	-10170
anci	-10171
▁advertis	-10172
▁pavimento	-10173
▁pomer	-10174
▁signed	-10175
anese	-10176
▁sicily	-10177
▁smaller	-10178
▁integrazione	-10179
▁fans	-10180
▁contest	-10181
▁audience	-10182
▁muro	-10183
▁comitato	-10184
ungst	-10185
▁mondi	-10186
▁verse	-10187
ratext	-10188
▁tang	-10189
▁regioni	-10190
▁african	-10191
▁reb	-10192
▁simboli	-10193
▁associazioni	-10194
▁rue	-10195
▁corp	-10196
matica	-10197
▁asian	-10198
▁moments	-10199
▁vitam	-10200
▁easter	-10201
▁srl	-10202
▁silic	-10203
▁rout	-10204
▁atlant	-10205
▁cens	-10206
▁principles	-10207
▁intratext	-10208
ée	-10209
▁ovvero	-10210
▁storici	-10211
▁painted	-10212
▁charles	-10213
etici	-10214
page	-10215
ylon	-10216
▁carica	-10217
▁reper	-10218
oggio	-10219
▁chairs	-10220
▁thomas	-10221
▁restored	-10222
▁torne	-10223
atively	-10224
▁fondamentali	-10225
▁mezza	-10226
▁flusso	-10227
▁ventil	-10228
▁permettono	-10229
coni	-10230
▁arrest	-10231
▁glory	-10232
▁psic	-10233
▁arrange	-10234
pass	-10235
▁ferrari	-10236
▁clothing	-10237
tire	-10238
▁como	-10239
▁infrastruct	-10240
▁suon	-10241
eties	-10242
▁scenario	-10243
▁cancellazione	-10244
▁conveni	-10245
▁lowest	-10246
hil	-10247
▁layout	-10248
ril	-10249
▁slightly	-10250
▁peak	-10251
▁conosce	-10252
irono	-10253
▁editori	-10254
ingo	-10255
▁relaxation	-10256
▁pt	-10257
inf	-10258
▁moro	-10259
▁pratiche	-10260
▁anteprima	-10261
▁legger	-10262
▁posteriore	-10263
▁consentono	-10264
▁occhio	-10265
▁seni	-10266
▁allowing	-10267
▁sfida	-10268
▁biggest	-10269
dire	-10270
▁bres	-10271
▁prol	-10272
▁absolutely	-10273
▁dup	-10274
▁bellissima	-10275
▁jet	-10276
▁tried	-10277
▁analog	-10278
▁vittime	-10279
aced	-10280
▁catech	-10281
▁tipologia	-10282
▁tasso	-10283
▁riding	-10284
hour	-10285
ii	-10286
▁aluminium	-10287
▁marca	-10288
udio	-10289
▁visa	-10290
▁incante	-10291
▁prost	-10292
▁violence	-10293
▁interc	-10294
▁clothes	-10295
▁dormire	-10296
▁attesa	-10297
was	-10298
▁1991	-10299
▁orec	-10300
-03	-10301
enses	-10302
▁cha	-10303
▁buone	-10304
▁kh	-10305
▁adige	-10306
▁trek	-10307
▁precise	-10308
▁opens	-10309
▁gd	-10310
▁10-	-10311
sta	-10312
ffi	-10313
▁sustainable	-10314
▁gem	-10315
iled	-10316
orire	-10317
▁maritti	-10318
amsung	-10319
▁announced	-10320
▁stazioni	-10321
▁championship	-10322
▁belgi	-10323
▁traveling	-10324
▁grigio	-10325
▁sinc	-10326
▁scrittura	-10327
▁attiva	-10328
▁guaranteed	-10329
ng	-10330
▁junior	-10331
▁composta	-10332
▁hero	-10333
itali	-10334
▁nera	-10335
▁colomb	-10336
▁whereas	-10337
▁richiedere	-10338
▁sentiero	-10339
▁allerg	-10340
▁arrived	-10341
▁autost	-10342
▁ans	-10343
▁aggiornamenti	-10344
▁archives	-10345
▁supervis	-10346
▁wil	-10347
▁generalmente	-10348
▁iraq	-10349
▁universe	-10350
▁mercy	-10351
▁analizz	-10352
▁expo	-10353
▁dating	-10354
▁surg	-10355
▁explo	-10356
▁career	-10357
▁agr	-10358
▁insegnamento	-10359
▁characteristic	-10360
▁ambientale	-10361
▁adol	-10362
wave	-10363
▁accad	-10364
▁paradise	-10365
▁orario	-10366
orazioni	-10367
▁lam	-10368
▁orientale	-10369
▁frutti	-10370
▁deleted	-10371
▁phenom	-10372
▁possess	-10373
▁informare	-10374
▁lavanderia	-10375
▁politico	-10376
▁institution	-10377
▁coni	-10378
▁esterni	-10379
fox	-10380
▁printed	-10381
▁pneum	-10382
▁mechanical	-10383
esp	-10384
▁polvere	-10385
▁seb	-10386
uce	-10387
▁frequenza	-10388
▁dovrà	-10389
▁patron	-10390
▁xvii	-10391
igno	-10392
▁arredamento	-10393
▁avenue	-10394
▁pareti	-10395
▁canal	-10396
▁extended	-10397
▁cosmet	-10398
▁avevo	-10399
▁appuntamento	-10400
▁anat	-10401
▁bagn	-10402
▁illeg	-10403
oke	-10404
▁voluto	-10405
▁roberto	-10406
gion	-10407
▁controlled	-10408
▁runs	-10409
▁react	-10410
▁partono	-10411
▁prossima	-10412
▁esa	-10413
▁orth	-10414
erete	-10415
▁episcop	-10416
▁comple	-10417
ccato	-10418
▁mostrare	-10419
▁happened	-10420
▁purchased	-10421
▁consapevole	-10422
▁molec	-10423
▁kong	-10424
endosi	-10425
▁susp	-10426
▁livorno	-10427
dge	-10428
mbh	-10429
▁bent	-10430
▁promotion	-10431
▁participate	-10432
▁interfaccia	-10433
▁filo	-10434
▁clock	-10435
▁specialità	-10436
▁pv	-10437
with	-10438
▁ig	-10439
▁topic	-10440
ums	-10441
▁bianchi	-10442
▁personalità	-10443
▁blonde	-10444
▁printing	-10445
▁impress	-10446
▁reduction	-10447
▁controller	-10448
▁ostello	-10449
onymous	-10450
▁immig	-10451
▁educazione	-10452
▁ades	-10453
▁begins	-10454
▁answers	-10455
▁rapida	-10456
▁sopravv	-10457
▁contare	-10458
▁loved	-10459
▁universo	-10460
▁movie	-10461
▁esposit	-10462
▁vertic	-10463
▁synthe	-10464
▁majority	-10465
▁examples	-10466
▁trasmissione	-10467
agu	-10468
▁segre	-10469
▁parish	-10470
▁mamma	-10471
ares	-10472
▁afterno	-10473
▁willi	-10474
▁prevista	-10475
hai	-10476
▁electricity	-10477
▁maison	-10478
▁pasqua	-10479
▁turisti	-10480
▁largo	-10481
▁george	-10482
▁tradizioni	-10483
ict	-10484
▁excursions	-10485
iranno	-10486
▁spessore	-10487
▁dovete	-10488
web	-10489
▁antiv	-10490
▁resolution	-10491
▁capol	-10492
▁diplom	-10493
▁bocc	-10494
▁tensione	-10495
▁proposito	-10496
▁babe	-10497
▁confronti	-10498
win	-10499
▁supplementari	-10500
41	-10501
▁jewel	-10502
▁fourth	-10503
▁architectural	-10504
▁costruiti	-10505
▁luss	-10506
▁infrastrutt	-10507
▁riservate	-10508
▁decidere	-10509
▁nazione	-10510
▁sunny	-10511
graphy	-10512
▁hath	-10513
55	-10514
▁lasciato	-10515
▁ebrei	-10516
▁peaceful	-10517
enger	-10518
▁composition	-10519
ryer	-10520
▁viewed	-10521
▁rass	-10522
▁bm	-10523
▁nick	-10524
▁profit	-10525
ulo	-10526
▁introduction	-10527
ads	-10528
▁speaking	-10529
▁67	-10530
▁statue	-10531
▁landscap	-10532
▁gmbh	-10533
▁galile	-10534
▁gratuite	-10535
▁solare	-10536
▁dolci	-10537
▁charged	-10538
▁confess	-10539
▁puzzle	-10540
▁symbols	-10541
▁outstanding	-10542
▁older	-10543
isure	-10544
▁lum	-10545
▁strategic	-10546
▁ombre	-10547
atever	-10548
▁diversa	-10549
▁portra	-10550
▁disegni	-10551
▁vertical	-10552
▁contribution	-10553
cycl	-10554
▁recording	-10555
▁mancanza	-10556
vec	-10557
▁equilibrio	-10558
▁equival	-10559
▁rimosso	-10560
▁suc	-10561
▁detect	-10562
▁88	-10563
iring	-10564
▁barra	-10565
▁bolzano	-10566
▁oly	-10567
agni	-10568
▁63	-10569
▁cima	-10570
▁giacom	-10571
ulations	-10572
▁pearl	-10573
▁fattori	-10574
▁butter	-10575
armi	-10576
marks	-10577
▁pittura	-10578
▁consiste	-10579
▁professionals	-10580
ficato	-10581
▁iscrizione	-10582
▁nata	-10583
▁consenso	-10584
▁aid	-10585
▁sacerdote	-10586
dal	-10587
gano	-10588
ob	-10589
▁ricc	-10590
▁fedel	-10591
▁isa	-10592
▁supplier	-10593
▁98	-10594
▁rischi	-10595
▁hundreds	-10596
▁passeggiata	-10597
▁suggeriamo	-10598
▁miliardi	-10599
▁ricordare	-10600
▁prophe	-10601
▁totally	-10602
▁cristina	-10603
▁delicate	-10604
mbo	-10605
▁visibile	-10606
vio	-10607
reste	-10608
aph	-10609
sequ	-10610
▁uncin	-10611
▁previsioni	-10612
▁eiaculazione	-10613
▁vendere	-10614
▁fireplace	-10615
▁roleplay	-10616
tims	-10617
▁1,5	-10618
▁moz	-10619
▁happens	-10620
▁proprietari	-10621
▁figlia	-10622
▁wik	-10623
▁potenti	-10624
▁stored	-10625
▁rank	-10626
▁lac	-10627
osure	-10628
▁brasile	-10629
▁victims	-10630
▁casti	-10631
▁morti	-10632
ossid	-10633
▁inev	-10634
▁vietnam	-10635
▁affili	-10636
▁vip	-10637
▁streamate	-10638
▁istruzione	-10639
▁overlooking	-10640
▁philosophy	-10641
▁banc	-10642
▁2.0	-10643
▁pir	-10644
▁cure	-10645
▁california	-10646
▁objective	-10647
▁zucch	-10648
▁interests	-10649
▁employed	-10650
▁scatter	-10651
▁rang	-10652
▁rivolu	-10653
▁jews	-10654
▁netto	-10655
▁critical	-10656
▁whatever	-10657
▁necessarie	-10658
inamento	-10659
▁statistical	-10660
▁erg	-10661
▁diction	-10662
▁hydro	-10663
▁neve	-10664
erimenti	-10665
▁cusc	-10666
▁causes	-10667
▁scontati	-10668
ettori	-10669
▁sopp	-10670
▁contrario	-10671
eller	-10672
▁imperial	-10673
▁developing	-10674
▁sorpres	-10675
▁specifica	-10676
▁comprendere	-10677
▁olymp	-10678
▁emilia	-10679
▁situazioni	-10680
▁trim	-10681
▁abilità	-10682
yr	-10683
matiche	-10684
▁preval	-10685
▁awards	-10686
▁manifestazione	-10687
▁fruits	-10688
▁norme	-10689
▁mistero	-10690
▁assisi	-10691
▁storie	-10692
▁doctors	-10693
ois	-10694
▁celebrate	-10695
▁usate	-10696
▁unfortunately	-10697
▁efforts	-10698
▁spo	-10699
iced	-10700
▁arms	-10701
▁accordance	-10702
▁armi	-10703
▁spectac	-10704
▁novel	-10705
rans	-10706
▁nom	-10707
vato	-10708
▁meridionale	-10709
eu	-10710
▁esprim	-10711
▁blowjob	-10712
▁prestigi	-10713
quis	-10714
▁filosofia	-10715
▁persp	-10716
rini	-10717
▁attractive	-10718
▁interessato	-10719
▁grapes	-10720
▁fro	-10721
▁impossible	-10722
onimo	-10723
▁foglie	-10724
▁dipendenti	-10725
▁divina	-10726
▁marble	-10727
▁sitting	-10728
▁paio	-10729
cha	-10730
▁aest	-10731
▁vineyards	-10732
▁saving	-10733
▁2.5	-10734
▁collected	-10735
▁ammirare	-10736
tech	-10737
▁till	-10738
▁legali	-10739
▁mille	-10740
▁inut	-10741
▁threat	-10742
▁casale	-10743
▁contattato	-10744
▁grid	-10745
▁principle	-10746
▁consigliato	-10747
▁fasi	-10748
▁acquisti	-10749
rei	-10750
aglio	-10751
astici	-10752
▁ministro	-10753
▁pastoral	-10754
▁settentr	-10755
▁iniziative	-10756
erlo	-10757
▁mans	-10758
▁accurate	-10759
▁professor	-10760
▁situations	-10761
▁definition	-10762
ercis	-10763
monte	-10764
▁insegna	-10765
▁dubbio	-10766
▁constantly	-10767
66	-10768
▁tart	-10769
▁carriera	-10770
▁sending	-10771
▁nuovamente	-10772
▁94	-10773
ogen	-10774
▁confirmed	-10775
-30	-10776
▁ador	-10777
▁lampada	-10778
▁uncinetto	-10779
▁regionale	-10780
▁instagram	-10781
▁ritorn	-10782
▁monumenti	-10783
▁integration	-10784
▁ruote	-10785
▁avendo	-10786
▁isc	-10787
▁diagnost	-10788
▁kayak	-10789
▁impiego	-10790
▁bik	-10791
▁biancheria	-10792
ailand	-10793
erra	-10794
▁operazione	-10795
inati	-10796
▁aereo	-10797
▁sounds	-10798
▁bicycle	-10799
▁vehicles	-10800
▁azzur	-10801
▁cerim	-10802
▁tests	-10803
▁aspect	-10804
remmo	-10805
▁santu	-10806
ffer	-10807
▁adul	-10808
▁exercis	-10809
▁enables	-10810
▁carefully	-10811
▁aromas	-10812
▁hiking	-10813
▁boot	-10814
▁secondi	-10815
▁cavallo	-10816
gato	-10817
▁navi	-10818
▁dual	-10819
▁portugal	-10820
▁intel	-10821
▁diamond	-10822
▁italiane	-10823
▁cia	-10824
▁indicate	-10825
▁definitely	-10826
▁peoples	-10827
erò	-10828
▁valu	-10829
▁updates	-10830
▁chiud	-10831
▁isn	-10832
▁architetton	-10833
olio	-10834
▁penso	-10835
▁orologi	-10836
life	-10837
▁sebbene	-10838
▁represented	-10839
▁opposite	-10840
▁turk	-10841
▁aromi	-10842
screen	-10843
ettendo	-10844
▁pine	-10845
▁lia	-10846
▁associations	-10847
▁dichiarato	-10848
▁sottop	-10849
atri	-10850
▁organizzare	-10851
▁divertente	-10852
▁cognome	-10853
ea	-10854
▁pak	-10855
▁cycling	-10856
▁ered	-10857
non	-10858
▁anne	-10859
▁soggetto	-10860
▁1010	-10861
▁firefox	-10862
arire	-10863
rag	-10864
olini	-10865
▁benedic	-10866
chant	-10867
resc	-10868
▁pensato	-10869
▁vendite	-10870
aldi	-10871
aldo	-10872
install	-10873
▁pizza	-10874
▁mall	-10875
▁parzi	-10876
▁entrata	-10877
▁considerazione	-10878
▁scomm	-10879
▁centr	-10880
▁vicina	-10881
▁nit	-10882
▁1994	-10883
▁catalogue	-10884
▁sets	-10885
▁alternativa	-10886
teranno	-10887
▁pron	-10888
▁manually	-10889
▁collina	-10890
▁1.	-10891
▁semplicità	-10892
▁lavoratori	-10893
▁venuto	-10894
ettato	-10895
craft	-10896
▁invis	-10897
▁specifically	-10898
arietà	-10899
▁gare	-10900
▁tank	-10901
▁florida	-10902
▁occupazione	-10903
▁harbour	-10904
▁riparazione	-10905
▁afternoon	-10906
▁rinun	-10907
▁fermata	-10908
▁latter	-10909
▁lock	-10910
engers	-10911
▁concorso	-10912
▁tourists	-10913
▁corrupt	-10914
▁ovunque	-10915
▁notevole	-10916
▁module	-10917
attiva	-10918
▁continuo	-10919
▁scambio	-10920
▁tiro	-10921
▁lettore	-10922
▁masturbazione	-10923
▁esame	-10924
▁sviluppa	-10925
▁dies	-10926
▁accettate	-10927
▁chart	-10928
▁belgium	-10929
▁carp	-10930
▁trasparente	-10931
alc	-10932
▁profondo	-10933
▁olimp	-10934
▁cala	-10935
▁filtro	-10936
▁division	-10937
▁pericol	-10938
▁installato	-10939
▁suit	-10940
▁transports	-10941
▁genoa	-10942
▁lent	-10943
▁prestigious	-10944
▁vicini	-10945
vet	-10946
cription	-10947
▁ft	-10948
▁sket	-10949
▁gustare	-10950
▁cristiano	-10951
erebbe	-10952
romass	-10953
▁documentazione	-10954
▁titan	-10955
▁esistono	-10956
▁industries	-10957
▁aggiornare	-10958
ansion	-10959
▁aeree	-10960
▁reven	-10961
ologiche	-10962
▁gun	-10963
oret	-10964
▁porn	-10965
▁dipar	-10966
▁expressed	-10967
▁blind	-10968
▁ciocc	-10969
▁permetter	-10970
▁ampi	-10971
▁entrambe	-10972
▁ancona	-10973
▁77	-10974
▁poveri	-10975
▁1.2	-10976
▁stava	-10977
▁accetta	-10978
▁gentile	-10979
ficial	-10980
▁170	-10981
▁violenza	-10982
▁spectacular	-10983
▁limiti	-10984
▁iniziale	-10985
▁intermedi	-10986
▁tessuti	-10987
▁includono	-10988
▁factors	-10989
▁poteva	-10990
▁piste	-10991
▁movimenti	-10992
▁adib	-10993
▁saved	-10994
▁guadagn	-10995
▁acquistato	-10996
▁punteggio	-10997
▁74	-10998
▁misumi	-10999
aret	-11000
▁keeping	-11001
▁loco	-11002
▁dichiarazione	-11003
▁uo	-11004
▁chron	-11005
▁potenzi	-11006
▁ef	-11007
▁ferry	-11008
▁svolge	-11009
lat	-11010
lli	-11011
▁abil	-11012
▁eleganti	-11013
troppo	-11014
▁polizia	-11015
▁intended	-11016
▁catania	-11017
▁spett	-11018
alization	-11019
▁anth	-11020
rutta	-11021
▁intervent	-11022
▁annuale	-11023
▁scend	-11024
▁preview	-11025
▁ny	-11026
▁posts	-11027
▁listino	-11028
▁lati	-11029
forms	-11030
▁motion	-11031
bles	-11032
▁esempi	-11033
▁arricch	-11034
▁warning	-11035
▁subscribe	-11036
▁politici	-11037
▁fuel	-11038
▁personaggi	-11039
▁fulf	-11040
▁accident	-11041
▁thailand	-11042
▁robot	-11043
▁sha	-11044
▁mate	-11045
▁onde	-11046
bly	-11047
▁omb	-11048
▁uv	-11049
sen	-11050
▁bodies	-11051
▁rivoluzione	-11052
▁achieved	-11053
▁casinò	-11054
▁pernottamento	-11055
▁wealth	-11056
▁suppliers	-11057
shirt	-11058
▁input	-11059
▁towns	-11060
▁lamb	-11061
▁alimentare	-11062
ectives	-11063
▁avvol	-11064
▁turkey	-11065
unk	-11066
▁toys	-11067
ffs	-11068
vac	-11069
▁mangi	-11070
▁milf	-11071
▁costituito	-11072
▁notare	-11073
-9	-11074
▁cantina	-11075
▁mg	-11076
▁fascino	-11077
▁steam	-11078
▁cambia	-11079
▁covers	-11080
▁define	-11081
▁recorded	-11082
▁opinioni	-11083
▁reservations	-11084
▁ras	-11085
▁risparmio	-11086
▁sisters	-11087
alia	-11088
▁televisione	-11089
▁tubo	-11090
▁delight	-11091
▁turistico	-11092
▁segret	-11093
▁tweet	-11094
▁dinam	-11095
▁altret	-11096
▁fattoria	-11097
▁ordinary	-11098
▁grasso	-11099
▁ricordo	-11100
▁gay	-11101
▁knew	-11102
▁australi	-11103
▁grassi	-11104
▁fondata	-11105
▁rivista	-11106
▁gesto	-11107
pack	-11108
▁fondi	-11109
▁europee	-11110
ariamente	-11111
▁alba	-11112
idio	-11113
▁ung	-11114
▁horiz	-11115
▁executive	-11116
▁reported	-11117
inate	-11118
orna	-11119
▁coach	-11120
▁ceram	-11121
▁coinc	-11122
▁judg	-11123
ettive	-11124
▁networks	-11125
▁riconoscimento	-11126
ghero	-11127
teenth	-11128
▁versetto	-11129
▁transparent	-11130
▁brev	-11131
▁themes	-11132
▁quadrati	-11133
▁expand	-11134
hotels	-11135
▁matura	-11136
▁flesh	-11137
ratori	-11138
▁familiari	-11139
▁pilot	-11140
▁artistico	-11141
▁relais	-11142
▁esclusivo	-11143
▁stones	-11144
▁facility	-11145
▁intend	-11146
▁purtroppo	-11147
▁crown	-11148
▁appren	-11149
▁recall	-11150
▁designs	-11151
▁tasti	-11152
▁sostanze	-11153
▁grafica	-11154
▁ort	-11155
▁cosidd	-11156
tood	-11157
▁sborrata	-11158
icc	-11159
▁ancor	-11160
▁polt	-11161
▁usual	-11162
▁trading	-11163
▁lavorato	-11164
▁adjus	-11165
▁freddo	-11166
▁seeking	-11167
▁modific	-11168
▁biciclette	-11169
▁definire	-11170
▁paypal	-11171
▁disabil	-11172
▁giacomo	-11173
▁hub	-11174
▁ubicazione	-11175
▁communications	-11176
▁responsabili	-11177
▁split	-11178
▁corretto	-11179
▁rappresentano	-11180
▁moderne	-11181
▁demo	-11182
▁precisely	-11183
▁relation	-11184
▁agricol	-11185
▁decoration	-11186
▁appassionati	-11187
▁impossibile	-11188
▁linen	-11189
▁vincere	-11190
▁incomp	-11191
▁troverai	-11192
▁charm	-11193
▁classes	-11194
▁185	-11195
▁celebration	-11196
▁autunno	-11197
▁rimuovere	-11198
▁vivi	-11199
▁monitoring	-11200
▁ricevi	-11201
▁indice	-11202
hou	-11203
lass	-11204
appe	-11205
▁orch	-11206
▁viale	-11207
▁splendid	-11208
▁enterprise	-11209
▁vener	-11210
▁canzoni	-11211
▁resident	-11212
▁leisure	-11213
▁bergamo	-11214
▁strict	-11215
arica	-11216
rona	-11217
▁configuration	-11218
▁eleganza	-11219
▁arena	-11220
uchar	-11221
▁silenzio	-11222
▁faster	-11223
▁poland	-11224
field	-11225
▁ware	-11226
▁doubt	-11227
▁prolet	-11228
▁indag	-11229
know	-11230
▁intelligenza	-11231
▁dover	-11232
▁aziendale	-11233
▁replica	-11234
▁abandon	-11235
▁helpful	-11236
▁exciting	-11237
▁seas	-11238
▁diffusi	-11239
▁esercito	-11240
▁weap	-11241
▁tif	-11242
▁ascoltare	-11243
-02	-11244
mentic	-11245
unning	-11246
▁welcoming	-11247
▁atteggi	-11248
▁linguaggio	-11249
oo	-11250
▁verb	-11251
▁federal	-11252
▁gym	-11253
▁upgrade	-11254
▁robert	-11255
▁intenso	-11256
▁chocolate	-11257
▁investimenti	-11258
▁relativa	-11259
▁harmony	-11260
▁photography	-11261
▁documentation	-11262
▁à	-11263
▁explained	-11264
▁adolesc	-11265
▁offerto	-11266
▁diagra	-11267
▁films	-11268
▁spesa	-11269
▁veicoli	-11270
▁naut	-11271
▁matteo	-11272
▁misericordia	-11273
▁sufficient	-11274
▁esseri	-11275
▁interra	-11276
▁washington	-11277
▁carb	-11278
▁compris	-11279
▁cristallo	-11280
▁consigliamo	-11281
▁alpi	-11282
▁procedura	-11283
▁mostre	-11284
▁pomerig	-11285
▁fiorent	-11286
▁impressive	-11287
▁ospital	-11288
▁sugar	-11289
▁rand	-11290
ensi	-11291
▁miglioramento	-11292
▁hairdryer	-11293
▁symp	-11294
▁tasto	-11295
▁bulgaria	-11296
ère	-11297
▁moral	-11298
▁euchar	-11299
▁cen	-11300
▁ell	-11301
ban	-11302
lec	-11303
▁offici	-11304
▁tungst	-11305
otten	-11306
▁chiede	-11307
▁burg	-11308
▁dolomites	-11309
▁offline	-11310
▁pale	-11311
.99	-11312
▁manip	-11313
▁indimentic	-11314
▁professionali	-11315
not	-11316
▁subsequ	-11317
▁chiaramente	-11318
ranti	-11319
▁camino	-11320
▁mostly	-11321
▁neckl	-11322
▁discovered	-11323
▁inspiration	-11324
▁bung	-11325
▁paths	-11326
▁fortuna	-11327
late	-11328
▁argomento	-11329
amar	-11330
▁committed	-11331
▁slovenia	-11332
mia	-11333
▁palla	-11334
▁baia	-11335
▁presentare	-11336
▁campan	-11337
▁bicicletta	-11338
▁telefonino	-11339
▁fisc	-11340
▁lingerie	-11341
▁porti	-11342
▁ramblas	-11343
▁1992	-11344
har	-11345
▁rigido	-11346
▁impre	-11347
chetti	-11348
▁pena	-11349
▁cc	-11350
▁subt	-11351
▁selezionato	-11352
▁requested	-11353
▁intellect	-11354
▁ospite	-11355
▁antivir	-11356
▁digitali	-11357
▁samsung	-11358
▁travelling	-11359
forg	-11360
▁movements	-11361
▁artifici	-11362
▁pp	-11363
▁teachers	-11364
▁dictionary	-11365
▁confezione	-11366
▁native	-11367
▁joined	-11368
▁launch	-11369
▁ends	-11370
▁pregi	-11371
charge	-11372
here	-11373
.12	-11374
▁daniel	-11375
aving	-11376
▁cannab	-11377
style	-11378
▁seconds	-11379
▁powered	-11380
▁thickness	-11381
▁greet	-11382
▁dispongono	-11383
▁ciascuna	-11384
▁archivi	-11385
licity	-11386
▁cellulare	-11387
▁cfr	-11388
▁standing	-11389
teen	-11390
▁subscription	-11391
▁farmac	-11392
▁refrigerator	-11393
▁boots	-11394
▁aspetta	-11395
▁simult	-11396
▁talking	-11397
▁tratti	-11398
▁advantages	-11399
▁sino	-11400
42	-11401
pul	-11402
▁gradi	-11403
▁organizations	-11404
xi	-11405
night	-11406
▁compatibile	-11407
▁surv	-11408
68	-11409
▁exclud	-11410
▁degusta	-11411
▁influenza	-11412
▁leggermente	-11413
▁botan	-11414
▁encycl	-11415
▁espri	-11416
▁elevato	-11417
▁oceania	-11418
▁properly	-11419
hl	-11420
▁affascinante	-11421
▁lecce	-11422
▁riproduzione	-11423
▁spoken	-11424
▁vecchi	-11425
isms	-11426
ologi	-11427
▁ecclesi	-11428
ination	-11429
▁passeggeri	-11430
▁improv	-11431
wal	-11432
▁everyday	-11433
▁geografia	-11434
▁approved	-11435
▁stro	-11436
ocale	-11437
▁coppie	-11438
info	-11439
▁realized	-11440
▁layer	-11441
▁assicurazione	-11442
▁laboratori	-11443
▁quart	-11444
▁wisdom	-11445
alizzato	-11446
▁troviamo	-11447
exp	-11448
▁cint	-11449
▁reflect	-11450
▁tipica	-11451
▁directions	-11452
▁minimal	-11453
▁francisco	-11454
idity	-11455
▁tall	-11456
▁underground	-11457
▁pura	-11458
▁shang	-11459
quality	-11460
▁altamente	-11461
▁salerno	-11462
▁automatica	-11463
▁golfo	-11464
▁treviso	-11465
▁launched	-11466
▁comprensione	-11467
▁finestre	-11468
▁americano	-11469
▁1993	-11470
▁messico	-11471
▁evidence	-11472
▁cane	-11473
▁struggle	-11474
▁assume	-11475
▁avver	-11476
61	-11477
▁puro	-11478
▁chest	-11479
▁nik	-11480
▁aperti	-11481
▁specifications	-11482
-200	-11483
▁totalmente	-11484
-18	-11485
▁resurre	-11486
▁puglia	-11487
▁parks	-11488
▁criteria	-11489
▁attu	-11490
tivity	-11491
▁marin	-11492
▁adott	-11493
itas	-11494
▁dicendo	-11495
-2019	-11496
▁2.	-11497
▁extensions	-11498
▁tratto	-11499
▁marriage	-11500
▁awa	-11501
▁wordpress	-11502
▁push	-11503
▁cliccando	-11504
▁danza	-11505
▁gul	-11506
▁consac	-11507
▁minore	-11508
force	-11509
▁hop	-11510
▁sapore	-11511
▁uscire	-11512
▁belgio	-11513
▁animale	-11514
▁sfrutt	-11515
▁fees	-11516
▁adapt	-11517
rino	-11518
▁solamente	-11519
▁mine	-11520
▁giornal	-11521
cons	-11522
▁remark	-11523
▁ken	-11524
▁religiosa	-11525
▁treatments	-11526
lazione	-11527
▁scaricarlo	-11528
▁bibl	-11529
▁sect	-11530
icate	-11531
▁ortofrutt	-11532
acce	-11533
gni	-11534
olata	-11535
▁ampie	-11536
▁refund	-11537
▁copertura	-11538
▁lunghi	-11539
▁challenges	-11540
▁satisfaction	-11541
▁cinqu	-11542
conditioned	-11543
▁sollev	-11544
▁alimentari	-11545
▁contenta	-11546
▁inviato	-11547
▁ospitare	-11548
▁parlamento	-11549
▁ced	-11550
▁suffer	-11551
▁mosc	-11552
▁carving	-11553
▁alz	-11554
▁invito	-11555
eters	-11556
▁tenuto	-11557
gs	-11558
▁goals	-11559
▁rifugio	-11560
▁vittorio	-11561
▁gioca	-11562
▁archaeological	-11563
▁cavi	-11564
▁benedict	-11565
▁sections	-11566
▁protest	-11567
62	-11568
▁selling	-11569
▁disciples	-11570
▁elegance	-11571
▁abbon	-11572
▁sculture	-11573
▁provinces	-11574
versa	-11575
▁dj	-11576
▁husband	-11577
▁canvas	-11578
▁proposed	-11579
▁thoughts	-11580
▁alli	-11581
▁pianeta	-11582
osse	-11583
▁sconti	-11584
▁189	-11585
▁persec	-11586
▁riunioni	-11587
▁versatile	-11588
▁esercizi	-11589
▁collana	-11590
▁dé	-11591
▁microbla	-11592
▁hell	-11593
▁palm	-11594
kt	-11595
▁hab	-11596
▁molt	-11597
▁trekking	-11598
atoio	-11599
▁utilizzate	-11600
▁distretto	-11601
▁testing	-11602
▁horn	-11603
▁regulation	-11604
ju	-11605
▁economiche	-11606
▁esclusiva	-11607
▁appartiene	-11608
▁giocatt	-11609
▁meraviglioso	-11610
▁infinite	-11611
▁lessons	-11612
▁circol	-11613
▁reform	-11614
▁analytics	-11615
▁initial	-11616
▁cornice	-11617
▁inclus	-11618
▁ett	-11619
▁ragioni	-11620
▁cocktail	-11621
▁elastic	-11622
▁dust	-11623
▁classica	-11624
▁optional	-11625
▁furthermore	-11626
▁pavimenti	-11627
▁sforzo	-11628
▁persino	-11629
▁holding	-11630
▁solidarity	-11631
▁ringrazi	-11632
▁culin	-11633
▁sportive	-11634
▁regulations	-11635
▁bilancio	-11636
▁taiw	-11637
▁cesare	-11638
▁unforg	-11639
▁wheels	-11640
fal	-11641
▁identify	-11642
.11	-11643
▁neder	-11644
▁classi	-11645
▁colonna	-11646
▁dimora	-11647
▁hono	-11648
▁booked	-11649
▁frequently	-11650
chini	-11651
▁seeing	-11652
▁conferences	-11653
▁valutazioni	-11654
▁controlla	-11655
▁operano	-11656
▁condivisione	-11657
▁allah	-11658
▁familiar	-11659
▁displayed	-11660
west	-11661
▁exceed	-11662
▁traghet	-11663
▁desert	-11664
▁corresponding	-11665
▁pomeriggio	-11666
-25	-11667
▁gifts	-11668
▁resti	-11669
urgo	-11670
▁botte	-11671
▁winds	-11672
▁valido	-11673
43	-11674
▁rabb	-11675
▁sappiamo	-11676
▁complement	-11677
▁merci	-11678
▁sympt	-11679
▁dangerous	-11680
eco	-11681
▁usano	-11682
▁bungal	-11683
▁texture	-11684
▁assicura	-11685
▁aren	-11686
▁veneti	-11687
grad	-11688
▁pont	-11689
▁ports	-11690
▁fridge	-11691
▁seguendo	-11692
▁comme	-11693
▁narrow	-11694
ican	-11695
▁sensazione	-11696
▁desired	-11697
▁cute	-11698
▁nose	-11699
▁poet	-11700
▁terrazzo	-11701
▁hosts	-11702
▁certificate	-11703
▁authori	-11704
▁cantiere	-11705
washer	-11706
▁lavasto	-11707
▁silence	-11708
▁facts	-11709
▁strap	-11710
▁guy	-11711
▁ard	-11712
▁bevande	-11713
▁behold	-11714
▁monastery	-11715
▁dona	-11716
▁zu	-11717
▁vesti	-11718
▁principe	-11719
quar	-11720
▁diminu	-11721
▁theory	-11722
▁ome	-11723
▁nutrit	-11724
▁stocc	-11725
▁sorted	-11726
▁recognized	-11727
▁tasting	-11728
▁extensive	-11729
▁classificazione	-11730
▁edizioni	-11731
▁identific	-11732
▁serra	-11733
▁eccellenza	-11734
81	-11735
▁sovi	-11736
▁absor	-11737
▁honey	-11738
ecento	-11739
▁biennale	-11740
▁understood	-11741
▁690	-11742
▁judge	-11743
▁cilind	-11744
estyle	-11745
▁secretary	-11746
▁removal	-11747
▁collegare	-11748
▁nearly	-11749
▁calcolo	-11750
▁amanti	-11751
▁sessione	-11752
▁sping	-11753
▁altar	-11754
▁82	-11755
▁didatt	-11756
▁attrezzatura	-11757
▁preferito	-11758
▁exclusively	-11759
crimin	-11760
▁pus	-11761
67	-11762
▁transportation	-11763
▁tonnell	-11764
▁avi	-11765
ettable	-11766
▁finding	-11767
▁soddisfazione	-11768
▁ader	-11769
▁haw	-11770
▁gone	-11771
▁comportamento	-11772
▁ahead	-11773
▁territori	-11774
▁belongs	-11775
istare	-11776
rarsi	-11777
ennio	-11778
▁incent	-11779
▁lavastoviglie	-11780
▁stere	-11781
▁equipaggi	-11782
▁settentrionale	-11783
mag	-11784
▁capt	-11785
▁conservazione	-11786
▁cors	-11787
▁olanda	-11788
war	-11789
▁tells	-11790
▁penna	-11791
▁incredibile	-11792
▁cortile	-11793
▁immerso	-11794
▁entusias	-11795
▁spedizioni	-11796
▁velocemente	-11797
▁café	-11798
▁geor	-11799
▁onore	-11800
▁root	-11801
onica	-11802
▁agricultural	-11803
69	-11804
▁manufacturers	-11805
▁coperta	-11806
▁tribun	-11807
▁nest	-11808
▁occorre	-11809
▁marti	-11810
inding	-11811
▁wet	-11812
▁esplorare	-11813
▁containing	-11814
▁sessuale	-11815
▁announce	-11816
▁amare	-11817
▁gioielli	-11818
▁hunt	-11819
mmi	-11820
▁reput	-11821
▁genuine	-11822
▁awarded	-11823
▁integrato	-11824
▁eucar	-11825
▁volto	-11826
▁bc	-11827
friendly	-11828
▁emergency	-11829
-01	-11830
▁alph	-11831
▁moses	-11832
▁raggiunge	-11833
▁rient	-11834
▁truck	-11835
▁vinci	-11836
▁serves	-11837
vania	-11838
▁regola	-11839
▁pompino	-11840
▁nottur	-11841
▁perso	-11842
▁temperatures	-11843
▁crash	-11844
ormente	-11845
diamo	-11846
▁panels	-11847
▁cave	-11848
▁ricambi	-11849
▁collective	-11850
uzzi	-11851
otreno	-11852
▁lovers	-11853
▁pixel	-11854
▁costituisce	-11855
▁gentle	-11856
▁altrimenti	-11857
▁itinerario	-11858
called	-11859
▁monuments	-11860
▁sins	-11861
▁antivirus	-11862
▁raised	-11863
▁scio	-11864
▁domestic	-11865
▁bottiglia	-11866
▁domestici	-11867
▁chirurg	-11868
▁singapore	-11869
▁argu	-11870
▁potenziale	-11871
▁enl	-11872
▁creates	-11873
▁interventi	-11874
▁forced	-11875
▁pon	-11876
▁contribute	-11877
▁riferisce	-11878
▁tight	-11879
▁wave	-11880
▁victory	-11881
▁rocca	-11882
▁provv	-11883
▁tiss	-11884
▁noise	-11885
▁investimento	-11886
mobili	-11887
▁interessati	-11888
itivo	-11889
▁naso	-11890
▁microwave	-11891
▁benvenuti	-11892
hetic	-11893
▁realmente	-11894
▁swap	-11895
▁certified	-11896
▁jobs	-11897
▁italotreno	-11898
▁1.1	-11899
tia	-11900
▁fedeltà	-11901
▁precision	-11902
▁charity	-11903
▁console	-11904
▁ottimale	-11905
▁invio	-11906
pit	-11907
▁stable	-11908
▁stayed	-11909
▁signal	-11910
▁crafts	-11911
▁impostare	-11912
▁jewish	-11913
▁religiosi	-11914
▁caccia	-11915
▁climbing	-11916
▁voglia	-11917
▁amounts	-11918
grado	-11919
▁fontana	-11920
▁cape	-11921
isca	-11922
▁ash	-11923
▁greg	-11924
▁monthly	-11925
▁aims	-11926
▁parametri	-11927
▁gim	-11928
umn	-11929
akes	-11930
▁salvatore	-11931
▁consumer	-11932
entive	-11933
▁pannelli	-11934
uxe	-11935
▁camper	-11936
▁excess	-11937
▁neuro	-11938
▁finalità	-11939
▁pour	-11940
▁angeli	-11941
yer	-11942
ziano	-11943
cro	-11944
▁parlato	-11945
▁ecumen	-11946
▁paziente	-11947
▁decorazione	-11948
▁tetto	-11949
▁unforgettable	-11950
liness	-11951
▁bare	-11952
▁arra	-11953
▁avviare	-11954
front	-11955
▁engines	-11956
▁facing	-11957
▁efficiente	-11958
▁rivestimento	-11959
▁indian	-11960
▁preli	-11961
▁navetta	-11962
▁utilizziamo	-11963
▁lettere	-11964
▁excellence	-11965
▁raffig	-11966
▁resi	-11967
▁15-	-11968
▁parroc	-11969
▁aur	-11970
▁pulito	-11971
▁2-	-11972
▁pesci	-11973
▁percentage	-11974
vedere	-11975
mani	-11976
▁dishwasher	-11977
▁dose	-11978
▁disord	-11979
cess	-11980
▁remained	-11981
▁improved	-11982
▁vernici	-11983
▁ky	-11984
▁entre	-11985
▁necklace	-11986
fall	-11987
teous	-11988
▁dealer	-11989
▁campione	-11990
▁discepoli	-11991
▁ospitalità	-11992
▁brain	-11993
▁introduce	-11994
▁4.0	-11995
▁pompa	-11996
▁simplicity	-11997
▁jeho	-11998
ibilmente	-11999
▁stadi	-12000
speed	-12001
▁disposal	-12002
name	-12003
▁lamin	-12004
gallo	-12005
▁leggero	-12006
▁concerned	-12007
▁facciamo	-12008
cav	-12009
▁verific	-12010
-04	-12011
ubile	-12012
▁ricchezza	-12013
▁idromass	-12014
▁blocco	-12015
▁rilas	-12016
▁heads	-12017
▁cp	-12018
▁zoo	-12019
attivo	-12020
▁shapes	-12021
var	-12022
▁tutt	-12023
▁celebrated	-12024
aya	-12025
▁pastorale	-12026
▁dirig	-12027
▁discussione	-12028
▁pharmac	-12029
▁nine	-12030
▁paragra	-12031
▁fame	-12032
▁directors	-12033
▁revel	-12034
▁skiing	-12035
-14	-12036
▁technological	-12037
▁resistente	-12038
▁proud	-12039
▁praga	-12040
itata	-12041
questo	-12042
▁congregation	-12043
▁raven	-12044
▁crescere	-12045
ecess	-12046
▁invited	-12047
▁sarai	-12048
▁scompar	-12049
▁valuable	-12050
▁aggiornato	-12051
urati	-12052
▁ships	-12053
▁hr	-12054
▁concep	-12055
▁aimed	-12056
▁plenty	-12057
▁triang	-12058
taking	-12059
▁specifici	-12060
isei	-12061
▁fitted	-12062
xelles	-12063
▁offerti	-12064
▁prosper	-12065
▁willing	-12066
term	-12067
▁bikini	-12068
▁certificato	-12069
▁nig	-12070
▁instance	-12071
▁spont	-12072
▁wra	-12073
ulties	-12074
▁classifica	-12075
▁rimo	-12076
▁straordinaria	-12077
▁evidenzi	-12078
gger	-12079
▁cardinale	-12080
▁positions	-12081
▁withdra	-12082
▁medievale	-12083
▁primar	-12084
▁cs	-12085
▁allev	-12086
▁cyl	-12087
ascio	-12088
▁bah	-12089
▁chapel	-12090
▁stan	-12091
▁cellule	-12092
▁graphics	-12093
▁muscle	-12094
▁spam	-12095
▁worship	-12096
vior	-12097
▁prendendo	-12098
▁avrete	-12099
▁partecipato	-12100
otter	-12101
▁representatives	-12102
▁padova	-12103
▁bracciale	-12104
▁circondato	-12105
▁dc	-12106
bike	-12107
▁winning	-12108
▁classical	-12109
uck	-12110
▁usati	-12111
▁dipartimento	-12112
olina	-12113
essero	-12114
▁sentito	-12115
▁1.3	-12116
station	-12117
▁intrat	-12118
▁sedia	-12119
▁usage	-12120
▁trends	-12121
▁brescia	-12122
▁ortod	-12123
anned	-12124
▁income	-12125
asting	-12126
▁probabile	-12127
rento	-12128
urid	-12129
▁pietre	-12130
63	-12131
▁ieri	-12132
▁unless	-12133
evo	-12134
▁admin	-12135
▁crem	-12136
▁venti	-12137
bat	-12138
▁searched	-12139
anne	-12140
▁axis	-12141
▁alexander	-12142
▁adjustable	-12143
▁distru	-12144
▁intende	-12145
irts	-12146
▁memor	-12147
▁precip	-12148
nero	-12149
▁spect	-12150
▁servire	-12151
asco	-12152
▁tons	-12153
max	-12154
▁trentino	-12155
▁agent	-12156
▁cappella	-12157
lays	-12158
▁sorta	-12159
▁dollars	-12160
▁sara	-12161
▁zag	-12162
▁1980	-12163
ried	-12164
▁teresa	-12165
aly	-12166
▁britann	-12167
▁imball	-12168
▁riesce	-12169
▁careful	-12170
▁sapori	-12171
▁circumst	-12172
▁sald	-12173
▁gust	-12174
▁unknown	-12175
▁mater	-12176
▁porno	-12177
home	-12178
enos	-12179
▁bici	-12180
▁anniversario	-12181
rak	-12182
▁awareness	-12183
▁tranquillità	-12184
▁influenz	-12185
▁assorb	-12186
abi	-12187
▁listening	-12188
pg	-12189
▁roots	-12190
▁returns	-12191
▁costantemente	-12192
▁filtri	-12193
▁densità	-12194
▁fet	-12195
▁furnish	-12196
zzar	-12197
▁revolutionary	-12198
▁dop	-12199
▁none	-12200
▁marmo	-12201
▁gps	-12202
▁publication	-12203
▁virtuale	-12204
cta	-12205
▁passage	-12206
▁multimedia	-12207
ium	-12208
▁accomod	-12209
sis	-12210
ician	-12211
▁microblading	-12212
▁racor	-12213
▁dici	-12214
▁fianco	-12215
▁affect	-12216
▁calm	-12217
arda	-12218
▁ebra	-12219
▁managing	-12220
ghese	-12221
▁appointed	-12222
▁peccati	-12223
▁magnetic	-12224
▁auton	-12225
▁tron	-12226
▁millions	-12227
▁judgment	-12228
▁fratern	-12229
agio	-12230
▁terri	-12231
gal	-12232
▁commerce	-12233
▁contrasto	-12234
▁sudden	-12235
▁beings	-12236
▁sbagli	-12237
▁contrary	-12238
▁sovra	-12239
▁playground	-12240
▁seed	-12241
▁cancer	-12242
▁unus	-12243
issance	-12244
▁croc	-12245
▁scienze	-12246
▁raccont	-12247
nut	-12248
▁conduc	-12249
▁vendi	-12250
▁ottiene	-12251
▁density	-12252
▁73	-12253
▁soil	-12254
▁presentano	-12255
▁famosi	-12256
▁deck	-12257
▁sketch	-12258
▁producer	-12259
▁oldest	-12260
▁centres	-12261
▁slopes	-12262
▁architetto	-12263
▁earlier	-12264
▁cherry	-12265
▁entit	-12266
▁constitution	-12267
▁vii	-12268
▁competenze	-12269
▁cemento	-12270
83	-12271
bishop	-12272
▁anarch	-12273
▁texts	-12274
▁drinks	-12275
▁letters	-12276
▁passing	-12277
▁schede	-12278
▁stretto	-12279
▁strip	-12280
▁minimi	-12281
▁framework	-12282
▁taiwan	-12283
▁liberi	-12284
▁trasformazione	-12285
▁downloads	-12286
atra	-12287
▁aziendali	-12288
▁fotografica	-12289
▁osserva	-12290
▁reggio	-12291
▁fibre	-12292
▁vibrator	-12293
▁splendido	-12294
▁vinto	-12295
▁giornaliere	-12296
vic	-12297
▁tende	-12298
▁sebasti	-12299
▁diffusione	-12300
what	-12301
▁israeli	-12302
▁bruxelles	-12303
▁plugin	-12304
▁riceverai	-12305
terday	-12306
▁initiatives	-12307
▁escursione	-12308
▁registrare	-12309
▁harm	-12310
▁attribu	-12311
▁destroyed	-12312
▁rappresentanti	-12313
▁dottrina	-12314
▁microonde	-12315
visor	-12316
rova	-12317
▁certe	-12318
▁aosta	-12319
▁watches	-12320
▁irre	-12321
▁zan	-12322
▁affected	-12323
▁confine	-12324
▁idromassaggio	-12325
▁stunning	-12326
▁proclam	-12327
vate	-12328
▁sick	-12329
▁dieta	-12330
▁loyal	-12331
▁honor	-12332
▁vulner	-12333
renza	-12334
▁chamber	-12335
▁sembrano	-12336
▁duc	-12337
▁scelte	-12338
▁sapi	-12339
▁titoli	-12340
itors	-12341
▁recy	-12342
weight	-12343
▁infrastructure	-12344
▁bour	-12345
▁hamm	-12346
▁qualit	-12347
▁victoria	-12348
▁dotati	-12349
yth	-12350
world	-12351
▁imprend	-12352
▁regolazione	-12353
▁normally	-12354
▁santuario	-12355
▁teoria	-12356
umere	-12357
▁americana	-12358
▁inta	-12359
cesa	-12360
▁yesterday	-12361
▁1500	-12362
▁renown	-12363
build	-12364
▁specified	-12365
▁amal	-12366
▁encourage	-12367
▁guesthouse	-12368
▁affidabile	-12369
▁percep	-12370
▁positivo	-12371
▁concerti	-12372
▁igi	-12373
▁medicina	-12374
▁homemade	-12375
▁bou	-12376
▁discorso	-12377
▁passaggi	-12378
▁disappe	-12379
▁menù	-12380
▁rett	-12381
▁frequency	-12382
▁laboratory	-12383
▁viaggiatore	-12384
▁racconta	-12385
▁avvers	-12386
▁weekly	-12387
▁ukra	-12388
▁criteri	-12389
▁makeup	-12390
▁toll	-12391
▁specchio	-12392
rutti	-12393
ittura	-12394
▁radici	-12395
▁fascinating	-12396
scop	-12397
▁alghero	-12398
▁incarn	-12399
▁agn	-12400
▁questioni	-12401
▁vela	-12402
▁mental	-12403
▁satisfy	-12404
▁foresta	-12405
chetto	-12406
▁balanced	-12407
▁riprod	-12408
▁trop	-12409
batt	-12410
▁lon	-12411
▁evidente	-12412
▁woods	-12413
▁soggiorni	-12414
▁opinione	-12415
▁1970	-12416
▁sorrento	-12417
▁titolare	-12418
chino	-12419
▁orthodo	-12420
▁1989	-12421
▁ordina	-12422
▁nr	-12423
▁450	-12424
▁duty	-12425
iveness	-12426
▁telaio	-12427
▁collegato	-12428
▁vouch	-12429
▁rilassarsi	-12430
▁merito	-12431
▁archbishop	-12432
▁deluxe	-12433
▁instantly	-12434
▁treated	-12435
▁destinati	-12436
vola	-12437
olla	-12438
▁sagra	-12439
▁selva	-12440
plan	-12441
▁bush	-12442
▁seats	-12443
▁veri	-12444
▁rises	-12445
▁tonnellate	-12446
▁ospedale	-12447
▁trovati	-12448
▁discounts	-12449
mmo	-12450
▁apparen	-12451
▁lakes	-12452
▁finitura	-12453
▁itinerari	-12454
▁leadership	-12455
▁ner	-12456
▁gp	-12457
▁cif	-12458
▁nederlands	-12459
sm	-12460
-16	-12461
▁mosè	-12462
▁jesolo	-12463
▁calz	-12464
omar	-12465
wer	-12466
▁sculpture	-12467
eland	-12468
▁fathers	-12469
▁telecom	-12470
▁continuing	-12471
▁spray	-12472
▁stretch	-12473
▁vote	-12474
▁nou	-12475
▁autumn	-12476
▁ispirazione	-12477
dist	-12478
▁alcohol	-12479
▁webcams	-12480
▁sorgente	-12481
▁caratterizzato	-12482
▁impost	-12483
aming	-12484
▁incantevole	-12485
pti	-12486
▁increasingly	-12487
▁conti	-12488
▁perpet	-12489
ruzzo	-12490
▁transmission	-12491
▁relationships	-12492
▁controlli	-12493
▁diffus	-12494
▁topics	-12495
mn	-12496
lina	-12497
▁comunicare	-12498
▁sforzi	-12499
▁superare	-12500
▁appeared	-12501
mus	-12502
200	-12503
▁71	-12504
oce	-12505
▁revealed	-12506
▁monica	-12507
▁carro	-12508
▁parma	-12509
▁pronti	-12510
▁limite	-12511
avar	-12512
▁kid	-12513
▁guido	-12514
▁trips	-12515
▁metter	-12516
▁occupati	-12517
▁proof	-12518
▁hook	-12519
▁sottile	-12520
tima	-12521
▁signora	-12522
▁component	-12523
uan	-12524
▁ble	-12525
▁fatte	-12526
acchi	-12527
▁sir	-12528
▁vorrei	-12529
▁serata	-12530
▁incontrare	-12531
▁falls	-12532
▁giuda	-12533
▁shanghai	-12534
sharing	-12535
▁fornitura	-12536
▁ron	-12537
▁musicali	-12538
aneamente	-12539
arte	-12540
▁subjects	-12541
▁mediocre	-12542
vra	-12543
▁modelle	-12544
▁accettare	-12545
▁sandy	-12546
▁bull	-12547
▁manca	-12548
▁luxuri	-12549
▁cattolici	-12550
▁trag	-12551
▁turb	-12552
▁calcol	-12553
▁coperto	-12554
▁turning	-12555
▁dipinti	-12556
igl	-12557
▁acknow	-12558
▁guitar	-12559
don	-12560
▁lamps	-12561
▁mostrato	-12562
▁quotidiana	-12563
▁sample	-12564
▁vigneti	-12565
▁87	-12566
▁submitted	-12567
▁explain	-12568
▁segreto	-12569
▁profumo	-12570
▁confortevoli	-12571
ussy	-12572
▁operate	-12573
▁www	-12574
redd	-12575
▁cran	-12576
▁feast	-12577
▁addir	-12578
▁marito	-12579
▁fabbr	-12580
▁bart	-12581
▁solidarietà	-12582
▁towels	-12583
▁oliva	-12584
▁stras	-12585
▁neck	-12586
▁passengers	-12587
▁eterna	-12588
▁istante	-12589
▁ricor	-12590
▁styles	-12591
▁essenziali	-12592
▁limits	-12593
▁coltello	-12594
▁compresa	-12595
▁legs	-12596
▁carità	-12597
▁attuali	-12598
▁tournament	-12599
enzo	-12600
▁escape	-12601
▁parallel	-12602
▁sarete	-12603
-06	-12604
▁lega	-12605
▁hers	-12606
▁autoc	-12607
▁dm	-12608
▁rumore	-12609
▁3.	-12610
▁recognize	-12611
▁restore	-12612
▁morto	-12613
▁nicola	-12614
arra	-12615
evano	-12616
▁utensili	-12617
▁addirittura	-12618
▁transmitted	-12619
▁trapani	-12620
▁tutela	-12621
▁neo	-12622
ogene	-12623
▁lesbian	-12624
▁ebbe	-12625
▁issued	-12626
▁myster	-12627
▁applicare	-12628
▁lang	-12629
▁margher	-12630
▁accessibile	-12631
commer	-12632
osu	-12633
▁inevit	-12634
▁duro	-12635
▁crema	-12636
▁serving	-12637
▁conflict	-12638
▁radic	-12639
47	-12640
▁93	-12641
▁monter	-12642
orato	-12643
▁romp	-12644
▁intratten	-12645
▁supplied	-12646
going	-12647
▁legit	-12648
▁fec	-12649
iber	-12650
▁liver	-12651
▁amazon	-12652
▁latino	-12653
▁tendenza	-12654
▁galaxy	-12655
▁97	-12656
unes	-12657
▁cani	-12658
▁birds	-12659
▁sorprend	-12660
▁diseases	-12661
▁preferred	-12662
anova	-12663
▁voto	-12664
▁conoscenze	-12665
advisor	-12666
▁sicuri	-12667
taggi	-12668
▁trattati	-12669
▁toy	-12670
americ	-12671
▁spunti	-12672
break	-12673
▁reag	-12674
▁filters	-12675
▁resistant	-12676
▁cooperazione	-12677
▁ultimate	-12678
▁secco	-12679
▁sufficienti	-12680
▁ritiro	-12681
▁directed	-12682
▁sharp	-12683
▁ibis	-12684
▁ungher	-12685
▁traveller	-12686
▁spoke	-12687
▁comprend	-12688
▁dimostrato	-12689
▁serbia	-12690
▁conduce	-12691
▁rimuo	-12692
▁regolamento	-12693
▁contained	-12694
▁comprehensive	-12695
▁115	-12696
▁brow	-12697
▁foods	-12698
▁maker	-12699
▁assieme	-12700
▁norma	-12701
cost	-12702
▁turns	-12703
▁entrust	-12704
▁housing	-12705
▁ceiling	-12706
enon	-12707
▁solarium	-12708
▁dischi	-12709
asta	-12710
▁senior	-12711
▁24-	-12712
▁summit	-12713
▁prince	-12714
▁penetration	-12715
arc	-12716
essione	-12717
ciuto	-12718
▁divisione	-12719
▁gathered	-12720
ività	-12721
▁plays	-12722
rants	-12723
▁jord	-12724
▁dicono	-12725
▁prospettiva	-12726
▁altrettanto	-12727
▁gour	-12728
▁cotta	-12729
▁avan	-12730
eper	-12731
▁sfide	-12732
▁attivi	-12733
▁peggio	-12734
▁crime	-12735
▁courage	-12736
▁bandiera	-12737
▁sophistic	-12738
▁restoration	-12739
▁svolgere	-12740
▁buyer	-12741
▁mattino	-12742
▁radical	-12743
▁skype	-12744
▁produces	-12745
▁armonia	-12746
▁agre	-12747
▁incredible	-12748
▁sovere	-12749
▁verdura	-12750
sex	-12751
▁advertisement	-12752
▁riposo	-12753
gb	-12754
▁dital	-12755
▁vapore	-12756
▁salotto	-12757
▁3.5	-12758
▁cim	-12759
▁parchi	-12760
▁pied	-12761
▁adding	-12762
▁incorre	-12763
▁newly	-12764
▁classification	-12765
▁productive	-12766
▁brass	-12767
▁emir	-12768
▁pesc	-12769
▁folder	-12770
▁propag	-12771
▁stadio	-12772
▁handling	-12773
▁proclaim	-12774
esome	-12775
▁controls	-12776
▁etichetta	-12777
▁consulenza	-12778
▁stylish	-12779
ugn	-12780
▁manifestazioni	-12781
▁glut	-12782
ondere	-12783
▁intellectual	-12784
▁representative	-12785
▁rivest	-12786
▁attacchi	-12787
▁pisto	-12788
▁turkish	-12789
▁pg	-12790
▁individuale	-12791
▁functionality	-12792
urali	-12793
▁esport	-12794
▁converted	-12795
▁hide	-12796
▁internation	-12797
▁sostenibile	-12798
▁opinions	-12799
▁preparare	-12800
▁dreams	-12801
▁misteri	-12802
▁difficulty	-12803
▁frequenti	-12804
▁remaining	-12805
▁juli	-12806
atoria	-12807
▁arredo	-12808
▁cuori	-12809
▁guides	-12810
▁sovereign	-12811
▁integr	-12812
▁aggiuntivi	-12813
aked	-12814
▁fossero	-12815
88	-12816
▁scoperto	-12817
▁preferenze	-12818
▁portogallo	-12819
▁stages	-12820
avo	-12821
▁bmw	-12822
▁gad	-12823
uminum	-12824
▁sedi	-12825
▁rifiut	-12826
▁competitive	-12827
aland	-12828
ifying	-12829
▁ruota	-12830
▁dioces	-12831
▁intervista	-12832
▁anagra	-12833
▁myth	-12834
▁padri	-12835
▁len	-12836
▁pert	-12837
▁dignity	-12838
▁tracks	-12839
▁giornate	-12840
▁normalmente	-12841
from	-12842
▁enjoyed	-12843
▁organisation	-12844
▁bold	-12845
▁molta	-12846
▁machin	-12847
▁successiva	-12848
▁allont	-12849
▁symptoms	-12850
▁civiltà	-12851
▁affair	-12852
▁ristrutturato	-12853
▁effettuato	-12854
odes	-12855
▁holder	-12856
▁polish	-12857
▁ray	-12858
▁deserto	-12859
▁imagine	-12860
▁performances	-12861
nica	-12862
ipedia	-12863
▁importo	-12864
▁monet	-12865
▁powder	-12866
▁ulteriormente	-12867
▁anteriore	-12868
▁rs	-12869
▁vissuto	-12870
▁realize	-12871
▁aumenta	-12872
▁doctrine	-12873
itarie	-12874
▁personality	-12875
lesi	-12876
▁lana	-12877
▁tant	-12878
▁anello	-12879
▁divenne	-12880
▁riconoscere	-12881
▁inserzionisti	-12882
▁mush	-12883
cche	-12884
▁neighborhoods	-12885
▁perse	-12886
▁turchia	-12887
▁alcol	-12888
▁immagin	-12889
▁bench	-12890
▁trovate	-12891
▁rar	-12892
▁practices	-12893
olarità	-12894
▁morale	-12895
▁segnale	-12896
vah	-12897
▁prede	-12898
▁protetto	-12899
market	-12900
▁componente	-12901
▁atteggiamento	-12902
▁camion	-12903
▁flessibile	-12904
▁4.5	-12905
▁incorrect	-12906
▁proi	-12907
▁louis	-12908
▁possibilities	-12909
▁inghil	-12910
▁certification	-12911
▁decree	-12912
▁bringing	-12913
▁explains	-12914
ahili	-12915
▁monitoraggio	-12916
▁harvest	-12917
▁artificial	-12918
▁musul	-12919
▁92	-12920
▁monol	-12921
▁ergonom	-12922
▁producers	-12923
ulating	-12924
▁giuli	-12925
▁sezioni	-12926
▁aspir	-12927
amani	-12928
▁dess	-12929
▁recre	-12930
▁abund	-12931
▁procedures	-12932
▁hence	-12933
▁vess	-12934
▁comincia	-12935
▁perspective	-12936
click	-12937
▁discovery	-12938
emplo	-12939
▁lucia	-12940
▁83	-12941
▁ended	-12942
▁keys	-12943
▁wikipedia	-12944
▁crescente	-12945
▁peculi	-12946
▁prophet	-12947
▁circle	-12948
▁atm	-12949
houses	-12950
▁espl	-12951
▁rifugi	-12952
▁mins	-12953
▁teams	-12954
▁arrivano	-12955
▁neon	-12956
▁athlet	-12957
▁brillante	-12958
▁stability	-12959
▁beta	-12960
▁quadrante	-12961
▁tracci	-12962
onesi	-12963
kin	-12964
endi	-12965
▁yun	-12966
▁chitar	-12967
osity	-12968
chester	-12969
▁dwell	-12970
illing	-12971
▁sheep	-12972
▁compound	-12973
▁creativity	-12974
▁romagna	-12975
▁centers	-12976
▁appointment	-12977
▁anime	-12978
▁inher	-12979
orous	-12980
▁monastero	-12981
▁basi	-12982
▁cellul	-12983
▁dignità	-12984
▁fiat	-12985
▁ideali	-12986
▁operator	-12987
▁carav	-12988
uit	-12989
arto	-12990
▁shock	-12991
▁confront	-12992
▁buenos	-12993
▁bere	-12994
▁encoura	-12995
▁bruno	-12996
▁stated	-12997
▁entità	-12998
ogne	-12999
▁segnali	-13000
▁pasti	-13001
▁difficulties	-13002
tori	-13003
▁masc	-13004
▁ale	-13005
▁compresi	-13006
▁boschi	-13007
hand	-13008
▁restrict	-13009
▁protot	-13010
uele	-13011
▁browsing	-13012
▁ditalini	-13013
.90	-13014
▁minori	-13015
▁conduct	-13016
▁pierre	-13017
▁reconst	-13018
▁orthodox	-13019
▁renaissance	-13020
eriali	-13021
▁surfaces	-13022
▁colombia	-13023
▁alps	-13024
▁sailing	-13025
▁hosting	-13026
▁associati	-13027
▁metabol	-13028
▁glor	-13029
▁81	-13030
▁spark	-13031
▁sanct	-13032
▁possiede	-13033
▁marx	-13034
▁aires	-13035
▁colti	-13036
▁aggiunge	-13037
neys	-13038
mila	-13039
▁conced	-13040
▁helped	-13041
▁anziani	-13042
▁agricola	-13043
▁elaborazione	-13044
▁legati	-13045
▁downtown	-13046
▁usi	-13047
▁grazi	-13048
▁encl	-13049
▁authors	-13050
▁fium	-13051
▁rss	-13052
▁etern	-13053
▁inghilterra	-13054
▁tripadvisor	-13055
▁serb	-13056
▁sacro	-13057
▁courty	-13058
▁leone	-13059
▁orizzont	-13060
▁diocesi	-13061
▁creatività	-13062
ik	-13063
▁ry	-13064
▁admire	-13065
upp	-13066
▁beha	-13067
▁riflessione	-13068
▁autostrada	-13069
▁focused	-13070
▁scritta	-13071
tieri	-13072
▁laid	-13073
▁consumatori	-13074
▁ipod	-13075
▁kiss	-13076
▁silenzi	-13077
▁verticale	-13078
isia	-13079
▁uniform	-13080
▁esamin	-13081
▁recognition	-13082
▁rilassante	-13083
▁hyper	-13084
▁lifestyle	-13085
atz	-13086
▁pst	-13087
▁plain	-13088
▁cannabis	-13089
▁surprise	-13090
▁stir	-13091
acqu	-13092
▁sofia	-13093
▁couples	-13094
▁naturally	-13095
▁sensor	-13096
eck	-13097
illon	-13098
▁bert	-13099
▁electro	-13100
▁quadrato	-13101
▁trasport	-13102
▁alive	-13103
▁supporta	-13104
▁riceve	-13105
▁alimenti	-13106
▁originally	-13107
▁cartella	-13108
▁stays	-13109
itando	-13110
▁230	-13111
▁motorcy	-13112
▁explorer	-13113
▁operators	-13114
oda	-13115
▁renowned	-13116
▁esprime	-13117
▁discussion	-13118
▁enthusi	-13119
▁produttivo	-13120
▁credere	-13121
▁sectors	-13122
▁missionary	-13123
▁nearest	-13124
ark	-13125
▁involve	-13126
etiche	-13127
▁creator	-13128
urse	-13129
▁stuff	-13130
▁horizont	-13131
▁angels	-13132
unds	-13133
▁risponde	-13134
urf	-13135
▁sintomi	-13136
▁contamin	-13137
vegli	-13138
▁ombra	-13139
ee	-13140
▁wool	-13141
▁finance	-13142
▁paraf	-13143
▁divin	-13144
▁persi	-13145
▁corona	-13146
▁attempt	-13147
▁pene	-13148
▁sponsored	-13149
▁giri	-13150
▁osservare	-13151
onic	-13152
▁agriturismi	-13153
▁classified	-13154
▁farsi	-13155
▁folk	-13156
▁dogs	-13157
▁accred	-13158
▁chiamati	-13159
tagna	-13160
▁forniti	-13161
▁limitato	-13162
▁domini	-13163
▁propor	-13164
▁cing	-13165
▁decorative	-13166
▁viva	-13167
▁ker	-13168
▁loves	-13169
tec	-13170
▁improvement	-13171
exe	-13172
▁kilometres	-13173
▁argomenti	-13174
▁broken	-13175
▁flora	-13176
▁appeal	-13177
▁ettari	-13178
▁aluminum	-13179
landese	-13180
▁correctly	-13181
▁alloggiare	-13182
▁killed	-13183
▁intellett	-13184
▁periodi	-13185
▁league	-13186
▁domani	-13187
ego	-13188
▁dna	-13189
▁avvio	-13190
▁altare	-13191
accio	-13192
▁finito	-13193
▁congresso	-13194
.19	-13195
alm	-13196
▁bimbi	-13197
▁carto	-13198
▁astronom	-13199
▁erotiche	-13200
▁zen	-13201
▁quadri	-13202
ampa	-13203
arre	-13204
commerce	-13205
▁submit	-13206
▁increment	-13207
▁reflection	-13208
▁simon	-13209
▁bicchi	-13210
▁headquar	-13211
▁2,5	-13212
▁bure	-13213
▁picturesque	-13214
▁discrimin	-13215
▁precedentemente	-13216
▁inserendo	-13217
▁freezer	-13218
kind	-13219
bert	-13220
onne	-13221
▁declared	-13222
▁raise	-13223
▁yoga	-13224
▁terrac	-13225
▁volunte	-13226
▁pvc	-13227
▁avanguard	-13228
▁stabilità	-13229
▁surely	-13230
▁comodità	-13231
▁ascolto	-13232
conn	-13233
ografia	-13234
▁suggested	-13235
▁gloss	-13236
▁cittadina	-13237
▁roads	-13238
▁contrassegnate	-13239
▁abu	-13240
▁alleg	-13241
▁supreme	-13242
▁empire	-13243
▁ambasci	-13244
enamente	-13245
▁expensive	-13246
ecchi	-13247
▁forming	-13248
▁maggioranza	-13249
▁kitchenette	-13250
▁deriva	-13251
▁conclusione	-13252
▁moduli	-13253
▁palestra	-13254
▁ei	-13255
cat	-13256
▁ordered	-13257
▁origini	-13258
▁prossimi	-13259
▁tocco	-13260
▁jehovah	-13261
▁meal	-13262
master	-13263
▁1.0	-13264
▁hors	-13265
▁paesaggi	-13266
▁anavar	-13267
▁martino	-13268
▁sou	-13269
▁tile	-13270
▁festivals	-13271
▁geographical	-13272
uer	-13273
otive	-13274
dri	-13275
▁lesb	-13276
orian	-13277
▁canad	-13278
▁studied	-13279
▁distributed	-13280
ax	-13281
▁dizionario	-13282
▁patterns	-13283
▁abitabile	-13284
english	-13285
▁telesc	-13286
eschi	-13287
▁farmacie	-13288
▁selezionati	-13289
iezione	-13290
▁normali	-13291
▁ricordi	-13292
▁entitled	-13293
▁permettere	-13294
▁pocket	-13295
▁unusual	-13296
▁vito	-13297
▁socio	-13298
▁vicenza	-13299
▁advertisers	-13300
▁disturb	-13301
▁fountain	-13302
▁parent	-13303
▁vediamo	-13304
aman	-13305
▁tested	-13306
etra	-13307
▁bidet	-13308
yon	-13309
▁dutch	-13310
▁increases	-13311
▁fantastico	-13312
▁attre	-13313
▁forests	-13314
▁diving	-13315
▁affront	-13316
▁reject	-13317
▁recipes	-13318
▁stabile	-13319
▁powers	-13320
▁showed	-13321
▁braccio	-13322
▁hole	-13323
▁screw	-13324
theless	-13325
▁raggiungibile	-13326
▁implementation	-13327
▁implic	-13328
▁lisbon	-13329
▁venga	-13330
▁pensieri	-13331
▁helping	-13332
▁raffredd	-13333
▁agenti	-13334
▁incon	-13335
▁determine	-13336
tr	-13337
isto	-13338
▁signor	-13339
▁bionda	-13340
.15	-13341
▁agencies	-13342
▁piemonte	-13343
▁viste	-13344
itarian	-13345
unit	-13346
ppers	-13347
gan	-13348
▁uccelli	-13349
▁grosseto	-13350
▁certificazione	-13351
imenti	-13352
▁riguardanti	-13353
▁calling	-13354
▁spy	-13355
▁limitata	-13356
-09	-13357
▁righ	-13358
▁shot	-13359
▁graphic	-13360
▁frazione	-13361
▁canto	-13362
▁knowing	-13363
▁omega	-13364
▁sopravviv	-13365
▁row	-13366
▁brid	-13367
stone	-13368
olas	-13369
tered	-13370
▁complessiva	-13371
▁gode	-13372
▁apostle	-13373
▁tex	-13374
▁answered	-13375
ighter	-13376
▁boost	-13377
eline	-13378
▁leggera	-13379
▁materie	-13380
▁finds	-13381
▁creature	-13382
▁formal	-13383
▁discre	-13384
▁adopted	-13385
▁utility	-13386
▁invite	-13387
ulator	-13388
▁adibiti	-13389
▁adam	-13390
▁patio	-13391
▁evaluation	-13392
▁kne	-13393
▁moneta	-13394
irl	-13395
▁jaco	-13396
▁farmaci	-13397
▁pericolo	-13398
▁meals	-13399
▁spalle	-13400
▁flavo	-13401
▁3000	-13402
▁kings	-13403
▁faccio	-13404
▁aroma	-13405
▁giocattoli	-13406
▁cioccolato	-13407
ulin	-13408
mone	-13409
▁clip	-13410
ulg	-13411
qui	-13412
▁tramon	-13413
party	-13414
imità	-13415
▁collega	-13416
orough	-13417
▁cara	-13418
coming	-13419
▁regal	-13420
▁ceremony	-13421
▁therapy	-13422
▁effettivamente	-13423
▁elis	-13424
▁ragazzo	-13425
▁theater	-13426
▁casual	-13427
▁dublin	-13428
▁immobile	-13429
▁environments	-13430
bri	-13431
inger	-13432
▁buck	-13433
▁architects	-13434
▁margherita	-13435
▁135	-13436
▁sne	-13437
▁meravigliosa	-13438
▁pronta	-13439
aceut	-13440
▁sentieri	-13441
▁succeed	-13442
terior	-13443
ruttore	-13444
▁everywhere	-13445
▁von	-13446
▁considerare	-13447
▁proposto	-13448
aloni	-13449
▁fibra	-13450
▁torri	-13451
▁esib	-13452
mic	-13453
xxx	-13454
▁congi	-13455
▁consentire	-13456
▁religiose	-13457
▁castigl	-13458
▁looked	-13459
▁gimignano	-13460
encies	-13461
▁holland	-13462
▁assoluto	-13463
▁incid	-13464
▁1.4	-13465
mble	-13466
▁sacrament	-13467
▁differences	-13468
▁sail	-13469
▁relativamente	-13470
▁unifor	-13471
▁circumstances	-13472
etture	-13473
▁blocks	-13474
▁rivers	-13475
▁saul	-13476
▁browse	-13477
▁qualific	-13478
▁souls	-13479
▁175	-13480
piece	-13481
▁rilie	-13482
▁agenzie	-13483
▁obviously	-13484
▁grape	-13485
▁corrispondente	-13486
orrow	-13487
▁tracce	-13488
▁ez	-13489
▁tubi	-13490
▁brevi	-13491
▁mandato	-13492
▁lodge	-13493
▁panama	-13494
▁corrispondenza	-13495
▁enchant	-13496
▁gallerie	-13497
mmeno	-13498
▁irrig	-13499
▁arredate	-13500
▁learned	-13501
ilder	-13502
▁anatom	-13503
▁compliance	-13504
▁pip	-13505
▁sensitive	-13506
dle	-13507
▁inferi	-13508
▁fern	-13509
▁abbra	-13510
▁belonging	-13511
▁ricchi	-13512
▁luxurious	-13513
▁spettacoli	-13514
▁ridotto	-13515
▁nemici	-13516
▁scrive	-13517
▁tul	-13518
▁diventano	-13519
▁scrivi	-13520
▁furnishings	-13521
▁preghiamo	-13522
▁nemmeno	-13523
▁carrying	-13524
▁raccolti	-13525
▁pools	-13526
▁stil	-13527
▁diab	-13528
▁shares	-13529
▁maschio	-13530
▁xv	-13531
▁expansion	-13532
▁polonia	-13533
▁venetian	-13534
store	-13535
hem	-13536
▁assenza	-13537
▁giulia	-13538
▁realizzate	-13539
▁trattato	-13540
▁combine	-13541
▁entries	-13542
▁mineral	-13543
▁nevertheless	-13544
▁column	-13545
▁generate	-13546
▁conformità	-13547
▁taver	-13548
▁pleasing	-13549
▁contad	-13550
▁fram	-13551
▁habitat	-13552
▁utilizzano	-13553
▁embed	-13554
▁pregn	-13555
▁laurea	-13556
hu	-13557
▁vr	-13558
▁leop	-13559
▁brilli	-13560
▁amministratore	-13561
▁appos	-13562
▁pleased	-13563
▁pilgrim	-13564
▁affidabilità	-13565
▁gine	-13566
▁rinom	-13567
▁scarico	-13568
▁difficili	-13569
▁irreg	-13570
▁infl	-13571
▁banner	-13572
▁mobil	-13573
▁sepol	-13574
▁tomorrow	-13575
▁celebrazione	-13576
▁binary	-13577
▁righteous	-13578
issione	-13579
▁attacks	-13580
▁privilegi	-13581
▁bever	-13582
▁flour	-13583
tempo	-13584
▁vell	-13585
▁fresca	-13586
▁winner	-13587
▁faces	-13588
▁producing	-13589
▁tam	-13590
▁sleeping	-13591
▁chio	-13592
▁gang	-13593
▁organised	-13594
▁agents	-13595
▁businesses	-13596
▁omaggio	-13597
▁esperto	-13598
▁tie	-13599
▁profumi	-13600
▁sie	-13601
▁neighbour	-13602
▁trucco	-13603
▁manufactured	-13604
▁emergenza	-13605
bell	-13606
▁extract	-13607
gas	-13608
▁palma	-13609
▁tavoli	-13610
▁composit	-13611
▁permiss	-13612
▁conclus	-13613
rings	-13614
▁sesto	-13615
▁triple	-13616
▁engage	-13617
▁sweden	-13618
▁worry	-13619
▁basata	-13620
▁shift	-13621
nico	-13622
▁intelligente	-13623
▁reward	-13624
inali	-13625
▁ipad	-13626
▁adobe	-13627
▁protagonista	-13628
▁assicurare	-13629
stel	-13630
▁automobile	-13631
▁cerimonia	-13632
▁displays	-13633
▁generator	-13634
▁101	-13635
▁gambe	-13636
▁scad	-13637
▁discut	-13638
▁pienamente	-13639
▁eating	-13640
▁machinery	-13641
rene	-13642
▁pharm	-13643
.200	-13644
▁noble	-13645
▁funzionale	-13646
▁luminoso	-13647
mel	-13648
▁fortemente	-13649
▁poverty	-13650
▁attached	-13651
▁politics	-13652
▁shut	-13653
▁ensures	-13654
▁uva	-13655
▁annunciato	-13656
▁parquet	-13657
kov	-13658
▁industrie	-13659
atar	-13660
▁innumere	-13661
lav	-13662
▁sportivi	-13663
▁emozioni	-13664
▁profeta	-13665
▁contempl	-13666
▁esistenti	-13667
▁finché	-13668
▁canzone	-13669
▁literature	-13670
apor	-13671
▁speech	-13672
▁odi	-13673
▁comunicazioni	-13674
▁plas	-13675
▁viola	-13676
▁dando	-13677
cerca	-13678
▁thirty	-13679
▁ves	-13680
ups	-13681
▁keyboard	-13682
▁roses	-13683
▁ballo	-13684
▁copper	-13685
▁campionato	-13686
▁ford	-13687
▁avranno	-13688
zant	-13689
▁esempl	-13690
▁homepage	-13691
apeut	-13692
▁preserved	-13693
▁fattore	-13694
▁produt	-13695
astiche	-13696
▁foro	-13697
▁rimozione	-13698
▁interven	-13699
illes	-13700
gets	-13701
itiva	-13702
▁buses	-13703
▁ceo	-13704
▁prenotato	-13705
▁debole	-13706
▁ufficiali	-13707
▁ego	-13708
▁referred	-13709
fig	-13710
----	-13711
holders	-13712
▁eccezione	-13713
▁landscapes	-13714
ivesco	-13715
▁strongly	-13716
▁workshops	-13717
▁energetico	-13718
▁ravenna	-13719
▁240	-13720
▁wholes	-13721
▁decisions	-13722
▁fumare	-13723
▁parro	-13724
▁chrom	-13725
▁primarily	-13726
▁taught	-13727
▁garantiscono	-13728
▁assoluta	-13729
▁api	-13730
▁seduta	-13731
teau	-13732
▁tener	-13733
▁portugu	-13734
▁interpretation	-13735
▁interpretazione	-13736
▁pussy	-13737
▁sake	-13738
▁hal	-13739
there	-13740
▁lampade	-13741
▁kern	-13742
▁proposal	-13743
arese	-13744
iders	-13745
▁grown	-13746
▁brush	-13747
▁tiene	-13748
▁guarantees	-13749
acque	-13750
▁specialized	-13751
▁hu	-13752
▁seminario	-13753
▁fenomeno	-13754
▁arcivesco	-13755
aration	-13756
▁agricoltura	-13757
▁isl	-13758
▁repeated	-13759
▁considering	-13760
▁funghi	-13761
itudini	-13762
▁negoti	-13763
▁erba	-13764
▁ki	-13765
vier	-13766
▁sarebbero	-13767
▁satisfied	-13768
▁proposals	-13769
▁prescri	-13770
▁vm	-13771
▁dick	-13772
▁considera	-13773
enh	-13774
▁locanda	-13775
▁contribuire	-13776
while	-13777
▁bren	-13778
▁silk	-13779
zel	-13780
▁ecos	-13781
being	-13782
▁assor	-13783
▁captain	-13784
▁rispett	-13785
▁overcome	-13786
▁impon	-13787
▁modena	-13788
▁praticamente	-13789
onesia	-13790
▁stris	-13791
▁cavali	-13792
▁sno	-13793
lus	-13794
▁nova	-13795
▁preferences	-13796
▁completare	-13797
▁sli	-13798
▁estende	-13799
▁inch	-13800
▁terrà	-13801
▁roccia	-13802
▁pole	-13803
▁conosciuta	-13804
▁accordingly	-13805
matico	-13806
▁slots	-13807
add	-13808
▁promuo	-13809
▁emphasi	-13810
▁segnala	-13811
▁richard	-13812
sl	-13813
▁1988	-13814
▁pharmacies	-13815
▁ward	-13816
▁stampare	-13817
▁sophisticated	-13818
▁wishes	-13819
ruption	-13820
▁clubs	-13821
isso	-13822
▁harmon	-13823
▁drives	-13824
▁usufruire	-13825
lock	-13826
▁panoram	-13827
▁cresc	-13828
▁pavia	-13829
▁usata	-13830
▁labour	-13831
relle	-13832
▁belt	-13833
▁revelation	-13834
▁flavors	-13835
nat	-13836
cal	-13837
▁tasks	-13838
▁invas	-13839
▁zucchero	-13840
▁reader	-13841
▁appreciate	-13842
▁innumerevoli	-13843
▁receiving	-13844
▁burning	-13845
▁elettro	-13846
▁interact	-13847
▁credits	-13848
▁belo	-13849
nap	-13850
▁married	-13851
▁decades	-13852
▁tassa	-13853
▁risparmi	-13854
▁earn	-13855
▁sev	-13856
▁periods	-13857
▁unici	-13858
▁energie	-13859
▁programmazione	-13860
▁suoni	-13861
▁generated	-13862
▁choices	-13863
▁tob	-13864
itis	-13865
▁frigo	-13866
▁essence	-13867
working	-13868
▁multimedi	-13869
▁congregazione	-13870
ellino	-13871
▁erbe	-13872
▁spos	-13873
▁embra	-13874
▁organize	-13875
▁defense	-13876
▁plates	-13877
▁memorial	-13878
but	-13879
▁chiavi	-13880
▁risultavano	-13881
▁culto	-13882
▁giurid	-13883
▁tracking	-13884
icia	-13885
▁fidanz	-13886
▁cristian	-13887
▁impul	-13888
▁lussu	-13889
▁commemor	-13890
▁suggestions	-13891
▁splendide	-13892
▁attitude	-13893
▁conseguenze	-13894
▁andato	-13895
▁crede	-13896
▁importa	-13897
▁matching	-13898
▁planned	-13899
▁veranda	-13900
tività	-13901
▁closing	-13902
▁democratic	-13903
▁improvvis	-13904
▁torneo	-13905
tv	-13906
▁rides	-13907
▁personalizzati	-13908
▁anywhere	-13909
▁catch	-13910
▁espansione	-13911
▁tig	-13912
▁bytes	-13913
▁marm	-13914
▁juan	-13915
,20	-13916
▁generations	-13917
▁visitor	-13918
▁salesi	-13919
▁sheets	-13920
▁avanguardia	-13921
agog	-13922
▁mak	-13923
▁han	-13924
▁vegas	-13925
▁jacuzzi	-13926
▁critica	-13927
▁partite	-13928
▁replaced	-13929
▁boxes	-13930
▁tentativo	-13931
▁straordinario	-13932
olia	-13933
▁multiling	-13934
▁solitamente	-13935
oceania	-13936
▁courtyard	-13937
▁inossid	-13938
▁defend	-13939
▁destroy	-13940
please	-13941
▁margin	-13942
▁failure	-13943
▁allenamento	-13944
▁coraggio	-13945
▁modulor	-13946
▁surgery	-13947
▁reliability	-13948
▁strati	-13949
▁motors	-13950
oh	-13951
▁catanz	-13952
▁tariffa	-13953
▁cleaner	-13954
▁indimenticabile	-13955
▁levi	-13956
veri	-13957
▁atlet	-13958
▁differenze	-13959
▁indonesia	-13960
▁750	-13961
▁spazz	-13962
▁seeds	-13963
opi	-13964
kyo	-13965
▁citta	-13966
▁sensori	-13967
▁temporary	-13968
▁apoc	-13969
▁unemplo	-13970
▁quer	-13971
▁annull	-13972
▁terraces	-13973
inari	-13974
▁valve	-13975
▁ricetta	-13976
▁believed	-13977
▁warehouse	-13978
▁fifth	-13979
stre	-13980
▁sqm	-13981
▁calle	-13982
▁dimenticare	-13983
▁olbia	-13984
orsi	-13985
▁sms	-13986
▁sente	-13987
▁herself	-13988
▁diesel	-13989
▁processed	-13990
▁grotta	-13991
▁tropical	-13992
▁pistoia	-13993
▁forb	-13994
▁scambi	-13995
▁passeggiate	-13996
▁conflitto	-13997
▁intenzione	-13998
holm	-13999
▁ospit	-14000
▁encyclopedia	-14001
▁parc	-14002
▁handic	-14003
▁protein	-14004
▁joh	-14005
▁pilota	-14006
▁innovativo	-14007
▁speaks	-14008
▁unisce	-14009
▁communicate	-14010
▁considerata	-14011
▁retain	-14012
▁gaming	-14013
▁extend	-14014
▁acquisizione	-14015
ollo	-14016
▁attende	-14017
▁animazione	-14018
▁celebre	-14019
▁bun	-14020
▁closer	-14021
▁broch	-14022
▁transformed	-14023
ijing	-14024
▁murs	-14025
▁liguria	-14026
▁mask	-14027
▁griglia	-14028
▁prezz	-14029
▁segretario	-14030
▁wer	-14031
▁bottega	-14032
▁fondato	-14033
aped	-14034
▁lind	-14035
under	-14036
▁storiche	-14037
▁goth	-14038
▁dryer	-14039
▁serp	-14040
▁disoccup	-14041
▁mila	-14042
fying	-14043
▁flexibility	-14044
▁facciata	-14045
▁prender	-14046
▁definito	-14047
▁acquired	-14048
▁veter	-14049
▁seminari	-14050
▁rame	-14051
oniamo	-14052
▁indipendenti	-14053
▁91	-14054
teriori	-14055
▁ita	-14056
▁pensa	-14057
▁confrontare	-14058
▁riunione	-14059
▁assets	-14060
born	-14061
▁xix	-14062
▁confidence	-14063
▁cruise	-14064
▁measuring	-14065
▁viso	-14066
▁examin	-14067
▁bronze	-14068
▁sintesi	-14069
▁identified	-14070
▁accogliere	-14071
▁conclude	-14072
▁organis	-14073
thro	-14074
▁cultures	-14075
ggage	-14076
▁1,2	-14077
▁tyrol	-14078
▁creati	-14079
▁vibratore	-14080
▁stili	-14081
▁lut	-14082
▁worst	-14083
ologo	-14084
▁associare	-14085
▁penetrazione	-14086
▁fli	-14087
▁salta	-14088
▁highway	-14089
▁stabilito	-14090
▁seren	-14091
▁abito	-14092
▁broadcast	-14093
▁supporting	-14094
▁rigor	-14095
▁disposizioni	-14096
▁distante	-14097
▁movies	-14098
bourg	-14099
▁piac	-14100
▁origins	-14101
▁ciamp	-14102
▁bub	-14103
▁schedule	-14104
▁attent	-14105
▁voucher	-14106
-17	-14107
▁cavalli	-14108
▁covering	-14109
▁fortezza	-14110
▁suddiv	-14111
▁proseguire	-14112
▁congel	-14113
▁manufacture	-14114
▁wallpaper	-14115
▁mali	-14116
ste	-14117
▁yours	-14118
▁cuo	-14119
edo	-14120
▁exposed	-14121
▁estetica	-14122
▁massaggio	-14123
anbul	-14124
▁culla	-14125
▁interi	-14126
▁letteratura	-14127
▁legato	-14128
ilton	-14129
▁1960	-14130
▁persegu	-14131
▁lion	-14132
▁capsule	-14133
▁giù	-14134
▁friuli	-14135
▁drawn	-14136
sch	-14137
▁ricre	-14138
▁perif	-14139
▁artistica	-14140
▁compla	-14141
▁sacrifice	-14142
▁macro	-14143
▁idraul	-14144
▁agire	-14145
▁destruction	-14146
▁anagrafe	-14147
▁vald	-14148
▁searches	-14149
▁badia	-14150
▁nylon	-14151
▁brus	-14152
ggen	-14153
▁studios	-14154
▁divor	-14155
▁suspension	-14156
▁measurements	-14157
phy	-14158
▁dibatt	-14159
▁parameters	-14160
▁fiumicino	-14161
▁consapevolezza	-14162
▁richiedono	-14163
▁dico	-14164
▁volumi	-14165
▁fortress	-14166
gy	-14167
inous	-14168
▁relief	-14169
▁generazioni	-14170
kok	-14171
▁trasmesso	-14172
▁apparent	-14173
▁americani	-14174
▁notify	-14175
▁uova	-14176
▁rough	-14177
▁expertise	-14178
▁peru	-14179
▁accus	-14180
▁ease	-14181
▁confini	-14182
▁arres	-14183
▁andata	-14184
ilian	-14185
▁pittores	-14186
▁spiegato	-14187
▁plum	-14188
flow	-14189
▁holds	-14190
▁nastro	-14191
icano	-14192
▁mixt	-14193
▁jam	-14194
▁homec	-14195
▁computers	-14196
▁ricostru	-14197
▁ucra	-14198
▁michelangelo	-14199
▁cumshot	-14200
inum	-14201
▁drugs	-14202
▁militari	-14203
aba	-14204
▁lith	-14205
▁inossidabile	-14206
▁sfum	-14207
▁administrative	-14208
▁millenni	-14209
▁lect	-14210
▁summary	-14211
▁mensile	-14212
ulum	-14213
▁coniug	-14214
plus	-14215
osco	-14216
▁lancia	-14217
▁marks	-14218
▁accoglienti	-14219
amere	-14220
▁studente	-14221
▁besti	-14222
▁granted	-14223
▁portano	-14224
wind	-14225
▁xl	-14226
▁zur	-14227
▁determinato	-14228
▁debb	-14229
▁caduta	-14230
astri	-14231
▁discipline	-14232
adio	-14233
▁este	-14234
elve	-14235
▁jon	-14236
▁transformation	-14237
▁accettato	-14238
▁dynam	-14239
▁turno	-14240
▁baptism	-14241
▁combines	-14242
▁addresses	-14243
▁catanzaro	-14244
▁meccanica	-14245
▁stero	-14246
▁comunicato	-14247
atoes	-14248
▁concerts	-14249
▁salvati	-14250
▁intensi	-14251
▁races	-14252
enia	-14253
ortion	-14254
▁gorge	-14255
▁laghi	-14256
▁meant	-14257
▁guardando	-14258
▁servant	-14259
▁measurement	-14260
▁coat	-14261
▁sagrada	-14262
▁riconosciuto	-14263
cchio	-14264
▁stops	-14265
ettino	-14266
▁creativo	-14267
▁employment	-14268
▁presentati	-14269
▁ratings	-14270
▁yi	-14271
▁afgh	-14272
▁applicable	-14273
▁kir	-14274
▁cartier	-14275
▁divino	-14276
▁comunale	-14277
▁maxim	-14278
▁istanbul	-14279
▁ricette	-14280
▁justi	-14281
▁apposit	-14282
▁bav	-14283
▁jackpot	-14284
▁sportivo	-14285
▁gourmet	-14286
94	-14287
▁contemporaneo	-14288
▁schedules	-14289
▁doveva	-14290
▁piscine	-14291
▁anz	-14292
ales	-14293
▁prompt	-14294
▁santità	-14295
▁cinemato	-14296
▁desiderate	-14297
▁ritmo	-14298
▁insist	-14299
▁writer	-14300
▁mood	-14301
▁widely	-14302
▁pasc	-14303
▁alarm	-14304
▁tedesca	-14305
oring	-14306
▁abiti	-14307
prop	-14308
vive	-14309
▁prolung	-14310
▁sustainability	-14311
char	-14312
iour	-14313
▁strange	-14314
issi	-14315
▁morbido	-14316
▁beijing	-14317
▁promise	-14318
igra	-14319
▁mazz	-14320
▁valutare	-14321
▁scenes	-14322
▁centrali	-14323
▁ghiaccio	-14324
▁medica	-14325
▁paste	-14326
▁arrow	-14327
▁grip	-14328
ugu	-14329
▁1985	-14330
▁strategica	-14331
▁selecting	-14332
▁rispose	-14333
▁arredato	-14334
▁lets	-14335
▁brut	-14336
▁mursia	-14337
▁dipinto	-14338
zard	-14339
▁founder	-14340
▁separated	-14341
▁rius	-14342
▁modify	-14343
▁portf	-14344
▁refres	-14345
about	-14346
▁aesthetic	-14347
▁castelli	-14348
▁tann	-14349
▁appreciated	-14350
▁intervention	-14351
ptions	-14352
▁luggage	-14353
▁parlando	-14354
▁appositamente	-14355
.-	-14356
▁rf	-14357
date	-14358
rick	-14359
▁passando	-14360
▁exists	-14361
▁monop	-14362
▁sostanza	-14363
orca	-14364
▁laptop	-14365
▁kl	-14366
pin	-14367
▁bretagna	-14368
inea	-14369
▁minuto	-14370
▁putting	-14371
▁wolf	-14372
▁angeles	-14373
▁schiav	-14374
▁modules	-14375
▁cortese	-14376
oggia	-14377
▁behavior	-14378
▁rilascio	-14379
▁establishment	-14380
▁pioggia	-14381
▁specialist	-14382
▁bernard	-14383
▁chiedi	-14384
▁screens	-14385
▁progressive	-14386
tir	-14387
bona	-14388
▁expend	-14389
▁tunnel	-14390
erna	-14391
▁fascia	-14392
hua	-14393
▁notizia	-14394
▁pubbliche	-14395
▁cosi	-14396
▁gravi	-14397
▁flessibilità	-14398
▁deeply	-14399
▁cabina	-14400
▁celebr	-14401
▁weapons	-14402
acle	-14403
▁sapienza	-14404
▁automotive	-14405
▁lama	-14406
▁affairs	-14407
▁objectives	-14408
▁branches	-14409
▁darkness	-14410
▁vestiti	-14411
mini	-14412
eling	-14413
▁collegati	-14414
park	-14415
▁horses	-14416
▁classici	-14417
▁statunit	-14418
function	-14419
▁rhyth	-14420
aris	-14421
▁fals	-14422
ername	-14423
▁richiesti	-14424
▁riparare	-14425
▁hydraul	-14426
▁costituzione	-14427
relli	-14428
▁defe	-14429
▁arrivati	-14430
▁nail	-14431
▁tradotto	-14432
▁seguite	-14433
berto	-14434
▁generous	-14435
001	-14436
▁piastrelle	-14437
eriale	-14438
▁favourite	-14439
▁istria	-14440
▁decisioni	-14441
▁plot	-14442
▁apprendimento	-14443
▁possesso	-14444
92	-14445
andolo	-14446
▁forever	-14447
▁newspapers	-14448
▁drag	-14449
▁vegetable	-14450
▁savo	-14451
▁esprimere	-14452
▁pubblicazioni	-14453
ciale	-14454
▁lettori	-14455
▁consciousness	-14456
▁arbit	-14457
▁twelve	-14458
▁adriatic	-14459
▁facoltà	-14460
▁eug	-14461
▁moltepl	-14462
▁soggiornare	-14463
▁eigh	-14464
▁antique	-14465
▁svolta	-14466
▁nun	-14467
▁monumento	-14468
▁satan	-14469
▁ordinato	-14470
esy	-14471
▁throw	-14472
▁hans	-14473
▁consisting	-14474
▁profound	-14475
▁sanno	-14476
▁syria	-14477
▁modell	-14478
she	-14479
▁menzion	-14480
fiato	-14481
▁offrendo	-14482
▁silicone	-14483
tp	-14484
eca	-14485
▁abstra	-14486
▁staying	-14487
▁piede	-14488
rees	-14489
ficare	-14490
▁tendenze	-14491
▁cominciato	-14492
▁foreste	-14493
zone	-14494
▁immac	-14495
▁puerto	-14496
▁superb	-14497
▁guidare	-14498
▁councils	-14499
▁personalizzato	-14500
▁enemies	-14501
▁cottage	-14502
▁chose	-14503
▁skill	-14504
▁casella	-14505
▁danneggiato	-14506
▁attach	-14507
▁5.0	-14508
▁personalized	-14509
ethe	-14510
▁familia	-14511
▁inclusive	-14512
▁abbiano	-14513
▁personalmente	-14514
▁seri	-14515
▁charges	-14516
▁insol	-14517
▁1986	-14518
▁umane	-14519
iere	-14520
▁2020	-14521
▁resc	-14522
▁affres	-14523
▁aprir	-14524
▁extent	-14525
▁tokyo	-14526
▁tone	-14527
▁festi	-14528
urd	-14529
▁propose	-14530
▁caffe	-14531
▁enabled	-14532
▁tong	-14533
▁mestre	-14534
▁fried	-14535
▁toss	-14536
▁calde	-14537
▁varied	-14538
▁contenere	-14539
▁conducted	-14540
▁estrema	-14541
▁automation	-14542
▁0.0	-14543
▁consultare	-14544
▁miele	-14545
▁birthday	-14546
▁geneva	-14547
▁survey	-14548
▁brind	-14549
▁jewelry	-14550
▁procedere	-14551
▁aggiornati	-14552
▁sony	-14553
▁suolo	-14554
▁cb	-14555
▁modified	-14556
▁upload	-14557
▁emotions	-14558
ogna	-14559
▁accol	-14560
▁random	-14561
elia	-14562
▁analdin	-14563
▁efficacia	-14564
▁horizontal	-14565
▁belli	-14566
▁scher	-14567
▁supplemento	-14568
▁alg	-14569
▁consulta	-14570
▁regularly	-14571
▁plane	-14572
▁umidità	-14573
vieto	-14574
▁luxe	-14575
▁altitude	-14576
▁raggiun	-14577
ulder	-14578
▁merano	-14579
uba	-14580
▁capod	-14581
icked	-14582
▁rinasci	-14583
bach	-14584
▁agriculture	-14585
▁sitemap	-14586
▁ingi	-14587
▁immun	-14588
▁resa	-14589
ilst	-14590
▁degustazione	-14591
▁kor	-14592
▁facilità	-14593
▁funzionare	-14594
▁porteranno	-14595
▁url	-14596
▁concerns	-14597
▁sneak	-14598
▁aggreg	-14599
▁gor	-14600
colari	-14601
▁assicurarsi	-14602
▁consequences	-14603
▁funds	-14604
▁jacket	-14605
▁sensibili	-14606
,80	-14607
▁rect	-14608
▁principal	-14609
jack	-14610
▁traghetti	-14611
▁lezione	-14612
▁mobilità	-14613
123	-14614
vable	-14615
▁frutt	-14616
phones	-14617
▁sindac	-14618
▁esportazione	-14619
▁eppure	-14620
▁scorre	-14621
elines	-14622
▁jeans	-14623
▁gestito	-14624
▁enqu	-14625
▁servono	-14626
▁miami	-14627
▁invita	-14628
▁headquarters	-14629
▁resurrection	-14630
▁lavorando	-14631
▁profili	-14632
▁dante	-14633
▁trump	-14634
elago	-14635
hens	-14636
▁ramp	-14637
▁pratico	-14638
▁studiare	-14639
▁remarkable	-14640
▁talvolta	-14641
▁modular	-14642
▁hostal	-14643
▁colli	-14644
▁hes	-14645
▁cameras	-14646
▁reveals	-14647
▁souven	-14648
▁prezioso	-14649
▁sinonimo	-14650
icing	-14651
▁provisions	-14652
▁doppie	-14653
abilities	-14654
9,00	-14655
▁virtù	-14656
▁veniva	-14657
▁towers	-14658
▁campania	-14659
▁competenza	-14660
[...]
